<pad>	0
<unk>	0
<s>	0
</s>	0
<0x00>	0
<0x01>	0
<0x02>	0
<0x03>	0
<0x04>	0
<0x05>	0
<0x06>	0
<0x07>	0
<0x08>	0
<0x09>	0
<0x0A>	0
<0x0B>	0
<0x0C>	0
<0x0D>	0
<0x0E>	0
<0x0F>	0
<0x10>	0
<0x11>	0
<0x12>	0
<0x13>	0
<0x14>	0
<0x15>	0
<0x16>	0
<0x17>	0
<0x18>	0
<0x19>	0
<0x1A>	0
<0x1B>	0
<0x1C>	0
<0x1D>	0
<0x1E>	0
<0x1F>	0
<0x20>	0
<0x21>	0
<0x22>	0
<0x23>	0
<0x24>	0
<0x25>	0
<0x26>	0
<0x27>	0
<0x28>	0
<0x29>	0
<0x2A>	0
<0x2B>	0
<0x2C>	0
<0x2D>	0
<0x2E>	0
<0x2F>	0
<0x30>	0
<0x31>	0
<0x32>	0
<0x33>	0
<0x34>	0
<0x35>	0
<0x36>	0
<0x37>	0
<0x38>	0
<0x39>	0
<0x3A>	0
<0x3B>	0
<0x3C>	0
<0x3D>	0
<0x3E>	0
<0x3F>	0
<0x40>	0
<0x41>	0
<0x42>	0
<0x43>	0
<0x44>	0
<0x45>	0
<0x46>	0
<0x47>	0
<0x48>	0
<0x49>	0
<0x4A>	0
<0x4B>	0
<0x4C>	0
<0x4D>	0
<0x4E>	0
<0x4F>	0
<0x50>	0
<0x51>	0
<0x52>	0
<0x53>	0
<0x54>	0
<0x55>	0
<0x56>	0
<0x57>	0
<0x58>	0
<0x59>	0
<0x5A>	0
<0x5B>	0
<0x5C>	0
<0x5D>	0
<0x5E>	0
<0x5F>	0
<0x60>	0
<0x61>	0
<0x62>	0
<0x63>	0
<0x64>	0
<0x65>	0
<0x66>	0
<0x67>	0
<0x68>	0
<0x69>	0
<0x6A>	0
<0x6B>	0
<0x6C>	0
<0x6D>	0
<0x6E>	0
<0x6F>	0
<0x70>	0
<0x71>	0
<0x72>	0
<0x73>	0
<0x74>	0
<0x75>	0
<0x76>	0
<0x77>	0
<0x78>	0
<0x79>	0
<0x7A>	0
<0x7B>	0
<0x7C>	0
<0x7D>	0
<0x7E>	0
<0x7F>	0
<0x80>	0
<0x81>	0
<0x82>	0
<0x83>	0
<0x84>	0
<0x85>	0
<0x86>	0
<0x87>	0
<0x88>	0
<0x89>	0
<0x8A>	0
<0x8B>	0
<0x8C>	0
<0x8D>	0
<0x8E>	0
<0x8F>	0
<0x90>	0
<0x91>	0
<0x92>	0
<0x93>	0
<0x94>	0
<0x95>	0
<0x96>	0
<0x97>	0
<0x98>	0
<0x99>	0
<0x9A>	0
<0x9B>	0
<0x9C>	0
<0x9D>	0
<0x9E>	0
<0x9F>	0
<0xA0>	0
<0xA1>	0
<0xA2>	0
<0xA3>	0
<0xA4>	0
<0xA5>	0
<0xA6>	0
<0xA7>	0
<0xA8>	0
<0xA9>	0
<0xAA>	0
<0xAB>	0
<0xAC>	0
<0xAD>	0
<0xAE>	0
<0xAF>	0
<0xB0>	0
<0xB1>	0
<0xB2>	0
<0xB3>	0
<0xB4>	0
<0xB5>	0
<0xB6>	0
<0xB7>	0
<0xB8>	0
<0xB9>	0
<0xBA>	0
<0xBB>	0
<0xBC>	0
<0xBD>	0
<0xBE>	0
<0xBF>	0
<0xC0>	0
<0xC1>	0
<0xC2>	0
<0xC3>	0
<0xC4>	0
<0xC5>	0
<0xC6>	0
<0xC7>	0
<0xC8>	0
<0xC9>	0
<0xCA>	0
<0xCB>	0
<0xCC>	0
<0xCD>	0
<0xCE>	0
<0xCF>	0
<0xD0>	0
<0xD1>	0
<0xD2>	0
<0xD3>	0
<0xD4>	0
<0xD5>	0
<0xD6>	0
<0xD7>	0
<0xD8>	0
<0xD9>	0
<0xDA>	0
<0xDB>	0
<0xDC>	0
<0xDD>	0
<0xDE>	0
<0xDF>	0
<0xE0>	0
<0xE1>	0
<0xE2>	0
<0xE3>	0
<0xE4>	0
<0xE5>	0
<0xE6>	0
<0xE7>	0
<0xE8>	0
<0xE9>	0
<0xEA>	0
<0xEB>	0
<0xEC>	0
<0xED>	0
<0xEE>	0
<0xEF>	0
<0xF0>	0
<0xF1>	0
<0xF2>	0
<0xF3>	0
<0xF4>	0
<0xF5>	0
<0xF6>	0
<0xF7>	0
<0xF8>	0
<0xF9>	0
<0xFA>	0
<0xFB>	0
<0xFC>	0
<0xFD>	0
<0xFE>	0
<0xFF>	0
▁स	-0
को	-1
मा	-2
का	-3
र्	-4
▁प	-5
्र	-6
न्	-7
▁ग	-8
▁।	-9
ने	-10
ले	-11
▁र	-12
्य	-13
ला	-14
▁ब	-15
▁भ	-16
▁अ	-17
▁क	-18
▁ह	-19
▁व	-20
▁न	-21
ार	-22
▁छ	-23
▁त	-24
▁म	-25
▁द	-26
▁प्र	-27
▁ज	-28
स्	-29
▁आ	-30
ाल	-31
ति	-32
ता	-33
क्	-34
▁उ	-35
ना	-36
यो	-37
नि	-38
एको	-39
▁गर	-40
ान	-41
▁का	-42
▁वि	-43
▁गर्	-44
हर	-45
लाई	-46
त्र	-47
म्	-48
नु	-49
ेको	-50
वा	-51
▁य	-52
▁हु	-53
िक	-54
▁च	-55
था	-56
ित	-57
▁मा	-58
रा	-59
▁नि	-60
्या	-61
▁ख	-62
▁ल	-63
री	-64
▁रा	-65
▁ला	-66
▁ए	-67
या	-68
▁श	-69
▁थ	-70
न्द	-71
क्ष	-72
▁पनि	-73
त्	-74
▁ने	-75
ल्	-76
ेर	-77
▁सं	-78
▁स्	-79
▁सा	-80
पाल	-81
ेश	-82
बा	-83
▁सम	-84
हि	-85
▁दि	-86
ाउ	-87
हरु	-88
▁थि	-89
नी	-90
▁लाग	-91
ष्	-92
हा	-93
ुर	-94
दै	-95
ेका	-96
दा	-97
न्छ	-98
▁हो	-99
▁फ	-100
र्य	-101
एका	-102
रि	-103
▁भने	-104
▁त्य	-105
िका	-106
पा	-107
▁नेपाल	-108
बाट	-109
स्त	-110
▁छन्	-111
▁पा	-112
▁भएको	-113
हरू	-114
ाम	-115
▁१	-116
द्	-117
कार	-118
▁२	-119
न्त्र	-120
▁'	-121
▁के	-122
ेख	-123
क्र	-124
भा	-125
▁निर्	-126
▁रह	-127
वि	-128
ष्ट	-129
छि	-130
रण	-131
▁गरि	-132
▁लागि	-133
▁पु	-134
▁सम्	-135
▁घ	-136
▁कु	-137
ही	-138
्न	-139
▁गर्न	-140
लो	-141
सा	-142
▁गर्ने	-143
▁कार्य	-144
▁गरेको	-145
▁यो	-146
▁उन	-147
▁ध	-148
ेल	-149
▁ट	-150
ीय	-151
▁यस	-152
स्था	-153
गा	-154
▁सु	-155
र्ष	-156
न्त	-157
▁बा	-158
ारी	-159
देश	-160
▁एक	-161
▁अध	-162
▁आफ	-163
▁बता	-164
रो	-165
▁को	-166
▁व्य	-167
पर्	-168
्च	-169
▁थियो	-170
भि	-171
▁प्रति	-172
ीले	-173
ँग	-174
ेखि	-175
▁सर	-176
▁ड	-177
पछि	-178
टा	-179
▁अनु	-180
ौं	-181
रह	-182
▁क्	-183
कि	-184
▁तथा	-185
म्म	-186
▁सह	-187
्रो	-188
ण्	-189
गर	-190
योग	-191
ुप	-192
धान	-193
िन	-194
▁हुने	-195
सँग	-196
▁बढ	-197
▁दु	-198
▁उप	-199
▁राज	-200
एर	-201
द्ध	-202
▁नै	-203
▁त्यस	-204
ालय	-205
ली	-206
▁तर	-207
की	-208
िय	-209
ण्ड	-210
▁बि	-211
टी	-212
र्थ	-213
वस्था	-214
▁थिए	-215
▁मु	-216
▁सि	-217
न्न	-218
नुपर्	-219
ेत	-220
ंग	-221
ाइ	-222
स्थ	-223
▁सरकार	-224
िल्	-225
▁क्ष	-226
ेट	-227
▁वर्ष	-228
ेस	-229
ूर्	-230
क्रम	-231
नमा	-232
बार	-233
सार	-234
▁भन्	-235
▁वा	-236
▁बना	-237
ाउँ	-238
▁काम	-239
▁हाम	-240
कारी	-241
▁उनले	-242
िम	-243
्व	-244
न्द्र	-245
▁ठ	-246
ष्ट्र	-247
▁परि	-248
प्	-249
क्त	-250
▁इ	-251
▁जना	-252
▁लि	-253
प्र	-254
▁रहेको	-255
धि	-256
न्त्री	-257
बै	-258
हिले	-259
न्य	-260
हाँ	-261
▁विश	-262
द्य	-263
ङ्	-264
न्दा	-265
▁उनी	-266
लि	-267
सी	-268
ँदै	-269
▁भए	-270
याँ	-271
नको	-272
▁स्थ	-273
जना	-274
डा	-275
▁रुप	-276
सि	-277
डि	-278
▁गरेका	-279
▁२०	-280
जार	-281
▁से	-282
उने	-283
▁समा	-284
मु	-285
ैन	-286
ेत्र	-287
जा	-288
न्ध	-289
स्ता	-290
ानी	-291
ती	-292
्ने	-293
सम्म	-294
▁सबै	-295
▁कि	-296
▁पार्	-297
्यक्ष	-298
ुरु	-299
▁क्षेत्र	-300
हु	-301
▁हुन्छ	-302
▁मात्र	-303
▁पर्	-304
▁देखि	-305
▁जन	-306
उन	-307
▁रो	-308
दी	-309
क्षा	-310
▁प्रा	-311
धार	-312
▁भन्ने	-313
▁सो	-314
ेला	-315
▁जा	-316
क्ति	-317
सक	-318
▁भएका	-319
▁मि	-320
छन्	-321
र्म	-322
▁बै	-323
ठमा	-324
▁छैन	-325
▁३	-326
तिक	-327
चार	-328
म्प	-329
▁बु	-330
▁राख	-331
▁कुरा	-332
▁गरिएको	-333
▁ना	-334
नुभ	-335
माण	-336
▁आफ्न	-337
▁काठमा	-338
▁गरे	-339
▁मह	-340
निक	-341
▁राष्ट्र	-342
▁अर्	-343
वार	-344
िति	-345
▁नेपाली	-346
रहेको	-347
ेद	-348
ञ्च	-349
▁सक्	-350
स्तो	-351
नै	-352
▁गर्दै	-353
▁उत्	-354
पालिका	-355
▁समय	-356
▁दिन	-357
▁स्थान	-358
दि	-359
मन्त्री	-360
▁जो	-361
▁कम	-362
▁काठमाड	-363
भाव	-364
▁जान	-365
▁महि	-366
बन्ध	-367
▁बताए	-368
▁अहिले	-369
शा	-370
▁गरी	-371
ग्र	-372
रमा	-373
कु	-374
जी	-375
▁(	-376
कै	-377
▁पुग	-378
गत	-379
लेख	-380
▁हुन	-381
मान	-382
▁था	-383
टक	-384
त्व	-385
▁५	-386
नुपर्ने	-387
रु	-388
▁ती	-389
▁कार्यक्रम	-390
▁स्व	-391
ाउने	-392
चि	-393
▁पर	-394
▁कारण	-395
ंक	-396
कृ	-397
्यो	-398
▁?	-399
ोल	-400
▁चा	-401
▁केही	-402
टर	-403
्रा	-404
ेरै	-405
िल्ला	-406
▁आफ्नो	-407
्रम	-408
▁प्रहर	-409
▁झ	-410
▁प्रदेश	-411
र्व	-412
उँ	-413
▁हि	-414
▁खा	-415
ेक	-416
▁स्वा	-417
ध्य	-418
▁हजार	-419
▁अध्यक्ष	-420
डी	-421
▁खो	-422
ुट	-423
▁जिल्ला	-424
▁व्यवस्था	-425
ाउन	-426
त्य	-427
मुख	-428
▁दा	-429
▁ओ	-430
▁भा	-431
ारत	-432
▁पहि	-433
ज्	-434
▁दुई	-435
▁धेरै	-436
▁काठमाडौं	-437
▁शि	-438
▁लग	-439
▁पार्टी	-440
ैले	-441
िया	-442
▁निर्माण	-443
▁महा	-444
▁गत	-445
देखि	-446
बी	-447
कास	-448
▁लगा	-449
र्ता	-450
र्फ	-451
▁अव	-452
▁समेत	-453
▁साथ	-454
हरुले	-455
इन	-456
▁देश	-457
▁हुन्	-458
घि	-459
▁बो	-460
▁४	-461
▁केन्द्र	-462
▁अन्त	-463
▁भारत	-464
▁पूर्	-465
▁अनुसार	-466
▁अवस्था	-467
सो	-468
▁।'	-469
जन	-470
▁कुनै	-471
▁हा	-472
ेन्	-473
मि	-474
▁यु	-475
हरुको	-476
फल	-477
ाली	-478
▁विकास	-479
▁आयो	-480
यत	-481
▁अधिका	-482
ुन	-483
▁गरेर	-484
स्य	-485
ँदा	-486
▁सद	-487
▁पो	-488
धा	-489
▁विष	-490
पूर्	-491
ँच	-492
स्तै	-493
▁सकि	-494
म्ब	-495
टो	-496
मै	-497
▁नगर	-498
भन्दा	-499
▁या	-500
ूल	-501
▁रुपमा	-502
▁सञ्च	-503
र्च	-504
▁आव	-505
ब्	-506
▁६	-507
पी	-508
ष्ठ	-509
▁स्थानीय	-510
▁घर	-511
▁शा	-512
▁राम	-513
▁निय	-514
भाग	-515
▁प्रधान	-516
▁श्र	-517
स्या	-518
ग्	-519
दान	-520
ूप	-521
वन	-522
▁अभि	-523
ोर	-524
▁नेता	-525
▁जानकारी	-526
न्दै	-527
▁गु	-528
हित	-529
▁प्रमुख	-530
▁हामी	-531
यन	-532
▁विषय	-533
▁सरकारले	-534
श्य	-535
मी	-536
▁निर्वा	-537
▁भइ	-538
▁गाउँ	-539
▁त्यो	-540
पुर	-541
▁चि	-542
ारा	-543
स्ट	-544
▁समस्या	-545
च्च	-546
▁तय	-547
▁प्रहरी	-548
वास	-549
▁समिति	-550
ोक	-551
थि	-552
▁लाख	-553
जि	-554
र्या	-555
ताको	-556
नुभयो	-557
माले	-558
▁विश्व	-559
▁कार्यालय	-560
▁नयाँ	-561
▁ल्या	-562
खा	-563
▁ढ	-564
ज्ञ	-565
वी	-566
सन	-567
सद	-568
▁भि	-569
▁खु	-570
▁देख	-571
णा	-572
▁खेल	-573
▁कस	-574
▁एउ	-575
▁नभ	-576
▁संघ	-577
▁गा	-578
▁निर्वाच	-579
स्थ्य	-580
▁सदस्य	-581
▁मन्त्र	-582
मेर	-583
स्प	-584
▁आएको	-585
▁सेवा	-586
▁भयो	-587
▁दल	-588
कमा	-589
टि	-590
नुपर्छ	-591
ेन	-592
यर	-593
▁मो	-594
्छ	-595
▁सामा	-596
क्षण	-597
वादी	-598
▁सुरु	-599
▁भन्दै	-600
लमा	-601
जिक	-602
भिन्न	-603
▁आफू	-604
▁७	-605
ट्	-606
▁बज	-607
्रेस	-608
ौँ	-609
ीमा	-610
▁प्रयोग	-611
श्यक	-612
इएको	-613
▁गर्नु	-614
▁गर्दा	-615
▁रहेका	-616
▁राजनी	-617
▁विद्य	-618
▁उनको	-619
णय	-620
सम	-621
▁महिला	-622
रहेका	-623
▁व्यक्ति	-624
▁बढी	-625
यु	-626
▁रूप	-627
▁स्वास्थ्य	-628
▁डा	-629
▁हुँदै	-630
राज	-631
▁निर्णय	-632
▁सञ्चाल	-633
▁सय	-634
मो	-635
रको	-636
वाद	-637
सको	-638
▁व्यव	-639
सले	-640
दुर	-641
हरूको	-642
हरूले	-643
्यान	-644
▁अब	-645
▁सम्बन्ध	-646
र्श	-647
लु	-648
▁पहिलो	-649
▁राष्ट्रिय	-650
▁सुर	-651
ताल	-652
▁उहाँ	-653
▁पछि	-654
प्त	-655
करण	-656
▁कम्प	-657
▁प्रधानमन्त्री	-658
▁विभिन्न	-659
▁भनेर	-660
हरुलाई	-661
▁तपा	-662
र्त	-663
▁१०	-664
▁जि	-665
▁भू	-666
सर	-667
▁छो	-668
पति	-669
चना	-670
▁जी	-671
▁हे	-672
▁आइ	-673
पाद	-674
▁दो	-675
▁प्रश	-676
▁आज	-677
▁औ	-678
▁मे	-679
सु	-680
ङ्ग	-681
▁सहयोग	-682
▁अप	-683
वेश	-684
टन	-685
धन	-686
▁मन	-687
सकेको	-688
साय	-689
शत	-690
र्ग	-691
▁अन्य	-692
▁नाम	-693
सं	-694
▁एउटा	-695
▁पार	-696
पूर्ण	-697
त्म	-698
पन	-699
▁घट	-700
▁चु	-701
▁आवश्यक	-702
ोग	-703
▁कृ	-704
▁छा	-705
र्क	-706
िर	-707
▁पत्र	-708
▁रि	-709
▁आयोजना	-710
▁समाज	-711
न्ति	-712
▁लेख	-713
▁बैठ	-714
▁आधार	-715
▁मानि	-716
▁दिने	-717
▁८	-718
हो	-719
तृ	-720
▁प्रतिशत	-721
▁रु	-722
▁संस्था	-723
▁ठू	-724
हादुर	-725
▁दिए	-726
▁तीन	-727
र्थिक	-728
▁मुख	-729
▁रूपमा	-730
समा	-731
▁रुपै	-732
▁अस्प	-733
िएको	-734
▁कम्पनी	-735
ञ्	-736
▁मन्त्रालय	-737
▁माग	-738
ंग्रेस	-739
▁आर्थिक	-740
तन्त्र	-741
न्या	-742
श्च	-743
▁तपाई	-744
▁अस्पताल	-745
▁बस्	-746
वारी	-747
▁बैंक	-748
▁मत	-749
▁थप	-750
ड्	-751
गरिक	-752
▁बेला	-753
,'	-754
▁कांग्रेस	-755
नामा	-756
त्त	-757
चिव	-758
तामा	-759
▁-	-760
ीत	-761
▁उल्	-762
▁स्था	-763
भित्र	-764
दैन	-765
जु	-766
▁बस	-767
▁व्या	-768
▁नागरिक	-769
▁सक	-770
हार	-771
र्ड	-772
ित्	-773
▁सड	-774
ेष	-775
▁रुपैयाँ	-776
▁होइन	-777
▁क्षेत्रमा	-778
चा	-779
▁एमाले	-780
▁९	-781
▁उक्त	-782
▁भन्दा	-783
▁बने	-784
रोड	-785
▁शु	-786
▁तह	-787
द्या	-788
▁डि	-789
▁बाल	-790
काल	-791
सक्	-792
▁सार्व	-793
शी	-794
▁बुझ	-795
▁करोड	-796
▁मात्रै	-797
▁दिएको	-798
लेको	-799
▁सू	-800
▁नेतृ	-801
▁क्रम	-802
▁नगरपालिका	-803
▁निर्देश	-804
▁बे	-805
▁ता	-806
▁हाल	-807
▁बताउ	-808
न्छन्	-809
▁गो	-810
▁बाँ	-811
▁उत्पाद	-812
सहित	-813
▁ति	-814
कको	-815
▁पोख	-816
▁नेतृत्व	-817
▁वै	-818
धिक	-819
▁"	-820
▁गते	-821
एपछि	-822
ख्या	-823
जनिक	-824
अघि	-825
▁अमेर	-826
ोष	-827
▁अनि	-828
▁भनि	-829
▁सम्प	-830
▁दे	-831
▁मूल	-832
ुल	-833
ुत	-834
रोना	-835
▁पुन	-836
पना	-837
बहादुर	-838
▁किन	-839
न्व	-840
▁सभा	-841
कम	-842
क्रिया	-843
स्थित	-844
▁मुख्य	-845
▁निका	-846
इन्	-847
▁हाम्रो	-848
▁सार्वजनिक	-849
क्ता	-850
▁पक्ष	-851
▁प्रभाव	-852
▁अगा	-853
▁योजना	-854
▁पर्य	-855
विधान	-856
ृद्ध	-857
कले	-858
्यु	-859
सँगै	-860
दाय	-861
▁कोरोना	-862
▁पर्ने	-863
▁सन्	-864
▁पू	-865
▁पटक	-866
नका	-867
्रि	-868
बारे	-869
▁इन्	-870
ेरो	-871
▁अघि	-872
▁वडा	-873
पि	-874
▁कति	-875
▁कर्म	-876
वै	-877
बीच	-878
ेन्द्र	-879
ीको	-880
▁यस्तो	-881
▁पूर्व	-882
पत्र	-883
▁नग	-884
▁२०७	-885
▁संविधान	-886
▁उद्य	-887
राष्ट्र	-888
र्न	-889
▁हामीले	-890
▁गाउँपालिका	-891
क्रमण	-892
▁अधिकारी	-893
ेष्ठ	-894
ूह	-895
▁राजनीतिक	-896
▁मान	-897
▁निक	-898
धी	-899
▁व्यवसाय	-900
चारी	-901
▁राम्रो	-902
▁अन्तर्	-903
▁उल्लेख	-904
प्रति	-905
▁ठूलो	-906
▁विद्या	-907
▁बजार	-908
▁अर्को	-909
▁मृ	-910
▁सां	-911
काश	-912
▁भेट	-913
र्ट	-914
ठा	-915
नाइ	-916
नाव	-917
ेपछि	-918
र्ने	-919
▁जनाएको	-920
▁गर्छ	-921
▁लगायत	-922
ारे	-923
▁हुनु	-924
▁नी	-925
▁गठ	-926
से	-927
▁वटा	-928
▁छल	-929
▁लगानी	-930
मति	-931
दछ	-932
▁मन्त्री	-933
▁सम्म	-934
▁अर्थ	-935
▁नेपालको	-936
▁चौ	-937
कपा	-938
हान	-939
▁चल	-940
पु	-941
▁छलफल	-942
▁विशेष	-943
▁सम्झ	-944
न्ड	-945
▁आएका	-946
▁महिना	-947
ैं	-948
न्तर	-949
▁फिल्	-950
सभा	-951
हरूलाई	-952
ोट	-953
्वास	-954
▁सामाजिक	-955
ञ्ज	-956
▁नेपालमा	-957
▁कर्मचारी	-958
निधि	-959
▁संग	-960
भर	-961
तमा	-962
▁परी	-963
▁सहभाग	-964
▁सर्व	-965
त्या	-966
वेद	-967
ध्ये	-968
लको	-969
त्मक	-970
▁अवस्थामा	-971
▁विदेश	-972
▁अगाडि	-973
बु	-974
▁सक्ने	-975
फा	-976
पनि	-977
▁बनाउन	-978
यक	-979
रुद्ध	-980
▁हुँदा	-981
▁ठाउँ	-982
▁प्राप्त	-983
▁मैले	-984
राम	-985
▁सडक	-986
▁ले	-987
▁संर	-988
▁सुरक्षा	-989
▁निर्वाचन	-990
▁विद्यालय	-991
▁लोक	-992
▁उपचार	-993
▁पाँच	-994
थ्यो	-995
▁नहु	-996
त्ति	-997
▁समूह	-998
▁भएर	-999
मार	-1000
▁माओ	-1001
नुभएको	-1002
सन्	-1003
▁राज्य	-1004
▁नेकपा	-1005
▁जे	-1006
▁अद	-1007
▁सक्छ	-1008
▁तपाईं	-1009
▁गर्नुपर्ने	-1010
▁जित	-1011
▁विषयमा	-1012
▁शिक्षा	-1013
▁अझ	-1014
▁पै	-1015
नले	-1016
्री	-1017
▁श्रेष्ठ	-1018
त्ता	-1019
क्षक	-1020
▁फिल्म	-1021
बर	-1022
र्ण	-1023
▁जनता	-1024
▁मुलु	-1025
कल	-1026
वरण	-1027
▁साम	-1028
▁खे	-1029
▁परिवार	-1030
▁विद्यार्थ	-1031
▁बनाउने	-1032
ीर	-1033
▁उद्योग	-1034
▁फो	-1035
▁क्रममा	-1036
▁यी	-1037
▁साथै	-1038
▁तत्	-1039
▁पाइ	-1040
▁मेरो	-1041
▁नीति	-1042
▁उपा	-1043
▁थापा	-1044
▁क्या	-1045
▁कार्यक्रममा	-1046
▁१५	-1047
अनु	-1048
▁चाह	-1049
▁बजेट	-1050
▁जारी	-1051
गम	-1052
कर्ता	-1053
स्रो	-1054
युक्त	-1055
▁आयोग	-1056
व्य	-1057
▁चार	-1058
▁ऐ	-1059
घा	-1060
ुवा	-1061
रोध	-1062
माथि	-1063
▁सञ्चालन	-1064
▁यसको	-1065
दर्श	-1066
▁प्रव	-1067
▁अन	-1068
▁न्य	-1069
▁पढ	-1070
▁रे	-1071
एन	-1072
▁करि	-1073
▁पद	-1074
विधि	-1075
र्फत	-1076
बि	-1077
मित	-1078
जग	-1079
▁रकम	-1080
म्भ	-1081
▁सङ्	-1082
▁कृष	-1083
▁अध्य	-1084
▁यहाँ	-1085
▁आउने	-1086
▁घटना	-1087
▁पानी	-1088
▁अदाल	-1089
सन्धान	-1090
▁संसद	-1091
के	-1092
▁उत्पादन	-1093
दो	-1094
टै	-1095
▁तयारी	-1096
तको	-1097
ग्रह	-1098
▁भइरहेको	-1099
ेन्ट	-1100
उँछन्	-1101
पर	-1102
▁जाने	-1103
गरी	-1104
▁लागेको	-1105
▁अनुसन्धान	-1106
▁बाहि	-1107
यान	-1108
▁ची	-1109
हरुमा	-1110
न्दोल	-1111
▁परेको	-1112
डेल	-1113
▁उम्म	-1114
▁युवा	-1115
▁बी	-1116
▁जुन	-1117
कृति	-1118
समेत	-1119
▁अस	-1120
▁बताएका	-1121
▁आग	-1122
न्ने	-1123
षा	-1124
चित्र	-1125
तर्फ	-1126
▁खर्च	-1127
त्यु	-1128
▁पौ	-1129
▁समु	-1130
▁क्र	-1131
▁सफल	-1132
▁तयार	-1133
▁पि	-1134
पो	-1135
▁घोष	-1136
वर्त	-1137
ल्लो	-1138
▁विज्ञ	-1139
▁लक्ष	-1140
▁१२	-1141
▁१९	-1142
▁बन्द	-1143
क्स	-1144
▁भएपछि	-1145
▁शर्	-1146
स्ताव	-1147
▁सचिव	-1148
▁सांसद	-1149
▁फि	-1150
ोधन	-1151
▁भएकाले	-1152
▁सकिन्छ	-1153
झा	-1154
त्रा	-1155
▁साल	-1156
न्स	-1157
▁उपल	-1158
साद	-1159
दे	-1160
ेरि	-1161
▁छि	-1162
▁दोस्रो	-1163
▁समयमा	-1164
▁उठ	-1165
▁आरो	-1166
▁मौ	-1167
ध्यक्ष	-1168
▁विभाग	-1169
▁उच्च	-1170
▁मृत्यु	-1171
▁भु	-1172
▁माओवादी	-1173
▁गीत	-1174
▁भनेको	-1175
ल्ला	-1176
▁त्यहाँ	-1177
ृद्धि	-1178
हाल	-1179
छा	-1180
▁किस	-1181
राष्ट्रिय	-1182
हुन्छ	-1183
▁हर	-1184
▁गरिने	-1185
▁विक	-1186
▁न्या	-1187
अनुसार	-1188
ामी	-1189
▁एव	-1190
▁सी	-1191
▁प्रच	-1192
▁आन्दोल	-1193
ष्टि	-1194
ेड	-1195
ष्ण	-1196
तले	-1197
▁अफ	-1198
म्बर	-1199
▁सम्पन्न	-1200
▁उम्मेद	-1201
▁११	-1202
▁पुर	-1203
▁प्रतिनिधि	-1204
▁कानु	-1205
▁जोड	-1206
▁प्रक्रिया	-1207
▁चलचित्र	-1208
ालिका	-1209
ल्ने	-1210
▁जस्तो	-1211
▁भनाइ	-1212
▁पी	-1213
▁जीवन	-1214
▁उपलब्	-1215
भव	-1216
ल्या	-1217
▁अध्ययन	-1218
वल	-1219
▁प्रश्न	-1220
▁ओली	-1221
▁प्रस्ताव	-1222
काली	-1223
बल	-1224
▁त्यसैले	-1225
▁घोषणा	-1226
▁मानिस	-1227
द्दा	-1228
▁कसरी	-1229
▁अमेरिका	-1230
रक	-1231
▁दिएका	-1232
▁देखिएको	-1233
▁फा	-1234
▁गएको	-1235
वाह	-1236
तिर	-1237
▁हुनेछ	-1238
तिमा	-1239
टमा	-1240
▁मलाई	-1241
▁व्याप	-1242
▁परिवर्त	-1243
▁त्यही	-1244
उनु	-1245
▁चुनाव	-1246
धिका	-1247
ृत	-1248
▁दश	-1249
▁व्यवस्थापन	-1250
▁टो	-1251
मिका	-1252
गायत	-1253
▁लिएर	-1254
▁निकै	-1255
▁मूल्य	-1256
मिक	-1257
▁रहे	-1258
पटक	-1259
▁श्री	-1260
▁कार्या	-1261
स्तु	-1262
▁नियन्त्र	-1263
लाइ	-1264
▁निर	-1265
तर	-1266
▁अर्ब	-1267
ट्ट	-1268
▁सरकारको	-1269
▁छन	-1270
▁विद्यार्थी	-1271
▁भो	-1272
▁छु	-1273
▁मुद्दा	-1274
▁प्रकाश	-1275
दर	-1276
▁पैसा	-1277
▁हुँदैन	-1278
लग	-1279
▁५०	-1280
▁उहाँले	-1281
▁यसले	-1282
▁देखिन्छ	-1283
▁गरा	-1284
▁यही	-1285
▁कृषि	-1286
▁उद्	-1287
▁प्रहरीले	-1288
▁प्रशा	-1289
▁छुट	-1290
डियो	-1291
▁ट्र	-1292
▁बारे	-1293
▁केन्द्रीय	-1294
▁भाग	-1295
यात	-1296
लब	-1297
▁ज्	-1298
▁महत्व	-1299
▁ब्या	-1300
▁गुरु	-1301
कर्ष	-1302
थे	-1303
▁बस्ने	-1304
तम	-1305
▁सबैभन्दा	-1306
▁कार्यान्व	-1307
उँदै	-1308
▁यस्तै	-1309
▁आधारमा	-1310
▁योग	-1311
जो	-1312
िता	-1313
▁महान	-1314
▁संस्	-1315
▁विश्वास	-1316
▁खेला	-1317
्नु	-1318
▁नियन्त्रण	-1319
▁सरकारी	-1320
▁छौं	-1321
म्मे	-1322
▁नभएको	-1323
दार	-1324
▁पौडेल	-1325
राई	-1326
▁लामो	-1327
र्जा	-1328
शु	-1329
▁मध	-1330
▁पत्रकार	-1331
ृह	-1332
▁करिब	-1333
▁फर्	-1334
▁थिएन	-1335
चाल	-1336
लेर	-1337
कृत	-1338
▁कार	-1339
▁त्यस्तै	-1340
▁त्यसको	-1341
स्व	-1342
यी	-1343
▁अरु	-1344
जे	-1345
ल्प	-1346
▁अभियान	-1347
▁स्प	-1348
ंह	-1349
▁उनलाई	-1350
ानो	-1351
्दै	-1352
▁बताउँछन्	-1353
▁भारतीय	-1354
▁रोग	-1355
▁संख्या	-1356
र्स	-1357
▁शक्ति	-1358
▁डे	-1359
▁अधिक	-1360
▁सम्झौ	-1361
स्तार	-1362
▁जस	-1363
▁भित्र	-1364
▁२५	-1365
सिक	-1366
ैनिक	-1367
यम	-1368
ग्गा	-1369
▁आरोप	-1370
धारण	-1371
च्छ	-1372
नाले	-1373
र्चा	-1374
▁राष्ट्रपति	-1375
हरूमा	-1376
▁पछिल्लो	-1377
▁अधिकार	-1378
▁ग्र	-1379
▁प्रतियोग	-1380
▁रोजग	-1381
पक्ष	-1382
▁दुवै	-1383
न्ट	-1384
ारि	-1385
▁त्यसपछि	-1386
▁जन्	-1387
▁पुगेको	-1388
मध्ये	-1389
▁ज्ञ	-1390
▁सूचना	-1391
▁पठ	-1392
▁मान्छ	-1393
▁हरेक	-1394
▁सहभागी	-1395
▁भाइ	-1396
▁बाटो	-1397
▁होला	-1398
▁लु	-1399
जक	-1400
▁बनेको	-1401
▁स्रो	-1402
▁सहमति	-1403
▁भूमिका	-1404
्ना	-1405
▁सन्द	-1406
▁गौ	-1407
▁चला	-1408
▁पोखरा	-1409
ेकी	-1410
▁आग्रह	-1411
सम्	-1412
▁पक्र	-1413
▁पाउने	-1414
',	-1415
▁सर्	-1416
▁प्रण	-1417
ंश	-1418
बेला	-1419
▁भन्छन्	-1420
▁पूर्ण	-1421
▁लिन	-1422
▁३०	-1423
▁प्रचण्ड	-1424
▁उपलब्ध	-1425
▁स्वी	-1426
उँछ	-1427
▁यसै	-1428
स्क	-1429
सकेका	-1430
▁कला	-1431
रत	-1432
▁अन्तर्राष्ट्रिय	-1433
▁जिम्मे	-1434
परि	-1435
वेदन	-1436
दिन	-1437
▁प्रदान	-1438
कालीन	-1439
▁पुर्या	-1440
▁चाहि	-1441
▁निकाय	-1442
▁बाहिर	-1443
▁जग्गा	-1444
सक्ने	-1445
प्रसाद	-1446
▁सम्भाव	-1447
▁जु	-1448
▁सोच	-1449
लगायत	-1450
ल्न	-1451
▁संक्रमण	-1452
▁पक्राउ	-1453
▁थाले	-1454
तिहा	-1455
▁खाने	-1456
▁शर्मा	-1457
▁गोल	-1458
▁अझै	-1459
▁बैठक	-1460
▁फै	-1461
लामा	-1462
▁समुदाय	-1463
▁स्ट	-1464
एस	-1465
▁थाल	-1466
▁बिक	-1467
▁पूरा	-1468
▁प्रया	-1469
▁म्या	-1470
▁एवं	-1471
▁गरिरहेको	-1472
▁:	-1473
▁फाइ	-1474
▁तो	-1475
▁थाहा	-1476
▁उम्मेदवार	-1477
कुमार	-1478
तरण	-1479
लले	-1480
▁आँ	-1481
▁भ्रम	-1482
▁भट्ट	-1483
▁१४	-1484
▁स्थापना	-1485
निर्	-1486
▁सहज	-1487
▁प्रदर्श	-1488
भू	-1489
ेज	-1490
▁चाल	-1491
▁बारेमा	-1492
▁ताल	-1493
▁परिवर्तन	-1494
▁प्रणाली	-1495
लीले	-1496
मारी	-1497
▁,	-1498
▁मानव	-1499
तार	-1500
▁बताउनुभयो	-1501
रले	-1502
▁नेपालले	-1503
चित	-1504
▁१३	-1505
▁आफ्ना	-1506
▁ऋ	-1507
▁आगामी	-1508
▁सामान्य	-1509
▁खोज	-1510
▁पर्यटक	-1511
ल्क	-1512
ेम	-1513
▁दुर्	-1514
कर्म	-1515
▁खेलाडी	-1516
▁पदा	-1517
▁दर्ता	-1518
विधा	-1519
त्री	-1520
▁देउ	-1521
▁सम्झौता	-1522
किएको	-1523
▁परेका	-1524
क्का	-1525
▁संघीय	-1526
▁महानगर	-1527
▁हेर्	-1528
ाउनु	-1529
▁२०१	-1530
▁बाँकी	-1531
▁छैनन्	-1532
▁क्षम	-1533
र्ज	-1534
▁१८	-1535
▁यस्ता	-1536
ढी	-1537
▁बलि	-1538
▁वर्षको	-1539
रामी	-1540
रुप	-1541
▁टिम	-1542
▁निर्देशन	-1543
▁जस्ता	-1544
पक	-1545
▁गति	-1546
▁फेरि	-1547
विद्य	-1548
डान	-1549
▁याद	-1550
▁चरण	-1551
णी	-1552
▁टोली	-1553
▁सुधार	-1554
कार्य	-1555
ज्ञा	-1556
▁भण्ड	-1557
हेक	-1558
▁रहने	-1559
होस्	-1560
▁नहुने	-1561
▁१६	-1562
▁जब	-1563
▁नम्बर	-1564
्दा	-1565
▁अन्ति	-1566
संघ	-1567
▁ध्यान	-1568
▁आफ्नै	-1569
▁परीक्षण	-1570
▁बढेको	-1571
▁सकिने	-1572
▁मान्छे	-1573
▁दाबी	-1574
स्थिति	-1575
▁स्थानमा	-1576
▁उनका	-1577
▁टा	-1578
ध्यम	-1579
▁यति	-1580
शील	-1581
▁दी	-1582
▁यसअघि	-1583
▁वितरण	-1584
▁गरिरहेका	-1585
▁दृ	-1586
▁अन्तिम	-1587
▁अति	-1588
तावरण	-1589
च्चा	-1590
्ले	-1591
▁ठाउँमा	-1592
▁धा	-1593
धे	-1594
▁आमा	-1595
तो	-1596
खिम	-1597
▁पर्छ	-1598
▁दू	-1599
▁देखा	-1600
सचिव	-1601
टल	-1602
▁गण	-1603
श्चिम	-1604
▁तथ	-1605
▁बिहान	-1606
▁कै	-1607
दू	-1608
▁फरक	-1609
ँड	-1610
▁तत्काल	-1611
पय	-1612
▁टि	-1613
▁विस्तार	-1614
▁कर	-1615
▁विवाद	-1616
▁पर्यटन	-1617
▁गुरुङ	-1618
ताका	-1619
▁वातावरण	-1620
▁दक्ष	-1621
ंगल	-1622
▁सम्ब	-1623
▁जोखिम	-1624
आर	-1625
क्षित	-1626
▁प्रवेश	-1627
म्मा	-1628
नाको	-1629
▁नारा	-1630
▁खान	-1631
▁पाल	-1632
▁गि	-1633
▁गर्दछ	-1634
ग्री	-1635
साइ	-1636
▁टु	-1637
▁ब्य	-1638
▁शै	-1639
ुरुष	-1640
▁मै	-1641
▁यसलाई	-1642
▁सोम	-1643
▁किसान	-1644
▁पहिले	-1645
श्व	-1646
▁कतिपय	-1647
र्जन	-1648
▁संगठ	-1649
िकी	-1650
वान	-1651
▁न्याय	-1652
▁ई	-1653
▁बर्ष	-1654
▁खरि	-1655
▁त्यसै	-1656
▁निरन्तर	-1657
हन	-1658
▁सुविधा	-1659
ढा	-1660
▁सीमा	-1661
संग	-1662
▁छोरा	-1663
▁सभापति	-1664
▁संयो	-1665
▁हुन्छन्	-1666
डित	-1667
▁कार्यान्वयन	-1668
▁राई	-1669
ल्य	-1670
ियन	-1671
▁जसले	-1672
ालले	-1673
▁कार्	-1674
▁श्रम	-1675
यार	-1676
▁गृह	-1677
ची	-1678
▁शुक्र	-1679
▁निजी	-1680
विरुद्ध	-1681
▁दैनिक	-1682
पानी	-1683
पको	-1684
▁प्रयास	-1685
ँदैन	-1686
कृतिक	-1687
▁सहकारी	-1688
ते	-1689
▁बहु	-1690
ज्य	-1691
▁गर्छन्	-1692
▁बच	-1693
वर	-1694
▁त्यति	-1695
▁बनाएको	-1696
्युनि	-1697
▁मुलुक	-1698
ून	-1699
▁गर्नुपर्छ	-1700
▁कायम	-1701
▁खरिद	-1702
▁सवारी	-1703
▁विमान	-1704
शाख	-1705
▁सात	-1706
▁गरेपछि	-1707
▁सहित	-1708
▁पुरुष	-1709
रीको	-1710
सका	-1711
▁त्रि	-1712
▁औष	-1713
▁चै	-1714
▁झा	-1715
▁जल	-1716
लिक	-1717
▁समाधान	-1718
▁शुरु	-1719
▁फुट	-1720
▁असार	-1721
लाइन	-1722
▁दर्श	-1723
▁यसरी	-1724
▁व्यवसायी	-1725
▁सिंह	-1726
▁खेलमा	-1727
यण	-1728
▁प्रमाण	-1729
द्धा	-1730
▁ओलीले	-1731
▁आई	-1732
▁संक	-1733
▁लगायतका	-1734
▁एन	-1735
ैर	-1736
▁यादव	-1737
विक	-1738
▁बालब	-1739
▁जिम्मेवारी	-1740
ुरो	-1741
ंगा	-1742
नाथ	-1743
हल	-1744
▁एस	-1745
▁भ्रमण	-1746
बद्ध	-1747
▁१७	-1748
▁शरी	-1749
▁टे	-1750
▁बीच	-1751
▁संरक्षण	-1752
▁यसमा	-1753
▁घरमा	-1754
▁बिरामी	-1755
▁सम्भावना	-1756
▁नजिक	-1757
▁सोही	-1758
▁भाषा	-1759
▁तुल	-1760
▁आश	-1761
जित	-1762
▁विचार	-1763
▁गठबन्ध	-1764
▁यात्रा	-1765
▁संश	-1766
स्तुत	-1767
▁प्रविधि	-1768
▁अर	-1769
श्चित	-1770
ताले	-1771
क्टर	-1772
लाको	-1773
▁गठन	-1774
िकित्	-1775
▁भाइर	-1776
▁लक्ष्य	-1777
रेल	-1778
▁जस्तै	-1779
▁लिएको	-1780
▁व्यापार	-1781
▁ढु	-1782
▁कम्युनि	-1783
▁कमि	-1784
▁भद	-1785
चान	-1786
▁लिने	-1787
देश्य	-1788
धु	-1789
▁समाचार	-1790
धिकरण	-1791
षण	-1792
▁सुझा	-1793
▁बैठकमा	-1794
▁प्रस्तुत	-1795
▁०	-1796
घट	-1797
▁देउवा	-1798
▁राख्ने	-1799
▁व्यक्त	-1800
▁स्पष्ट	-1801
▁सर्वो	-1802
▁सम्बन्धित	-1803
योजना	-1804
वासी	-1805
आई	-1806
▁तर्फ	-1807
णि	-1808
▁दर	-1809
▁हात	-1810
▁नेपालका	-1811
लै	-1812
रिया	-1813
स्पर्	-1814
टको	-1815
▁विधे	-1816
▁भर्	-1817
▁स्वतन्त्र	-1818
मे	-1819
▁आत्म	-1820
ङको	-1821
▁संरचना	-1822
ेलि	-1823
▁!	-1824
▁दाहाल	-1825
▁भण्डारी	-1826
ीका	-1827
मत	-1828
▁तेस	-1829
एकी	-1830
▁प्राधिकरण	-1831
▁चिकित्	-1832
▁निर्देशक	-1833
▁२१	-1834
▁अवसर	-1835
▁नाममा	-1836
▁बालबालिका	-1837
▁२४	-1838
▁महत्वपूर्ण	-1839
▁बुध	-1840
▁कानुन	-1841
ैँ	-1842
▁बिक्री	-1843
▁पूर्वा	-1844
▁विगत	-1845
▁मना	-1846
स्त्र	-1847
▁लाग्छ	-1848
▁भिडियो	-1849
▁आइत	-1850
क्रमित	-1851
▁नदि	-1852
▁कहिले	-1853
▁अर्था	-1854
▁प्राथ	-1855
▁ऐन	-1856
▁जति	-1857
सम्बन्ध	-1858
▁सम्मेल	-1859
▁दिइ	-1860
ीकरण	-1861
२०	-1862
▁सम्मान	-1863
डिया	-1864
▁उमेर	-1865
▁प्रो	-1866
▁जीव	-1867
▁प्रतिस्पर्	-1868
▁मनो	-1869
लव	-1870
▁तिम	-1871
▁आन्दोलन	-1872
▁लाग्ने	-1873
▁हेर	-1874
▁तेस्रो	-1875
भो	-1876
▁उपाध्यक्ष	-1877
▁सुनि	-1878
▁जनताको	-1879
▁प्राथमिक	-1880
ंका	-1881
▁बजारमा	-1882
उँदा	-1883
▁काठमाडौँ	-1884
क्क	-1885
▁सुन	-1886
भिड	-1887
▁क्षति	-1888
वे	-1889
▁सोमबार	-1890
▁अमेरिकी	-1891
ष्टा	-1892
पित	-1893
कारा	-1894
▁स्रोत	-1895
▁मिल्	-1896
द्वार	-1897
कलन	-1898
▁अभाव	-1899
▁उनीहरु	-1900
▁राजनीति	-1901
▁ऊ	-1902
▁निम्	-1903
खु	-1904
▁शान्ति	-1905
▁गाडी	-1906
ौती	-1907
बाही	-1908
▁जेठ	-1909
▁प्रशासन	-1910
नियाँ	-1911
ध्या	-1912
▁पार्टीको	-1913
▁अहिलेसम्म	-1914
▁भई	-1915
▁आम	-1916
▁शनि	-1917
▁पराज	-1918
▁बाट	-1919
▁बनाएर	-1920
गो	-1921
▁केपी	-1922
▁साँ	-1923
▁चर्चा	-1924
िण	-1925
▁शुक्रबार	-1926
▁कान	-1927
▁पुरा	-1928
▁यदि	-1929
▁स्त	-1930
यौं	-1931
▁हस्ता	-1932
▁असर	-1933
▁आउन	-1934
▁पुनः	-1935
▁चित	-1936
▁अधिकृत	-1937
म्भीर	-1938
सिया	-1939
▁बन्न	-1940
▁गराउने	-1941
ेप	-1942
▁कथा	-1943
▁मंगल	-1944
▁मन्त्रालयले	-1945
▁खेत	-1946
▁आफूले	-1947
▁कले	-1948
वाफ	-1949
▁क्लब	-1950
▁प्रेम	-1951
▁गुण	-1952
प्ता	-1953
▁नं	-1954
▁ऋण	-1955
▁पाएको	-1956
▁फाग	-1957
▁हिमा	-1958
▁आफूलाई	-1959
▁अन्तर	-1960
एम	-1961
▁गम्भीर	-1962
लर	-1963
▁भौ	-1964
▁सकेको	-1965
▁साथी	-1966
शि	-1967
▁पेश	-1968
▁वृद्धि	-1969
▁माघ	-1970
▁नियु	-1971
▁भएन	-1972
▁धर्म	-1973
▁मन्द	-1974
स्ती	-1975
▁आइतबार	-1976
▁समन्व	-1977
स्थल	-1978
ाउँदै	-1979
▁संयुक्त	-1980
िकेट	-1981
▁रोजगारी	-1982
▁सुझाव	-1983
▁भट्टराई	-1984
▁लै	-1985
▁सर्वोच्च	-1986
राब	-1987
▁प्रत्य	-1988
्रै	-1989
▁संयोजक	-1990
▁माथि	-1991
▁थिइन्	-1992
पान	-1993
▁थालेको	-1994
मार्ग	-1995
▁समितिले	-1996
▁घण्	-1997
▁घु	-1998
ित्व	-1999
▁च्या	-2000
▁डो	-2001
▁भ्र	-2002
▁अवधि	-2003
▁वन	-2004
▁जनाको	-2005
▁राखेर	-2006
काले	-2007
▁फर्कि	-2008
गमन	-2009
▁विरोध	-2010
▁४०	-2011
▁राख्न	-2012
▁आदि	-2013
।'	-2014
षद्	-2015
▁चीन	-2016
▁।"	-2017
▁कमा	-2018
सम्बन्धी	-2019
▁सन्त	-2020
चार्य	-2021
▁नियम	-2022
▁पुग्ने	-2023
र्भ	-2024
▁विप	-2025
▁जवाफ	-2026
▁विदेशी	-2027
▁क्षमता	-2028
▁बच्चा	-2029
▁जिल्लामा	-2030
▁प्रशि	-2031
▁अन्त्य	-2032
क्रिय	-2033
क्न	-2034
▁देशको	-2035
▁क्षेत्रको	-2036
▁मध्य	-2037
▁सञ्चार	-2038
रीले	-2039
▁समन्वय	-2040
न्तरण	-2041
▁बुधबार	-2042
▁कुल	-2043
इरा	-2044
ामु	-2045
▁आवश्यकता	-2046
▁विज	-2047
▁रहेछ	-2048
कारात्मक	-2049
▁पहिचान	-2050
पोर्ट	-2051
▁सच	-2052
▁खड्	-2053
▁त्यसलाई	-2054
▁अधि	-2055
▁हट	-2056
जर	-2057
कर्मी	-2058
न्तरिक	-2059
▁वर्षीय	-2060
ङ्क	-2061
▁कर्ण	-2062
मार्फत	-2063
▁२२	-2064
▁लो	-2065
▁सिफ	-2066
▁उद्देश्य	-2067
▁किलो	-2068
▁वरि	-2069
▁शिक्षक	-2070
▁पूर्वाधार	-2071
िल्लो	-2072
▁दिनमा	-2073
ेले	-2074
▁भइसकेको	-2075
▁वैशाख	-2076
▁आन्तरिक	-2077
▁धार	-2078
▁सिर्	-2079
▁चुन	-2080
▁गराउन	-2081
▁चौध	-2082
▁प्रदर्शन	-2083
हित्य	-2084
प्प	-2085
▁जन्म	-2086
काम	-2087
कुल	-2088
▁खुला	-2089
▁घा	-2090
कृष्ट	-2091
▁अग्र	-2092
▁मुख्यमन्त्री	-2093
जोर	-2094
▁तामा	-2095
▁मिने	-2096
िएका	-2097
▁आदेश	-2098
▁सुना	-2099
▁ठा	-2100
चालन	-2101
▁बजे	-2102
धीश	-2103
▁भदौ	-2104
▁बाध्य	-2105
▁अस्पतालमा	-2106
ुत्	-2107
▁अनुभव	-2108
लित	-2109
▁कृष्ण	-2110
▁ग्रा	-2111
▁हत्या	-2112
▁अनलाइन	-2113
▁कारो	-2114
▁बन्ने	-2115
▁फिर्ता	-2116
▁कलाकार	-2117
▁नदी	-2118
▁फे	-2119
स्कार	-2120
वाल	-2121
▁वीर	-2122
लग्न	-2123
▁भनिएको	-2124
ब्द	-2125
▁सिर्जना	-2126
▁प्या	-2127
▁यसका	-2128
▁मं	-2129
▁हुनुपर्ने	-2130
▁बसेको	-2131
▁संशोधन	-2132
▁अख	-2133
डो	-2134
▁कसै	-2135
▁दक्षिण	-2136
विद्यालय	-2137
योजन	-2138
ेसम्म	-2139
▁सञ्ज	-2140
▁भनेका	-2141
▁धन	-2142
बाटै	-2143
हे	-2144
ष्य	-2145
▁वर्षमा	-2146
▁देव	-2147
तियार	-2148
▁कम्पनीले	-2149
सरमा	-2150
▁भाव	-2151
▁निष्	-2152
▁महाधि	-2153
▁सिफारि	-2154
▁त्यस्तो	-2155
▁इतिहा	-2156
▁अपरा	-2157
▁हामीलाई	-2158
फो	-2159
हत	-2160
भ्या	-2161
याधीश	-2162
▁गरिन्छ	-2163
ेसन	-2164
▁साउन	-2165
▁समर्थ	-2166
▁मिला	-2167
सोज	-2168
▁सम्बोधन	-2169
▁संस्कृति	-2170
▁परीक्षा	-2171
ल्दै	-2172
▁देशमा	-2173
▁बोर्ड	-2174
▁पाठ	-2175
▁पक्षमा	-2176
गी	-2177
▁साहित्य	-2178
▁पृ	-2179
▁भै	-2180
िनी	-2181
▁टोल	-2182
▁पोखरेल	-2183
▁गैर	-2184
ुले	-2185
▁माध्यम	-2186
▁पुगेका	-2187
सँगको	-2188
▁प्रभावित	-2189
▁आउ	-2190
▁प्रवक्ता	-2191
तै	-2192
▁कोष	-2193
▁कवि	-2194
▁उत्तर	-2195
▁जोडि	-2196
▁राजधान	-2197
▁एक्	-2198
ंसा	-2199
▁भन्न	-2200
▁२३	-2201
▁सकेन	-2202
देशिक	-2203
▁छाड	-2204
▁असोज	-2205
▁कारबाही	-2206
▁पुस्त	-2207
▁पर्व	-2208
न्थ्यो	-2209
▁शाखा	-2210
नो	-2211
हीबार	-2212
▁गर्यो	-2213
सव	-2214
▁पीडित	-2215
्यांक	-2216
▁त्यसमा	-2217
▁कमजोर	-2218
▁वित्त	-2219
ाउँछ	-2220
▁महाधिवेश	-2221
▁संलग्न	-2222
▁प्रकार	-2223
▁विद्युत	-2224
▁दुर्घट	-2225
▁घण्टा	-2226
▁महासंघ	-2227
▁सम्पूर्ण	-2228
पर्ने	-2229
▁भन्नुभयो	-2230
▁गुना	-2231
▁नव	-2232
सलाई	-2233
▁भवन	-2234
सित	-2235
▁मंगलबार	-2236
नुहुन्छ	-2237
▁कलेज	-2238
▁शनिबार	-2239
▁कोभिड	-2240
▁प्रतिस्पर्धा	-2241
▁बैठकले	-2242
▁तिन	-2243
▁शे	-2244
मेन्ट	-2245
▁आफैं	-2246
तिकै	-2247
▁सक्रिय	-2248
▁अन्तर्गत	-2249
▁औं	-2250
▁कार्यकर्ता	-2251
▁श्रेष्ठले	-2252
सिर	-2253
▁संक्रमित	-2254
▁व्यवहार	-2255
▁अर्का	-2256
ेश्व	-2257
फाइ	-2258
▁नपा	-2259
दल	-2260
▁विश्वविद्यालय	-2261
▁नियमित	-2262
▁राजा	-2263
▁विवाह	-2264
▁शी	-2265
▁कक्षा	-2266
दण्ड	-2267
▁विवरण	-2268
▁लाई	-2269
▁तत्कालीन	-2270
ङमा	-2271
▁उनीहरुले	-2272
लाल	-2273
धानिक	-2274
▁एम	-2275
टीले	-2276
▁फागुन	-2277
▁सभ	-2278
▁समितिको	-2279
▁खोप	-2280
▁याता	-2281
ाल्	-2282
▁उत्कृष्ट	-2283
▁नसकेको	-2284
▁पाण्ड	-2285
▁२८	-2286
▁औषधि	-2287
लेका	-2288
तालाई	-2289
▁सामु	-2290
विधिक	-2291
▁२७	-2292
▁एका	-2293
▁भी	-2294
्रे	-2295
▁जानु	-2296
▁बनाइ	-2297
▁कस्तो	-2298
सीले	-2299
▁चैत	-2300
टे	-2301
लत	-2302
▁खास	-2303
▁अंक	-2304
नेछ	-2305
साब	-2306
न्त्रिक	-2307
रिक	-2308
▁कोइरा	-2309
▁राखिएको	-2310
▁वर्ग	-2311
दु	-2312
▁छिन्	-2313
▁ठूला	-2314
▁साइ	-2315
▁प्रतिष्ठ	-2316
▁सहकार्य	-2317
▁संसदीय	-2318
द्वारा	-2319
रीय	-2320
▁ट्रा	-2321
रीमा	-2322
ण्डा	-2323
फ्	-2324
त्यक्ष	-2325
लाले	-2326
▁निर्वाचित	-2327
▁उसले	-2328
िन्	-2329
ँजी	-2330
▁शाह	-2331
▁कारोबार	-2332
▁निर्वाचनमा	-2333
▁नप	-2334
▁फु	-2335
ेलु	-2336
नेर	-2337
▁सश	-2338
ल्लाह	-2339
▁आप	-2340
▁ज्यान	-2341
▁आकर्ष	-2342
पूर्व	-2343
▁लाइ	-2344
▁हरि	-2345
▁महामारी	-2346
क्ट	-2347
▁थापाले	-2348
▁विरुद्ध	-2349
▁समावेश	-2350
्वा	-2351
▁बिहीबार	-2352
▁सँग	-2353
मती	-2354
▁क्रिकेट	-2355
▁पार्टीका	-2356
▁आठ	-2357
▁चिकित्सक	-2358
▁बढा	-2359
▁कसैले	-2360
▁सामग्री	-2361
ालको	-2362
▁कोही	-2363
मन्त्र	-2364
▁प्रतिनिधिसभा	-2365
▁सक्दैन	-2366
▁प्रभावकारी	-2367
▁एकै	-2368
▁क्षेत्रका	-2369
कड	-2370
▁सजि	-2371
▁ल्याउन	-2372
▁बर्	-2373
▁वे	-2374
▁गरेकी	-2375
▁चे	-2376
▁समितिका	-2377
▁पठा	-2378
ाइएको	-2379
▁सत्ता	-2380
▁राखेको	-2381
▁भारतको	-2382
▁प्रतियोगि	-2383
कम्प	-2384
न्ता	-2385
सीको	-2386
▁प्राविधिक	-2387
द्द	-2388
▁मान्य	-2389
▁प्रत्येक	-2390
▁लिग	-2391
▁परिण	-2392
▁आँखा	-2393
भु	-2394
▁एकता	-2395
▁बुद्ध	-2396
▁गौतम	-2397
▁सम्बन्धी	-2398
▁योगदान	-2399
▁२६	-2400
▁शब्द	-2401
▁कारणले	-2402
न्दी	-2403
ोरी	-2404
ालि	-2405
▁गुमा	-2406
▁हुनुपर्छ	-2407
गि	-2408
टु	-2409
▁अत्य	-2410
▁अदालत	-2411
▁दिव	-2412
▁भवि	-2413
▁सालमा	-2414
▁गुनासो	-2415
▁कार्यकारी	-2416
न्छु	-2417
▁अल	-2418
▁कुन	-2419
▁उनीहरू	-2420
▁प्रतिवेदन	-2421
ारु	-2422
ष्टाचार	-2423
डमा	-2424
▁सरकारलाई	-2425
▁विश्वक	-2426
▁साह	-2427
▁बह	-2428
▁शहर	-2429
वटा	-2430
पमा	-2431
सिय	-2432
▁चुनौती	-2433
▁गर्नुभयो	-2434
▁हरा	-2435
चारिक	-2436
तान्त्रिक	-2437
▁खाना	-2438
सद्	-2439
बाइ	-2440
ारो	-2441
सिल	-2442
▁विधेयक	-2443
▁६०	-2444
▁विरा	-2445
ृत्ति	-2446
▁मार्फत	-2447
▁घाइ	-2448
शन	-2449
भी	-2450
▁अधिकांश	-2451
कोट	-2452
▁रन	-2453
▁दिनु	-2454
तः	-2455
▁बैंकले	-2456
▁गर्नुभएको	-2457
न्ज	-2458
▁बद	-2459
▁वित्तीय	-2460
▁नसक्ने	-2461
न्तु	-2462
ाउँदा	-2463
▁महानगरपालिका	-2464
▁आचार्य	-2465
ेटि	-2466
▁उपत्य	-2467
म्परा	-2468
यता	-2469
▁विकल्प	-2470
मात्र	-2471
▁भौतिक	-2472
▁कर्णाली	-2473
िकल	-2474
ङले	-2475
▁सुरक्षित	-2476
तिको	-2477
▁समाजवादी	-2478
▁मन्त्रि	-2479
हरण	-2480
▁कठ	-2481
▁अघ	-2482
▁दिइएको	-2483
▁गुणस्त	-2484
▁छोरी	-2485
टाइ	-2486
ल्ट	-2487
▁लागू	-2488
▁उदा	-2489
ामुख	-2490
▁पारि	-2491
ण्डकी	-2492
▁दिनुभयो	-2493
▁वास्त	-2494
▁सानो	-2495
▁उनीहरुको	-2496
▁आयोगले	-2497
दानी	-2498
▁इन्टर	-2499
▁परियोजना	-2500
▁तालिम	-2501
▁कमिटी	-2502
▁माप	-2503
▁अस्	-2504
हरुका	-2505
▁लगाउने	-2506
▁अनुमति	-2507
▁द्व	-2508
निय	-2509
▁पुस	-2510
▁फर्क	-2511
▁शीर्ष	-2512
▁सम्पर्	-2513
▁यौ	-2514
▁बलियो	-2515
▁रोक	-2516
▁चिनियाँ	-2517
▁युव	-2518
लीमा	-2519
दम	-2520
▁जहाँ	-2521
▁परम्परा	-2522
सल	-2523
▁उपत्यका	-2524
▁धारणा	-2525
▁प्रत्यक्ष	-2526
▁अवसरमा	-2527
थी	-2528
ःख	-2529
▁गलत	-2530
▁जम्मा	-2531
▁स्थिति	-2532
▁कार्की	-2533
▁प्रजा	-2534
▁सचेत	-2535
वसाय	-2536
▁बताउँदै	-2537
▁आए	-2538
▁जम	-2539
▁बनेका	-2540
▁वस्तु	-2541
▁ढि	-2542
▁अहिलेको	-2543
्ला	-2544
▁प्रतियोगिता	-2545
क्ने	-2546
▁संसार	-2547
▁उपभो	-2548
▁एउटै	-2549
▁पराजित	-2550
▁अनुमान	-2551
चन	-2552
▁भ्रष्टाचार	-2553
रान	-2554
▁अरू	-2555
▁बोला	-2556
▁छान	-2557
▁संकलन	-2558
▁धु	-2559
▁२९	-2560
▁मन्त्रिपरि	-2561
▁यातायात	-2562
▁मतदान	-2563
▁बन्	-2564
रूप	-2565
▁महो	-2566
▁छौँ	-2567
▁पदाधिका	-2568
▁शुभ	-2569
▁भविष्य	-2570
▁आवा	-2571
▁ग्राह	-2572
▁घाइते	-2573
कलाई	-2574
▁ल्याएको	-2575
▁पौडेलले	-2576
जेन्	-2577
डे	-2578
▁ल्याउने	-2579
▁चरणमा	-2580
▁पुष्टि	-2581
कन	-2582
▁पहल	-2583
▁सेयर	-2584
▁२००	-2585
लन	-2586
▁दिएर	-2587
▁नब	-2588
▁तहमा	-2589
▁सहा	-2590
▁काग	-2591
▁कम्	-2592
▁मिडिया	-2593
▁सध	-2594
ारमा	-2595
▁दबा	-2596
टनगर	-2597
▁खण्ड	-2598
▁मात्रा	-2599
स्थान	-2600
▁वर्षा	-2601
▁सरो	-2602
▁गतिविधि	-2603
▁अर्थतन्त्र	-2604
▁मापदण्ड	-2605
▁थिएँ	-2606
नेको	-2607
क्य	-2608
▁भूमि	-2609
▁सल्लाह	-2610
कुद	-2611
▁मिटर	-2612
▁बढाउन	-2613
शक्ति	-2614
▁गएका	-2615
▁पाएका	-2616
▁की	-2617
▁भएपनि	-2618
▁भनिन्	-2619
दन	-2620
क्षर	-2621
▁ज्ञान	-2622
बाहेक	-2623
▁टिक	-2624
▁सञ्चालनमा	-2625
▁पेट	-2626
▁दुःख	-2627
▁मेड	-2628
▁सञ्जाल	-2629
तीमा	-2630
▁सपना	-2631
इँ	-2632
ुट्	-2633
▁किसिम	-2634
▁अभ्या	-2635
▁काममा	-2636
यमा	-2637
िमिर	-2638
▁वरिष्ठ	-2639
▁मंसिर	-2640
▁सिका	-2641
▁प्रचार	-2642
▁तर्फबाट	-2643
▁२०६	-2644
▁पुष्	-2645
▁कहाँ	-2646
ेक्षा	-2647
▁नेतृत्वमा	-2648
▁खेलकुद	-2649
श्	-2650
▁खबर	-2651
▁पुरस्कार	-2652
▁भनी	-2653
▁उद्ध	-2654
▁स्या	-2655
▁नेतृत्वको	-2656
▁सिफारिस	-2657
थो	-2658
▁पश्चिम	-2659
१९	-2660
खो	-2661
▁उडान	-2662
▁सम्भव	-2663
▁आक्रमण	-2664
▁बसेर	-2665
जिम	-2666
▁गरिएका	-2667
▁पाइन्छ	-2668
त्रु	-2669
▁छुट्	-2670
हरा	-2671
सम्मको	-2672
▁गएर	-2673
▁सङ्घ	-2674
▁छनोट	-2675
ुक	-2676
किङ	-2677
▁सन्दर्भ	-2678
जको	-2679
▁भे	-2680
▁अर्थात्	-2681
ल्यै	-2682
▁नभए	-2683
▁जरु	-2684
मको	-2685
ीकृत	-2686
▁कप	-2687
▁चितवन	-2688
पुग	-2689
▁दृष्टि	-2690
▁जरुरी	-2691
▁पहा	-2692
▁मधेस	-2693
▁हेर्दा	-2694
▁रण	-2695
▁जाँदा	-2696
▁स्थापित	-2697
▁सकारात्मक	-2698
साथ	-2699
▁लाग्	-2700
▁खोज्	-2701
▁अधिकारीले	-2702
ममा	-2703
न्दु	-2704
▁बोक	-2705
▁दाय	-2706
▁खन	-2707
▁पे	-2708
लिएको	-2709
नाई	-2710
बिन	-2711
▁बढ्ने	-2712
▁मेयर	-2713
▁२०२	-2714
▁दुख	-2715
▁सुन्द	-2716
नेपाल	-2717
▁सेना	-2718
▁भुक्ता	-2719
▁इज	-2720
णिज्य	-2721
▁कर्जा	-2722
▁पुल	-2723
▁माया	-2724
पत	-2725
▁अनुदान	-2726
सकेपछि	-2727
▁घिमिर	-2728
▁बढ्दै	-2729
▁हिसाब	-2730
क्षिक	-2731
▁प्रकाशित	-2732
▁यू	-2733
▁विधि	-2734
▁तहको	-2735
द्र	-2736
पूर्ति	-2737
▁भक्त	-2738
▁देशका	-2739
▁बल	-2740
▁बढि	-2741
वाला	-2742
▁हाम्रा	-2743
▁समान	-2744
▁पर्या	-2745
▁साता	-2746
नीय	-2747
▁शिव	-2748
ित्त	-2749
▁अध्या	-2750
▁आशा	-2751
गञ्ज	-2752
▁सहभागिता	-2753
▁विद्युत्	-2754
्यू	-2755
▁लकड	-2756
▁क्रिया	-2757
▁अंग	-2758
मोजिम	-2759
ेदार	-2760
रीक्षक	-2761
▁यद्य	-2762
▁फोन	-2763
▁नस	-2764
मन	-2765
लीको	-2766
▁संगठन	-2767
▁तरि	-2768
▁डु	-2769
▁केहि	-2770
▁बाबु	-2771
▁क्याम्प	-2772
लाका	-2773
िने	-2774
त्तिक	-2775
होर	-2776
ँडा	-2777
▁होटल	-2778
▁राहत	-2779
मिटर	-2780
▁बीमा	-2781
▁महसु	-2782
▁राति	-2783
▁स्थायी	-2784
▁बेच	-2785
▁नौ	-2786
अन्त	-2787
दाता	-2788
▁माइ	-2789
▁सहर	-2790
स्कृतिक	-2791
▁विकेट	-2792
वैधानिक	-2793
▁नारायण	-2794
▁युद्ध	-2795
▁पुनर्	-2796
कर	-2797
▁वार्ता	-2798
▁पास	-2799
▁शैक्षिक	-2800
शुल्क	-2801
घाटन	-2802
▁लड	-2803
▁प्रतिबद्ध	-2804
▁मैदान	-2805
▁क्रा	-2806
▁शुल्क	-2807
▁भूकम्प	-2808
▁हुनुहुन्छ	-2809
▁संसद्	-2810
वाट	-2811
सला	-2812
▁बाहेक	-2813
▁उसको	-2814
▁सम्पत्ति	-2815
यल	-2816
्वी	-2817
▁ठे	-2818
औं	-2819
▁दलका	-2820
▁कार्यालयमा	-2821
▁बराब	-2822
देव	-2823
▁पदार्थ	-2824
कुर	-2825
▁कात्तिक	-2826
▁उपभोक्ता	-2827
▁सक्छन्	-2828
ल्ड	-2829
▁कालो	-2830
िल	-2831
▁सिद्धा	-2832
पश्चिम	-2833
पचारिक	-2834
▁विराटनगर	-2835
नन्	-2836
▁प्रतिष्ठान	-2837
क्षेप	-2838
▁पूजा	-2839
र्मिक	-2840
▁रंग	-2841
▁नो	-2842
▁मोबाइ	-2843
▁हेर्न	-2844
दय	-2845
▁हुँ	-2846
गु	-2847
ारम्भ	-2848
▁साना	-2849
▁ब्र	-2850
▁त्यसका	-2851
▁हुन्थ्यो	-2852
त्सव	-2853
▁उहाँको	-2854
▁कुरामा	-2855
▁गर्नका	-2856
▁गर्नेछ	-2857
▁बढाउने	-2858
▁मज	-2859
दायिक	-2860
▁आलो	-2861
▁स्म	-2862
▁चन्द्र	-2863
▁पहु	-2864
▁अनुगमन	-2865
▁ब्रा	-2866
म्बा	-2867
▁साउ	-2868
▁गरिदि	-2869
▁सोध	-2870
▁अपराध	-2871
▁गठबन्धन	-2872
▁त्यसले	-2873
▁शेर	-2874
▁३५	-2875
▁सन्देश	-2876
▁हिमाल	-2877
▁सम्बन्धमा	-2878
▁विज्ञप्	-2879
▁साँझ	-2880
▁नगर्ने	-2881
▁आम्	-2882
जस्तो	-2883
▁सत्य	-2884
▁राजधानी	-2885
▁विज्ञान	-2886
▁खेती	-2887
कानी	-2888
हरूका	-2889
▁ढकाल	-2890
▁राजी	-2891
▁आफु	-2892
▁मधेश	-2893
▁आयात	-2894
▁नाका	-2895
▁नर	-2896
▁भुक्तानी	-2897
▁बुट	-2898
▁है	-2899
▁वैदेशिक	-2900
▁अपेक्षा	-2901
▁संगीत	-2902
▁नम	-2903
ेमा	-2904
▁राख्	-2905
▁बताइन्	-2906
▁चासो	-2907
▁गरियो	-2908
▁पाए	-2909
हाम	-2910
▁भन्छ	-2911
धव	-2912
अन्तर्	-2913
दारी	-2914
▁आयोजित	-2915
▁पारित	-2916
षद	-2917
▁मन्दिर	-2918
▁सचिवालय	-2919
▁रमा	-2920
▁क्रान्ति	-2921
▁सौ	-2922
▁आर	-2923
▁सबैलाई	-2924
▁डाक्टर	-2925
▁आजको	-2926
▁छोड	-2927
▁महासचिव	-2928
खर	-2929
▁निर्माणको	-2930
▁मन्त्रालयका	-2931
▁जसमा	-2932
▁मध्ये	-2933
ोध	-2934
▁साधन	-2935
▁सही	-2936
▁आएर	-2937
▁कांग्रेसका	-2938
▁होस्	-2939
▁जनताले	-2940
▁लागेका	-2941
▁टोलीले	-2942
हीन	-2943
रुपमा	-2944
ंगो	-2945
राख	-2946
वधान	-2947
▁कहि	-2948
▁खोजी	-2949
▁कुमार	-2950
▁अने	-2951
▁युरो	-2952
▁उपम	-2953
▁उपयोग	-2954
▁अदालतले	-2955
▁वर्त	-2956
▁तरकारी	-2957
ेली	-2958
▁आउँछ	-2959
▁बताएको	-2960
▁पाउन	-2961
म्बिनी	-2962
किस्ता	-2963
▁पहुँच	-2964
▁प्रदेशसभा	-2965
कला	-2966
▁उनीहरूको	-2967
▁उनीहरूले	-2968
ढे	-2969
ानु	-2970
▁७०	-2971
▁प्रदेशमा	-2972
▁कार्यालयले	-2973
▁लगाउन	-2974
▁दलित	-2975
▁भोलि	-2976
र्सि	-2977
▁सभामुख	-2978
ङ्गा	-2979
▁नाय	-2980
▁मान्यता	-2981
▁हालसम्म	-2982
▁समग्र	-2983
▁सबैको	-2984
▁गए	-2985
▁आवाज	-2986
ेदेखि	-2987
▁पारेको	-2988
▁न्यू	-2989
जुरी	-2990
▁लगाएको	-2991
फी	-2992
वाही	-2993
▁सुख	-2994
▁लोकतन्त्र	-2995
ल्ल	-2996
▁जिल्लाको	-2997
सू	-2998
जस्ता	-2999
▁नभई	-3000
छिन्	-3001
एफ	-3002
▁एकीकृत	-3003
▁नहुँदा	-3004
▁बताइएको	-3005
सक्छ	-3006
▁जापान	-3007
▁मानसिक	-3008
▁पुष्प	-3009
▁हिजो	-3010
▁बढ्	-3011
नगर	-3012
▁फाइदा	-3013
▁निश्चित	-3014
▁प्रसार	-3015
▁उठा	-3016
▁परिणाम	-3017
▁धार्मिक	-3018
▁झापा	-3019
▁लिएका	-3020
समिति	-3021
▁व्यक्तिगत	-3022
हारी	-3023
▁बढ्न	-3024
वाई	-3025
▁त्यसैगरी	-3026
▁मेडिकल	-3027
▁युनि	-3028
ेश्वर	-3029
▁उदाहरण	-3030
▁सामुदायिक	-3031
▁दिँदै	-3032
▁सामान	-3033
▁थुप	-3034
▁कुराकानी	-3035
ल्याण्ड	-3036
ाउनुपर्ने	-3037
विध	-3038
▁पदाधिकारी	-3039
र्ब	-3040
▁भर	-3041
▁जनक	-3042
▁आम्दानी	-3043
ौला	-3044
साधारण	-3045
▁फुटबल	-3046
▁भर्ना	-3047
नय	-3048
▁संघर्ष	-3049
▁नियन्त्रणमा	-3050
▁कोठा	-3051
▁परिस्थिति	-3052
▁इन्टरने	-3053
भने	-3054
ोका	-3055
▁बस्न	-3056
▁भाइरस	-3057
एल	-3058
▁हेर्ने	-3059
▁यौन	-3060
पुरमा	-3061
▁लुम्बिनी	-3062
र्षिक	-3063
हण	-3064
▁?'	-3065
▁समर्थन	-3066
▁शर्माले	-3067
▁प्रदेशको	-3068
▁कामदार	-3069
पे	-3070
▁किलोमिटर	-3071
▁लाग्यो	-3072
▁थालेका	-3073
▁विनि	-3074
▁कांग्रेसले	-3075
भिजन	-3076
अन्तर्गत	-3077
▁अक्	-3078
▁एयर	-3079
▁अम	-3080
▁रिपोर्ट	-3081
▁डलर	-3082
रामा	-3083
▁रोजगार	-3084
▁हिँड	-3085
▁पछा	-3086
▁जग	-3087
▁मोटर	-3088
भरि	-3089
फिक	-3090
▁पुरानो	-3091
▁शाही	-3092
▁केन्द्रित	-3093
▁जुट	-3094
▁खुसी	-3095
ग्रा	-3096
द्रा	-3097
▁जनप्रति	-3098
▁आधारित	-3099
▁कम्युनिष्ट	-3100
▁प्रेस	-3101
ज्ञानिक	-3102
▁अघिल्लो	-3103
ेलिया	-3104
▁ढंग	-3105
▁लाभ	-3106
▁नति	-3107
▁प्रचण्डले	-3108
▁डी	-3109
▁उपस्थिति	-3110
कारि	-3111
▁अख्	-3112
▁यथा	-3113
▁सरोकार	-3114
▁८०	-3115
क्कै	-3116
▁ललित	-3117
▁कानुनी	-3118
टिङ	-3119
▁न्यून	-3120
▁जात	-3121
▁यद्यपि	-3122
धुनिक	-3123
▁यता	-3124
▁गराएको	-3125
▁प्रदेशका	-3126
कूल	-3127
▁सुन्दर	-3128
िमि	-3129
खेत	-3130
▁मार्ग	-3131
▁सबैले	-3132
▁नआ	-3133
▁गोर	-3134
▁फल	-3135
▁समेट	-3136
▁शरीर	-3137
▁खानेपानी	-3138
▁कम्पनीको	-3139
▁प्रहरीको	-3140
▁३१	-3141
▁कट	-3142
▁त्यसो	-3143
▁अपना	-3144
▁तथ्यांक	-3145
किने	-3146
▁विमानस्थल	-3147
▁बैंकको	-3148
▁समाजमा	-3149
▁शव	-3150
किलो	-3151
▁पुग्न	-3152
▁दलको	-3153
परेको	-3154
▁नियुक्त	-3155
▁गल्	-3156
▁ऊर्जा	-3157
▁सडकमा	-3158
▁पार्ने	-3159
आफ	-3160
▁पार्टीले	-3161
▁न्यायाधीश	-3162
तक	-3163
र्का	-3164
त्तै	-3165
▁निम्ति	-3166
त्कार	-3167
▁हिंसा	-3168
त्ती	-3169
▁कोरिया	-3170
▁संवैधानिक	-3171
▁दुबै	-3172
▁चुना	-3173
▁भारतले	-3174
▁तपाईंको	-3175
▁उद्घाटन	-3176
▁राखेका	-3177
▁लगाएर	-3178
▁प्रग	-3179
रहे	-3180
मन्त्रीले	-3181
▁कार्यरत	-3182
श्र	-3183
▁गण्डकी	-3184
▁नागरिकता	-3185
छु	-3186
▁जाग	-3187
▁कम्युनिस्ट	-3188
न्तव्य	-3189
▁फोटो	-3190
▁अनुरोध	-3191
▁हित	-3192
▁बनाएका	-3193
▁कडा	-3194
प्रधान	-3195
▁भारतमा	-3196
▁वर्तमान	-3197
▁वाणिज्य	-3198
▁रू	-3199
▁पृथ	-3200
च्छा	-3201
▁कार्यक्रमको	-3202
पक्षी	-3203
▁भग	-3204
▁निर्धारण	-3205
▁यात्रु	-3206
भूत	-3207
▁लागी	-3208
माव	-3209
▁माधव	-3210
घाट	-3211
▁प्रतिनि	-3212
तह	-3213
▁लोकतान्त्रिक	-3214
▁तर्क	-3215
▁दोहो	-3216
▁उपयुक्त	-3217
▁नभएका	-3218
त्न	-3219
ालो	-3220
▁ग्या	-3221
▁लामा	-3222
पथ	-3223
पुरको	-3224
▁स्वदेश	-3225
▁सन्दर्भमा	-3226
▁विभागले	-3227
▁सम्पर्क	-3228
▁अवि	-3229
▁बनाउ	-3230
▁उपस्थित	-3231
हानगर	-3232
▁जाँच	-3233
▁तामाङ	-3234
▁साझा	-3235
▁भरत	-3236
▁नगरी	-3237
▁महिनामा	-3238
▁सञ्चालक	-3239
▁जिल्लाका	-3240
▁स्वीकार	-3241
▁तिनी	-3242
वार्य	-3243
▁ज्ञा	-3244
▁पाकिस्ता	-3245
▁लक्ष्	-3246
▁महत्	-3247
जाइ	-3248
▁प्राकृतिक	-3249
व्र	-3250
▁मर्म	-3251
▁अभिभाव	-3252
▁बंग	-3253
एक	-3254
▁व्यावसाय	-3255
▁कानून	-3256
▁अनिवार्य	-3257
▁छिम	-3258
क्रो	-3259
▁जोग	-3260
▁व्यक्तिको	-3261
बन्दी	-3262
दूर	-3263
▁केसी	-3264
ेन्स	-3265
▁महाधिवेशन	-3266
जमा	-3267
▁बसेका	-3268
▁मगर	-3269
▁कतै	-3270
▁भत्	-3271
▁रणनी	-3272
▁बार	-3273
▁पहिरो	-3274
▁स्वय	-3275
▁सार	-3276
▁भाडा	-3277
मेल	-3278
▁चढ	-3279
पण	-3280
▁लामि	-3281
ुपयोग	-3282
▁चौधरी	-3283
ीलाई	-3284
▁काँग	-3285
▁श्रीमती	-3286
व्यक्ति	-3287
मिला	-3288
कारण	-3289
▁सिट	-3290
वार्ड	-3291
राको	-3292
सहितको	-3293
▁खड्का	-3294
▁टेलि	-3295
▁उचित	-3296
▁झन्	-3297
▁दबाब	-3298
श्वास	-3299
▁भनाई	-3300
▁विश्ले	-3301
▁कहिल्यै	-3302
चर	-3303
▁अत्या	-3304
▁सै	-3305
▁खेल्ने	-3306
टेड	-3307
▁बहादुर	-3308
बीचको	-3309
▁पर्याप्त	-3310
▁अख्तियार	-3311
▁प्रारम्भ	-3312
▁पालिका	-3313
▁मिति	-3314
▁दोष	-3315
▁चर्च	-3316
▁ज्या	-3317
▁प्रकृति	-3318
▁मोबाइल	-3319
▁हाइ	-3320
▁बीचमा	-3321
▁पुस्ता	-3322
▁साझ	-3323
निर्माण	-3324
▁लामिछा	-3325
▁प्रतिक्रिया	-3326
नियर	-3327
▁चिन्ता	-3328
▁भावना	-3329
▁कदम	-3330
▁चुनावमा	-3331
▁काठमाडौंमा	-3332
न्सर	-3333
▁हासिल	-3334
▁फेला	-3335
▁गरिसकेको	-3336
▁चाहिँ	-3337
र्नु	-3338
चन्द्र	-3339
▁मिलेर	-3340
▁दिउँ	-3341
▁किनभने	-3342
▁दुर्घटना	-3343
▁देखिएका	-3344
▁छानबिन	-3345
मेश	-3346
▁वर्षदेखि	-3347
मले	-3348
▁सशस्त्र	-3349
▁उनीहरुलाई	-3350
▁नतिजा	-3351
ङका	-3352
▁पुगेर	-3353
▁काँग्रेस	-3354
व्या	-3355
स्ट्र	-3356
लगायतका	-3357
▁ट्या	-3358
▁धान	-3359
▁मौसम	-3360
ीक	-3361
००	-3362
▁राजीनामा	-3363
▁जनालाई	-3364
▁सुरुवा	-3365
▁हस्तान्तरण	-3366
लक	-3367
त्सा	-3368
▁अग	-3369
देवी	-3370
▁अभ्यास	-3371
▁जमिन	-3372
ह्रो	-3373
यनमा	-3374
▁सिद्धान्त	-3375
▁बेलायत	-3376
▁तस्	-3377
▁जान्छ	-3378
हुँ	-3379
ट्टा	-3380
▁अवधिमा	-3381
▁यसैगरी	-3382
▁इतिहास	-3383
▁त्यस्ता	-3384
▁अधिवेश	-3385
प्रमुख	-3386
▁निर्माणका	-3387
▁नगद	-3388
▁मेस	-3389
▁आएपछि	-3390
लका	-3391
▁विकासका	-3392
▁उजुरी	-3393
▁महसुस	-3394
▁सरकारका	-3395
▁ढा	-3396
▁भएकोले	-3397
▁चलि	-3398
भाइ	-3399
▁जनप्रतिनिधि	-3400
▁बुझा	-3401
▁महोत्सव	-3402
▁अभिने	-3403
▁नसक्	-3404
▁एन्	-3405
गढी	-3406
▁पुस्तक	-3407
▁छिटो	-3408
रोह	-3409
▁लकडाउन	-3410
▁सब	-3411
्याल	-3412
▁प्रतियोगितामा	-3413
▁विद्यालयमा	-3414
हरुसँग	-3415
▁प्ले	-3416
▁चुनावी	-3417
▁सम्मेलन	-3418
रे	-3419
ण्डै	-3420
▁स्वागत	-3421
▁पार्न	-3422
ष्णु	-3423
▁स्थित	-3424
▁अलि	-3425
▁हस्ताक्षर	-3426
▁सजा	-3427
निया	-3428
▁शासन	-3429
▁गाउँमा	-3430
डर	-3431
▁धारा	-3432
वाइ	-3433
▁निस्	-3434
▁सर्वसाधारण	-3435
काे	-3436
▁बला	-3437
▁बहस	-3438
▁एमालेले	-3439
▁हैन	-3440
▁रक्त	-3441
▁जिम्मा	-3442
▁जनशक्ति	-3443
▁भोट	-3444
न्टर	-3445
▁एमालेका	-3446
खबर	-3447
ारायण	-3448
▁संघका	-3449
तिहासिक	-3450
सामा	-3451
▁मोड	-3452
▁तराई	-3453
▁खि	-3454
▁उम्मेदवारी	-3455
▁अत्यन्त	-3456
▁ठेक्का	-3457
▁प्रवाह	-3458
▁वार्षिक	-3459
सुकै	-3460
▁उपमहानगर	-3461
▁समृद्धि	-3462
लादेश	-3463
▁भएमा	-3464
सीसी	-3465
▁प्रतिबद्धता	-3466
प्पणी	-3467
▁भन्सार	-3468
र्ति	-3469
शासन	-3470
▁प्रवृत्ति	-3471
चौ	-3472
▁सांस्कृतिक	-3473
▁ट्रम्प	-3474
▁झण्डै	-3475
▁मन्त्रिपरिषद्	-3476
▁प्रहार	-3477
▁तोकिएको	-3478
लम्ब	-3479
▁पछाडि	-3480
श्वर	-3481
▁३२	-3482
▁दौ	-3483
▁महिलाको	-3484
),	-3485
▁पाइएको	-3486
▁जहा	-3487
▁उत्प	-3488
▁रेल	-3489
दछन्	-3490
▁प्राथमिकता	-3491
▁विभा	-3492
डिङ	-3493
ताव	-3494
▁कल	-3495
▁सूर्य	-3496
ठी	-3497
▁उपकरण	-3498
र्घ	-3499
▁दिउँसो	-3500
▁केन्द्रका	-3501
थम	-3502
▁उत्सा	-3503
यको	-3504
▁निगम	-3505
▁चित्र	-3506
▁पञ्च	-3507
▁बमोजिम	-3508
▁सजिलो	-3509
चक	-3510
▁आलोचना	-3511
▁दिनको	-3512
▁दिनुपर्ने	-3513
नल	-3514
सिंह	-3515
▁हिसाबले	-3516
ियो	-3517
भे	-3518
▁४५	-3519
▁रोक्न	-3520
▁रक्षा	-3521
▁केन्द्रमा	-3522
▁औपचारिक	-3523
मार्ट	-3524
▁चयन	-3525
▁खारे	-3526
▁रगत	-3527
बे	-3528
▁केवल	-3529
▁प्ला	-3530
▁कैला	-3531
▁बन्दै	-3532
▁गाह्रो	-3533
▁टी	-3534
पर्छ	-3535
▁मेला	-3536
▁राज्यको	-3537
▁एजेन्	-3538
प्रपा	-3539
▁मेगा	-3540
▁आधा	-3541
▁प्रगति	-3542
▁अदालतमा	-3543
▁निरन्तरता	-3544
▁उद्धार	-3545
▁सीमित	-3546
▁थुप्रै	-3547
▁राजस्व	-3548
▁भेला	-3549
▁मुलुकमा	-3550
▁दशक	-3551
▁आफन्त	-3552
पूर्वक	-3553
▁सुदूर	-3554
शुप	-3555
जाने	-3556
▁कोइराला	-3557
ठो	-3558
▁मल	-3559
▁कमी	-3560
▁राउ	-3561
श्चा	-3562
▁मुलुकको	-3563
मूल	-3564
▁साधारण	-3565
▁जसरी	-3566
▁ऐतिहासिक	-3567
▁नेपाललाई	-3568
▁नियुक्ति	-3569
▁काउ	-3570
▁अभिनय	-3571
▁पीडा	-3572
ीया	-3573
▁देखिने	-3574
ोरै	-3575
▁अन्	-3576
▁मोर	-3577
▁२०७४	-3578
विन	-3579
▁पदमा	-3580
▁निकट	-3581
▁सेवन	-3582
▁शेरबहादुर	-3583
▁घो	-3584
वत	-3585
▁किश	-3586
▁दुर	-3587
▁प्रतिनिध	-3588
र्मा	-3589
ँस	-3590
▁ब्याज	-3591
▁ढंगले	-3592
▁आह	-3593
ेशन	-3594
भित्रै	-3595
▁श्रमिक	-3596
▁घरेलु	-3597
▁साढे	-3598
▁प्राय	-3599
▁ठु	-3600
▁व्यवस्थाप	-3601
▁मिनेटमा	-3602
घु	-3603
क्रा	-3604
▁जनतालाई	-3605
▁तथ्य	-3606
▁निष्कर्ष	-3607
▁झु	-3608
▁आयोजनाको	-3609
कट	-3610
▁प्रतिवेद	-3611
तरा	-3612
▁संकेत	-3613
▁सम्पाद	-3614
शाली	-3615
▁सुनिश्चित	-3616
▁लामिछाने	-3617
▁चालु	-3618
संख्या	-3619
▁निः	-3620
▁सुनु	-3621
र्ती	-3622
▁सदर	-3623
▁वास्तविक	-3624
▁भन्नु	-3625
▁लाइन	-3626
▁खटि	-3627
▁एवम्	-3628
▁बुझ्न	-3629
▁प्रसारण	-3630
्यता	-3631
▁तुलनामा	-3632
▁महत्त्व	-3633
▁प्रावधान	-3634
▁जेल	-3635
▁टिप्पणी	-3636
इरहेको	-3637
▁फैसला	-3638
बास	-3639
▁बिजु	-3640
स्की	-3641
▁ब्	-3642
▁नगरेको	-3643
▁संचालन	-3644
न्थ	-3645
▁राजदू	-3646
टिल	-3647
▁पाउ	-3648
भाविक	-3649
स्को	-3650
कामना	-3651
▁निर्मा	-3652
शाला	-3653
▁छिमेकी	-3654
▁गणतन्त्र	-3655
▁मेल	-3656
▁फर	-3657
▁राजनीतिमा	-3658
प्रिय	-3659
▁तहका	-3660
▁तपाईंले	-3661
▁माध्यमबाट	-3662
▁माथ	-3663
▁विकासको	-3664
जन्य	-3665
▁पात्र	-3666
▁क्वार	-3667
▁पशुप	-3668
रीका	-3669
टाले	-3670
▁संविधानको	-3671
▁पुँजी	-3672
▁उपाधि	-3673
तावास	-3674
▁वाम	-3675
▁पाउँ	-3676
िमा	-3677
▁थोरै	-3678
▁भ्या	-3679
▁बग	-3680
▁उभि	-3681
ट्या	-3682
▁चिया	-3683
यन्त्र	-3684
▁सरकारमा	-3685
बारी	-3686
तिका	-3687
▁निरा	-3688
र्द	-3689
र्पा	-3690
▁गरिनेछ	-3691
ईं	-3692
▁बुढा	-3693
▁हुनसक्छ	-3694
▁द्वन्द	-3695
खेल	-3696
सेवा	-3697
दीको	-3698
ब्र	-3699
▁टिकट	-3700
▁परिषद्	-3701
▁हक	-3702
▁तिर	-3703
▁त्यतिबेला	-3704
▁जनाएका	-3705
मका	-3706
▁तोक	-3707
▁नरहेको	-3708
▁गराइ	-3709
▁अवार्ड	-3710
▁प्रशिक्षण	-3711
▁काट	-3712
▁गरिरह	-3713
▁तीव्र	-3714
▁मद्द	-3715
▁पहिला	-3716
▁अनुहार	-3717
▁राजमार्ग	-3718
▁व्यावसायिक	-3719
▁निर्माणमा	-3720
▁२०५	-3721
गोल	-3722
टीमा	-3723
▁जनसंख्या	-3724
▁नभएर	-3725
न्धु	-3726
▁निस्क	-3727
भेद	-3728
▁पत्ता	-3729
चु	-3730
नित	-3731
▁भनिन्छ	-3732
क्षम	-3733
▁कार्यालयका	-3734
▁गुरुङले	-3735
▁पर्दछ	-3736
▁राप्रपा	-3737
▁मुस्	-3738
जस्तै	-3739
▁अथ	-3740
▁मञ्च	-3741
▁मले	-3742
▁लगातार	-3743
▁खोजि	-3744
▁गरिन्	-3745
▁परिचालन	-3746
▁परराष्ट्र	-3747
▁बनाइएको	-3748
▁प्रष्ट	-3749
हामी	-3750
▁स्वार्थ	-3751
▁जसको	-3752
▁२०८	-3753
जुर	-3754
▁आधुनिक	-3755
▁यादवले	-3756
▁वैज्ञानिक	-3757
जान	-3758
▁बाढी	-3759
▁कविता	-3760
जनक	-3761
जसो	-3762
▁शो	-3763
कुरा	-3764
▁विजय	-3765
▁दिन्छ	-3766
्याम	-3767
▁व्यवस्थित	-3768
▁तनाव	-3769
लाग	-3770
▁चर्चित	-3771
ल्पना	-3772
▁तेल	-3773
ियर	-3774
▁जलविद्य	-3775
लिया	-3776
चो	-3777
▁असन्तु	-3778
▁विविध	-3779
▁मन्त्रालयको	-3780
▁भण्डारीले	-3781
▁न्यौ	-3782
नुपर्यो	-3783
▁बर	-3784
▁आउनु	-3785
▁पशु	-3786
▁देशभर	-3787
हरूसँग	-3788
▁फूल	-3789
डको	-3790
▁बेलामा	-3791
कमल	-3792
नीको	-3793
▁कांग्रेसको	-3794
वार्ता	-3795
▁अर्य	-3796
▁अन्न	-3797
▁उपाय	-3798
▁विजयी	-3799
▁विधान	-3800
▁अप्	-3801
▁जनाले	-3802
▁नगरपालिकाले	-3803
नन्द	-3804
▁आफै	-3805
▁सापको	-3806
श्रम	-3807
▁व्यक्तिलाई	-3808
▁तलब	-3809
▁दावी	-3810
जेता	-3811
▁डर	-3812
नलाई	-3813
▁बुटवल	-3814
▁खोजेको	-3815
▁बरु	-3816
▁सफलता	-3817
कोण	-3818
▁नदिने	-3819
राइ	-3820
▁लगाए	-3821
ताब	-3822
▁बौ	-3823
▁फोहोर	-3824
▁दिला	-3825
▁आवेद	-3826
रामर्श	-3827
▁डिजि	-3828
र्कीले	-3829
ियम	-3830
▁गराएका	-3831
▁हार	-3832
▁समितिमा	-3833
▁व्यक्तिले	-3834
▁न्यौपा	-3835
▁यसबाट	-3836
▁गोरखा	-3837
▁प्रशिक्षक	-3838
▁अभिव्यक्ति	-3839
▁अनलाइनखबर	-3840
▁३३	-3841
▁पर्न	-3842
कृष्ण	-3843
▁अर्थमन्त्री	-3844
▁सँगै	-3845
▁सुदूरपश्चिम	-3846
▁स्कुल	-3847
▁उपचारका	-3848
▁बिदा	-3849
▁पर्यटकीय	-3850
▁वर्षीया	-3851
▁लेखा	-3852
▁हप्ता	-3853
▁परिच	-3854
▁बहि	-3855
घर	-3856
▁होट	-3857
▁ग्राहक	-3858
द्र्	-3859
▁२०७५	-3860
ध्यापक	-3861
▁कन्	-3862
बो	-3863
▁ते	-3864
▁सम्मेलनमा	-3865
▁परे	-3866
▁भित्	-3867
▁चीनको	-3868
▁गयो	-3869
▁क्यान्सर	-3870
▁युरोप	-3871
▁फोर	-3872
▁मिनेट	-3873
▁सन्ता	-3874
सके	-3875
▁असफल	-3876
▁देखाएको	-3877
▁गाँ	-3878
▁वडाध्यक्ष	-3879
▁चो	-3880
▁मानिन्छ	-3881
तीको	-3882
▁नजिकै	-3883
न्दे	-3884
▁पसल	-3885
▁खुशी	-3886
▁चौथो	-3887
वद्ध	-3888
▁अर्थात	-3889
▁चेताव	-3890
▁बाह	-3891
▁बनाए	-3892
▁भट्टराईले	-3893
▁सिने	-3894
दिने	-3895
▁उत्पन्न	-3896
▁बोल्दै	-3897
▁सकिएको	-3898
वडा	-3899
▁मानिसको	-3900
मला	-3901
▁विदेशमा	-3902
ेलले	-3903
▁समारोह	-3904
▁७५	-3905
▁ट्राफिक	-3906
▁दायित्व	-3907
▁दर्जन	-3908
द्व	-3909
▁वर्षअघि	-3910
जनको	-3911
▁विश्लेषण	-3912
्वान	-3913
▁प्रथम	-3914
टीको	-3915
▁आस	-3916
▁अनेक	-3917
▁टाइ	-3918
▁मोर्चा	-3919
▁गणेश	-3920
▁बालुवा	-3921
▁पुष्पकमल	-3922
▁छे	-3923
▁अपा	-3924
र्को	-3925
▁कानू	-3926
्रोल	-3927
यौँ	-3928
▁निःशुल्क	-3929
▁परामर्श	-3930
लिज	-3931
▁पठाउने	-3932
लिङ	-3933
▁खाद्य	-3934
फि	-3935
शाखा	-3936
▁कामको	-3937
वमा	-3938
▁दीर्घ	-3939
▁समूहले	-3940
▁बनि	-3941
▁प्रतिबन्ध	-3942
एसपी	-3943
▁द्वन्द्व	-3944
रीत	-3945
वीर	-3946
▁९०	-3947
▁शिक्ष	-3948
▁नगरपालिकाका	-3949
क्सी	-3950
▁राणा	-3951
▁चेतावनी	-3952
▁नेताहरु	-3953
▁छै	-3954
▁सैनिक	-3955
▁जीवनमा	-3956
लोकन	-3957
▁बहुमत	-3958
▁पालना	-3959
▁बताउनु	-3960
▁हस्त	-3961
क्सा	-3962
व्यापी	-3963
▁स्थल	-3964
▁सहयोगमा	-3965
▁ओलीको	-3966
▁न्यु	-3967
▁अप्र	-3968
▁खर्ब	-3969
▁हाँ	-3970
▁निर्यात	-3971
ेलिक	-3972
▁रहेर	-3973
▁हल	-3974
▁टाढा	-3975
▁गन्तव्य	-3976
▁कारवाही	-3977
▁समयमै	-3978
▁गर्नुहोस्	-3979
▁च्याम्प	-3980
▁प्रसाद	-3981
▁देउवाले	-3982
▁लिए	-3983
▁कसैलाई	-3984
▁शेर्पा	-3985
गरमा	-3986
चाइ	-3987
र्चु	-3988
▁सुर्	-3989
्छन्	-3990
र्दै	-3991
▁गर्छु	-3992
▁विभागका	-3993
▁पठाएको	-3994
▁पुगे	-3995
सङ्	-3996
▁कप्ता	-3997
▁बंगलादेश	-3998
▁महेन्द्र	-3999
▁माछा	-4000
▁हालै	-4001
▁आपूर्ति	-4002
▁विकासमा	-4003
प्रधानमन्त्री	-4004
▁चेत	-4005
▁नागरिकको	-4006
न्थे	-4007
▁प्रस्तु	-4008
स्टर	-4009
▁संसदमा	-4010
भार	-4011
जात	-4012
▁एकजना	-4013
▁पाण्डे	-4014
▁राज्यले	-4015
▁शेयर	-4016
▁आह्वान	-4017
▁विना	-4018
▁पाइने	-4019
स्थलमा	-4020
▁कार्कीले	-4021
▁आयोजनामा	-4022
लिन	-4023
▁लगाइ	-4024
▁लक्षित	-4025
▁गृहमन्त्री	-4026
वनमा	-4027
▁जय	-4028
▁विगतमा	-4029
▁उपमहानगरपालिका	-4030
▁लगानीकर्ता	-4031
ाउको	-4032
▁अष्ट्र	-4033
▁लगाएका	-4034
▁एनआर	-4035
▁प्रधानमन्त्रीले	-4036
▁संकट	-4037
▁सुत्	-4038
▁लागु	-4039
ईको	-4040
▁संस्थाको	-4041
▁यसपटक	-4042
वर्ष	-4043
▁मतदाता	-4044
षे	-4045
▁खारेज	-4046
▁थालेपछि	-4047
द्रो	-4048
स्वा	-4049
धिकार	-4050
▁विनियोजन	-4051
▁व्यापारी	-4052
▁क्षेत्रीय	-4053
▁जटिल	-4054
नाका	-4055
क्सन	-4056
▁देख्न	-4057
रुवा	-4058
▁संवाद	-4059
▁तिमी	-4060
मुकाम	-4061
नुपर्दछ	-4062
▁देखियो	-4063
▁रात	-4064
▁एमालेको	-4065
▁स्थग	-4066
▁इच्छा	-4067
▁इन्जि	-4068
गमा	-4069
मावली	-4070
▁त्रिभु	-4071
▁बलात्कार	-4072
▁भरि	-4073
नीतिक	-4074
▁सफा	-4075
▁सजाय	-4076
▁लाग्न	-4077
मल	-4078
▁बाँच	-4079
▁रवि	-4080
▁दै	-4081
▁निवेदन	-4082
क्षी	-4083
अहिले	-4084
▁मद्दत	-4085
▁बढ्दो	-4086
्याङ्क	-4087
▁पोखरेलले	-4088
▁बचत	-4089
▁तु	-4090
▁कम्तीमा	-4091
▁जनकपुर	-4092
▁न्यौपाने	-4093
लाम	-4094
▁बौद्ध	-4095
▁बसो	-4096
▁सत्त	-4097
▁रेक	-4098
▁सहायक	-4099
▁संस्थाले	-4100
▁दिल्	-4101
आइ	-4102
▁पानीको	-4103
▁पर्दैन	-4104
▁तल	-4105
▁समयदेखि	-4106
▁पुर्याउने	-4107
",	-4108
▁मुक्त	-4109
▁बिष	-4110
▁लागिएको	-4111
▁प्रशास	-4112
▁सदरमुकाम	-4113
▁विष्णु	-4114
सै	-4115
▁०७	-4116
▁पर्यो	-4117
▁खेल्न	-4118
▁थु	-4119
▁दूध	-4120
ानै	-4121
▁इट	-4122
▁जोडिएको	-4123
▁प्रकारको	-4124
▁मोटरसाइ	-4125
▁त्रिभुवन	-4126
▁मात्रामा	-4127
▁मौका	-4128
▁नम्ब	-4129
▁दृष्टिकोण	-4130
▁गायक	-4131
▁वर्षसम्म	-4132
▁सुर्खेत	-4133
याम	-4134
▁सधैं	-4135
▁आयोगको	-4136
▁स्मरण	-4137
▁प्रोत्सा	-4138
▁फ्रा	-4139
▁मासु	-4140
▁निर्वाह	-4141
▁महिनाको	-4142
▁बस्ती	-4143
▁आइपुग	-4144
▁संस्थागत	-4145
आफ्न	-4146
▁नाटक	-4147
▁स्वयं	-4148
ितो	-4149
▁पढ्न	-4150
▁बोकेर	-4151
जुन	-4152
▁ध्या	-4153
▁राख्नु	-4154
▁माटो	-4155
सिन्दा	-4156
▁आउँदा	-4157
▁कमल	-4158
▁प्राधिकरणले	-4159
▁नवी	-4160
र्थी	-4161
चीमा	-4162
▁कठिन	-4163
▁क्षेत्रलाई	-4164
▁निषे	-4165
▁निज	-4166
हुन्थ्यो	-4167
▁खासै	-4168
▁रोकि	-4169
न्देही	-4170
▁आवास	-4171
▁सङ्ख्या	-4172
▁रमेश	-4173
रिङ	-4174
▁विश्वकप	-4175
▁भइरहेका	-4176
▁इजला	-4177
▁लक्षण	-4178
देख	-4179
▁जहाज	-4180
पात	-4181
▁स्मार्ट	-4182
▁पुराना	-4183
▁म्यान	-4184
▁किसिमको	-4185
नारायण	-4186
▁मौलिक	-4187
▁प्रतिनिधित्व	-4188
▁परिचय	-4189
▁सकेका	-4190
िए	-4191
र्दा	-4192
ब्जा	-4193
▁महाशाखा	-4194
▁नगरपालिकाको	-4195
▁सेत	-4196
▁केसीले	-4197
▁चाड	-4198
▁भोग	-4199
▁रेडियो	-4200
▁दिवस	-4201
▁सिन्धु	-4202
▁कास्की	-4203
▁छुट्टै	-4204
▁गरौं	-4205
कर्षण	-4206
▁कपडा	-4207
▁गुणस्तर	-4208
▁दृश्य	-4209
▁डिजिटल	-4210
प्रा	-4211
द्योग	-4212
कुमारी	-4213
्लो	-4214
हिरो	-4215
▁भएकी	-4216
▁बाहिरि	-4217
▁प्रक्रियामा	-4218
▁आवेदन	-4219
▁राजेन्द्र	-4220
▁यसबारे	-4221
ुट्टा	-4222
▁राईले	-4223
▁शरीरमा	-4224
▁शुभकामना	-4225
▁अमेरिकाको	-4226
▁पार्टीमा	-4227
▁विषयलाई	-4228
ालका	-4229
▁रहन्छ	-4230
न्यायाधीश	-4231
▁चलन	-4232
ंकर	-4233
▁आधारभूत	-4234
▁कुट	-4235
▁सङ्ग	-4236
▁डिजाइ	-4237
▁शारी	-4238
▁गोली	-4239
संस्था	-4240
▁मुटु	-4241
▁नागरिकलाई	-4242
▁उत्र	-4243
कालमा	-4244
▁किनकि	-4245
ूट	-4246
युद्ध	-4247
▁अवरोध	-4248
▁धन्य	-4249
▁अथवा	-4250
▁बनाउनु	-4251
▁ठो	-4252
▁एसिया	-4253
नाम	-4254
पुरका	-4255
▁लागत	-4256
▁सालको	-4257
▁तरिकाले	-4258
▁चालक	-4259
▁पत्रिका	-4260
वहार	-4261
▁खति	-4262
▁खाली	-4263
▁जन्मि	-4264
▁प्रयोगकर्ता	-4265
भूति	-4266
▁अल्	-4267
▁२०७६	-4268
दीप	-4269
▁तयारीमा	-4270
वानी	-4271
▁यसो	-4272
ौल	-4273
▁बराबरको	-4274
▁रहेकाले	-4275
▁हुनाले	-4276
▁उद्देश्यले	-4277
रोधी	-4278
▁वर्षका	-4279
▁मैदानमा	-4280
▁पक्षले	-4281
दृ	-4282
भग	-4283
▁सरस	-4284
▁यहाँका	-4285
▁एश	-4286
▁दुरुपयोग	-4287
▁अग्	-4288
▁लाल	-4289
▁एकल	-4290
▁बिना	-4291
▁सूची	-4292
ेदारी	-4293
▁लक्ष्मी	-4294
▁ठीक	-4295
▁लिइ	-4296
▁मेरा	-4297
गढ	-4298
▁लोकप्रिय	-4299
▁शारीरिक	-4300
फ्ट	-4301
▁फिल्ममा	-4302
▁अगाडी	-4303
▁पर्दा	-4304
▁खण्डमा	-4305
वक्ता	-4306
▁प्रकरण	-4307
▁खतिवडा	-4308
क्षेत्र	-4309
▁कतार	-4310
ंदै	-4311
▁बढाएको	-4312
▁खालको	-4313
▁बिजुली	-4314
▁बिता	-4315
▁चलाउन	-4316
▁व्यापक	-4317
▁कार्ड	-4318
▁बाग	-4319
▁संस्कार	-4320
ञ्चन	-4321
▁जडान	-4322
▁छाया	-4323
भारत	-4324
▁शंका	-4325
▁उसलाई	-4326
नीले	-4327
▁३६	-4328
▁सन्तोष	-4329
▁२०४	-4330
म्स	-4331
▁गौर	-4332
्यौं	-4333
▁हेट	-4334
▁प्रकारका	-4335
▁जनाइएको	-4336
ड्ने	-4337
िन्छ	-4338
▁आधिका	-4339
▁भीम	-4340
मण	-4341
राव	-4342
▁पेशा	-4343
▁उनीहरूलाई	-4344
▁आय	-4345
▁रोप	-4346
▁मिश्र	-4347
नुपा	-4348
▁हातमा	-4349
▁रहन	-4350
▁ध्याना	-4351
▁विधेय	-4352
ेमी	-4353
र्द्ध	-4354
▁पूँजी	-4355
▁सिक	-4356
▁आयोजक	-4357
▁खतरा	-4358
▁कार्यान्वयनमा	-4359
▁मण्ड	-4360
▁संचाल	-4361
▁जितेको	-4362
▁सेन्टर	-4363
▁गाउँपालिकाको	-4364
▁लेखक	-4365
घटन	-4366
▁समी	-4367
▁गतेदेखि	-4368
जोरी	-4369
▁दफा	-4370
▁वीरगञ्ज	-4371
▁चन्द	-4372
▁अदालतको	-4373
िनो	-4374
▁सल	-4375
▁गाउँपालिकाका	-4376
▁घुम्	-4377
प्ले	-4378
▁५५	-4379
▁सङ्क्रमण	-4380
▁स्वीकृति	-4381
▁फर्का	-4382
नलमा	-4383
म्बु	-4384
ल्पा	-4385
▁हुनसक्ने	-4386
▁चाहना	-4387
▁हवाई	-4388
▁घटनामा	-4389
▁म्याद	-4390
उनुपर्ने	-4391
▁प्रेर	-4392
▁जिम्मेवार	-4393
▁चाँड	-4394
▁घरको	-4395
▁मामिला	-4396
▁समुदायको	-4397
▁स्तर	-4398
पत्रमा	-4399
▁प्रधानमन्त्रीको	-4400
▁डेढ	-4401
▁गतेसम्म	-4402
सोले	-4403
▁संघको	-4404
स्तरीय	-4405
नुपातिक	-4406
▁सर्वा	-4407
▁मिल्ने	-4408
▁विधा	-4409
▁अमेरिकामा	-4410
वनको	-4411
▁सुरुवात	-4412
▁विष्ट	-4413
खित	-4414
▁होम	-4415
▁मुद्दामा	-4416
▁अभिभावक	-4417
▁समृद्ध	-4418
▁चरि	-4419
▁पन्त	-4420
▁ल्याएर	-4421
▁छलफलमा	-4422
▁टाउको	-4423
▁परिवारका	-4424
▁एण्ड	-4425
▁स्ना	-4426
▁राजदूत	-4427
▁दशैं	-4428
▁हावा	-4429
▁ठहर	-4430
▁थिएनन्	-4431
▁प्रारम्भिक	-4432
▁दर्शक	-4433
हामीले	-4434
▁हुँदैछ	-4435
▁प्रकाशन	-4436
कल्प	-4437
▁कञ्चन	-4438
▁अवै	-4439
किन	-4440
हीँ	-4441
▁विभेद	-4442
गण	-4443
▁संख्यामा	-4444
▁प्रतिशतले	-4445
▁अध्यादेश	-4446
▁समाजको	-4447
▁विद्युतीय	-4448
▁पढाइ	-4449
▁हेरेर	-4450
रहने	-4451
हरुबाट	-4452
▁चलाउने	-4453
▁स्वस्थ	-4454
▁परा	-4455
▁आन्दोलनमा	-4456
रेको	-4457
धारणा	-4458
▁शाक्य	-4459
▁नपाउने	-4460
▁ध्यानाकर्षण	-4461
वादीले	-4462
▁मलेसिया	-4463
केको	-4464
▁ठेक	-4465
्याउने	-4466
▁सामना	-4467
▁रिज	-4468
▁खनाल	-4469
▁निवास	-4470
▁दाहालले	-4471
▁पृथ्वी	-4472
त्वमा	-4473
▁खेलको	-4474
▁काठमाडौंको	-4475
▁बैं	-4476
▁कार्यकाल	-4477
▁सल्लाहकार	-4478
ंख	-4479
▁रिलिज	-4480
▁नेपालीको	-4481
▁टीका	-4482
▁रेकर्ड	-4483
▁दूतावास	-4484
▁रातो	-4485
ुप्	-4486
▁स्कु	-4487
▁समानुपातिक	-4488
र्मी	-4489
पान्तरण	-4490
▁सन्तुल	-4491
▁व्यस्त	-4492
ईमा	-4493
र्खा	-4494
▁उता	-4495
▁रौ	-4496
स्ति	-4497
▁संघले	-4498
▁मेसिन	-4499
▁सप्त	-4500
▁२०७७	-4501
यद	-4502
▁बागम	-4503
▁थियौं	-4504
गल	-4505
ठन	-4506
ुञ्ज	-4507
▁परिवारको	-4508
▁मित्र	-4509
ल्यान्ड	-4510
▁प्रबन्ध	-4511
▁पर्ख	-4512
▁मर्मत	-4513
▁क्यान	-4514
फे	-4515
▁फिल्मको	-4516
▁धरान	-4517
▁अच	-4518
▁आउँदै	-4519
निर्देश	-4520
▁ह्या	-4521
▁रह्यो	-4522
▁१००	-4523
रात	-4524
विर	-4525
▁एक्स	-4526
▁आनन्द	-4527
▁विघटन	-4528
▁पछ	-4529
न्ती	-4530
▁नेताहरुले	-4531
▁वायु	-4532
▁त्या	-4533
▁गरिसकेका	-4534
▁प्रजातन्त्र	-4535
▁जोशी	-4536
▁संविधानसभा	-4537
▁गुल्	-4538
▁चीनले	-4539
▁हिउँ	-4540
▁कसैको	-4541
▁हुनेछन्	-4542
▁छोटो	-4543
▁देखिए	-4544
▁अलग	-4545
▁सुरुमा	-4546
▁नसक्दा	-4547
▁सरुवा	-4548
▁दम	-4549
्याउन	-4550
▁दीपक	-4551
बुझ	-4552
▁बित	-4553
▁बुबा	-4554
▁अधिवेशन	-4555
▁जनजा	-4556
▁जसलाई	-4557
न्यास	-4558
रिक्त	-4559
▁असह	-4560
शै	-4561
टार	-4562
▁गाई	-4563
▁दिशा	-4564
▁महत्त्वपूर्ण	-4565
ंकन	-4566
▁औद्योग	-4567
▁चेक	-4568
▁पत्	-4569
▁मन्दि	-4570
▁लैजाने	-4571
▁काठमाण्ड	-4572
▁आगो	-4573
▁खुलेको	-4574
सीमा	-4575
विन्द	-4576
▁सरोकारवाला	-4577
नुहोस्	-4578
अप	-4579
▁सुनस	-4580
दिएको	-4581
▁सिक्	-4582
▁सम्व	-4583
▁मेट	-4584
▁अस्पतालको	-4585
दमै	-4586
▁बाटोमा	-4587
स्सा	-4588
▁आफैँ	-4589
गन	-4590
▁विपक्षी	-4591
▁उन्	-4592
▁हतियार	-4593
▁कार्यविधि	-4594
▁गल्ती	-4595
▁मजदुर	-4596
▁निर्माता	-4597
▁थाल्यो	-4598
भोग	-4599
▁पत्रकारि	-4600
▁जर्म	-4601
▁चरणको	-4602
लाग्	-4603
▁खोला	-4604
▁जरि	-4605
▁सभामा	-4606
▁खेल्	-4607
▁अवधारणा	-4608
▁दाजु	-4609
▁रेग्	-4610
फोन	-4611
▁आयोगका	-4612
▁स्थगित	-4613
▁किताब	-4614
▁चल्ने	-4615
▁सक्षम	-4616
▁कर्मचारीको	-4617
वती	-4618
▁बोल्	-4619
▁निर्वाचनको	-4620
▁विशेषज्ञ	-4621
▁लगभग	-4622
▁घिमिरे	-4623
▁नवल	-4624
चार्ज	-4625
▁वर्षपछि	-4626
▁विव	-4627
▁लिमि	-4628
▁अक्सि	-4629
▁कुरालाई	-4630
▁रुपन्देही	-4631
▁कुर	-4632
▁जोड्ने	-4633
▁महिलाले	-4634
▁६५	-4635
▁परिवारलाई	-4636
हरी	-4637
▁तब	-4638
▁समूहका	-4639
▁साझेदारी	-4640
राग	-4641
ल्स	-4642
▁खस	-4643
भूमि	-4644
▁चिसो	-4645
रै	-4646
ग्राही	-4647
▁देवी	-4648
▁कार्यमा	-4649
धै	-4650
▁त्यसबेला	-4651
▁अतिरिक्त	-4652
छौं	-4653
▁धन्यवाद	-4654
▁क्रियाकला	-4655
▁आधिकारिक	-4656
▁बोल	-4657
उड	-4658
▁बन्यो	-4659
▁बिच	-4660
▁तपाइँ	-4661
दैनन्	-4662
▁भागमा	-4663
▁बासिन्दा	-4664
▁महिलालाई	-4665
▁भत्ता	-4666
▁ढुंगा	-4667
▁यतिबेला	-4668
नीमा	-4669
मुखी	-4670
▁एकदमै	-4671
▁रिय	-4672
▁क्रमश	-4673
▁सत्	-4674
▁चलेको	-4675
▁सृ	-4676
▁काल	-4677
्रिक	-4678
▁कार्यक्रमका	-4679
▁कार्यसमिति	-4680
▁आकाश	-4681
▁दिनसम्म	-4682
▁पुग्यो	-4683
▁केन्द्रको	-4684
▁गर्भ	-4685
▁पेस	-4686
▁नेताले	-4687
▁पुग्छ	-4688
यले	-4689
▁नामक	-4690
▁म्याग्	-4691
▁अप्ठ	-4692
गरमाथा	-4693
ृति	-4694
▁नाफा	-4695
▁अन्तरि	-4696
▁कुराको	-4697
▁केन्द्रले	-4698
▁हृ	-4699
▁रणनीति	-4700
लुङ	-4701
▁साथमा	-4702
एनन्	-4703
▁माल	-4704
▁बस्नेत	-4705
▁विद्रो	-4706
▁परम्परागत	-4707
▁चलिरहेको	-4708
▁तपाईंलाई	-4709
स्वपा	-4710
बजार	-4711
घन	-4712
माओ	-4713
टाएर	-4714
सस	-4715
▁माथिल्लो	-4716
▁एनआरएन	-4717
▁बसि	-4718
इड	-4719
स्ने	-4720
▁हैसिय	-4721
▁लिमिटेड	-4722
▁ठुलो	-4723
▁निकुञ्ज	-4724
जनमा	-4725
▁गाउँपालिकामा	-4726
▁ओभ	-4727
▁एन्ड	-4728
▁जागिर	-4729
▁सहयोगी	-4730
▁निधन	-4731
▁बाध्यता	-4732
▁स्थानिय	-4733
▁अभियानमा	-4734
▁बालिका	-4735
▁अनौ	-4736
▁सदस्यीय	-4737
ग्राम	-4738
फर	-4739
▁मी	-4740
▁३४	-4741
▁मसा	-4742
तु	-4743
माको	-4744
▁प्राथमिकतामा	-4745
▁चाम	-4746
▁सीप	-4747
▁मिल	-4748
झदारी	-4749
▁अष्ट्रेलिया	-4750
▁इन	-4751
▁पस	-4752
ियाली	-4753
▁त्र	-4754
षि	-4755
वृद्धि	-4756
▁यथार्थ	-4757
▁गर्दछन्	-4758
▁मनमा	-4759
▁पहाडी	-4760
▁प्रमाणपत्र	-4761
नुभन्दा	-4762
ुरू	-4763
▁अफि	-4764
▁हटाउन	-4765
▁गर्छौं	-4766
▁संस्करण	-4767
▁कप्तान	-4768
▁प्रतियोगिताको	-4769
्वि	-4770
सनमा	-4771
▁दीप	-4772
▁घटेको	-4773
▁गाय	-4774
▁हकमा	-4775
▁अर्जुन	-4776
▁कोरि	-4777
▁सिमा	-4778
कां	-4779
▁नराम	-4780
▁भाइरसको	-4781
▁रमाइ	-4782
▁वर्षे	-4783
▁वृद्ध	-4784
▁लागेर	-4785
▁मुक्ति	-4786
▁प्रवद्र्	-4787
▁सके	-4788
ियत	-4789
▁उपरीक्षक	-4790
▁ढोका	-4791
▁थान	-4792
रहँदा	-4793
हत्या	-4794
▁स्वीकृत	-4795
▁३७	-4796
▁जीवनको	-4797
▁राख्दै	-4798
▁तस्क	-4799
वादको	-4800
▁बिस्तार	-4801
▁विज्ञप्तिमा	-4802
▁लगाइएको	-4803
र्यो	-4804
▁खुट्टा	-4805
गाउँ	-4806
▁आयु	-4807
▁बुझाइ	-4808
▁बेल	-4809
▁थालिएको	-4810
▁मन्त्रालयमा	-4811
चे	-4812
▁सुनाए	-4813
ारण	-4814
▁आकर्षण	-4815
▁बिग्र	-4816
▁पुग्	-4817
ल्का	-4818
▁परिषद	-4819
▁संयन्त्र	-4820
▁उपलब्धि	-4821
गन्ज	-4822
▁चौधरीले	-4823
धीन	-4824
पुग्	-4825
▁ठेकेदार	-4826
▁औद्योगिक	-4827
▁सिरि	-4828
▁समीक्षा	-4829
▁ल्याइ	-4830
▁सञ्जालमा	-4831
▁सगरमाथा	-4832
▁भन्छिन्	-4833
▁बेलु	-4834
▁साध	-4835
▁अत्यधिक	-4836
▁३८	-4837
▁प्रधानन्यायाधीश	-4838
▁लेखेका	-4839
सिए	-4840
डीले	-4841
▁वेब	-4842
▁पारेर	-4843
नुभएका	-4844
▁चलचित्रमा	-4845
▁२०७८	-4846
▁मल्	-4847
▁खड्काले	-4848
▁गाउँपालिकाले	-4849
▁दस	-4850
▁बाबुराम	-4851
▁डिभिजन	-4852
▁निको	-4853
▁खोज्ने	-4854
▁विजेता	-4855
▁साँच	-4856
▁शिक्षण	-4857
▁नकारात्मक	-4858
▁बाँड	-4859
▁तरिका	-4860
प्ने	-4861
▁समयसम्म	-4862
▁केश	-4863
▁अस्वी	-4864
▁क्रि	-4865
▁विज्ञा	-4866
▁कार्यालयको	-4867
▁सरकारसँग	-4868
▁घि	-4869
धारा	-4870
▁राखे	-4871
▁बागमती	-4872
▁फ्र	-4873
▁अस्था	-4874
▁अतिथि	-4875
होला	-4876
▁यिन	-4877
▁आकार	-4878
▁रेख	-4879
रूपमा	-4880
शेष	-4881
▁सहि	-4882
▁सम्मा	-4883
ारुढ	-4884
▁त्यसरी	-4885
निङ	-4886
▁हौं	-4887
,"	-4888
जय	-4889
माल	-4890
▁पृष्ठ	-4891
▁प्रतिवेदनमा	-4892
वाको	-4893
▁बैंकका	-4894
▁स्रोतले	-4895
▁दरबार	-4896
▁कसले	-4897
in	-4898
▁बयान	-4899
१०	-4900
▁आत	-4901
▁नगर्न	-4902
▁भरतपुर	-4903
▁चरित्र	-4904
जल	-4905
खण्ड	-4906
▁च्याम्पियन	-4907
▁बाँध	-4908
▁भित्र्या	-4909
ंगी	-4910
रका	-4911
▁गराए	-4912
▁अगुवा	-4913
▁पेट्रोल	-4914
▁पाण्डेले	-4915
▁भारतबाट	-4916
▁भइसकेका	-4917
▁घटनाको	-4918
▁आशंका	-4919
छो	-4920
▁आउँ	-4921
▁दियो	-4922
▁दुर्घटनामा	-4923
▁सत्तारुढ	-4924
काइ	-4925
▁बरा	-4926
शल	-4927
ेटिभ	-4928
▁संवेदन	-4929
▁सक्नुहुन्छ	-4930
▁पहिलोपटक	-4931
▁मासिक	-4932
▁गर्नेछन्	-4933
जत	-4934
वाना	-4935
▁सेट	-4936
▁खानेकुरा	-4937
▁विश्वका	-4938
▁मूर्	-4939
▁फलफ	-4940
▁नसकिने	-4941
▁कमजोरी	-4942
▁प्रतिकिलो	-4943
▁बनाउँछ	-4944
▁टुंगो	-4945
▁मक	-4946
▁मोह	-4947
▁विभाजन	-4948
▁समस्याको	-4949
▁हिम	-4950
▁लेखेको	-4951
खन	-4952
▁आरोपमा	-4953
▁मुद्रा	-4954
▁पुर्याउन	-4955
▁प्रतिवद्ध	-4956
▁भर्खर	-4957
विका	-4958
स्टि	-4959
▁२०७९	-4960
पल्ट	-4961
▁लघु	-4962
▁गरिब	-4963
▁ग्रहण	-4964
▁अस्पतालका	-4965
▁योग्य	-4966
▁डिजाइन	-4967
▁क्य	-4968
न्टा	-4969
▁सत	-4970
▁क्वारेन्	-4971
▁श्रील	-4972
▁बिभिन्न	-4973
▁बारा	-4974
▁लागे	-4975
▁घट्	-4976
टरमा	-4977
नैतिक	-4978
▁उदय	-4979
आफ्नो	-4980
▁उत्त	-4981
▁उनि	-4982
▁आचार्यले	-4983
▁खुवा	-4984
▁मेगावाट	-4985
▁४२	-4986
बाबु	-4987
▁हाउ	-4988
योग्य	-4989
स्वास्थ्य	-4990
▁यहाँको	-4991
▁समुह	-4992
सकीय	-4993
▁उड	-4994
▁करी	-4995
▁चल्	-4996
▁बिहे	-4997
▁गावि	-4998
मलाई	-4999
▁प्रिम	-5000
▁कर्मचारीलाई	-5001
▁नपर्ने	-5002
▁नीतिगत	-5003
▁देखेर	-5004
ट्स	-5005
▁तार	-5006
▁भारतका	-5007
▁घाटा	-5008
▁वृ	-5009
धाम	-5010
▁पुलि	-5011
▁सुशासन	-5012
प्लव	-5013
▁दिदी	-5014
▁जुनसुकै	-5015
परा	-5016
▁कल्पना	-5017
▁नगरपालिकामा	-5018
चोक	-5019
▁थारु	-5020
नेन्द्र	-5021
▁मोटरसाइकल	-5022
▁उपप्रमुख	-5023
▁सहितको	-5024
▁अस्ति	-5025
▁बनाई	-5026
▁दायर	-5027
▁असु	-5028
▁हजुर	-5029
▁मदन	-5030
▁फैलि	-5031
▁हेरि	-5032
यनको	-5033
▁भार	-5034
▁चोरी	-5035
क्रममा	-5036
▁विकसित	-5037
▁सेनाले	-5038
राले	-5039
▁खराब	-5040
मुना	-5041
▁रहेछन्	-5042
▁प्रविधिको	-5043
विहीन	-5044
मय	-5045
▁विद्यार्थीलाई	-5046
▁रिट	-5047
▁आन्दोलनको	-5048
▁पशुपति	-5049
सत	-5050
▁स्वर्ण	-5051
उमा	-5052
▁भन्यो	-5053
▁ललितपुर	-5054
▁क्षेत्रबाट	-5055
भक्त	-5056
▁समूहको	-5057
▁१९९	-5058
▁गुणस्तरीय	-5059
नेका	-5060
▁नोट	-5061
▁रचना	-5062
▁गर्थे	-5063
▁संस्थाका	-5064
▁छाडेर	-5065
▁सुवे	-5066
▁हस्तक्षेप	-5067
▁चलचित्रको	-5068
▁एफ	-5069
▁लेखिएको	-5070
▁दिनुपर्छ	-5071
किल	-5072
प्रकाश	-5073
क्ष्	-5074
माओवादी	-5075
▁प्रोत्साहन	-5076
सक्यो	-5077
भल	-5078
▁ल्याइएको	-5079
▁बसोबास	-5080
▁न्यूनतम	-5081
▁पुनर्निर्माण	-5082
▁अस्थायी	-5083
▁अध्यक्षतामा	-5084
▁दिगो	-5085
पोख	-5086
▁समझदारी	-5087
▁प्रमाणित	-5088
▁कन्ट	-5089
▁टेक	-5090
▁भुस	-5091
▁हल्ला	-5092
टका	-5093
प्टर	-5094
▁दशम	-5095
▁गोविन्द	-5096
▁तोड	-5097
▁पाठ्य	-5098
▁बस्दै	-5099
▁धर	-5100
ङ्गो	-5101
ित्तिकै	-5102
▁जै	-5103
▁पाउनु	-5104
▁चाहन्छु	-5105
▁कोरोनाको	-5106
▁बम	-5107
जले	-5108
▁दलले	-5109
यस	-5110
▁धनगढी	-5111
▁छाप	-5112
▁गर्दैन	-5113
▁चिन्	-5114
▁२०७२	-5115
▁दर्शन	-5116
मुक्त	-5117
निर्वा	-5118
▁पछिल्ला	-5119
▁अश	-5120
जीको	-5121
दिए	-5122
▁महामन्त्री	-5123
ब्बा	-5124
कल्पिक	-5125
▁मधु	-5126
▁सडकको	-5127
▁भेटिएको	-5128
▁रावल	-5129
▁काउन्	-5130
सिङ	-5131
ब्य	-5132
▁अबको	-5133
दरबार	-5134
▁सेवामा	-5135
▁ढकालले	-5136
▁भक्तपुर	-5137
▁काँ	-5138
▁खाता	-5139
▁ब्रि	-5140
▁व्याख्या	-5141
▁चोक	-5142
हरूबाट	-5143
▁नायिका	-5144
अब	-5145
▁विशि	-5146
प्रतिको	-5147
▁आकर्षक	-5148
▁आइसोले	-5149
ङक	-5150
▁नाच	-5151
दायी	-5152
▁स्टार	-5153
ोस्	-5154
ौली	-5155
▁कैद	-5156
▁मार्	-5157
▁हिँ	-5158
▁बिका	-5159
ामीण	-5160
▁डुब	-5161
▁विश्वव्यापी	-5162
मात्रै	-5163
▁सवाल	-5164
▁चिकित्सा	-5165
वस्तु	-5166
▁औँ	-5167
▁महतो	-5168
▁भोज	-5169
▁आइरहेको	-5170
▁रोकिएको	-5171
▁तोकेको	-5172
▁ठाकुर	-5173
एच	-5174
▁तल्लो	-5175
कुम	-5176
सिस	-5177
▁एल	-5178
▁सकेनन्	-5179
▁दाइ	-5180
▁काभ	-5181
लम्बन	-5182
▁कोशी	-5183
▁इन्टरनेट	-5184
यू	-5185
▁मानिसहरु	-5186
ोषण	-5187
▁शैली	-5188
▁दुर्गा	-5189
▁म्यु	-5190
▁छौ	-5191
वायु	-5192
▁मसान्त	-5193
▁पोस्ट	-5194
▁अलिक	-5195
▁गौरव	-5196
▁चक्र	-5197
▁सजिलै	-5198
रू	-5199
▁तत्व	-5200
▁रुख	-5201
▁देशलाई	-5202
▁प्रणालीमा	-5203
▁अग्रता	-5204
▁अवरुद्ध	-5205
▁कर्मचारीले	-5206
नाल्	-5207
▁कूट	-5208
▁अस्पतालले	-5209
▁जाति	-5210
सम्मका	-5211
▁बहा	-5212
▁पठाइ	-5213
साई	-5214
▁नलाग	-5215
▁जातीय	-5216
▁ग्रामीण	-5217
▁सर्वाधिक	-5218
▁मारि	-5219
▁विश्वासको	-5220
▁मकवान	-5221
▁कुकुर	-5222
▁दुईवटा	-5223
▁चाहिन्छ	-5224
▁कपि	-5225
▁पठाउन	-5226
न्थी	-5227
▁खडा	-5228
▁समयको	-5229
▁सम्पदा	-5230
▁पाल्	-5231
ौंडा	-5232
▁बनाउँदै	-5233
▁नैतिक	-5234
▁भाषामा	-5235
▁गिरी	-5236
▁श्रीमा	-5237
▁पूर्वी	-5238
▁इजरा	-5239
िरहेका	-5240
▁अवैध	-5241
▁लिखित	-5242
▁क्याम्पस	-5243
▁प्रती	-5244
।"	-5245
▁हिस्सा	-5246
पले	-5247
सिना	-5248
जीकरण	-5249
▁जुम्	-5250
▁अस्ट्र	-5251
▁प्रदीप	-5252
▁शू	-5253
्वाइ	-5254
▁भुट	-5255
▁बढ्छ	-5256
▁विस्त	-5257
▁विद्यार्थीको	-5258
नुको	-5259
▁नेट	-5260
▁धितो	-5261
▁प्रायः	-5262
▁निजाम	-5263
▁उपभोग	-5264
मूलक	-5265
▁फैलिएको	-5266
▁कर्त	-5267
▁इन्द्र	-5268
▁५१	-5269
एकाले	-5270
▁आदिवासी	-5271
▁एकपटक	-5272
▁उस्तै	-5273
▁गीतमा	-5274
र्फत्	-5275
▁सिंहले	-5276
▁आमाको	-5277
▁बुद्धि	-5278
▁विपरीत	-5279
▁पोखरामा	-5280
▁संवेदनशील	-5281
विद्	-5282
▁प्रवर्द्ध	-5283
▁बढिरहेको	-5284
▁उत्तिकै	-5285
ङ्ग्र	-5286
▁पुग्दा	-5287
ँदे	-5288
टले	-5289
▁जसका	-5290
▁शक्तिशाली	-5291
▁गुट	-5292
▁कहिलेका	-5293
▁चोट	-5294
▁चौकी	-5295
▁समाजका	-5296
▁सस्तो	-5297
▁सक्नु	-5298
▁तन	-5299
▁उत्साह	-5300
▁हिन्दु	-5301
▁आत्महत्या	-5302
वश्यक	-5303
३०	-5304
▁.	-5305
▁धनु	-5306
▁बनेर	-5307
यमित	-5308
▁अवलोकन	-5309
▁कम्पनीका	-5310
▁सिनेमा	-5311
डाइ	-5312
▁भगवान	-5313
▁सुपर	-5314
▁बजेटमा	-5315
▁कार्यक्रमलाई	-5316
▁अडान	-5317
▁युनियन	-5318
▁४८	-5319
▁नेकपाका	-5320
त्तर	-5321
▁गएपछि	-5322
काउने	-5323
माध्यम	-5324
▁रास्वपा	-5325
▁मल्ल	-5326
▁देखिन	-5327
▁जित्ने	-5328
▁बर्दि	-5329
▁वटै	-5330
▁त्यसकारण	-5331
▁चर	-5332
▁२०२०	-5333
▁बलमा	-5334
▁अन्नपूर्ण	-5335
ञ्जन	-5336
भरी	-5337
▁मूल्यमा	-5338
▁मनोर	-5339
▁दीर्घकालीन	-5340
▁चिनि	-5341
▁अल्प	-5342
▁मनाउने	-5343
▁सेनाको	-5344
▁शाहले	-5345
▁पर्सा	-5346
▁विवेक	-5347
▁नेताहरू	-5348
▁सूचीमा	-5349
▁हुन्न	-5350
ाउनुपर्छ	-5351
▁बेप	-5352
गरानी	-5353
कका	-5354
▁मूल्यांक	-5355
▁स्टा	-5356
▁खेलेको	-5357
▁भीड	-5358
▁काराग	-5359
र्प	-5360
▁रमाइलो	-5361
▁खानु	-5362
▁विद्यालयको	-5363
▁कानूनी	-5364
▁आक्रो	-5365
▁लैजान	-5366
▁असन्तुष्टि	-5367
▁फाउ	-5368
▁समूहमा	-5369
ट्टै	-5370
्यारा	-5371
▁भिसा	-5372
▁जंग	-5373
▁सेवाको	-5374
▁ज्ञानेन्द्र	-5375
ेसी	-5376
▁ज्व	-5377
▁निगरानी	-5378
▁नदिन	-5379
▁गौतमले	-5380
ख्य	-5381
▁दिनेश	-5382
▁बोल्न	-5383
भित्रको	-5384
▁३९	-5385
▁वडामा	-5386
▁सायद	-5387
▁मिस	-5388
▁घिमिरेले	-5389
▁कित्	-5390
▁युट	-5391
▁जसपा	-5392
बन्द	-5393
थान	-5394
▁हद	-5395
▁फेस	-5396
▁नमा	-5397
▁रोकथा	-5398
▁खनालले	-5399
ौट	-5400
▁जरिवाना	-5401
निर्देशक	-5402
▁भन्नेमा	-5403
▁सुनुवाइ	-5404
▁पश्चा	-5405
▁मन्त्रिपरिषद	-5406
▁जलवायु	-5407
एई	-5408
▁विशिष्ट	-5409
▁बाली	-5410
▁एजेन्सी	-5411
▁जेन	-5412
▁स्वास्थ्यकर्मी	-5413
▁प्रशंसा	-5414
▁डाइ	-5415
▁स्थानीयले	-5416
द्यान्न	-5417
ेरा	-5418
यात्रा	-5419
▁मावि	-5420
▁सिम	-5421
▁कक्ष	-5422
on	-5423
▁नक्सा	-5424
▁मधेसी	-5425
▁स्टो	-5426
▁दिएपछि	-5427
▁स्वतन्त्रता	-5428
▁आकर्षित	-5429
▁कीर्ति	-5430
ूहिक	-5431
er	-5432
▁सापकोटा	-5433
▁धनी	-5434
▁भारी	-5435
▁धेरैले	-5436
▁आफैंले	-5437
▁मोहन	-5438
▁भविष्यमा	-5439
ुरुन्त	-5440
▁मानवीय	-5441
▁पार्टीलाई	-5442
▁आएकी	-5443
▁जित्न	-5444
▁तिहार	-5445
▁समाप्त	-5446
▁नागरिकले	-5447
▁नपुग	-5448
▁रहि	-5449
▁विसं	-5450
▁वास्तवमा	-5451
नीकरण	-5452
टीका	-5453
▁खुल्ला	-5454
▁क्रमशः	-5455
स्पद	-5456
▁जनाए	-5457
▁पञ्चा	-5458
▁उमेरमा	-5459
रस	-5460
्यारो	-5461
▁क्रान्तिकारी	-5462
म्बुले	-5463
▁देखाउन	-5464
▁माओवादीले	-5465
▁एप	-5466
▁तुलसी	-5467
▁गुल्मी	-5468
वित	-5469
▁विज्ञापन	-5470
इरहेका	-5471
▁फलफूल	-5472
दुई	-5473
▁बजेसम्म	-5474
▁पक्कै	-5475
▁किरण	-5476
यरमा	-5477
म्बार	-5478
▁खाद्यान्न	-5479
▁गोपाल	-5480
▁कोइरालाले	-5481
▁विशाल	-5482
▁परिवारले	-5483
ण्डर	-5484
▁अनाव	-5485
▁तारा	-5486
कता	-5487
▁तुरुन्त	-5488
▁पहाड	-5489
▁भेट्न	-5490
▁अक्सिजन	-5491
▁खिच	-5492
▁मानिसले	-5493
हाले	-5494
▁नियमावली	-5495
निर्भर	-5496
▁बानी	-5497
▁भिन्न	-5498
▁दिल्ली	-5499
▁परम	-5500
श्रमिक	-5501
▁सामूहिक	-5502
▁रिस	-5503
उप	-5504
▁ठिक	-5505
▁सञ्चालित	-5506
▁पद्ध	-5507
▁चाहेको	-5508
▁इलाका	-5509
▁स्थिर	-5510
▁संस्थापक	-5511
घरमा	-5512
तया	-5513
लिम	-5514
▁भिड	-5515
मित्व	-5516
▁प्	-5517
▁संविधानले	-5518
▁सेवाग्राही	-5519
▁दरले	-5520
▁छात्र	-5521
▁ताप	-5522
तन	-5523
ड्रो	-5524
▁उल्ल	-5525
ेरु	-5526
▁रहँदा	-5527
▁शुद्ध	-5528
▁गाउ	-5529
▁सवै	-5530
चाह	-5531
▁बिरामीको	-5532
▁मनाइ	-5533
मण्ड	-5534
हिने	-5535
▁सामाग्री	-5536
▁रोगको	-5537
▁विप्लव	-5538
ईएको	-5539
▁दशमलव	-5540
▁राय	-5541
▁दुर्ग	-5542
▁ड्र	-5543
▁बेपत्ता	-5544
▁अस्वीकार	-5545
क्की	-5546
▁वैकल्पिक	-5547
सनको	-5548
▁चुर	-5549
▁सुरू	-5550
क्कली	-5551
िरहेको	-5552
▁जोखिममा	-5553
▁४१	-5554
▁हेटौंडा	-5555
▁प्रहरीका	-5556
▁बैशाख	-5557
▁समायोजन	-5558
▁सघ	-5559
▁पारदर्श	-5560
एँ	-5561
▁सहसचिव	-5562
▁काठ	-5563
▁बस्नेतले	-5564
ईन	-5565
▁हिं	-5566
▁टेलिभिजन	-5567
स्यौ	-5568
▁तिनै	-5569
▁श्रीमान	-5570
ेन्ड	-5571
▁लुट	-5572
▁पोष्ट	-5573
▁सभाको	-5574
▁जोडी	-5575
▁हिरा	-5576
▁चित्त	-5577
▁दाङ	-5578
▁प्राप्	-5579
▁एक्लै	-5580
▁विज्ञप्ति	-5581
ढु	-5582
▁छुट्या	-5583
▁रामचन्द्र	-5584
▁बराम	-5585
▁नेपालबाट	-5586
र्जी	-5587
नात्मक	-5588
▁चाहिने	-5589
्यानल	-5590
▁अलपत्र	-5591
▁प्रशासनले	-5592
▁४४	-5593
छोरी	-5594
▁सहजीकरण	-5595
▁कोठामा	-5596
▁उहाँलाई	-5597
▁प्रकट	-5598
▁फाइनल	-5599
▁रेड	-5600
▁साउदी	-5601
▁व्यक्तित्व	-5602
केट	-5603
▁क्रियाशील	-5604
▁सन्तान	-5605
तका	-5606
▁पढ्ने	-5607
स्थापित	-5608
▁हिमाली	-5609
षाध्यक्ष	-5610
▁शिक्षाको	-5611
एमा	-5612
▁भएकै	-5613
▁जोगाउन	-5614
▁चाहन्छ	-5615
▁हारा	-5616
▁नराम्रो	-5617
▁विस्तृत	-5618
्रु	-5619
▁नृ	-5620
▁माझ	-5621
▁खालका	-5622
▁गहिरो	-5623
धारित	-5624
लाइन्	-5625
हिता	-5626
परी	-5627
▁सन	-5628
▁नलि	-5629
▁अनलाइनखबरसँग	-5630
▁क्षण	-5631
▁श्रेष्ठको	-5632
▁नपाएको	-5633
न्नु	-5634
▁संस्थान	-5635
पक्षीय	-5636
▁अमेरिकाले	-5637
▁मदि	-5638
▁बुवा	-5639
▁घरमै	-5640
▁काली	-5641
▁गीतको	-5642
▁जलविद्युत्	-5643
▁आउट	-5644
▁स्वामित्व	-5645
▁नक्कली	-5646
लाउने	-5647
▁किसानले	-5648
▁चर्को	-5649
र्ना	-5650
▁पूरै	-5651
दको	-5652
▁आसपा	-5653
सेल	-5654
▁अह	-5655
▁नष्ट	-5656
▁हिन्द	-5657
▁विभागको	-5658
▁लाग्दैन	-5659
परिवार	-5660
▁माध्य	-5661
▁अभिनेता	-5662
▁बाढ	-5663
▁निर्णा	-5664
▁नेपालगञ्ज	-5665
▁जनामा	-5666
▁प्रहरीलाई	-5667
▁विहान	-5668
▁हङक	-5669
स्थापना	-5670
ंदा	-5671
▁इरान	-5672
▁महर्जन	-5673
▁कुँ	-5674
▁जन्मा	-5675
▁धम्	-5676
कारले	-5677
हाइ	-5678
▁मस्यौ	-5679
फर्म	-5680
▁सिस्ट	-5681
▁फ्	-5682
▁जमा	-5683
▁मृत	-5684
▁गे	-5685
▁गोप	-5686
an	-5687
थ्य	-5688
शास्त्र	-5689
साधन	-5690
▁एमसीसी	-5691
पू	-5692
▁निम	-5693
▁ओभरमा	-5694
▁एकीकरण	-5695
▁देवको	-5696
▁सिजन	-5697
▁गरेमा	-5698
हिँ	-5699
▁नेपालीले	-5700
▁बढेर	-5701
▁झनै	-5702
▁भेटघाट	-5703
▁जनमत	-5704
▁राखि	-5705
▁वी	-5706
▁युवती	-5707
▁विश्वभर	-5708
लेन	-5709
▁तै	-5710
▁काला	-5711
यती	-5712
▁छिट्टै	-5713
▁ग्लो	-5714
जिङ	-5715
▁स्वच्छ	-5716
▁अनियमित	-5717
किएका	-5718
▁५२	-5719
▁हाराहारी	-5720
▁रुपैयाँको	-5721
▁उठाउने	-5722
▁टेलिक	-5723
▁आपत्ति	-5724
▁राम्रोसँग	-5725
▁बरामद	-5726
▁भएसँगै	-5727
▁जनजाति	-5728
▁खासगरी	-5729
▁कर्तव्य	-5730
मीले	-5731
▁त्याग	-5732
▁मस्यौदा	-5733
▁सुवेदी	-5734
▁मिल्दैन	-5735
▁नुवा	-5736
हिर	-5737
▁त्रा	-5738
▁चाहने	-5739
▁कैलाली	-5740
▁पारिश्रमिक	-5741
न्डै	-5742
▁झो	-5743
▁तातो	-5744
▁सुदृ	-5745
▁त्यहाँको	-5746
इने	-5747
▁बैंकिङ	-5748
▁सङ्घीय	-5749
▁महँग	-5750
▁शल्य	-5751
▁छोडेर	-5752
▁कपाल	-5753
ज्ञान	-5754
स्फ	-5755
याे	-5756
▁ग्राम	-5757
एमाले	-5758
▁करीब	-5759
बासी	-5760
▁समस्यामा	-5761
▁शेख	-5762
▁नायक	-5763
▁कामका	-5764
▁कल्या	-5765
▁हाइड्रो	-5766
दीले	-5767
▁भनेपछि	-5768
▁४३	-5769
निस्ता	-5770
▁अनुभूति	-5771
▁प्रतिवद्धता	-5772
्रेजी	-5773
▁गर्नै	-5774
▁श्रीलंका	-5775
▁प्रिय	-5776
▁सेन्ट	-5777
वारिक	-5778
▁धादि	-5779
▁केटा	-5780
▁बोल्ने	-5781
▁सेमि	-5782
▁लगायतको	-5783
वाली	-5784
▁सहभागि	-5785
▁लिनु	-5786
ड्ड	-5787
▁एजे	-5788
▁कागजात	-5789
▁ढुवानी	-5790
▁निजामती	-5791
▁योजनामा	-5792
पिट	-5793
▁विस्तारै	-5794
र्नुपर्ने	-5795
▁क्रियाकलाप	-5796
हुँदै	-5797
▁उठाउन	-5798
▁ल्याएका	-5799
▁गुप्	-5800
▁संस्थामा	-5801
▁भ्रमणमा	-5802
▁शून्य	-5803
जीवन	-5804
▁दोषी	-5805
▁उत्पादनमा	-5806
▁वाइ	-5807
▁इन्जिनियर	-5808
▁थापाको	-5809
▁गर्नुहुन्छ	-5810
काएर	-5811
▁ओलीलाई	-5812
▁संघीयता	-5813
▁मानिसलाई	-5814
▁प्रस्तुति	-5815
▁हौ	-5816
रल	-5817
ंग्	-5818
▁ज्ञापन	-5819
मैत्री	-5820
▁भिडियोमा	-5821
▁पदक	-5822
▁क्षमताको	-5823
िकार	-5824
▁पठाइएको	-5825
▁प्रतिपक्ष	-5826
मैले	-5827
▁त्यसबाट	-5828
▁सिंहदरबार	-5829
▁सुरक्षाको	-5830
▁चाँ	-5831
▁स्वरुप	-5832
▁चर्चामा	-5833
▁हुदै	-5834
▁शौ	-5835
▁आक्रोश	-5836
विश्वास	-5837
▁भाषण	-5838
▁कान्ति	-5839
▁नराख	-5840
▁झन्डै	-5841
▁अधिकारको	-5842
▁विद्यार्थीले	-5843
▁तनहुँ	-5844
▁हरु	-5845
▁पाएपछि	-5846
▁टन	-5847
ाधीन	-5848
▁रनको	-5849
▁मातृ	-5850
▁सैन्य	-5851
▁ब्यवस्था	-5852
▁परिक	-5853
▁नारी	-5854
▁पुगि	-5855
▁नमिल्	-5856
▁निकालेको	-5857
ृंख	-5858
ड्दै	-5859
याली	-5860
बिर	-5861
महा	-5862
▁वर	-5863
ञ्चल	-5864
▁उचाइ	-5865
▁लाइस	-5866
▁दिइने	-5867
▁सिँच	-5868
▁मास्क	-5869
अल	-5870
▁जनयुद्ध	-5871
▁सञ्चारमाध्यम	-5872
▁परिवर्तनको	-5873
हको	-5874
शालामा	-5875
▁विश्वमा	-5876
▁कुखु	-5877
टाम	-5878
▁घाँ	-5879
▁भूमिकामा	-5880
जरको	-5881
▁आबद्ध	-5882
▁नरेन्द्र	-5883
▁मौन	-5884
आमा	-5885
▁जोश	-5886
▁भैरह	-5887
बहि	-5888
▁शरण	-5889
▁प्रवद्र्धन	-5890
▁४७	-5891
ालमा	-5892
गानिस्ता	-5893
▁सदस्यको	-5894
ाउँछन्	-5895
▁उत्तम	-5896
▁प्याके	-5897
▁विनो	-5898
▁छायांकन	-5899
▁पारिवारिक	-5900
▁पारे	-5901
▁शंकर	-5902
त्मा	-5903
शेर	-5904
▁किशोर	-5905
डाको	-5906
▁कृषक	-5907
न्डर	-5908
हुनेछ	-5909
िकरण	-5910
▁विपद्	-5911
▁बोर्डले	-5912
-'	-5913
▁माध्यमिक	-5914
▁गतिमा	-5915
वास्ता	-5916
▁बारम्बार	-5917
श्रो	-5918
▁अफ्र	-5919
▁खोज्न	-5920
टप	-5921
सीय	-5922
▁नदीमा	-5923
▁संग्रह	-5924
▁नाइ	-5925
अध्यक्ष	-5926
ालु	-5927
▁संसदको	-5928
▁म्युजिक	-5929
भौ	-5930
चाप	-5931
▁कुराहरु	-5932
▁सद्	-5933
▁अनुकूल	-5934
▁बराबर	-5935
▁जनताका	-5936
▁अनावश्यक	-5937
उँछिन्	-5938
▁मान्ने	-5939
▁सहायता	-5940
▁तथ्याङ्क	-5941
▁७६	-5942
खोला	-5943
▁श्रे	-5944
▁तहले	-5945
▁पला	-5946
▁मतदा	-5947
▁उद्योगी	-5948
▁अत्यावश्यक	-5949
▁अभिनेत्री	-5950
क्या	-5951
▁खपत	-5952
▁हात्ती	-5953
▁पैदा	-5954
▁गरिबी	-5955
शिल	-5956
▁विद्यालयका	-5957
▁गरिए	-5958
शैली	-5959
▁बाइ	-5960
▁बढाइ	-5961
र्सिलो	-5962
▁राम्रा	-5963
▁हामीसँग	-5964
▁उपचारको	-5965
▁हतार	-5966
▁उपाध्या	-5967
पार	-5968
▁रोक्	-5969
▁गराउनु	-5970
▁सिल	-5971
▁समुदायका	-5972
▁अत्यन्तै	-5973
त्तिकै	-5974
▁नु	-5975
न्धि	-5976
▁सरल	-5977
▁२०१९	-5978
▁कल्याण	-5979
अर्का	-5980
▁अन्तरिम	-5981
▁संक्रमितको	-5982
▁सेतो	-5983
▁जोडिएका	-5984
सिद्ध	-5985
▁रहेन	-5986
जका	-5987
नालाई	-5988
▁धनुषा	-5989
▁टिमले	-5990
डीमा	-5991
्युटर	-5992
वरी	-5993
▁शता	-5994
▁प्रि	-5995
्युब	-5996
▁ज्यो	-5997
▁सशक्त	-5998
वृत्ति	-5999
▁आख	-6000
विरुद्धको	-6001
कस्	-6002
▁ग्यास	-6003
▁स्वास्थ्यमा	-6004
▁व्यवसायीले	-6005
लाही	-6006
निस	-6007
▁नियमन	-6008
▁रहनेछ	-6009
▁पत्रमा	-6010
▁लहर	-6011
▁राजपा	-6012
▁तिर्न	-6013
▁निकायले	-6014
जगार	-6015
▁चाँडै	-6016
▁सरकारबाट	-6017
▁रौतह	-6018
▁ग्रुप	-6019
▁पाउँदा	-6020
ब्या	-6021
टाएको	-6022
▁बार्सिलो	-6023
ेकाले	-6024
▁पाल्पा	-6025
▁प्रशासनिक	-6026
▁उपचारमा	-6027
▁काठमाण्डौ	-6028
काउ	-6029
ङ्गल	-6030
▁२०७३	-6031
▁पक्षको	-6032
िङ	-6033
▁५६	-6034
▁अपाङ्ग	-6035
▁ट्रम्पले	-6036
▁कूल	-6037
▁रानी	-6038
▁लगेर	-6039
▁मार्च	-6040
▁अफगानिस्ता	-6041
▁हटाउने	-6042
लोक	-6043
▁चामल	-6044
▁पाकिस्तान	-6045
▁काठमाडौ	-6046
▁परेर	-6047
▁अस्ट्रेलिया	-6048
▁उपेन्द्र	-6049
▁पुगेपछि	-6050
डामा	-6051
▁नम्बरको	-6052
▁व्यवसायिक	-6053
▁देखाउने	-6054
▁फ्रान्स	-6055
हाम्रो	-6056
▁बुझ्ने	-6057
▁शल्यक्रिया	-6058
▁बताइ	-6059
▁स्तरमा	-6060
▁सिमेन्ट	-6061
▁निर्देशिका	-6062
▁पुर्याएको	-6063
▁सम्भावित	-6064
▁टिका	-6065
▁४६	-6066
▁बिल	-6067
▁अधिवक्ता	-6068
▁उद	-6069
लेट	-6070
▁अंग्रेजी	-6071
▁दान	-6072
▁बालबालिकालाई	-6073
▁फ्या	-6074
ण्डित	-6075
▁छनौट	-6076
्ररी	-6077
१५	-6078
▁बस्त	-6079
▁असल	-6080
▁लडा	-6081
▁राजनैतिक	-6082
खत	-6083
▁ढिलो	-6084
लभ	-6085
▁अनुप	-6086
ाराम	-6087
▁नृत्य	-6088
▁निर्णायक	-6089
पन्थी	-6090
▁विमानस्थलमा	-6091
▁भेटि	-6092
▁अधिकतम	-6093
▁नवलपरा	-6094
▁प्रशासकीय	-6095
लाग्दो	-6096
▁विनोद	-6097
▁सेमिफाइ	-6098
▁उपहार	-6099
▁प्रादेशिक	-6100
▁अंश	-6101
▁महरा	-6102
▁राखी	-6103
▁तपाईँ	-6104
▁विक्र	-6105
▁भलि	-6106
▁समाजले	-6107
▁दुइ	-6108
▁निरीक्षक	-6109
▁पोलि	-6110
▁विपन्न	-6111
▁मूल्यांकन	-6112
▁सुरेन्द्र	-6113
▁कोषाध्यक्ष	-6114
▁वु	-6115
▁देशले	-6116
▁रेखा	-6117
▁आफुले	-6118
▁आरोहण	-6119
▁जिन्द	-6120
▁स्रोतका	-6121
▁प्रय	-6122
▁स्क्र	-6123
▁महासंघका	-6124
▁ध्व	-6125
▁परियार	-6126
स्थापन	-6127
▁अनुमो	-6128
ुरेन्ट	-6129
▁प्राध्यापक	-6130
▁गाली	-6131
▁किसिमका	-6132
▁वीरेन्द्र	-6133
▁प्रतिपक्षी	-6134
▁श्रो	-6135
▁धेरैजसो	-6136
▁पं	-6137
ेँ	-6138
शनल	-6139
▁अभियोग	-6140
▁जिक	-6141
▁किन्न	-6142
▁लगत्तै	-6143
▁ब्यक्ति	-6144
प्रसार	-6145
▁पत्नी	-6146
▁चाप	-6147
न्याय	-6148
▁ढिला	-6149
▁न्यूनीकरण	-6150
भाष	-6151
▁नदेखि	-6152
▁नमुना	-6153
▁फरार	-6154
▁सुरुङ	-6155
▁बजारको	-6156
▁युवराज	-6157
▁उठेको	-6158
ह्	-6159
▁दिनदेखि	-6160
िको	-6161
▁सिर	-6162
▁आयोज	-6163
▁भाउ	-6164
▁उत्पादक	-6165
डिएको	-6166
▁ट्रे	-6167
▁एम्बुले	-6168
▁बन्छ	-6169
जन्तु	-6170
्चोक	-6171
धर	-6172
▁मानिसहरू	-6173
िनमा	-6174
▁राजेश	-6175
ट्टी	-6176
▁सहुल	-6177
▁एजेण्डा	-6178
काउन	-6179
▁बुँदे	-6180
याको	-6181
▁५४	-6182
▁सम्पादन	-6183
▁दिमा	-6184
▁प्रालि	-6185
▁सर्लाही	-6186
▁सट्टा	-6187
यौ	-6188
▁प्रतिभा	-6189
▁शिशु	-6190
स्तिष्	-6191
▁तस्वीर	-6192
▁पारेका	-6193
▁मर्या	-6194
क्वा	-6195
िनको	-6196
▁कामलाई	-6197
▁विधेयकमा	-6198
▁हृदय	-6199
▁जनतामा	-6200
ेनले	-6201
▁आलु	-6202
▁सतर्क	-6203
र्इ	-6204
▁उर्जा	-6205
▁फेर	-6206
▁शरीरको	-6207
ज्यू	-6208
▁संविधानमा	-6209
सङ्घ	-6210
▁मनि	-6211
ग्रस्त	-6212
▁होइनन्	-6213
▁जोडेर	-6214
▁समारोहमा	-6215
▁संयोजकत्वमा	-6216
▁मृतक	-6217
▁किम	-6218
स्न	-6219
▁जितेका	-6220
▁५३	-6221
टामा	-6222
ँदैछ	-6223
▁बेस	-6224
दायक	-6225
▁श्रीमान्	-6226
▁दिनभित्र	-6227
▁साब	-6228
▁सहमत	-6229
▁भोक	-6230
▁भैरहेको	-6231
उनुपर्छ	-6232
पाल्चोक	-6233
▁उपत्यकामा	-6234
हलमा	-6235
▁दाँ	-6236
▁तपाईको	-6237
▁त्यहाँका	-6238
खेर	-6239
▁रोपनी	-6240
किए	-6241
▁सम्मानित	-6242
▁कब्जा	-6243
▁अध्यक्षमा	-6244
▁दिनुभएको	-6245
ंस	-6246
▁परिणत	-6247
▁शताब्	-6248
▁वेबसाइ	-6249
▁गरेकाले	-6250
▁परिमा	-6251
▁सदस्यता	-6252
पार्क	-6253
▁काय	-6254
▁छैन्	-6255
▁आवद्ध	-6256
▁कम्तिमा	-6257
▁गर्भव	-6258
▁विरामी	-6259
▁रहनु	-6260
व्	-6261
▁घाम	-6262
▁जला	-6263
▁ष	-6264
▁यहि	-6265
पीडित	-6266
▁मुस्ता	-6267
▁तालमेल	-6268
▁मोदी	-6269
▁नेताको	-6270
अधिकार	-6271
जाको	-6272
▁रेग्मी	-6273
▁समृद्धिको	-6274
▁बढुवा	-6275
▁सकियो	-6276
▁माग्	-6277
स्तर	-6278
▁बाघ	-6279
▁बृह	-6280
लेले	-6281
▁अड्	-6282
रोग	-6283
लागि	-6284
▁सिटी	-6285
ानीले	-6286
▁२०१८	-6287
▁वर्षभित्र	-6288
औँ	-6289
▁स्वाभाविक	-6290
▁निरी	-6291
▁बाँके	-6292
▁रोमा	-6293
▁पुरानै	-6294
▁फर्किएका	-6295
▁क्षेत्रफल	-6296
▁हुनुहुन्थ्यो	-6297
▁बाह्य	-6298
▁विच	-6299
▁अन्तराष्ट्रिय	-6300
▁नेटव	-6301
▁सरसफाइ	-6302
बाद	-6303
▁शुरू	-6304
▁साँच्च	-6305
▁बिमा	-6306
नेकपा	-6307
▁इन्ध	-6308
मुनि	-6309
▁सन्तु	-6310
▁तिम्रो	-6311
▁बालबालिकाको	-6312
ञ्चित	-6313
▁सिद्ध	-6314
▁खरेल	-6315
▁नगरि	-6316
▁पत्रकारिता	-6317
वान्	-6318
खे	-6319
▁वाग्	-6320
▁हप्	-6321
ारोपण	-6322
▁अस्तित्व	-6323
▁एसियाली	-6324
al	-6325
धाज्ञा	-6326
▁शाहीले	-6327
राष्ट्रपति	-6328
र्की	-6329
ाउनको	-6330
▁त्रिवि	-6331
स्तरमा	-6332
▁निक्षेप	-6333
▁होलान्	-6334
▁करण	-6335
▁डाटा	-6336
▁तीनै	-6337
▁सिन्धुपाल्चोक	-6338
ँट	-6339
▁ओम	-6340
भाषा	-6341
सिप	-6342
▁गुणा	-6343
▁सन्धि	-6344
▁उन्न	-6345
▁सदस्यले	-6346
ह्न	-6347
▁एच	-6348
▁एसपी	-6349
▁बजेटको	-6350
ड्दा	-6351
मणि	-6352
▁एसो	-6353
▁बन	-6354
▁घरबाट	-6355
▁हजारौं	-6356
▁बजेदेखि	-6357
कहाँ	-6358
▁गायिका	-6359
▁छोराछोरी	-6360
▁प्रदू	-6361
▁७२	-6362
▁तौल	-6363
▁संक्रमणको	-6364
गडा	-6365
▁अा	-6366
▁आया	-6367
▁गराएर	-6368
▁विशेषगरी	-6369
▁प्राधिकरणका	-6370
▁गर्मी	-6371
▁फिट	-6372
▁जनस्वास्थ्य	-6373
▁हाफ	-6374
▁अरब	-6375
▁/	-6376
▁लिइएको	-6377
▁सिँचाइ	-6378
निकी	-6379
ँचा	-6380
▁शौच	-6381
कारको	-6382
प्ती	-6383
▁सङ्कलन	-6384
▁अटो	-6385
दलीय	-6386
▁७७	-6387
▁लाग्दा	-6388
▁ब्याजदर	-6389
▁लगानीमा	-6390
▁कम्प्युटर	-6391
▁प्रतिस्पर्धी	-6392
▁बचाउन	-6393
▁५८	-6394
▁भर्खरै	-6395
ँचो	-6396
▁बिस्तारै	-6397
▁बस्नु	-6398
▁विपक्ष	-6399
▁रत्न	-6400
्छु	-6401
स्थलको	-6402
▁शान्त	-6403
▁गराइएको	-6404
होस	-6405
▁सम्हाल	-6406
▁टुंग	-6407
▁दिइन्	-6408
वरले	-6409
▁छवि	-6410
▁मार्क	-6411
▁देखिन्छन्	-6412
▁भरमा	-6413
▁भोग्	-6414
▁स्वभाव	-6415
रहेकी	-6416
▁यसैबीच	-6417
▁किसानलाई	-6418
सम्पाद	-6419
ीता	-6420
▁ठगी	-6421
▁फरा	-6422
▁ख्याल	-6423
ञ्चार	-6424
▁तारि	-6425
▁कान्छ	-6426
▁स्वर	-6427
▁कार्ययोजना	-6428
दित	-6429
▁पट	-6430
▁कालोपत्र	-6431
▁त्यहाँबाट	-6432
पछ	-6433
ह्र	-6434
सर्थ	-6435
▁सुवेद	-6436
▁अधिकारीको	-6437
▁४९	-6438
कृया	-6439
▁निर्धारित	-6440
डीको	-6441
ानमा	-6442
▁स्तरो	-6443
ेटिङ	-6444
▁गेट	-6445
▁पुर्व	-6446
सनल	-6447
▁नभएपछि	-6448
▁बेलुका	-6449
ड्नु	-6450
▁नर्स	-6451
▁फोरम	-6452
▁राम्रै	-6453
▁महामारीको	-6454
▁८५	-6455
हुन्न	-6456
▁केन्द्रिय	-6457
▁म्याग्दी	-6458
▁बताउनुभएको	-6459
११	-6460
लगत्तै	-6461
▁ट्रान्स	-6462
or	-6463
▁निम्त्या	-6464
▁कटौती	-6465
▁व्यवस्थापनमा	-6466
▁आत्मनिर्भर	-6467
▁अस्थ	-6468
▁बताएकी	-6469
▁बनाउनुपर्ने	-6470
▁सुन्न	-6471
▁चरा	-6472
▁रोक्ने	-6473
▁रोल्पा	-6474
▁सतह	-6475
▁एकातिर	-6476
▁नबुझ	-6477
▁बनायो	-6478
▁सम्पर्कमा	-6479
आज	-6480
▁भूभाग	-6481
▁मिलाउन	-6482
▁राइ	-6483
▁नमू	-6484
लेपछि	-6485
र्पण	-6486
▁किरा	-6487
▁हानि	-6488
▁२०१७	-6489
▁श्याम	-6490
▁बुझाएको	-6491
▁मनाउन	-6492
▁जिकिर	-6493
गोलिक	-6494
▁अनुसारको	-6495
▁कम्पनीलाई	-6496
▁राह	-6497
▁खोल्न	-6498
▁समुदायमा	-6499
▁ठोस	-6500
▁खेल्दै	-6501
▁खोल्ने	-6502
▁राजु	-6503
▁५७	-6504
जीले	-6505
▁उत्साहित	-6506
▁सृजना	-6507
▁कृति	-6508
▁छाला	-6509
▁फौ	-6510
▁सुनको	-6511
१२	-6512
▁पवि	-6513
▁अर्यालले	-6514
▁मध्यम	-6515
▁जानकार	-6516
▁विदा	-6517
▁लामाले	-6518
ैमा	-6519
▁रेमि	-6520
▁एकताको	-6521
हिक	-6522
▁अपर	-6523
▁सुरक्षाका	-6524
▁मोरङ	-6525
▁संचार	-6526
कान	-6527
▁उद्यम	-6528
क्सि	-6529
▁संशोध	-6530
▁मस्तिष्	-6531
▁पुनले	-6532
▁परेपछि	-6533
रेड	-6534
▁चरम	-6535
▁प्रको	-6536
▁बलिउड	-6537
▁प्रणालीको	-6538
▁कौ	-6539
▁सकेसम्म	-6540
▁जगत	-6541
पेक्ष	-6542
▁ज्वरो	-6543
▁हिन्दू	-6544
▁देखिँदैन	-6545
▁ढिलाइ	-6546
▁आइपुग्	-6547
▁गोर्खा	-6548
▁देखाएर	-6549
▁युग	-6550
लागी	-6551
▁गिरि	-6552
▁प्लेट	-6553
▁सिं	-6554
▁तालिका	-6555
▁आदर्श	-6556
▁विश्वको	-6557
▁उड्ड	-6558
सहितका	-6559
▁सुन्त	-6560
▁नदिएको	-6561
▁घन्टा	-6562
▁फार्म	-6563
▁पार्टीभित्र	-6564
▁स्तरोन्न	-6565
▁जित्	-6566
▁विषा	-6567
▁अनुरुप	-6568
▁मुलुकका	-6569
▁सुवेदीले	-6570
▁सद्भाव	-6571
▁मन्दिरमा	-6572
▁महेश	-6573
▁निमित्त	-6574
▁नेपालीलाई	-6575
▁क्षतिपूर्ति	-6576
न्दर्य	-6577
▁जलविद्युत	-6578
िल्ली	-6579
▁औषधी	-6580
▁दिवसको	-6581
ब्ब	-6582
▁रोज	-6583
▁अमर	-6584
मेरो	-6585
▁फेरी	-6586
▁पार्क	-6587
▁तसर्थ	-6588
▁कुराले	-6589
हुँदैन	-6590
▁निकायको	-6591
▁अभिवृद्धि	-6592
▁स्थानीयवासी	-6593
खाना	-6594
गण्डकी	-6595
▁निषेधाज्ञा	-6596
सरकारी	-6597
▁नमिल्ने	-6598
सुन	-6599
▁पाई	-6600
▁आतंक	-6601
▁गाउँका	-6602
▁दरबन्दी	-6603
▁महानिर्देशक	-6604
सन्त	-6605
ैयाँ	-6606
▁आयोगमा	-6607
▁लाइसेन्स	-6608
▁व्यापारिक	-6609
▁लघुव	-6610
▁मिल्छ	-6611
▁स्कूल	-6612
कियो	-6613
स्टिक	-6614
▁तपाईले	-6615
▁बिषयमा	-6616
▁स्वर्ग	-6617
▁गइरहेको	-6618
अभि	-6619
माया	-6620
▁बराबरी	-6621
▁समाजवाद	-6622
▁रुचि	-6623
ेनन्	-6624
▁बनाउँदा	-6625
पार्	-6626
▁दिई	-6627
▁अन्यो	-6628
▁नोक्स	-6629
▁पक्का	-6630
▁अभावमा	-6631
▁अर्याल	-6632
▁६४	-6633
▁लुगा	-6634
ामक	-6635
▁प्रत्या	-6636
▁तत्कालिन	-6637
▁गैरआ	-6638
दियो	-6639
▁आफुलाई	-6640
▁क्वा	-6641
▁बोकेको	-6642
▁प्राधिकरणको	-6643
▁दोश्रो	-6644
▁भैरहवा	-6645
ar	-6646
▁बास	-6647
▁एयरलाइन्	-6648
▁एकेड	-6649
▁विरोधी	-6650
▁लिटर	-6651
▁प्रशस्त	-6652
▁स्रोतको	-6653
सम्मत	-6654
▁राना	-6655
▁ईश्वर	-6656
▁इतिहासमा	-6657
▁बगा	-6658
▁आचार	-6659
▁मिर्ग	-6660
▁सुरक्षाकर्मी	-6661
▁लम	-6662
ञ्जि	-6663
▁मेलम्	-6664
▁तट	-6665
▁ग्य	-6666
▁सधैँ	-6667
▁सिकाइ	-6668
▁नभएकाले	-6669
▁गठबन्धनको	-6670
▁वरिपरि	-6671
▁भौगोलिक	-6672
▁स्वदेशी	-6673
at	-6674
पावर	-6675
श्री	-6676
▁लगायतले	-6677
▁नियन्त्रणका	-6678
▁कुव	-6679
▁कसुर	-6680
▁सँ	-6681
▁लोड	-6682
पश्चा	-6683
▁दिनअघि	-6684
स्कृत	-6685
▁हलमा	-6686
लोमा	-6687
घात	-6688
▁लेख्न	-6689
▁पति	-6690
डोर	-6691
▁अखिल	-6692
▁चेतना	-6693
▁गर्नको	-6694
▁नवीकरण	-6695
▁सङ्क्रमित	-6696
गरि	-6697
▁युक्र	-6698
काई	-6699
ारको	-6700
▁करिव	-6701
▁व्यहो	-6702
▁एन्फा	-6703
▁समावेशी	-6704
बाजी	-6705
ेलको	-6706
▁मदिरा	-6707
▁साविक	-6708
पालन	-6709
न्यजन्तु	-6710
टिभ	-6711
▁सत्र	-6712
▁सन्दी	-6713
▁महोत्त	-6714
▁होटलमा	-6715
पाटी	-6716
▁विशेषता	-6717
▁नायब	-6718
▁शर्त	-6719
▁प्रयत्न	-6720
पर्व	-6721
पाइ	-6722
▁बैंकमा	-6723
नीति	-6724
▁आकां	-6725
प्टे	-6726
ामन्त्री	-6727
ेछा	-6728
▁आजै	-6729
ेषण	-6730
▁प्रयोगमा	-6731
▁परिसर	-6732
▁चीनमा	-6733
▁व्र	-6734
▁सौन्दर्य	-6735
०७	-6736
▁अपरि	-6737
▁लगाउनु	-6738
▁दौड	-6739
▁ग्लोबल	-6740
▁महानगरपालिकाले	-6741
▁कालि	-6742
▁सुत्के	-6743
▁जाँदै	-6744
्नुपर्ने	-6745
▁रै	-6746
▁प्रिमियर	-6747
▁अन्तरक्रिया	-6748
▁राजश्व	-6749
▁पावर	-6750
▁पर्यटकको	-6751
धुरा	-6752
▁फर्म	-6753
▁बेरो	-6754
▁शौचालय	-6755
▁बन्दा	-6756
▁अन्ततः	-6757
▁जाडो	-6758
▁अलिकति	-6759
ंदैन	-6760
समक्ष	-6761
▁जात्रा	-6762
कीय	-6763
▁तामाङले	-6764
ें	-6765
▁राष्ट्रियसभा	-6766
▁सक्नेछन्	-6767
▁मोडल	-6768
▁उड्डयन	-6769
▁विद्यमान	-6770
चाहिँ	-6771
गाई	-6772
▁सहुलियत	-6773
▁आन्दोलनका	-6774
वट	-6775
्स	-6776
▁मान्छेले	-6777
▁खै	-6778
▁समाधानका	-6779
लट	-6780
▁कागज	-6781
▁गरेँ	-6782
▁गरेपनि	-6783
▁राष्ट्रसंघ	-6784
▁दिँदा	-6785
▁गराउँदै	-6786
ेलमा	-6787
वासीय	-6788
▁सक्छौं	-6789
▁सहकार्यमा	-6790
▁राष्ट्रको	-6791
▁सम्वन्ध	-6792
▁कूटनीतिक	-6793
▁प्रचलन	-6794
▁बिज	-6795
▁एकको	-6796
ज्यालो	-6797
▁स्मृति	-6798
▁२०८०	-6799
▁नेताहरूले	-6800
▁गोल्ड	-6801
▁टिममा	-6802
▁गर्भवती	-6803
▁इन्स	-6804
▁कन्स	-6805
▁गणना	-6806
▁उप्र	-6807
▁विस्थापित	-6808
▁लिनुपर्ने	-6809
▁इमा	-6810
▁नेप्	-6811
▁त्यहीँ	-6812
▁रुपान्तरण	-6813
▁केशव	-6814
▁यात्रामा	-6815
▁मात	-6816
▁यिनी	-6817
▁लाभा	-6818
▁आस्था	-6819
▁राजकुमार	-6820
▁स्याउ	-6821
▁ढुङ्गा	-6822
चीन	-6823
स्टा	-6824
▁बच्न	-6825
▁जानुपर्ने	-6826
▁ज्य	-6827
▁पात	-6828
▁अभिलेख	-6829
त्यस	-6830
▁डरा	-6831
▁मकै	-6832
▁शिला	-6833
▁पोल	-6834
▁म्याने	-6835
लवस्तु	-6836
णु	-6837
▁वर्ण	-6838
▁दोहोरो	-6839
▁भाग्य	-6840
▁उहाँका	-6841
▁मैत्री	-6842
▁ज्ञवाली	-6843
▁चिनी	-6844
जुङ	-6845
▁गगन	-6846
▁पाइप	-6847
▁अस्थिर	-6848
औष	-6849
▁९५	-6850
▁डिसे	-6851
▁प्रेरणा	-6852
▁हेम	-6853
नायक	-6854
▁रामेछा	-6855
▁दलहरु	-6856
▁प्रकरणमा	-6857
▁थाइ	-6858
▁रुकुम	-6859
▁रासस	-6860
चेत	-6861
▁गर्नुको	-6862
▁जग्गामा	-6863
▁सकिँदैन	-6864
▁परिवारमा	-6865
▁आमाले	-6866
▁महँगो	-6867
प्ट	-6868
गणना	-6869
▁पक्षलाई	-6870
▁रूपैयाँ	-6871
▁उल्लेख्य	-6872
▁पण्डित	-6873
ख्रा	-6874
▁निर्वाचनका	-6875
सक्दा	-6876
्नुपर्छ	-6877
▁क्लि	-6878
▁थिइन	-6879
▁परिवेश	-6880
▁कित्ता	-6881
▁सार्वभौ	-6882
▁खाएर	-6883
ण्ठ	-6884
▁नमूना	-6885
▁तत्कालै	-6886
▁उका	-6887
▁कुर्	-6888
▁कँ	-6889
▁६२	-6890
▁जग्गाको	-6891
▁पढा	-6892
नासाथ	-6893
केका	-6894
▁बेवास्ता	-6895
▁डाँडा	-6896
ानको	-6897
▁अरुण	-6898
▁अनुमोदन	-6899
धाना	-6900
▁पार्दै	-6901
▁सक्दैनन्	-6902
▁परिचित	-6903
ालीले	-6904
▁उत्पादनको	-6905
▁शक्तिको	-6906
▁५००	-6907
▁गर्दछु	-6908
▁यसपाल	-6909
▁मनोज	-6910
निज	-6911
▁कमाइ	-6912
▁हरियो	-6913
▁कतिपयले	-6914
▁सदस्यमा	-6915
▁मान्छेको	-6916
आउ	-6917
▁बल्ल	-6918
षक	-6919
उहाँ	-6920
▁चाहे	-6921
▁कुमारी	-6922
▁अशोक	-6923
▁फाइनलमा	-6924
▁बिरामीलाई	-6925
▁पारिएको	-6926
मुक्ति	-6927
▁ब्राजि	-6928
▁अनिल	-6929
▁फराकिलो	-6930
▁निर्भर	-6931
▁गंगा	-6932
▁बिक्रीदर	-6933
▁बढे	-6934
▁बढ्यो	-6935
▁जोशीले	-6936
लास	-6937
वटै	-6938
▁उनकी	-6939
en	-6940
टिस	-6941
▁निषेध	-6942
▁सर्त	-6943
▁चिन्त	-6944
हेरी	-6945
▁अधिकृ	-6946
▁विवादमा	-6947
थु	-6948
▁मुस्लिम	-6949
▁प्रश्नको	-6950
र्कि	-6951
▁जनाउँदै	-6952
▁महानगरले	-6953
डाँडा	-6954
▁रोजगारीमा	-6955
▁हराएको	-6956
▁प्रस्तावित	-6957
परित	-6958
▁शुक्	-6959
ण्डमा	-6960
▁बुझाउन	-6961
अर	-6962
▁आश्वास	-6963
▁कार्यद	-6964
▁अन्तर्वार्ता	-6965
न्तिक	-6966
▁भद्र	-6967
▁राम्ररी	-6968
▁हेर्नु	-6969
▁अन्त्यमा	-6970
▁आराम	-6971
▁केजी	-6972
▁साहित्यकार	-6973
▁राज्यका	-6974
▁सहजै	-6975
▁ट्वी	-6976
▁न्यायिक	-6977
▁कम्पनीमा	-6978
ुरि	-6979
ङ्गी	-6980
▁पुरुषको	-6981
▁महाकाली	-6982
द्वय	-6983
▁दाउ	-6984
▁उप्रेत	-6985
▁तस्बिर	-6986
▁सदुपयोग	-6987
▁ठग	-6988
सह	-6989
बीचमा	-6990
▁कता	-6991
▁आप्र	-6992
▁उठाएको	-6993
▁खरी	-6994
▁गराउ	-6995
▁खोज्दा	-6996
▁खतिवडाले	-6997
▁बसाइ	-6998
▁प्रचण्डको	-6999
▁मालिक	-7000
च्या	-7001
▁लामिछानेले	-7002
▁असन्तुष्ट	-7003
▁५९	-7004
▁२०३	-7005
▁उल्लं	-7006
▁बताउँछिन्	-7007
▁सर्वे	-7008
▁निकाल्न	-7009
▁गभ	-7010
झो	-7011
▁पुर्	-7012
ठू	-7013
▁हजारभन्दा	-7014
क्कर	-7015
▁झण्डा	-7016
▁मिलेको	-7017
▁उनकै	-7018
▁विद्रोह	-7019
▁महिनादेखि	-7020
▁घन	-7021
सतमा	-7022
▁नेकपाको	-7023
▁हल्का	-7024
▁उज्यालो	-7025
▁ज्येष्ठ	-7026
▁पेन	-7027
▁जिज्ञा	-7028
▁गैरआवासीय	-7029
मिता	-7030
▁भएकोमा	-7031
▁६६	-7032
▁अतिक्रमण	-7033
▁तिवारी	-7034
▁द्र	-7035
सम्ममा	-7036
▁गर्यौं	-7037
सेन	-7038
▁ज्योति	-7039
▁सकिनेछ	-7040
▁लगानीको	-7041
▁शास्त्र	-7042
वक	-7043
▁रहर	-7044
▁आदान	-7045
▁प्रभु	-7046
८०	-7047
रहन्छ	-7048
▁पठन	-7049
▁सागर	-7050
ालगायत	-7051
▁उत्पादित	-7052
▁औसत	-7053
▁खटिएका	-7054
▁खेलेका	-7055
▁मुल	-7056
बमोजिम	-7057
▁सिधै	-7058
▁विरुद्धको	-7059
▁दिएकी	-7060
थर	-7061
विप	-7062
▁नदीको	-7063
▁देख्दा	-7064
वालीले	-7065
▁पक्षका	-7066
▁साम्रा	-7067
▁पर्वत	-7068
▁दिनपछि	-7069
ब्बर	-7070
▁शासक	-7071
▁धम्की	-7072
▁शिविर	-7073
▁श्रद्धा	-7074
टाको	-7075
ड्य	-7076
तीले	-7077
तर्फको	-7078
▁नेताहरुको	-7079
▁उपमे	-7080
लम्प	-7081
▁परिक्षण	-7082
▁आर्जन	-7083
▁अचम्म	-7084
▁प्रवर्द्धन	-7085
▁अन्यत्र	-7086
ओस्	-7087
▁शही	-7088
▁खेलाडीको	-7089
▁वन्यजन्तु	-7090
▁डाय	-7091
▁तरल	-7092
▁खुकु	-7093
ारू	-7094
दर्शन	-7095
▁मेहन	-7096
पुल	-7097
▁खेलाडीले	-7098
▁तीनवटा	-7099
▁साझेदार	-7100
▁नेतृत्वले	-7101
▁झर	-7102
वारण	-7103
▁किनकी	-7104
▁भन	-7105
▁दिदै	-7106
▁बिरुवा	-7107
जनी	-7108
वत्	-7109
जारी	-7110
▁विक्रम	-7111
▁जिता	-7112
▁कुटपिट	-7113
es	-7114
▁महारा	-7115
▁सापकोटाले	-7116
मेट	-7117
श्चिमा	-7118
▁मूर्ति	-7119
▁सेप्टे	-7120
बाहिर	-7121
▁लाखौं	-7122
▁अप्ठ्यारो	-7123
▁छैनौं	-7124
▁बिद्य	-7125
र्नर	-7126
▁खाइ	-7127
▁कुशल	-7128
जीवी	-7129
ज्ज	-7130
सत्ता	-7131
त्रो	-7132
▁देखेको	-7133
▁६३	-7134
▁अक्ष	-7135
▁आउँछन्	-7136
तपा	-7137
▁बिहानै	-7138
म्वा	-7139
भित्रका	-7140
▁मधुमे	-7141
▁सदा	-7142
▁मिलन	-7143
▁समुदायले	-7144
बलमा	-7145
▁साग	-7146
र्दिक	-7147
▁मिलाएर	-7148
साम	-7149
▁लियो	-7150
▁छानविन	-7151
▁आफूहरु	-7152
▁बोलाएर	-7153
▁बू	-7154
▁वक्त	-7155
▁बिकास	-7156
▁आयोजकले	-7157
लोड	-7158
संगै	-7159
▁नदेख	-7160
न्द्रा	-7161
▁नवराज	-7162
▁लेख्ने	-7163
▁ज्ञवालीले	-7164
▁ट्रेड	-7165
याउने	-7166
▁मान्न	-7167
▁कँडेल	-7168
▁थपिएको	-7169
▁रोकथाम	-7170
▁बाहु	-7171
▁चाहिं	-7172
▁मानिएको	-7173
▁भन्नुहुन्छ	-7174
▁ब्रो	-7175
केन्द्र	-7176
ख्	-7177
▁पैदल	-7178
▁बच्चाको	-7179
▁सुत्केरी	-7180
▁शहरी	-7181
▁परिमार्जन	-7182
ब्लिक	-7183
▁चम्	-7184
▁हेल्	-7185
▁गर्दैछ	-7186
▁कार्तिक	-7187
▁अडि	-7188
▁बुँदा	-7189
▁खरिददर	-7190
▁भित्री	-7191
▁दैलेख	-7192
▁कारागार	-7193
▁हार्दिक	-7194
▁दोल	-7195
▁सुनिल	-7196
▁रजि	-7197
▁बेनी	-7198
तापूर्वक	-7199
▁कुनैपनि	-7200
▁विरोधमा	-7201
औषध	-7202
ल्नु	-7203
▁मानिने	-7204
▁रुट	-7205
वले	-7206
▁निगमले	-7207
▁६७	-7208
▁दिप	-7209
▁२०१६	-7210
▁अफ्रिका	-7211
टिक	-7212
▁बेइ	-7213
▁नच	-7214
▁नवीन	-7215
▁प्रदूषण	-7216
▁रामबहादुर	-7217
▁इंग्	-7218
समध्ये	-7219
▁तिब्ब	-7220
▁मुम्ब	-7221
▁६१	-7222
▁प्रस	-7223
▁नहुनु	-7224
▁विदेशबाट	-7225
▁बाँडफा	-7226
▁किसानको	-7227
▁उनै	-7228
▁गराई	-7229
▁सुदृढ	-7230
टारमा	-7231
▁हुनै	-7232
▁गिरीले	-7233
▁अविश्वास	-7234
▁अर्कै	-7235
▁भलिबल	-7236
▁उम	-7237
▁सम्मको	-7238
▁कार्यदल	-7239
ङ्गले	-7240
▁हुन्थे	-7241
▁माइक्रो	-7242
▁स्थितिमा	-7243
▁एम्बुलेन्स	-7244
▁चुनावको	-7245
न्दार	-7246
▁गरेन	-7247
▁खोज्दै	-7248
▁रुपैयाँमा	-7249
शरण	-7250
वियु	-7251
▁ओलम्प	-7252
▁शैलीमा	-7253
लस	-7254
▁फला	-7255
▁फागु	-7256
▁सत्तामा	-7257
▁पदार्थको	-7258
▁जनकपुरधाम	-7259
▁कार्यपालिका	-7260
ियाँ	-7261
▁ब्याटिङ	-7262
▁पेट्रोलियम	-7263
▁अछ	-7264
▁एड	-7265
ज्जा	-7266
▁असा	-7267
▁इले	-7268
▁अवकाश	-7269
▁आफैले	-7270
मध	-7271
चण्ड	-7272
▁थो	-7273
▁किट	-7274
च्छेद	-7275
▁उद्योगमा	-7276
गृह	-7277
फ्ले	-7278
▁बैठकको	-7279
वधि	-7280
▁त्यसअघि	-7281
▁नेपालगन्ज	-7282
▁धो	-7283
▁फाल	-7284
▁सुब्बा	-7285
▁अन्ध	-7286
▁निकास	-7287
▁वता	-7288
माथिको	-7289
▁काठमाडौंका	-7290
▁आयुक्त	-7291
▁प्रधाना	-7292
▁संसद्मा	-7293
▁आयोजनाले	-7294
पाठ	-7295
▁स्वाद	-7296
▁देखाउँछ	-7297
▁कामना	-7298
▁पद्धति	-7299
▁उपसमिति	-7300
▁धनकु	-7301
▁सारा	-7302
▁)	-7303
▁दुध	-7304
▁९९	-7305
▁महाधिवेशनमा	-7306
▁चलाएको	-7307
्र्यो	-7308
म्या	-7309
▁लक्ष्मण	-7310
▁संकल	-7311
▁६८	-7312
▁करा	-7313
▁एकअर्का	-7314
▁राजतन्त्र	-7315
▁सुवास	-7316
▁ओभर	-7317
▁बोहरा	-7318
सेवी	-7319
द्धान्तिक	-7320
▁ध्रु	-7321
▁भव्य	-7322
▁इन्ट	-7323
ाचार	-7324
▁दूरी	-7325
▁सामेल	-7326
▁मातहत	-7327
▁प्रदर्शनमा	-7328
स्पि	-7329
▁कोषमा	-7330
▁नेपालमै	-7331
नयन	-7332
▁अपहरण	-7333
▁करोडको	-7334
▁थप्	-7335
▁किशोरी	-7336
▁प्रचारप्रसार	-7337
फु	-7338
▁थपे	-7339
वेयर	-7340
सीका	-7341
▁सामग्र	-7342
च्छुक	-7343
दिनु	-7344
टाइनमा	-7345
▁जेनजी	-7346
▁बढ्नु	-7347
▁पटकपटक	-7348
▁स्वि	-7349
▁निवेद	-7350
▁उद्यमी	-7351
▁भाडामा	-7352
सबै	-7353
▁उठाएका	-7354
▁तर्	-7355
▁कडाइ	-7356
▁रियल	-7357
▁गै	-7358
ष्कार	-7359
▁महानि	-7360
▁परिकार	-7361
सिएसन	-7362
▁पोखरी	-7363
▁सामान्यतया	-7364
▁नज	-7365
▁कृष्णप्रसाद	-7366
सीआर	-7367
▁हुनेमा	-7368
हरि	-7369
▁अभ	-7370
द्रिक	-7371
▁सम्बन्धि	-7372
वण	-7373
▁कठि	-7374
▁रहँदै	-7375
▁निवारण	-7376
▁भट्टले	-7377
▁पथ	-7378
कस्मिक	-7379
▁महिनासम्म	-7380
▁पर्नेछ	-7381
म्बू	-7382
▁राप्ती	-7383
▁अवस्थाको	-7384
▁खातामा	-7385
▁कपिलवस्तु	-7386
▁लिई	-7387
▁बेल्	-7388
▁सिलि	-7389
▁नेत्र	-7390
▁अभिय	-7391
▁देखी	-7392
▁बन्ध	-7393
▁सुधारका	-7394
▁गइ	-7395
▁महासंघले	-7396
▁न्यौपानेले	-7397
▁आवत	-7398
▁यसैले	-7399
दिनँ	-7400
▁दोलखा	-7401
▁बाढीले	-7402
▁माधवकुमार	-7403
▁धितोपत्र	-7404
▁सवारीसाधन	-7405
काको	-7406
▁विकृति	-7407
▁पाउँछन्	-7408
▁हुदा	-7409
पेर	-7410
्युट	-7411
▁नहोस्	-7412
▁बृद्धि	-7413
▁आश्वासन	-7414
जिन	-7415
▁७३	-7416
▁मार्ने	-7417
▁इजलासले	-7418
▁पाइँदैन	-7419
काठमा	-7420
▁दलाल	-7421
▁पाउनेछन्	-7422
ाउँमा	-7423
▁तापक्रम	-7424
सिएको	-7425
▁पश्चात	-7426
सभ	-7427
▁मार	-7428
▁हेलिक	-7429
पछिको	-7430
५०	-7431
▁सफ्ट	-7432
▁प्रतिफल	-7433
▁राखिएका	-7434
▁शिक्षामा	-7435
▁औचित	-7436
▁बाबा	-7437
▁साहले	-7438
▁गाइ	-7439
▁बत्ती	-7440
▁बुढ	-7441
रन	-7442
्रिड	-7443
▁एसि	-7444
▁दलहरू	-7445
▁निकायमा	-7446
▁उच्चस्तरीय	-7447
▁बैत	-7448
▁संघसंस्था	-7449
▁निराशा	-7450
▁गुमाएका	-7451
▁युट्युब	-7452
▁सञ्चालनका	-7453
▁सधै	-7454
▁पेन्	-7455
▁रोजगारीका	-7456
▁सांसदले	-7457
▁थाल्छ	-7458
▁रसु	-7459
▁अनुसन्धानमा	-7460
हिन	-7461
ेटर	-7462
▁७४	-7463
▁साइकल	-7464
▁पवित्र	-7465
▁रेष्ट	-7466
प्रचण्ड	-7467
▁गुज	-7468
▁जैविक	-7469
▁क्यामे	-7470
▁मनोनयन	-7471
ल्ब	-7472
▁किस्ता	-7473
र्भिक	-7474
▁सिस्टम	-7475
▁हाराहारीमा	-7476
▁बीपी	-7477
▁निवासी	-7478
▁प्रेरित	-7479
▁रोजगारीको	-7480
▁लाग्नु	-7481
▁इम	-7482
▁स्क	-7483
▁भिटाम	-7484
▁शान्तिपूर्ण	-7485
▁जनआ	-7486
▁लडाइ	-7487
▁शिखर	-7488
उनुभयो	-7489
▁जाजरको	-7490
▁विगतका	-7491
▁स्तरीय	-7492
▁माओवादीको	-7493
▁सैद्धान्तिक	-7494
▁लापर	-7495
▁पोखराको	-7496
▁मूल्याङ्क	-7497
च्	-7498
▁पर्यट	-7499
▁भेटमा	-7500
ङ्ख	-7501
▁जितेर	-7502
ालयमा	-7503
▁चलाइ	-7504
▁पराजु	-7505
▁नगरे	-7506
▁ब्यब	-7507
▁बरि	-7508
▁खरीद	-7509
▁सुकु	-7510
▁हेड	-7511
▁भानु	-7512
नेपाली	-7513
▁घुम्न	-7514
▁आकस्मिक	-7515
▁रेस	-7516
▁क्रो	-7517
▁रद्द	-7518
▁कस्ता	-7519
▁सानै	-7520
▁घोषित	-7521
▁रुपले	-7522
▁समि	-7523
▁प्रतिनिधिसभाको	-7524
▁एपी	-7525
▁मिले	-7526
ुप्र	-7527
▁भाई	-7528
▁इन्चार्ज	-7529
▁डल	-7530
दत्त	-7531
▁चल्न	-7532
▁रोचक	-7533
▁सेल्	-7534
▁अग्रसर	-7535
▁रुपियाँ	-7536
▁दर्शकले	-7537
▁मन्तव्य	-7538
▁केसीको	-7539
▁जेष्ठ	-7540
▁सम्झना	-7541
▁सहयोगको	-7542
▁अर्थतन्त्रमा	-7543
नयाँ	-7544
▁स्पे	-7545
▁पारी	-7546
▁वर्	-7547
▁देखिएपछि	-7548
ेन्ज	-7549
वर्तमान	-7550
▁प्रकोप	-7551
उदै	-7552
हुने	-7553
▁रहेकी	-7554
आईजी	-7555
▁प्रत्यारोपण	-7556
▁उपप्रधानमन्त्री	-7557
रहनु	-7558
▁धमा	-7559
▁सिरहा	-7560
क्रान्ति	-7561
▁पौडेलको	-7562
लियो	-7563
▁बाख्रा	-7564
▁मनाङ	-7565
▁शहीद	-7566
▁औचित्य	-7567
▁कुखुरा	-7568
▁अर्ध	-7569
▁उम्मे	-7570
▁पाठ्यक्रम	-7571
वरको	-7572
▁यिनै	-7573
▁भोलिपल्ट	-7574
▁देखाइ	-7575
▁भवनमा	-7576
▁ब्रान्ड	-7577
▁नसके	-7578
कुलपति	-7579
▁आइरहेका	-7580
न्दि	-7581
▁खोजिएको	-7582
▁प्रब	-7583
▁व्यवहारमा	-7584
▁रुच	-7585
भाग्य	-7586
▁मोटो	-7587
▁चैत्र	-7588
जेल	-7589
▁सदस्यहरु	-7590
▁सकिन	-7591
ेग	-7592
▁२०१५	-7593
संर	-7594
▁विद्यालयले	-7595
रहित	-7596
ेरिया	-7597
▁इजराय	-7598
नाइटेड	-7599
▁संगठित	-7600
ोमा	-7601
क्व	-7602
▁अनुगम	-7603
▁कुवेत	-7604
▁दवा	-7605
झै	-7606
भिर	-7607
लोजी	-7608
▁हुम्	-7609
▁रूपान्तरण	-7610
▁मरि	-7611
▁मर्	-7612
▁लेन	-7613
▁प्रचलित	-7614
लान्	-7615
▁नसकेका	-7616
▁योग्यता	-7617
सुर	-7618
▁गित	-7619
▁खत्री	-7620
▁प्रकृया	-7621
▁बीउ	-7622
▁गई	-7623
वाहक	-7624
दिन्छ	-7625
▁संस्थालाई	-7626
▁नामको	-7627
न्दैन	-7628
▁देशभरका	-7629
▁राउत	-7630
▁चितवनको	-7631
▁आफूहरुले	-7632
▁व्यवसायमा	-7633
▁मेची	-7634
▁अवस्थित	-7635
▁गर्नुका	-7636
▁सर्वेक्षण	-7637
▁बाहिरी	-7638
ुटि	-7639
▁काभ्र	-7640
▁सकिएपछि	-7641
▁ऋषि	-7642
▁बीचको	-7643
क्लो	-7644
▁कमरेड	-7645
▁अनौपचारिक	-7646
न्सको	-7647
▁बौद्धिक	-7648
▁अपिल	-7649
▁वक्तव्य	-7650
▁मू	-7651
▁केटी	-7652
▁महामारीका	-7653
▁भएँ	-7654
▁र्या	-7655
▁नुवाकोट	-7656
ञ्जु	-7657
▁भूगोल	-7658
▁नम्बरमा	-7659
र्पोर	-7660
▁ठप्प	-7661
▁एकेडेमी	-7662
गामी	-7663
त्तिको	-7664
▁टिमको	-7665
स्रोत	-7666
▁दम्प	-7667
▁द्वि	-7668
▁बर्दिया	-7669
▁परिस्थितिमा	-7670
▁गतेको	-7671
भावी	-7672
▁दिन्छन्	-7673
▁पर्नेमा	-7674
▁फर्किने	-7675
▁सिलसि	-7676
▁आपसी	-7677
ण्ट	-7678
▁बीबी	-7679
▁बनेपछि	-7680
सभापति	-7681
▁खानी	-7682
▁पाटो	-7683
▁सरस्व	-7684
▁०६	-7685
▁संसारमा	-7686
▁पन्छ	-7687
फाई	-7688
क्रामक	-7689
▁बच्चालाई	-7690
▁लोकतन्त्रको	-7691
▁ताला	-7692
▁प्रान्त	-7693
▁फिल्मले	-7694
▁भिटामिन	-7695
▁इलाम	-7696
जेन्ट	-7697
▁मधेशी	-7698
▁खोलामा	-7699
ँगा	-7700
▁झि	-7701
▁मान्छेलाई	-7702
▁मुलुकलाई	-7703
▁बस्दा	-7704
चको	-7705
नजर	-7706
▁झगडा	-7707
▁बागलुङ	-7708
▁राजन	-7709
▁नगर्नु	-7710
▁महासंघको	-7711
चमा	-7712
▁क्लव	-7713
▁लाखको	-7714
▁जसमध्ये	-7715
▁संगठनको	-7716
▁समग्रमा	-7717
बहिनी	-7718
▁अस्व	-7719
▁संगै	-7720
▁पाउँछ	-7721
▁मकवानपुर	-7722
▁इन्जिनिय	-7723
▁रणनीतिक	-7724
▁राख्नुपर्ने	-7725
ौटी	-7726
ण्डको	-7727
▁अक्टो	-7728
▁अनुसन्धानका	-7729
साना	-7730
▁गरेकोमा	-7731
▁निर्णयमा	-7732
ुअ	-7733
▁प्रसंग	-7734
▁फैला	-7735
▁पहलमा	-7736
▁व्यवस्थापनको	-7737
▁निमा	-7738
▁सीता	-7739
▁टिकटक	-7740
▁पञ्चायत	-7741
▁क्षेत्रले	-7742
▁विश्वकपमा	-7743
▁निकालेर	-7744
राही	-7745
गं	-7746
▁चिन	-7747
▁छात्रा	-7748
▁ऐनको	-7749
धनको	-7750
▁हालको	-7751
▁सभ्य	-7752
▁सुने	-7753
▁ह्वा	-7754
▁पाठक	-7755
▁बहिनी	-7756
▁समर्थक	-7757
पोर्	-7758
▁भेटवार्ता	-7759
▁आर्य	-7760
▁श्रा	-7761
▁जोड्न	-7762
रहेछ	-7763
▁राती	-7764
▁भण्डारण	-7765
▁निष्पक्ष	-7766
ञ्जा	-7767
▁दिनका	-7768
▁बढाइएको	-7769
रालो	-7770
▁पारदर्शी	-7771
देन	-7772
▁व्यवस्थापनका	-7773
हक	-7774
▁रिक्त	-7775
▁सचेतक	-7776
▁उत्तरी	-7777
▁सालदेखि	-7778
▁मैन	-7779
▁कार्यक्रमहरु	-7780
▁अर्कोतिर	-7781
▁संस्कृतिको	-7782
वहारिक	-7783
▁पृष्ठभूमि	-7784
▁सम्बन्धलाई	-7785
▁हस्पि	-7786
ंशिक	-7787
▁प्रयोजन	-7788
▁प्रोजे	-7789
▁भारतसँग	-7790
▁मध्यनजर	-7791
▁विभागमा	-7792
▁विषयवस्तु	-7793
▁सिंगा	-7794
▁स्थानीयको	-7795
▁शरणा	-7796
▁तारिख	-7797
▁धुलो	-7798
▁गर्नेलाई	-7799
▁प्रतिस्पर्धामा	-7800
▁ध्यानमा	-7801
प्न	-7802
▁बर्षको	-7803
▁निरीक्षण	-7804
▁प्रसिद्ध	-7805
▁सफाइ	-7806
दले	-7807
▁पाहु	-7808
▁अनियमितता	-7809
▁सम्झौतामा	-7810
▁पानीमा	-7811
क्ष्मी	-7812
▁खेर	-7813
▁आत्मा	-7814
▁हालेर	-7815
▁ली	-7816
▁शहरमा	-7817
▁निर्देशनमा	-7818
▁गोप्य	-7819
▁आयोजनाका	-7820
▁सुशील	-7821
▁आचारसं	-7822
▁स्याङ्	-7823
▁रुपैया	-7824
▁हुनुको	-7825
▁तीमध्ये	-7826
▁निम्न	-7827
▁घरपरिवार	-7828
▁निकाल्ने	-7829
▁लिगमा	-7830
विज्ञान	-7831
िएर	-7832
▁दुब	-7833
▁मानेर	-7834
▁समक्ष	-7835
▁उपयोगी	-7836
चरण	-7837
▁उपन्यास	-7838
▁ब्ल	-7839
तर्फी	-7840
१६	-7841
मोहन	-7842
्योर	-7843
▁विश्वस	-7844
नेस	-7845
फरक	-7846
▁नसक	-7847
▁रिहा	-7848
▁कच्चा	-7849
▁कायमै	-7850
▁डेब	-7851
▁शपथ	-7852
▁प्रशोधन	-7853
▁नोभे	-7854
▁ल्	-7855
▁गाविस	-7856
▁अन्याय	-7857
पहि	-7858
▁झड	-7859
▁चाडपर्व	-7860
▁छोरीको	-7861
ईओ	-7862
▁लिम्बु	-7863
▁समस्यालाई	-7864
▁महिनाभित्र	-7865
▁हुँदाहुँदै	-7866
▁८४	-7867
▁रेश	-7868
▁लागेपछि	-7869
▁उत्सव	-7870
▁घुस	-7871
▁पाटन	-7872
▁राष्ट्रपतिको	-7873
▁मर्ज	-7874
कानु	-7875
▁वेला	-7876
धम	-7877
▁रेस्ट	-7878
▁लम्	-7879
▁अभियानको	-7880
▁सञ्चारकर्मी	-7881
जिर	-7882
▁तिनको	-7883
सम्पादन	-7884
▁खेलाडीलाई	-7885
▁थ्री	-7886
गरीय	-7887
▁साहित्यिक	-7888
▁वसन्त	-7889
▁राजनीतिको	-7890
एकै	-7891
नुभएन	-7892
▁२०२१	-7893
▁७८	-7894
टिले	-7895
▁दस्ताव	-7896
▁मुद्दाको	-7897
केर	-7898
▁उल्लंघन	-7899
तारी	-7900
▁फुल	-7901
▁मुआ	-7902
▁गोदा	-7903
▁युनाइटेड	-7904
▁हटा	-7905
▁आउँदो	-7906
नस	-7907
▁झन	-7908
▁निराश	-7909
▁रोहित	-7910
▁सन्तुलन	-7911
▁क्षेत्री	-7912
▁व्यवस्थाको	-7913
▁समितिलाई	-7914
▁हमा	-7915
ष्टिक	-7916
▁असुर	-7917
▁बिशेष	-7918
▁जाहेरी	-7919
▁भेटिएका	-7920
▁छात्रवृत्ति	-7921
ट्र	-7922
▁गर्नुपर्नेमा	-7923
▁शीत	-7924
▁काटि	-7925
जम	-7926
▁ऐनमा	-7927
▁गाँउ	-7928
स्फोट	-7929
▁जापानी	-7930
▁एक्का	-7931
▁नसकेपछि	-7932
▁अख्तियारले	-7933
▁दार्चु	-7934
त्यो	-7935
▁बाधा	-7936
▁सुरेश	-7937
▁एशिया	-7938
▁रोनाल्	-7939
▁कार्यलाई	-7940
▁संज	-7941
▁पुलिस	-7942
▁पिता	-7943
सूची	-7944
▁नियत	-7945
▁सयौं	-7946
om	-7947
▁लेखन	-7948
▁लिम्बू	-7949
▁नेम्वा	-7950
काजी	-7951
चानक	-7952
▁भाइरल	-7953
▁क्वारेन्टाइनमा	-7954
काठमाड	-7955
▁अध्ययनरत	-7956
ृंखला	-7957
▁सक्दछ	-7958
▁कार्यालयबाट	-7959
िब	-7960
२५	-7961
▁छेउ	-7962
▁तस्करी	-7963
▁सहरी	-7964
▁कान्तिपुर	-7965
▁नत्र	-7966
▁कर्पोर	-7967
▁काफ्ले	-7968
ंगु	-7969
▁हड्	-7970
्र्या	-7971
▁माने	-7972
▁हङकङ	-7973
▁६९	-7974
ल्दा	-7975
▁पायो	-7976
▁स्ट्र	-7977
▁प्रदर्शनी	-7978
▁घटाउन	-7979
▁भन्नेबारे	-7980
▁हेक्टर	-7981
▁भइन्	-7982
▁अरुलाई	-7983
कालिन	-7984
▁गज	-7985
▁राष्ट्रपतिले	-7986
बेर	-7987
▁चिना	-7988
▁आफ्	-7989
सभामुख	-7990
▁अवलम्बन	-7991
▁प्रकृतिको	-7992
ँु	-7993
▁आति	-7994
▁आखिर	-7995
▁९८	-7996
कोभिड	-7997
▁मापन	-7998
प्रदान	-7999
▁बढाएर	-8000
▁माइती	-8001
▁महानिरीक्षक	-8002
▁त्रास	-8003
यणी	-8004
▁गठित	-8005
▁उनीसँग	-8006
▁धेरैको	-8007
▁उही	-8008
▁बन्नु	-8009
▁बिषय	-8010
▁रहस्य	-8011
▁स्वभाविक	-8012
▁गठबन्धनका	-8013
▁सल्यान	-8014
▁केदार	-8015
▁लागतमा	-8016
▁सबभन्दा	-8017
▁मनोरञ्जन	-8018
▁मन्त्रिपरिषद्को	-8019
बन	-8020
▁फस	-8021
▁साइट	-8022
▁सचेतना	-8023
▁दोब्बर	-8024
▁भय	-8025
▁आईपी	-8026
केश	-8027
▁खोजे	-8028
▁दिपक	-8029
▁एनआरएनए	-8030
आउट	-8031
छिन	-8032
▁औषध	-8033
र्वेद	-8034
▁चालू	-8035
▁लड्न	-8036
▁जवान	-8037
▁तीर्थ	-8038
▁पत्राचार	-8039
र्मो	-8040
▁ओलम्पिक	-8041
▁अध्ययनले	-8042
मानी	-8043
▁मिडियामा	-8044
▁कार्यान्वयनका	-8045
▁बेड	-8046
▁कार्यान्वयनको	-8047
▁जोन	-8048
निएको	-8049
▁मुल्य	-8050
▁दुख्ने	-8051
▁तेज	-8052
▁हिड	-8053
▁कुराहरू	-8054
▁वस्तुको	-8055
▁अचानक	-8056
▁जुलाई	-8057
▁शताब्दी	-8058
▁हैसियत	-8059
▁प्याकेज	-8060
▁८८	-8061
▁ट्रया	-8062
▁बिदेश	-8063
▁त्यसमाथि	-8064
..	-8065
▁दस्तावेज	-8066
▁बाहिरबाट	-8067
▁बर्खा	-8068
▁प्रस्ट	-8069
▁नेटवर्क	-8070
▁अनुशासन	-8071
डल	-8072
▁चुनौ	-8073
ुरे	-8074
▁चाइ	-8075
पोखरी	-8076
▁सोलु	-8077
▁मधुमेह	-8078
▁पश्चिमा	-8079
▁उद्योगको	-8080
▁कमला	-8081
▁घोराही	-8082
भावना	-8083
फिल्	-8084
▁गाउँको	-8085
▁भाषाको	-8086
▁ल्याउनु	-8087
▁खग	-8088
▁रङ्ग	-8089
▁भुमिका	-8090
▁महानगरीय	-8091
मर	-8092
▁बाँच्न	-8093
▁बुझाउने	-8094
▁चिन्ति	-8095
▁प्रहरीमा	-8096
▁राख्छ	-8097
▁तुरुन्तै	-8098
▁दृढ	-8099
वन्ध	-8100
▁२०२२	-8101
▁दायरामा	-8102
▁लगाउँदै	-8103
▁डाउन	-8104
▁पोषण	-8105
▁नसक्नु	-8106
▁नलाग्ने	-8107
प्या	-8108
▁लगेको	-8109
फेर	-8110
मोर्चा	-8111
▁झैं	-8112
▁मही	-8113
▁छुट्टा	-8114
▁द्वारा	-8115
▁कहिलेकाहीँ	-8116
ेन्सी	-8117
▁कुरो	-8118
▁परिकल्पना	-8119
▁फोहर	-8120
▁भेन्	-8121
▁खाजा	-8122
▁गर्व	-8123
▁शोषण	-8124
▁एन्टि	-8125
ौलाले	-8126
▁हदसम्म	-8127
▁इस्	-8128
▁सिंगो	-8129
▁सावधान	-8130
सय	-8131
▁कलेजमा	-8132
२०७	-8133
▁गाडीमा	-8134
▁फर्कने	-8135
▁मौद्रिक	-8136
लिपि	-8137
▁मङ्	-8138
▁कामहरु	-8139
▁निवर्तमान	-8140
▁समुदायलाई	-8141
▁नाघ	-8142
▁सुमन	-8143
▁मागेको	-8144
▁पुनराव	-8145
चाई	-8146
▁रही	-8147
▁अर्काे	-8148
▁रक्तचाप	-8149
▁राज्यमन्त्री	-8150
ठूला	-8151
▁स्वतः	-8152
▁गरेनन्	-8153
ानले	-8154
▁खर्	-8155
▁चिन्तित	-8156
छन	-8157
▁कष्ट	-8158
▁गौरी	-8159
▁चाहन्छन्	-8160
▁महिलाहरु	-8161
▁महिनावारी	-8162
ौता	-8163
▁दिशामा	-8164
▁पुस्तकाल	-8165
▁प्रज्ञा	-8166
हानी	-8167
▁प्रजातान्त्रिक	-8168
▁८२	-8169
▁अग्लो	-8170
ङ्ग्रेस	-8171
एमई	-8172
▁टेस्ट	-8173
लेखा	-8174
▁बसे	-8175
▁माह	-8176
▁मुआब्जा	-8177
▁कमाउने	-8178
दमा	-8179
जिट	-8180
▁नेवि	-8181
▁बेच्ने	-8182
ंगे	-8183
▁७१	-8184
मशेर	-8185
▁गरें	-8186
▁टोलीको	-8187
▁अपाङ्गता	-8188
▁स्पष्टीकरण	-8189
▁अनौठो	-8190
▁खुलेर	-8191
▁धमाधम	-8192
▁तिनीहरू	-8193
▁रेमिट्या	-8194
जति	-8195
▁महिनापछि	-8196
▁विमानस्थलको	-8197
▁सारेको	-8198
▁राजधानीमा	-8199
▁बेलायती	-8200
▁शर्माको	-8201
▁सहिद	-8202
▁फेसबु	-8203
▁अवस्थालाई	-8204
बको	-8205
▁श्वास	-8206
▁ताप्ले	-8207
▁विपरित	-8208
श्चर्य	-8209
▁फेब्र	-8210
त्रीले	-8211
▁च्यानल	-8212
▁समेटेर	-8213
▁उपकुलपति	-8214
ूर	-8215
अगा	-8216
बिना	-8217
▁प्रश्नमा	-8218
कुश	-8219
न्ह	-8220
विक्रम	-8221
▁बन्दी	-8222
▁नजर	-8223
क्ताको	-8224
िला	-8225
िकै	-8226
▁कथ	-8227
▁फाइल	-8228
स्त्री	-8229
खल	-8230
▁समापन	-8231
▁बनाउनका	-8232
जस्ती	-8233
▁साटो	-8234
▁सहमतिमा	-8235
▁प्रयोगशाला	-8236
▁उपाध्यक्षमा	-8237
▁बक्स	-8238
▁माथिको	-8239
▁चितवनमा	-8240
▁मानवअधिकार	-8241
िती	-8242
▁दलीय	-8243
▁बराल	-8244
▁अपनाउन	-8245
▁युनिभ	-8246
▁काउन्सिल	-8247
▁बालुवाटार	-8248
▁अभियन्ता	-8249
▁विश्वकर्मा	-8250
लाय	-8251
▁कुरै	-8252
▁जनचेत	-8253
▁बेहो	-8254
म्मद	-8255
▁भवनको	-8256
▁जथा	-8257
▁खट	-8258
▁कोट	-8259
▁आगलागी	-8260
▁घर्ती	-8261
▁रायमा	-8262
▁इलेक्ट	-8263
▁आश्चर्य	-8264
▁निर्माणाधीन	-8265
▁बुझेर	-8266
▁परिचयपत्र	-8267
▁डिग्री	-8268
▁नेप्से	-8269
ठ्	-8270
▁अफर	-8271
▁युवालाई	-8272
धाई	-8273
▁नपाइने	-8274
▁भ्रमणका	-8275
▁सँगसँगै	-8276
▁प्रधानाध्यापक	-8277
पुर्ण	-8278
▁अदालतका	-8279
▁भेद	-8280
▁युएई	-8281
तालिका	-8282
▁जुत्ता	-8283
▁लघुवित्त	-8284
▁नेपालकै	-8285
नियम	-8286
▁जंगल	-8287
▁निद्रा	-8288
▁दीपेन्द्र	-8289
▁जनावर	-8290
▁ढुक्क	-8291
▁बस्तु	-8292
▁खाल्	-8293
▁पुरै	-8294
▁क्लबले	-8295
▁गृहकार्य	-8296
▁प्रतिशतसम्म	-8297
▁पश्चिमी	-8298
▁असं	-8299
▁लोभ	-8300
▁हुदैन	-8301
तीन	-8302
▁उखु	-8303
▁फ्रि	-8304
▁फौज	-8305
▁१९७	-8306
वर्ती	-8307
▁जबकि	-8308
▁पल	-8309
▁नुन	-8310
▁पछ्या	-8311
▁अध्यक्षको	-8312
▁विश्वविद्यालयको	-8313
तेको	-8314
▁हर्क	-8315
▁हितमा	-8316
▁मिर्गौला	-8317
▁वातावरणीय	-8318
▁संयोजन	-8319
▁परिसरमा	-8320
▁परिरहेको	-8321
▁भनिने	-8322
▁आद	-8323
▁गतेबाट	-8324
▁फार	-8325
▁एप्प	-8326
▁अण्डा	-8327
▁ः	-8328
▁बाब	-8329
कर्मीको	-8330
▁सुनसरी	-8331
▁अर्जेन्	-8332
▁बाम	-8333
▁सुन्ने	-8334
त्तम	-8335
▁चिज	-8336
गाईं	-8337
बापत	-8338
▁इन्धन	-8339
खी	-8340
▁विष्टले	-8341
पास	-8342
▁कञ्चनपुर	-8343
ou	-8344
▁समाजलाई	-8345
▁भन्नुभएको	-8346
▁आर्	-8347
▁एनसेल	-8348
▁शरीरलाई	-8349
▁लडाइँ	-8350
करणको	-8351
▁नआएको	-8352
▁बेच्न	-8353
▁कानुनको	-8354
▁अपमान	-8355
▁चुप	-8356
▁रनमा	-8357
▁बढीको	-8358
▁बुहारी	-8359
▁संस्थापन	-8360
▁समेटिएको	-8361
▁एजेन्डा	-8362
साको	-8363
▁रक्सी	-8364
▁मर्यादा	-8365
फ्र	-8366
▁लम्ब	-8367
वासीले	-8368
▁छाड्ने	-8369
▁तोडफो	-8370
▁उपमेयर	-8371
▁सांसदहरुले	-8372
▁हाउस	-8373
▁कोषको	-8374
वर्ग	-8375
▁उक्	-8376
▁बल्	-8377
▁ज्याला	-8378
▁आयुर्वेद	-8379
▁फर्केर	-8380
▁अन्तरगत	-8381
िकन	-8382
▁मिलाउने	-8383
▁विश्वस्त	-8384
▁शनिवार	-8385
▁खोटा	-8386
▁गर्द	-8387
▁चाहा	-8388
▁परिमाण	-8389
▁राख्दा	-8390
▁माओवादीका	-8391
▁लाइफ	-8392
वालले	-8393
चालित	-8394
▁२०१४	-8395
▁विषयको	-8396
स्पो	-8397
▁खाँ	-8398
राज्य	-8399
▁बिरा	-8400
▁ड्राइ	-8401
▁पुरस्कृत	-8402
▁नेतालाई	-8403
▁योजनाको	-8404
▁युरोपेली	-8405
ङ्का	-8406
▁माउ	-8407
▁आर्म	-8408
▁हिमालय	-8409
▁साँच्चै	-8410
▁परीक्षामा	-8411
मिर	-8412
नेश्वर	-8413
▁पीसीआर	-8414
▁मानन्ध	-8415
▁अब्	-8416
▁उसका	-8417
▁चलखेल	-8418
▁रसुवा	-8419
▁खानपान	-8420
▁पार्किङ	-8421
प्रेर	-8422
नुपर्दा	-8423
▁टोलीमा	-8424
▁अन्यथा	-8425
▁बढेपछि	-8426
दिप	-8427
थिन्	-8428
बलको	-8429
▁आर्मी	-8430
▁अपराधी	-8431
▁दिइरहेका	-8432
तेर	-8433
मानको	-8434
▁डिस्	-8435
▁आवासीय	-8436
चिएको	-8437
▁ठाउँबाट	-8438
▁गर्नुपर्दछ	-8439
▁अरुको	-8440
▁शिकार	-8441
▁अर्जेन्टि	-8442
▁घुमा	-8443
▁विभाजित	-8444
विना	-8445
▁सरा	-8446
निएका	-8447
▁अवश्य	-8448
▁हुनुभएको	-8449
ारेन्	-8450
▁प्रमो	-8451
▁दाजुभाइ	-8452
▁बित्तिकै	-8453
लय	-8454
▁दास	-8455
▁हेल्थ	-8456
▁नगर्दा	-8457
▁सन्दीप	-8458
▁स्तरको	-8459
▁लैजा	-8460
▁रोनाल्डो	-8461
▁गैरसरकारी	-8462
▁८३	-8463
▁उठ्ने	-8464
▁किन्ने	-8465
ङ्गे	-8466
▁साधनको	-8467
▁विश्वकै	-8468
किम	-8469
स्वरुप	-8470
▁मिच	-8471
लम	-8472
ढुंगा	-8473
▁वृत्त	-8474
कर्मीले	-8475
लिस	-8476
▁सकिए	-8477
▁जर्मनी	-8478
▁सुन्दा	-8479
▁वैचारिक	-8480
▁व्यवसायीको	-8481
▁मुद्धा	-8482
▁डिसेम्बर	-8483
it	-8484
▁अराज	-8485
▁मन्त्रालयलाई	-8486
▁अर्थतन्त्रको	-8487
म्भव	-8488
▁रायमाझ	-8489
चल	-8490
धमा	-8491
पोत	-8492
▁एपीएफ	-8493
▁भेटेर	-8494
▁देउवाको	-8495
▁अट	-8496
▁सोधे	-8497
▁नारायणी	-8498
▁प्रचण्डलाई	-8499
▁देखिएन	-8500
▁सकिन्न	-8501
▁विद्यादेवी	-8502
▁अना	-8503
▁सुन्	-8504
▁सन्तुष्ट	-8505
▁बुटव	-8506
डक	-8507
योजित	-8508
▁पाएँ	-8509
ेरिय	-8510
▁एशो	-8511
▁राईको	-8512
नाक	-8513
याउन	-8514
▁८६	-8515
▁मुना	-8516
▁लड्ने	-8517
▁निस्कि	-8518
▁जिल्लाबाट	-8519
▁बहुम	-8520
▁विवा	-8521
▁हेलिकप्टर	-8522
जुमा	-8523
योर्क	-8524
▁मोडेल	-8525
▁सुनार	-8526
बुल	-8527
▁बोट	-8528
▁डोल्पा	-8529
टाइन	-8530
त्रि	-8531
▁इन्ड	-8532
▁गम्	-8533
▁असहज	-8534
▁आवतजा	-8535
▁ट्याक्सी	-8536
▁क्वारेन्ट	-8537
▁पल्	-8538
▁सर्भि	-8539
▁लाम	-8540
मानमा	-8541
▁विर	-8542
▁सलमान	-8543
र्दन	-8544
्रय	-8545
▁प्यारा	-8546
▁मर	-8547
▁वाल	-8548
▁हेलि	-8549
▁आंशिक	-8550
st	-8551
म्पा	-8552
▁रिसो	-8553
▁स्थाय	-8554
इन्ट	-8555
▁पोज	-8556
▁थियौँ	-8557
▁रोका	-8558
विपरीत	-8559
▁परीक्षणका	-8560
न्जेल	-8561
▁आमालाई	-8562
▁गुरुङको	-8563
धनी	-8564
▁रवी	-8565
▁कमिटीको	-8566
▁निर्मला	-8567
▁दोहोर्या	-8568
▁दलहरुले	-8569
▁मूल्याङ्कन	-8570
▁लगाउ	-8571
▁खसेको	-8572
▁ब्रेक	-8573
▁नसकिएको	-8574
▁विश्वविद्यालयका	-8575
▁पालन	-8576
▁राहदानी	-8577
▁सरि	-8578
▁काङ्ग्रेस	-8579
▁उजा	-8580
▁त्यहि	-8581
▁गरिदिएको	-8582
लेन्द्र	-8583
▁भैसकेको	-8584
▁महोत्सवमा	-8585
चौर	-8586
▁मस्	-8587
▁पदका	-8588
▁महाअभि	-8589
सकै	-8590
▁आश्रम	-8591
▁पेनाल्	-8592
▁सन्तुलित	-8593
▁८७	-8594
▁उपराष्ट्रपति	-8595
१७	-8596
हमा	-8597
निका	-8598
▁चुक्ता	-8599
कप	-8600
▁बालक	-8601
प्रदेश	-8602
▁मङ्गल	-8603
▁सतर्कता	-8604
चारु	-8605
▁चाँडो	-8606
▁बढेका	-8607
▁दिइरहेको	-8608
टिन	-8609
महि	-8610
▁निर्देशित	-8611
▁भान्	-8612
▁वरपर	-8613
▁मेहनत	-8614
याधि	-8615
राहा	-8616
▁जसो	-8617
▁पेसा	-8618
▁ताजा	-8619
▁लाग्थ्यो	-8620
▁अव्य	-8621
▁रामेछाप	-8622
▁कार्यकालमा	-8623
▁पुनरा	-8624
▁पोर्चु	-8625
▁सार्वभौम	-8626
हना	-8627
▁१९८	-8628
बुद्ध	-8629
▁तिनका	-8630
ंकी	-8631
▁मेलम्ची	-8632
▁अर्कोतर्फ	-8633
▁दुर्गम	-8634
▁इला	-8635
▁सकेर	-8636
▁सेवाका	-8637
▁जनआन्दोल	-8638
▁दायरा	-8639
▁पुलको	-8640
▁जिन्दगी	-8641
▁बस्तीमा	-8642
त्रै	-8643
▁विवादित	-8644
▁दृष्टिले	-8645
▁सचिवालयले	-8646
▁खोजीमा	-8647
▁पाउनुपर्ने	-8648
▁सिद्धार्थ	-8649
▁खेलबाट	-8650
▁फाउन्ड	-8651
▁रावलले	-8652
▁निशुल्क	-8653
मध्य	-8654
▁भुसाल	-8655
▁गभर्नर	-8656
▁एकदम	-8657
▁ट्रक	-8658
▁मन्दिरको	-8659
▁दुव	-8660
पनको	-8661
▁वर्षौं	-8662
▁महिनाअघि	-8663
▁शाक्यले	-8664
तिय	-8665
सम्प	-8666
▁आशि	-8667
▁लैज	-8668
▁प्रभा	-8669
डका	-8670
▁टेवा	-8671
▁जनवरी	-8672
▁संकटमा	-8673
▁स्नातक	-8674
▁निष्कास	-8675
▁अध्ययनका	-8676
▁नाग	-8677
ताप	-8678
विरोध	-8679
▁सरोज	-8680
म्बरमा	-8681
▁सरस्वती	-8682
▁हुला	-8683
▁नहुन	-8684
▁मंसि	-8685
▁गरिनु	-8686
▁भरपर्	-8687
▁अर्थमा	-8688
ग्ध	-8689
ड्स	-8690
न्डा	-8691
▁इमान	-8692
▁व्रत	-8693
संरचना	-8694
▁जान्छन्	-8695
घ्र	-8696
▁कैदी	-8697
▁सुनेर	-8698
▁छोराको	-8699
▁पर्छन्	-8700
▁देखेपछि	-8701
▁रुपैयाँसम्म	-8702
समी	-8703
▁उमा	-8704
▁यकिन	-8705
▁सुशा	-8706
▁मानिसमा	-8707
▁जीवनशैली	-8708
▁वैद्य	-8709
▁आफ्नी	-8710
▁तुलना	-8711
▁देवकोटा	-8712
मन्त्रालय	-8713
▁सोधि	-8714
▁ग्राहकले	-8715
▁थालनी	-8716
▁यसबाहेक	-8717
▁वर्षभन्दा	-8718
▁केन्द्रबाट	-8719
ँची	-8720
▁अन्र्त	-8721
▁औंल्या	-8722
श्याम	-8723
▁घटाउने	-8724
▁उम्मेदवारको	-8725
▁सप्तरी	-8726
▁पराजुली	-8727
गान	-8728
▁आउँदैन	-8729
▁देउवालाई	-8730
▁असारमा	-8731
▁सङ्घर्ष	-8732
▁भारतलाई	-8733
▁प्रस्तावमा	-8734
▁बधाई	-8735
▁छापा	-8736
▁जीवित	-8737
रिय	-8738
▁काटेर	-8739
▁स्वाब	-8740
▁अभियुक्त	-8741
रास्व	-8742
▁गरौँ	-8743
▁नेदर	-8744
ारामा	-8745
▁दिमाग	-8746
भएको	-8747
▁पसलमा	-8748
▁नभएसम्म	-8749
▁विस्फोट	-8750
▁७९	-8751
▁धरा	-8752
▁देख्ने	-8753
▁दुनियाँ	-8754
▁नेपालीहरु	-8755
▁गिर	-8756
▁तहलाई	-8757
▁भण्डारीको	-8758
▁सहरमा	-8759
नेट	-8760
सिन	-8761
▁लम्स	-8762
▁दर्शकको	-8763
िँदै	-8764
▁चारै	-8765
▁हिरो	-8766
▁साधारणसभा	-8767
▁सास	-8768
ारीले	-8769
▁मसँग	-8770
▁डीएसपी	-8771
▁भनेकै	-8772
▁हिरासतमा	-8773
▁प्रमाणीकरण	-8774
▁होस	-8775
▁रकमको	-8776
▁वान	-8777
▁चिर	-8778
▁२०६४	-8779
▁प्रथा	-8780
▁जवाफदे	-8781
▁जथाभावी	-8782
र्छ	-8783
▁निकायका	-8784
▁बोर्डका	-8785
▁बनाउनुपर्छ	-8786
▁एकाएक	-8787
▁प्रदेशले	-8788
▁माल्	-8789
▁अहिलेका	-8790
▁एभर	-8791
▁सबैमा	-8792
बडी	-8793
▁घाउ	-8794
▁पेरि	-8795
▁मिलियन	-8796
▁किनारमा	-8797
ँदो	-8798
▁निरु	-8799
वस्थित	-8800
▁बिर्स	-8801
नर	-8802
▁राशि	-8803
▁मृत्युको	-8804
ालीमा	-8805
सनले	-8806
▁पदम	-8807
▁दलहरूले	-8808
सकेकी	-8809
▁टावर	-8810
▁अग्नि	-8811
व्यवस्था	-8812
▁पदबाट	-8813
▁गर्नुपर्नेछ	-8814
स्टार	-8815
▁सक्छु	-8816
▁सवालमा	-8817
▁कार्कीको	-8818
▁आयल	-8819
▁मान्	-8820
▁मल्लले	-8821
▁हालतमा	-8822
▁सम्प्र	-8823
▁परिवर्तनका	-8824
र्तामो	-8825
▁टोलीलाई	-8826
▁नगरप्रमुख	-8827
▁नया	-8828
▁सावित	-8829
जाँच	-8830
न्मुख	-8831
▁बसपार्क	-8832
रानी	-8833
▁तिमीलाई	-8834
▁छैट	-8835
▁सुन्तला	-8836
▁संलग्नता	-8837
▁खुम्	-8838
▁आजसम्म	-8839
पल	-8840
▁प्रे	-8841
▁पुनःनिर्माण	-8842
▁रोड	-8843
▁प्रेमी	-8844
▁शाखाका	-8845
एनए	-8846
फिया	-8847
▁हिमालयन	-8848
बेल	-8849
▁माग्ने	-8850
▁समयपछि	-8851
बित्तिकै	-8852
▁सहकारीको	-8853
िकृत	-8854
▁पदमार्ग	-8855
▁भईरहेको	-8856
▁प्रतिशतभन्दा	-8857
हीं	-8858
▁बजेतिर	-8859
▁स्वरूप	-8860
▁सञ्चालनको	-8861
▁निर्देशनालय	-8862
▁नन्द	-8863
▁अवतरण	-8864
▁घण्टामा	-8865
उनी	-8866
मगर	-8867
▁मुलुकले	-8868
ूरो	-8869
ण्डी	-8870
▁खुल्ने	-8871
▁अँ	-8872
रोप	-8873
पाले	-8874
▁ढाँचा	-8875
▁लकडाउनको	-8876
लार्इ	-8877
▁भित्रै	-8878
▁स्थलगत	-8879
▁हेर्दै	-8880
१४	-8881
▁वेद	-8882
▁पृथ्व	-8883
▁साम्राज्य	-8884
▁जाम	-8885
▁जिते	-8886
▁सिनियर	-8887
▁संचालनमा	-8888
छुट्	-8889
▁बेल्ज	-8890
▁माग्न	-8891
▁व्यवसायीलाई	-8892
१८	-8893
▁क्याम	-8894
टेको	-8895
बुटी	-8896
▁९२	-8897
नान्स	-8898
▁संरचनामा	-8899
▁जबर	-8900
नाल्ड	-8901
▁प्राइ	-8902
▁मामि	-8903
▁पार्छ	-8904
▁तपाईलाई	-8905
▁नक्	-8906
▁यम	-8907
▁वकिल	-8908
▁दक्षि	-8909
▁९६	-8910
▁धादिङ	-8911
▁संगठनले	-8912
▁ताम	-8913
▁लोग	-8914
▁बाजु	-8915
▁छेउमा	-8916
▁मेट्रिक	-8917
▁चाहिएको	-8918
▁करार	-8919
▁खोलेर	-8920
▁विपक्षमा	-8921
▁दुईजना	-8922
▁फेब्रुअ	-8923
▁नमि	-8924
▁फैस	-8925
कू	-8926
लान	-8927
▁पर्यटकलाई	-8928
▁हौँ	-8929
▁टुक्रा	-8930
▁बेर	-8931
▁किनेर	-8932
▁हजारको	-8933
▁महासङ्घ	-8934
▁स्थायित्व	-8935
▁दाल	-8936
ग्लै	-8937
▁ठाँ	-8938
▁खाएको	-8939
ष्ठा	-8940
▁महादेव	-8941
▁व्यवस्थामा	-8942
▁सवार	-8943
▁विन्दु	-8944
▁समाजसेवी	-8945
▁गोष्ठ	-8946
▁लैजानु	-8947
▁भइसक्यो	-8948
▁प्रतिष्ठा	-8949
▁सार्थ	-8950
▁टोलीका	-8951
▁कार्यक्रमले	-8952
▁बताउनुहुन्छ	-8953
ालिटी	-8954
▁भरिएको	-8955
▁अनेरास्व	-8956
▁रेग्मीले	-8957
सरी	-8958
▁मजब	-8959
▁लिँदै	-8960
▁उर्	-8961
▁उतार	-8962
▁९३	-8963
▁दण्ड	-8964
▁कलाकारको	-8965
▁शाहको	-8966
▁पठाएका	-8967
रलाई	-8968
▁उपवि	-8969
▁सिलव	-8970
▁द्	-8971
▁सोच्न	-8972
▁तिमिल्	-8973
▁वैशाखमा	-8974
▁सेप्टेम्बर	-8975
१३	-8976
ग्रहण	-8977
▁प्रणालीलाई	-8978
▁व्यवस्थापक	-8979
राजनीतिक	-8980
आत	-8981
▁साथीहरु	-8982
▁उठ्न	-8983
सङ्ख्या	-8984
▁विविधता	-8985
▁प्रतिशतको	-8986
▁ताली	-8987
▁नभइ	-8988
▁दबाव	-8989
डले	-8990
▁अछाम	-8991
▁पानीले	-8992
▁कार्यको	-8993
र्ख	-8994
रहेकै	-8995
▁कांग्रेसलाई	-8996
▁व्यक्तिहरु	-8997
▁माला	-8998
▁प्रयासमा	-8999
▁चिकित्सकले	-9000
प्स	-9001
▁शिक्षकको	-9002
▁तथापि	-9003
▁पोजेटिभ	-9004
▁नह	-9005
राजा	-9006
▁अन्योल	-9007
▁सिलसिलामा	-9008
▁चिकित्सकको	-9009
▁डोज	-9010
▁उत्खन	-9011
▁महाधिवेशनको	-9012
▁उपसभापति	-9013
थोक	-9014
क्षि	-9015
▁रिजाल	-9016
▁यसकारण	-9017
▁हाल्ने	-9018
▁गर्दैनन्	-9019
▁नेपालीहरुको	-9020
षित	-9021
▁मेस्	-9022
▁कमाएको	-9023
▁देखाएका	-9024
▁देखाउँदै	-9025
▁दसैं	-9026
▁१९६	-9027
सायनिक	-9028
▁छोरीलाई	-9029
▁त्यसमध्ये	-9030
▁लिगको	-9031
▁चम	-9032
▁म्याच	-9033
▁सम्पादक	-9034
ऊँ	-9035
▁बसन्त	-9036
▁इमान्दार	-9037
▁भेरी	-9038
▁चुनौति	-9039
▁कोण	-9040
▁सना	-9041
▁रहेकोमा	-9042
▁खल	-9043
मिल	-9044
▁प्रतिकूल	-9045
▁छाडेको	-9046
▁स्तन	-9047
▁तोडफोड	-9048
▁सुधारको	-9049
▁डिल्ली	-9050
▁लाइनमा	-9051
क्षकको	-9052
▁खोजेका	-9053
▁प्रविध	-9054
▁रिसोर्ट	-9055
▁यात	-9056
▁समाचारमा	-9057
दश	-9058
ितीय	-9059
▁स्वीका	-9060
▁डोनाल्ड	-9061
▁छिर	-9062
▁खर्चको	-9063
▁जवाफमा	-9064
▁संकल्प	-9065
▁उठेर	-9066
▁थापालाई	-9067
▁बदलि	-9068
▁मगरले	-9069
▁व्यायाम	-9070
▁आइपुग्दा	-9071
▁जनमोर्चा	-9072
▁वामपन्थी	-9073
हाङ	-9074
ल्ली	-9075
▁मङ्सिर	-9076
▁कालापानी	-9077
▁जानुपर्छ	-9078
▁झापाको	-9079
▁पुग्नु	-9080
▁कृषिमा	-9081
▁वेबसाइट	-9082
▁वैधानिक	-9083
▁काठमाडौंबाट	-9084
छुट्टै	-9085
▁सुचारु	-9086
▁सर्वसम्मत	-9087
▁डेंगु	-9088
▁बाह्र	-9089
▁मेलमिला	-9090
▁प्रमुखको	-9091
▁घोषणापत्र	-9092
शीलता	-9093
▁दैनिकमा	-9094
▁निष्कर्षमा	-9095
वात	-9096
▁सुनुवाई	-9097
▁हराउँदै	-9098
▁राजनि	-9099
▁भरो	-9100
▁मृग	-9101
▁छठ	-9102
▁ग्री	-9103
▁नेविसंघ	-9104
▁मोहम्मद	-9105
ीन	-9106
▁बढीमा	-9107
▁गम्भिर	-9108
▁जनसङ्ख्या	-9109
▁एजेन्ट	-9110
▁विभागीय	-9111
▁ठूल	-9112
▁रूपले	-9113
▁बालुवाटारमा	-9114
▁झल	-9115
▁बङ्ग	-9116
▁समूहलाई	-9117
▁कसलाई	-9118
▁नर्सि	-9119
▁अभियानका	-9120
▁अन्तर्गतको	-9121
▁२०७०	-9122
▁अमेरिकाका	-9123
ेडि	-9124
▁खाँदा	-9125
▁दोहोरि	-9126
▁बाक्लो	-9127
▁बिद्या	-9128
साथै	-9129
▁बिन्दु	-9130
▁झरेको	-9131
▁बोर्डको	-9132
▁वातावरणमा	-9133
जुक	-9134
▁निकायलाई	-9135
▁झोला	-9136
▁लगिएको	-9137
▁विगतको	-9138
▁जनचेतना	-9139
▁विरुद्धमा	-9140
▁स्तरोन्नति	-9141
▁पृथ्वीनारायण	-9142
डेल्	-9143
▁सता	-9144
▁मोदीले	-9145
▁सांसदको	-9146
▁नवलपरासी	-9147
▁पुस्तकमा	-9148
▁समन्वयमा	-9149
प्रेस	-9150
▁गफ	-9151
▁फोक्	-9152
▁सुधा	-9153
▁आपसमा	-9154
▁दुर्व	-9155
ic	-9156
▁हुँदैनन्	-9157
लामी	-9158
▁जता	-9159
▁माफी	-9160
▁शिल्	-9161
▁गरेकै	-9162
▁ट्रेल	-9163
▁खाडी	-9164
▁वार्ड	-9165
▁घटनास्थल	-9166
▁व्यावहारिक	-9167
le	-9168
▁मन्त्रीको	-9169
▁मन्त्रीले	-9170
गुन	-9171
भेट	-9172
▁जीत	-9173
▁शोध	-9174
▁कठिनाइ	-9175
▁भुसालले	-9176
▁गाउँले	-9177
▁बढाउँछ	-9178
▁बताइन्छ	-9179
▁जिज्ञासा	-9180
पिङ	-9181
▁जापानमा	-9182
▁फागुनमा	-9183
▁!'	-9184
▁९४	-9185
रक्षा	-9186
▁स्थलमा	-9187
▁काउन्सि	-9188
ब्लु	-9189
विवाह	-9190
▁९७	-9191
ख्यक	-9192
ब्रे	-9193
सेना	-9194
▁प्रसा	-9195
▁भदौमा	-9196
▁मुखमा	-9197
▁बताउने	-9198
00	-9199
▁अमृत	-9200
पेट	-9201
▁सङ्क	-9202
▁स्थानको	-9203
▁तीज	-9204
▁प्रियंका	-9205
▁घे	-9206
▁एआई	-9207
▁तर्जुमा	-9208
▁८१	-9209
ालीको	-9210
▁सिरिज	-9211
▁पार्टन	-9212
▁सम्बद्ध	-9213
ंगीतिक	-9214
राखेको	-9215
▁मतगणना	-9216
▁महालेखा	-9217
ृङ्ख	-9218
▁३००	-9219
▁निश्च	-9220
▁ल्याब	-9221
▁आत्मविश्वास	-9222
जुद	-9223
▁टेक्न	-9224
▁पालामा	-9225
▁तिहाइ	-9226
▁समस्याका	-9227
▁उहाँहरुले	-9228
▁क्लबका	-9229
▁क्यामेरा	-9230
धक	-9231
▁गराउँछ	-9232
▁कक्षामा	-9233
▁अनुसन्धानको	-9234
ुग	-9235
ईले	-9236
याले	-9237
▁घिसि	-9238
▁शिवि	-9239
▁चार्	-9240
▁बिति	-9241
▁असमान	-9242
▁बोलि	-9243
▁महतले	-9244
▁उमेश	-9245
▁शेखर	-9246
▁कारबाहीको	-9247
चिलो	-9248
▁दाम	-9249
कुवा	-9250
▁निशा	-9251
▁होईन	-9252
▁रहेकोले	-9253
▁संरक्षणमा	-9254
▁घेरा	-9255
▁वर्गको	-9256
▁तुलसीपुर	-9257
▁उपत्यकाका	-9258
▁शिलान्यास	-9259
जंग	-9260
बाटो	-9261
▁इजरायल	-9262
▁याम	-9263
▁तिर्ने	-9264
▁समानता	-9265
▁ल्याए	-9266
▁विक्री	-9267
▁क्यास	-9268
▁उमेरका	-9269
▁फाउण्ड	-9270
▁तिर्नुपर्ने	-9271
नबाट	-9272
▁१५०	-9273
▁लगाई	-9274
द्धारा	-9275
▁याताया	-9276
▁घनश्याम	-9277
▁नामावली	-9278
▁भेन्टिले	-9279
▁प्रतिष्ठानका	-9280
पुले	-9281
▁उठाइ	-9282
▁गरिदिन	-9283
▁सडकखण्ड	-9284
▁शीर्षकमा	-9285
म्र	-9286
▁८९	-9287
थोकी	-9288
▁दिनमै	-9289
▁उपसचिव	-9290
▁स्वास्थ	-9291
▁युवाको	-9292
▁प्रदायक	-9293
▁कालोपत्रे	-9294
▁क्याम्पसमा	-9295
लीका	-9296
▁कार्यकर्ताले	-9297
झैं	-9298
▁पूर्णता	-9299
▁प्रयोजनका	-9300
पारी	-9301
▁केरा	-9302
कामा	-9303
कुनै	-9304
▁सांगीतिक	-9305
▁गर्नुपरेको	-9306
▁कमै	-9307
ारेन्टी	-9308
▁ब्यक्त	-9309
▁भ्रमणको	-9310
▁भइसकेपछि	-9311
टरको	-9312
्याएर	-9313
▁पटकको	-9314
▁पाइयो	-9315
▁मेलामा	-9316
▁अभियानलाई	-9317
धारी	-9318
▁अबस्था	-9319
ट्टि	-9320
▁आफनो	-9321
▁नचाह	-9322
▁किरात	-9323
▁सेनाका	-9324
▁उद्योगले	-9325
डेट	-9326
▁बालकृष्ण	-9327
▁महानगरको	-9328
▁अत्याधुनिक	-9329
▁बाला	-9330
▁हिन्दी	-9331
▁दमन	-9332
▁तुलनात्मक	-9333
्ट	-9334
न्समा	-9335
▁कफी	-9336
▁सूच	-9337
हार्य	-9338
▁बाग्	-9339
▁कार्यसम्पादन	-9340
▁बिग	-9341
▁सेक	-9342
▁विधामा	-9343
क्षमा	-9344
▁सिमित	-9345
▁उदेश्य	-9346
▁बरिष्ठ	-9347
▁उठाएर	-9348
▁ब्रह्	-9349
▁यादवको	-9350
▁धेरैलाई	-9351
▁जन्मिएका	-9352
छी	-9353
लाइनमा	-9354
▁पार्टीबाट	-9355
▁काभ्रे	-9356
▁चोर	-9357
▁नोक्सानी	-9358
▁ठुला	-9359
▁मेरी	-9360
▁कालिका	-9361
▁बुझेको	-9362
▁रंगशाला	-9363
दिएका	-9364
▁सहमतिको	-9365
▁काँग्रेसका	-9366
▁द्रुत	-9367
▁भावी	-9368
▁गाडीको	-9369
▁सास्ती	-9370
▁शत	-9371
▁आइसकेको	-9372
▁चापा	-9373
▁पक्की	-9374
▁भनिएका	-9375
र्सले	-9376
▁सुख्	-9377
▁काट्ने	-9378
▁लाखभन्दा	-9379
▁उपस्थितिमा	-9380
▁बताउदै	-9381
▁सम्ममा	-9382
▁शरणार्थी	-9383
▁प्रोट	-9384
▁तिनलाई	-9385
▁भ्रष्ट	-9386
▁उपाध्याय	-9387
▁बादल	-9388
▁मिसा	-9389
▁हटाएर	-9390
▁सत्ताको	-9391
▁संशोधनको	-9392
▁टिमका	-9393
▁कीर्तिमान	-9394
हिबार	-9395
▁खासमा	-9396
ेसि	-9397
▁लोडसे	-9398
ेता	-9399
्यौ	-9400
▁बोली	-9401
▁अदालतबाट	-9402
▁ओपन	-9403
▁क्ल	-9404
▁स्कुलमा	-9405
▁सम्मेलनको	-9406
▁घरा	-9407
▁धनकुटा	-9408
ेन्डर	-9409
▁आगमन	-9410
▁सफलताको	-9411
▁भुटान	-9412
▁कार्यकर्तालाई	-9413
गै	-9414
▁हमला	-9415
▁क्लिक	-9416
▁सबैका	-9417
▁अत्याधिक	-9418
▁स्वास्थ्यका	-9419
सिनाले	-9420
▁हनु	-9421
▁लेखेर	-9422
सरकारले	-9423
▁भनिए	-9424
▁कुँवर	-9425
▁सफ्टवेयर	-9426
▁सर्वोच्चले	-9427
सामु	-9428
▁इण्ड	-9429
▁छोरो	-9430
▁स्को	-9431
▁स्टोर	-9432
▁जुम्ला	-9433
▁पंक्ति	-9434
▁गहि	-9435
▁असाध्य	-9436
▁हेरफेर	-9437
▁घटनालाई	-9438
▁बेलायतमा	-9439
▁गठबन्धनले	-9440
जेट	-9441
▁बड	-9442
घाखा	-9443
▁शाल	-9444
▁खाँचो	-9445
▁आँखामा	-9446
▁रेस्टुरेन्ट	-9447
▁एकसाथ	-9448
▁मालपोत	-9449
भेन्ट	-9450
▁घट्दै	-9451
▁व्यवस्थालाई	-9452
वृद्ध	-9453
▁एभरे	-9454
▁कोसिस	-9455
▁खानेपानीको	-9456
▁तापनि	-9457
▁स्पेन	-9458
▁गोक	-9459
▁सुस्त	-9460
▁घटनाले	-9461
▁प्रतिशतमा	-9462
ेश्वरी	-9463
▁जमिनमा	-9464
▁बेरोजगार	-9465
▁पिसाब	-9466
चौलिया	-9467
▁चिन्ह	-9468
ल्टी	-9469
▁२०८१	-9470
▁प्रवि	-9471
▁हिँड्ने	-9472
▁महाशाखाले	-9473
▁राष्ट्रियता	-9474
सेर	-9475
▁दरमा	-9476
▁चिह्न	-9477
▁त्रुटि	-9478
▁अनुभ	-9479
▁गरिमा	-9480
श्मा	-9481
▁दूर	-9482
▁लोकसेवा	-9483
▁सुरुवाती	-9484
▁दूतावासले	-9485
र्सा	-9486
हारा	-9487
▁सेती	-9488
अघ	-9489
गंगा	-9490
▁खोल्	-9491
▁विजे	-9492
▁आइसोलेसन	-9493
▁सुरक्षामा	-9494
▁तपाइ	-9495
्यौँ	-9496
▁नहर	-9497
▁सभाका	-9498
▁चीनका	-9499
▁पाँचौं	-9500
▁न्यायको	-9501
सिलो	-9502
▁टुट	-9503
▁श्रेष्ठलाई	-9504
▁उदार	-9505
▁नेताहरुलाई	-9506
▁अला	-9507
▁नल	-9508
▁महसुल	-9509
▁थालि	-9510
क्षेपण	-9511
▁चुरोट	-9512
पर्क	-9513
▁सङ्गठ	-9514
काठमाडौं	-9515
▁दायाँ	-9516
▁अपरिहार्य	-9517
▁सेमिफाइनलमा	-9518
▁पढेर	-9519
▁हिसा	-9520
▁सामग्रीको	-9521
▁यज्ञ	-9522
▁ठक्कर	-9523
▁ठकु	-9524
्रैमा	-9525
▁उन्मुक्ति	-9526
▁कठोर	-9527
▁भेदभाव	-9528
▁चितवनका	-9529
▁सुचना	-9530
▁भोग्नु	-9531
▁टाँ	-9532
▁नबि	-9533
▁नरो	-9534
▁बोकेका	-9535
▁दूरस	-9536
▁ठाउँको	-9537
▁स्वयम्	-9538
तीर्ण	-9539
▁साउथ	-9540
▁पाएर	-9541
▁कृष्णबहादुर	-9542
▁थारू	-9543
▁चार्ज	-9544
▁कामदारको	-9545
▁गर्दैछन्	-9546
▁टिभी	-9547
▁बढाउनु	-9548
▁प्रयो	-9549
▁पन्तले	-9550
▁यहीँ	-9551
▁ब्राण्ड	-9552
▁लागिरहेको	-9553
वधिक	-9554
▁चढेर	-9555
जिल्ला	-9556
▁दिँदैन	-9557
▁किसिमले	-9558
▁२०७१	-9559
▁चैतमा	-9560
▁संसद्को	-9561
म्वर	-9562
▁हाे	-9563
▁दुर्व्य	-9564
▁रेलमार्ग	-9565
वृ	-9566
▁कटु	-9567
▁नाक	-9568
▁घरका	-9569
▁घरदै	-9570
▁भाँडा	-9571
▁आजदेखि	-9572
▁प्रस्थान	-9573
▁प्रक्षेपण	-9574
▁अधिकारीलाई	-9575
स्मा	-9576
कानुनी	-9577
▁जीवनका	-9578
▁परीक्षणको	-9579
▁प्लेटफर्म	-9580
▁डडेल्	-9581
▁बिष्ट	-9582
▁ढङ्गले	-9583
▁गर्नसक्ने	-9584
▁नेताहरूको	-9585
धेरै	-9586
▁भेष	-9587
▁राज्यमा	-9588
▁कोइरालाको	-9589
▁वडाका	-9590
▁संचालक	-9591
▁भरपर्दो	-9592
▁जङ्ग	-9593
▁हुँदो	-9594
▁घटनाक्रम	-9595
▁दूरसञ्चार	-9596
र्चुअल	-9597
▁लिन्छ	-9598
▁आइपुगेको	-9599
▁रोय	-9600
हाल्छ	-9601
▁आत्मसा	-9602
▁सूचीकृत	-9603
▁भावनात्मक	-9604
▁भेग	-9605
▁निस्कने	-9606
लिप	-9607
सपा	-9608
▁शोक	-9609
▁कोहल	-9610
पत्रिका	-9611
▁गठबन्धनमा	-9612
▁पढाउने	-9613
▁मसान्तसम्म	-9614
न्च	-9615
पर्धा	-9616
▁दाँत	-9617
▁इन्स्योर	-9618
▁पासपोर्ट	-9619
▁करको	-9620
▁उपमहा	-9621
▁सिक्न	-9622
▁दिलाउन	-9623
▁t	-9624
▁झन्झ	-9625
▁सुख्खा	-9626
केही	-9627
▁मिहिने	-9628
▁काठमाडा	-9629
▁वंश	-9630
▁वञ्चित	-9631
▁घट्ने	-9632
▁खोज्नु	-9633
धनमा	-9634
▁उति	-9635
▁कमाउन	-9636
▁वीरगन्ज	-9637
▁बुढाथोकी	-9638
▁वार्तामा	-9639
काएको	-9640
पहिले	-9641
▁दशकमा	-9642
▁दैनिकी	-9643
▁कार्यतालिका	-9644
न्सले	-9645
▁चिन्तन	-9646
▁कोरोनाका	-9647
▁ललितपुरको	-9648
▁छर	-9649
▁बदर	-9650
▁शार	-9651
▁कैयौं	-9652
▁पोख्र	-9653
▁फोनमा	-9654
▁बोलेको	-9655
▁इन्जिनियरिङ	-9656
▁जुलु	-9657
▁२००७	-9658
▁गरेसँगै	-9659
पोषण	-9660
▁आफैंमा	-9661
▁पैसाको	-9662
स्तरको	-9663
▁मजबुत	-9664
यत्त	-9665
▁पुर्ण	-9666
▁दुवैले	-9667
▁हुनेको	-9668
▁दिल	-9669
ञ्जली	-9670
सरको	-9671
▁सकिएन	-9672
जग्गा	-9673
▁भूमिगत	-9674
▁महानगरपालिकाको	-9675
▁कलेजो	-9676
▁अप्रिल	-9677
▁पूर्णरुपमा	-9678
ुण	-9679
▁इटहरी	-9680
▁साउनमा	-9681
▁निलम्बन	-9682
▁ब्यवसाय	-9683
▁रवीन्द्र	-9684
र्जित	-9685
▁पर्खाल	-9686
वली	-9687
नेता	-9688
▁एसोसिएसन	-9689
▁थन्	-9690
▁बोलको	-9691
▁चित्रण	-9692
▁अनिश्चित	-9693
खाले	-9694
▁आठौं	-9695
▁मुटुको	-9696
▁फिल्मलाई	-9697
र्था	-9698
▁दुरी	-9699
▁फर्किन	-9700
स्टो	-9701
▁बझा	-9702
▁नायव	-9703
▁तिरेर	-9704
▁जबर्ज	-9705
▁भनेकी	-9706
▁खटिएको	-9707
▁प्राज्ञ	-9708
▁क्लिनिक	-9709
▁आएन	-9710
▁निधि	-9711
▁गिराव	-9712
▁सदस्यलाई	-9713
▁अध्यक्षता	-9714
सान	-9715
▁बिरोध	-9716
▁स्थाना	-9717
▁अभियोगमा	-9718
▁प्लास्टिक	-9719
▁राख्नुपर्छ	-9720
▁छुट्टाछुट्टै	-9721
ोलु	-9722
पाठन	-9723
योजक	-9724
▁कुलमान	-9725
▁टेलिफोन	-9726
▁पक्षबाट	-9727
▁अरुले	-9728
▁बिश्व	-9729
मू	-9730
कान्त	-9731
▁फ्यान	-9732
खुट्	-9733
▁जहिले	-9734
▁माहोल	-9735
ञ्जी	-9736
्याङ	-9737
तपाईं	-9738
र्पित	-9739
▁असहमति	-9740
▁नगरा	-9741
▁रुसी	-9742
▁निर्णयको	-9743
▁थाह	-9744
▁कहीँ	-9745
▁फर्कन	-9746
▁मण्डल	-9747
▁अर्घाखा	-9748
▁आन्दोलनलाई	-9749
▁धाम	-9750
▁पर्दै	-9751
▁प्राण	-9752
▁झाँ	-9753
स्कृति	-9754
▁निकासी	-9755
न्दर्भिक	-9756
▁प्राचीन	-9757
न्दो	-9758
▁डिफ	-9759
▁पाइला	-9760
▁सहारा	-9761
▁गर्दछौं	-9762
▁झाले	-9763
▁नीतिको	-9764
▁हाम्रै	-9765
▁प्लान्ट	-9766
▁कोरियाली	-9767
पीको	-9768
▁अङ्ग	-9769
▁छायाँ	-9770
▁पलायन	-9771
ियन्स	-9772
▁भोजन	-9773
▁एक्लो	-9774
कर्ताको	-9775
▁गोकर्ण	-9776
▁बानियाँ	-9777
कारक	-9778
▁ब्यान	-9779
▁नीतिमा	-9780
पट	-9781
▁रङ	-9782
▁फुर्	-9783
▁सातौं	-9784
▁हुनुका	-9785
▁अजय	-9786
▁निर्म	-9787
▁खेले	-9788
▁पुजा	-9789
▁लिभर	-9790
▁गर्नुपर्यो	-9791
दोष	-9792
▁रजत	-9793
▁पदको	-9794
▁हर्ष	-9795
▁उल्टो	-9796
▁प्रोजेक्ट	-9797
कारिता	-9798
▁ब्याट	-9799
▁विनाश	-9800
▁दुवैको	-9801
▁लिनुपर्छ	-9802
▁आचारसंहिता	-9803
▁इन्डो	-9804
▁हाफमा	-9805
किश	-9806
▁इच्छुक	-9807
▁एकैपटक	-9808
▁गिरिजा	-9809
बोट	-9810
▁पित	-9811
▁तिमीले	-9812
रोस्	-9813
▁वार	-9814
▁जेलमा	-9815
▁जलस्रोत	-9816
▁एयरपोर्ट	-9817
▁प्रतिनिधिसभामा	-9818
मूल्य	-9819
▁बढ्दा	-9820
▁कर्जाको	-9821
▁उल्लेखित	-9822
▁पीडितलाई	-9823
▁नसु	-9824
▁नजिकको	-9825
▁देखेका	-9826
▁क्वारेन्टाइन	-9827
▁महानगरपालिकाका	-9828
जू	-9829
▁लिएपछि	-9830
▁सिफारिसमा	-9831
▁मणि	-9832
▁लोप	-9833
▁जन्मदिन	-9834
▁न्यायपालिका	-9835
▁रस	-9836
▁क्यानडा	-9837
▁निर्मित	-9838
▁क्षेत्रफलमा	-9839
पुछ	-9840
कुटी	-9841
▁गोठ	-9842
अगाडि	-9843
र्कमा	-9844
▁भारु	-9845
▁उठेका	-9846
▁डिएसपी	-9847
▁बोलाएको	-9848
▁प्रक्रियालाई	-9849
▁देख्	-9850
▁जुटाउन	-9851
▁बताउँछ	-9852
▁त्यसैको	-9853
▁अनुहारमा	-9854
क्रि	-9855
▁प्रकृतिका	-9856
ेनी	-9857
▁केबल	-9858
▁प्याले	-9859
▁स्वायत्त	-9860
▁मनोविज्ञान	-9861
▁नेग	-9862
भिल	-9863
▁भाष	-9864
▁आवतजावत	-9865
▁कथामा	-9866
▁गरिदिने	-9867
ईन्	-9868
स्टे	-9869
▁नआउने	-9870
▁सयभन्दा	-9871
▁मारमा	-9872
▁विद्रोही	-9873
▁स्र	-9874
▁बुझाएका	-9875
▁सक्नुपर्छ	-9876
ंगिक	-9877
ुर्ण	-9878
▁एमालेमा	-9879
▁सोसाइ	-9880
▁पहिरोले	-9881
सीलाई	-9882
▁उन्मुख	-9883
▁होमि	-9884
▁पाएनन्	-9885
▁समर्पित	-9886
रथ	-9887
ँटा	-9888
▁उजागर	-9889
ड्यन्त्र	-9890
▁सावधानी	-9891
▁शेर्पाले	-9892
▁ओटा	-9893
▁सेवालाई	-9894
बाल	-9895
▁कसको	-9896
▁साइबर	-9897
वाटको	-9898
▁झलनाथ	-9899
▁यात्राको	-9900
▁चौधरीको	-9901
▁उसै	-9902
▁धोका	-9903
▁तैपनि	-9904
▁अनुवाद	-9905
▁थुनामा	-9906
▁हेरचाह	-9907
▁गुमाएको	-9908
▁छिन	-9909
▁नबना	-9910
▁एकदिन	-9911
▁नियाम	-9912
▁तिनीहरूले	-9913
▁झडप	-9914
▁नजाने	-9915
▁करोडौं	-9916
कलमा	-9917
▁गुम	-9918
किङ्ग	-9919
▁सुग	-9920
ुलीले	-9921
▁आँसु	-9922
▁दिनभर	-9923
▁नजिकैको	-9924
र्सको	-9925
▁टिमलाई	-9926
माइ	-9927
बादी	-9928
▁स्वास्थ्यको	-9929
उनले	-9930
▁रौतहट	-9931
▁औषधिको	-9932
▁सङ्गीत	-9933
▁एमालेबाट	-9934
▁मड	-9935
▁घोडा	-9936
▁त्रैमा	-9937
▁निर्णयले	-9938
▁विधेयकको	-9939
▁विश्लेषक	-9940
वको	-9941
▁उपनिर्वा	-9942
विको	-9943
फ्तार	-9944
▁महंगो	-9945
निको	-9946
▁जरू	-9947
▁असाध्यै	-9948
▁प्लस	-9949
▁वायुसेवा	-9950
▁सक्रियता	-9951
▁चुरे	-9952
ंकुश	-9953
▁नपाएर	-9954
▁आप्रवासी	-9955
▁आपत	-9956
▁चीनबाट	-9957
▁सभ्यता	-9958
▁सपथ	-9959
ारीमा	-9960
▁फारम	-9961
▁भागब	-9962
▁पिउने	-9963
▁सप	-9964
यमान	-9965
क्ष्म	-9966
▁नपाउँदा	-9967
क्समा	-9968
▁अनुशा	-9969
▁जान्न	-9970
▁रोजाइ	-9971
▁एमालेलाई	-9972
▁l	-9973
जरी	-9974
▁९१	-9975
▁कोइ	-9976
▁गुठी	-9977
▁सुखी	-9978
▁सम्झौताको	-9979
मिन	-9980
▁झार	-9981
▁जनार्दन	-9982
▁उल्लेखनीय	-9983
ग्न	-9984
▁सिमाना	-9985
▁भैर	-9986
▁महत	-9987
▁अपांग	-9988
▁आदानप्रदान	-9989
▁ट्वि	-9990
▁हिम्म	-9991
▁विषादी	-9992
जिअ	-9993
▁उल्टै	-9994
▁करिडोर	-9995
▁ड्रा	-9996
क्षिप्त	-9997
▁छरि	-9998
▁क्ला	-9999
▁खुलासा	-10000
▁प्यानल	-10001
▁माननीय	-10002
सेवक	-10003
▁महशु	-10004
दायित्व	-10005
▁विश्वविद्यालयमा	-10006
▁वर्गीकरण	-10007
▁छलफलका	-10008
▁अन्तिममा	-10009
▁नजा	-10010
▁बाजा	-10011
▁२०६३	-10012
स्वरूप	-10013
▁ट्र्या	-10014
▁बरालले	-10015
ख्यात	-10016
▁त्योभन्दा	-10017
खाने	-10018
र्सन	-10019
▁रघु	-10020
▁घरधु	-10021
▁प्रजन	-10022
▁व्यवहारिक	-10023
▁मनोबल	-10024
▁उहाँहरु	-10025
▁आजका	-10026
▁परमेश्व	-10027
निर्वाचित	-10028
▁षड्यन्त्र	-10029
▁कुराकानीमा	-10030
▁लौ	-10031
▁भएकाे	-10032
▁गुफा	-10033
▁हेलिको	-10034
▁ध्वस्त	-10035
परेका	-10036
विचार	-10037
▁छाडि	-10038
▁देखे	-10039
▁बलिङ	-10040
▁रुस	-10041
▁चौका	-10042
▁नसकेर	-10043
▁पसिना	-10044
▁शंकास्पद	-10045
▁स्थानान्तरण	-10046
▁गेम	-10047
▁ऋणको	-10048
▁वनस्प	-10049
▁आफूसँग	-10050
▁मौसममा	-10051
▁बाल्य	-10052
▁बट	-10053
▁जेठमा	-10054
▁बाँदर	-10055
▁उपसभामुख	-10056
▁कोरोनाभाइ	-10057
हाई	-10058
▁र्य	-10059
▁इमेल	-10060
▁नेवार	-10061
▁रासायनिक	-10062
ज्व	-10063
▁नानी	-10064
▁पढ्दा	-10065
▁छोरालाई	-10066
▁अधिकृतको	-10067
दिव	-10068
ाल्ने	-10069
▁ठूलै	-10070
ल्छ	-10071
पश्चात्	-10072
▁मुस्किल	-10073
▁सुकुम्बा	-10074
घाटमा	-10075
घोष	-10076
▁तुला	-10077
्नुहोस्	-10078
▁अध्ययनमा	-10079
▁२०२३	-10080
▁भक्तजन	-10081
▁रेडक्र	-10082
▁रेमिट्यान्स	-10083
यिक	-10084
▁थलो	-10085
▁रूख	-10086
▁फिफा	-10087
मोल	-10088
▁कं	-10089
▁कस्	-10090
▁सम्मि	-10091
▁मुम्बई	-10092
▁सङ्गठन	-10093
▁आइसोलेसनमा	-10094
▁व्यवस्थापिका	-10095
▁जटिलता	-10096
▁फेस्टि	-10097
▁संगठनका	-10098
re	-10099
▁ओसार	-10100
▁युनिट	-10101
▁नेकपाले	-10102
▁महाअभियोग	-10103
▁टर्की	-10104
भाड	-10105
म्ने	-10106
▁कोश	-10107
▁गजल	-10108
▁हिंड	-10109
▁पत्या	-10110
▁होटेल	-10111
▁परियोजनाको	-10112
▁कार्यक्षेत्र	-10113
▁नर्सिङ	-10114
▁भर्चुअल	-10115
▁सम्पुर्ण	-10116
▁प्रभावशाली	-10117
गाह	-10118
▁नफ	-10119
खेती	-10120
▁कोटा	-10121
▁मंसिरमा	-10122
▁क्षमतामा	-10123
▁शुक्रवार	-10124
▁समस्याले	-10125
▁महाशाखाका	-10126
▁कर्मचारीहरु	-10127
▁प्रदेशसभामा	-10128
▁रोशन	-10129
▁विद्	-10130
▁बुधवार	-10131
▁समुद्र	-10132
▁अफिस	-10133
▁गहुँ	-10134
▁कामले	-10135
▁जबरजस्ती	-10136
▁भट्टराईको	-10137
▁घुम	-10138
▁फेल	-10139
▁कोषले	-10140
▁छक्का	-10141
▁बुझेका	-10142
▁पूर्णिमा	-10143
▁आँट	-10144
▁दया	-10145
▁नबो	-10146
▁नाता	-10147
▁संयोग	-10148
▁साक्षर	-10149
▁लगानीका	-10150
साल	-10151
▁मिना	-10152
▁श्रोत	-10153
▁खोलाको	-10154
▁फोक्सो	-10155
▁बोक्ने	-10156
▁रिजालले	-10157
▁नाकाबन्दी	-10158
पीए	-10159
हेर	-10160
▁सेक्स	-10161
▁बोलाइएको	-10162
िमण्ड	-10163
▁सदस्यका	-10164
▁स्मार्टफोन	-10165
▁साँस्कृतिक	-10166
६३	-10167
▁हैसियतमा	-10168
बीले	-10169
रोधा	-10170
▁असम्भव	-10171
▁अधिकारक	-10172
▁अर्काको	-10173
पतको	-10174
पाती	-10175
▁कारक	-10176
▁बहाल	-10177
▁रथ	-10178
▁सर्प	-10179
▁खोपको	-10180
▁चारवटा	-10181
▁प्राप्ति	-10182
▁शुक्ल	-10183
▁उत्तीर्ण	-10184
▁अस्पताललाई	-10185
ेक्षित	-10186
▁फेर्न	-10187
दिभ	-10188
यात्री	-10189
▁उदाहरणका	-10190
▁उनीहरूका	-10191
▁नोभेम्बर	-10192
▁पोशा	-10193
▁घाँटी	-10194
▁फर्किए	-10195
निर	-10196
▁एसएल	-10197
▁स्टक	-10198
▁दुखाइ	-10199
▁अनुबन्ध	-10200
▁प्रशारण	-10201
▁नगरको	-10202
▁न्युन	-10203
▁पुस्तकालय	-10204
▁उचाइमा	-10205
▁फर्किएको	-10206
▁सबल	-10207
▁कोशि	-10208
▁गीता	-10209
▁गोरु	-10210
▁बागलु	-10211
▁अक्षर	-10212
▁पुर्न	-10213
▁अप्ठेरो	-10214
▁वो	-10215
▁हुनुभयो	-10216
▁उनीहरुका	-10217
▁चुहा	-10218
▁हाल्न	-10219
▁मझ	-10220
▁पहे	-10221
▁देशै	-10222
▁प्रोड	-10223
शीला	-10224
▁आवमा	-10225
▁खाले	-10226
▁झुण्ड	-10227
▁पाउँदैन	-10228
▁रामप्रसाद	-10229
प्राप्त	-10230
▁जापानको	-10231
▁सूचनाको	-10232
▁यूएई	-10233
▁अब्बल	-10234
▁शत्रु	-10235
▁प्रजिअ	-10236
▁भगवान्	-10237
▁हमाल	-10238
▁पिक	-10239
▁नेशनल	-10240
▁असोजमा	-10241
▁प्रस्तुती	-10242
लिखेल	-10243
▁यद्यपी	-10244
▁अक्टोबर	-10245
ामै	-10246
▁जमी	-10247
▁मेह	-10248
▁गुरा	-10249
▁चन्दा	-10250
▁जरूरी	-10251
▁कारखाना	-10252
▁शर	-10253
▁मता	-10254
▁धान्न	-10255
▁तपाइँको	-10256
▁घाँस	-10257
▁मुगु	-10258
▁स्वरो	-10259
▁हौसला	-10260
▁युवाहरु	-10261
प्रतिशत	-10262
▁वर्षाको	-10263
मीको	-10264
▁दललाई	-10265
▁एसएसपी	-10266
▁नेताका	-10267
▁स्याङ्जा	-10268
सेक	-10269
राति	-10270
▁जाय	-10271
▁धर्मा	-10272
▁नामबाट	-10273
ेश्रो	-10274
▁पितृ	-10275
▁एसियन	-10276
▁गार्ड	-10277
▁प्रतिवादी	-10278
▁विध	-10279
▁च्याउ	-10280
▁बेलुकी	-10281
▁जोगा	-10282
▁युनिभर्सि	-10283
मतो	-10284
यहाँ	-10285
पुस्त	-10286
▁मध्या	-10287
▁युवाले	-10288
▁अध्यक्षले	-10289
म्बी	-10290
विराज	-10291
▁नाति	-10292
▁रोपा	-10293
▁बिद्यालय	-10294
▁सहन	-10295
▁ठेगा	-10296
▁तिनले	-10297
▁यसपछि	-10298
▁हुनेगरी	-10299
▁यि	-10300
▁सोचे	-10301
▁यात्र	-10302
▁आक्रामक	-10303
▁मच्च	-10304
▁पठनपाठन	-10305
▁एसिड	-10306
▁घातक	-10307
▁आँखाको	-10308
▁व्यक्तिका	-10309
▁पद्	-10310
▁उकालो	-10311
▁आसपासका	-10312
मामा	-10313
▁भएता	-10314
▁पर्नु	-10315
▁टेक्नो	-10316
▁महिलामा	-10317
▁नवौं	-10318
▁गिरावट	-10319
▁तातोपानी	-10320
▁मेघ	-10321
▁कार्यवाहक	-10322
▁ग्यारेन्टी	-10323
त्स	-10324
सीयू	-10325
▁ताइ	-10326
▁खोलि	-10327
▁रुपा	-10328
▁खुकुलो	-10329
▁पक्षधर	-10330
▁पब्लिक	-10331
▁सुनेको	-10332
▁गराउनुपर्ने	-10333
▁मतलब	-10334
सकिएको	-10335
▁सहयोगका	-10336
▁भूकम्पले	-10337
णमा	-10338
▁ओझा	-10339
▁पेनाल्टी	-10340
भरा	-10341
▁ओझ	-10342
यामा	-10343
▁गान्ध	-10344
▁जीवनलाई	-10345
▁परिभाषा	-10346
▁परेन	-10347
▁चाहियो	-10348
▁सोधपुछ	-10349
ंै	-10350
वाले	-10351
▁तरलता	-10352
▁भाद्र	-10353
▁संरक्षणका	-10354
▁कालीगण्डकी	-10355
▁काट्न	-10356
▁मेलमिलाप	-10357
ुङ	-10358
ाल्न	-10359
▁बचा	-10360
▁हिँड्न	-10361
▁सम्बन्धको	-10362
▁कांग्रेसमा	-10363
▁व्यक्तिहरू	-10364
▁बचाउ	-10365
▁मुस्ताङ	-10366
▁छाउ	-10367
▁दिंदै	-10368
▁सम्हा	-10369
▁गुरुयोजना	-10370
लाइट	-10371
▁हानी	-10372
▁ट्रफी	-10373
▁मानिसहरुले	-10374
▁भ्रष्टाचारको	-10375
कोशी	-10376
▁निश	-10377
▁२०१३	-10378
▁तेश्रो	-10379
▁उत्रिएका	-10380
क्सिन	-10381
▁दशैँ	-10382
▁सुनिश्चितता	-10383
▁उत्तरदायित्व	-10384
बुबा	-10385
▁रेशम	-10386
▁गर्भा	-10387
▁सहाय	-10388
▁गर्छन	-10389
▁नेगेटिभ	-10390
▁मामिलामा	-10391
▁सजग	-10392
▁भर्न	-10393
▁सुरज	-10394
▁गरिनुपर्ने	-10395
▁बिगत	-10396
विरोधी	-10397
सम्पर्क	-10398
▁बेग्लै	-10399
सियल	-10400
▁शब्दमा	-10401
▁गैरकानुनी	-10402
टाई	-10403
▁?"	-10404
च्छे	-10405
▁अद्या	-10406
▁चलचित्रका	-10407
ब्रो	-10408
सर्जन	-10409
▁डेभल	-10410
▁उन्नत	-10411
▁भएनन्	-10412
▁असुरक्षित	-10413
त्रिम	-10414
▁निगमको	-10415
▁अरे	-10416
त्विक	-10417
वाहिक	-10418
▁बाले	-10419
▁सिधा	-10420
▁फ्रेन्	-10421
▁राखिने	-10422
▁दाना	-10423
▁जानकी	-10424
▁योगेश	-10425
▁गरिसकेपछि	-10426
▁मिथि	-10427
▁सार्ने	-10428
न्यायाधि	-10429
ङ्गिक	-10430
▁छुवा	-10431
▁डेटा	-10432
र्मु	-10433
▁सरह	-10434
रह्यो	-10435
▁माता	-10436
ुप्रसाद	-10437
▁रेष्टुरेन्ट	-10438
▁ओग	-10439
▁सीसी	-10440
▁लिपुले	-10441
▁आवको	-10442
▁छाड्न	-10443
▁थप्ने	-10444
▁लगाउँदा	-10445
et	-10446
ion	-10447
▁वचन	-10448
आफ्ना	-10449
▁भरोसा	-10450
▁अवस्थाका	-10451
▁एल्ब	-10452
▁दिइयो	-10453
▁दुर्भाग्य	-10454
▁भात	-10455
▁दशरथ	-10456
▁आत्ति	-10457
▁सबस्ट	-10458
▁लाग्दै	-10459
▁संक्रमणबाट	-10460
▁दिवसका	-10461
▁खुल्न	-10462
▁महतोले	-10463
लोभ	-10464
▁संस्कृत	-10465
▁निष्कासन	-10466
▁बेलायतको	-10467
न्जा	-10468
सरकार	-10469
ियाको	-10470
▁डोजर	-10471
▁सूर्	-10472
▁स्टेट	-10473
▁निवासमा	-10474
सिम	-10475
▁पुनरावलोकन	-10476
▁धू	-10477
▁सीईओ	-10478
▁राजविराज	-10479
▁हेर्नुहोस्	-10480
▁सुक्	-10481
▁तहबाट	-10482
▁डलरको	-10483
▁विराटनगरमा	-10484
याएको	-10485
▁बोनस	-10486
लगायतले	-10487
▁यसपालि	-10488
▁अधिकारीहरुले	-10489
डम्ब	-10490
▁आकांक्षा	-10491
▁उत्प्रेर	-10492
▁स्थानबाट	-10493
ेजस्तो	-10494
▁घटनाका	-10495
▁हप्तामा	-10496
▁परिषद्को	-10497
▁विदेशमन्त्री	-10498
छे	-10499
त्तो	-10500
▁जडी	-10501
▁लागेन	-10502
▁निमार्ण	-10503
४०	-10504
४५	-10505
▁शब्दको	-10506
▁शुभारम्भ	-10507
▁सक्दो	-10508
▁अध्ययनको	-10509
▁रुघा	-10510
▁गुगल	-10511
▁गाँजा	-10512
▁प्रिन्	-10513
▁शिक्षकले	-10514
डिओ	-10515
▁हाई	-10516
▁रोगी	-10517
▁साहु	-10518
▁बितरण	-10519
▁बेचेर	-10520
▁थपलिया	-10521
▁पहिल्यै	-10522
▁वामदेव	-10523
▁मिलाइ	-10524
▁शरीरका	-10525
▁गर्नुस्	-10526
▁कदर	-10527
▁पचा	-10528
▁पढाई	-10529
▁हटाइ	-10530
▁यातना	-10531
▁उद्दार	-10532
▁न्यानो	-10533
▁खस्	-10534
▁सरसफाई	-10535
▁भविष्यको	-10536
▁मानिसहरुको	-10537
▁ओर्	-10538
बरमा	-10539
▁नौलो	-10540
▁अनमोल	-10541
▁चौर	-10542
सां	-10543
▁ढल	-10544
भोलि	-10545
▁चीज	-10546
▁जागरण	-10547
▁तराईका	-10548
▁पाहुना	-10549
▁बोले	-10550
अनुसारको	-10551
▁आयोगलाई	-10552
प्ताहिक	-10553
▁मतपत्र	-10554
▁लेखनाथ	-10555
▁संभावना	-10556
▁मिड	-10557
▁पालो	-10558
▁इञ्जि	-10559
▁चेकजाँच	-10560
▁ब्यापार	-10561
▁सिंगापुर	-10562
▁धनगढ	-10563
▁माक्	-10564
▁दिनहुँ	-10565
▁घटनाबारे	-10566
▁दर्शकलाई	-10567
▁महर्जनले	-10568
▁कोर	-10569
▁सिक्ने	-10570
▁कार्यदलले	-10571
▁मेगावाटको	-10572
▁अर्थतन्त्रलाई	-10573
▁नक	-10574
वरमा	-10575
ेजमा	-10576
▁खतर	-10577
▁डरले	-10578
▁फिचर	-10579
▁अडियो	-10580
▁खत्रीले	-10581
▁युद्धमा	-10582
ियल	-10583
▁कटान	-10584
▁भुवन	-10585
भयो	-10586
▁बजा	-10587
▁मिलि	-10588
▁तथ्या	-10589
▁पेटमा	-10590
▁पीडितको	-10591
ुरा	-10592
▁महान्	-10593
▁कोरियामा	-10594
होरा	-10595
▁इजलासमा	-10596
▁पराजुलीले	-10597
▁कार्यालयलाई	-10598
▁डेलि	-10599
▁बैङ्क	-10600
▁बढाएका	-10601
▁उनीमाथि	-10602
▁गर्नाले	-10603
▁आचरण	-10604
▁क्रान्तिको	-10605
वारि	-10606
▁फाई	-10607
न्सरको	-10608
▁हिम्मत	-10609
▁सङ्ग्रह	-10610
▁पूर्वानु	-10611
▁काठमाडौँमा	-10612
▁आहार	-10613
▁जिति	-10614
तामाथि	-10615
नुपर्दैन	-10616
▁आवि	-10617
▁देशकै	-10618
▁स्रष्टा	-10619
▁०५	-10620
संख्यक	-10621
▁चुस्त	-10622
▁मुहान	-10623
▁सुत्ने	-10624
▁पम्प	-10625
▁वकाल	-10626
▁भेरिय	-10627
▁सांग	-10628
▁खर्चमा	-10629
▁शिविरमा	-10630
▁मन्त्रालयबाट	-10631
ण्य	-10632
बोध	-10633
▁त्यसबारे	-10634
▁पुगिसकेको	-10635
▁रारा	-10636
▁नदेखिएको	-10637
▁पूर्वअध्यक्ष	-10638
पनमा	-10639
▁एलि	-10640
▁भया	-10641
▁गर्छिन्	-10642
▁भिम	-10643
ैर्य	-10644
▁तमु	-10645
▁बहानामा	-10646
▁मङ्गलबार	-10647
▁शीर्षक	-10648
▁यस्तोमा	-10649
पुरी	-10650
▁गैं	-10651
मानित	-10652
▁पाँचौ	-10653
▁पुगेकी	-10654
▁वर्ल्ड	-10655
▁उद्योगलाई	-10656
▁नबढ	-10657
▁सक्यो	-10658
▁निक्कै	-10659
▁पूर्वमन्त्री	-10660
राध	-10661
पुरा	-10662
▁फाल्	-10663
अनुरुप	-10664
▁व्याज	-10665
▁उठाउँदै	-10666
▁बिचार	-10667
▁अनुपात	-10668
गीत	-10669
भरका	-10670
सभामा	-10671
▁वर्णन	-10672
▁सक्नेछ	-10673
▁गड	-10674
ेसनको	-10675
▁नामले	-10676
▁स्थापनाको	-10677
▁युथ	-10678
▁लण्ड	-10679
▁डेब्यु	-10680
▁विषयगत	-10681
▁मानिसहरूले	-10682
▁मेक	-10683
▁युवक	-10684
▁विवाहको	-10685
▁बसिरहेका	-10686
▁प्रतिष्ठानले	-10687
म्बो	-10688
त्साहित	-10689
▁२०२४	-10690
▁प्रतीक	-10691
▁निर्णयलाई	-10692
▁समस्याहरु	-10693
ङ्ग्रे	-10694
▁बैतडी	-10695
▁शालिक	-10696
am	-10697
खान	-10698
▁पस्	-10699
▁राहु	-10700
न्तब्य	-10701
▁चुनौतीपूर्ण	-10702
ष्णा	-10703
▁सार्क	-10704
▁सिकार	-10705
▁थाइल्याण्ड	-10706
▁सर्वसाधारणको	-10707
पञ्च	-10708
▁राउतले	-10709
ुक्त	-10710
न्वित	-10711
▁गर्भपत	-10712
▁युरोपियन	-10713
बस	-10714
▁लख	-10715
▁एकपछि	-10716
▁आतिथ्य	-10717
▁नाकामा	-10718
▁धुलिखेल	-10719
▁बेलाबेला	-10720
न्दर	-10721
वामा	-10722
▁आना	-10723
▁कने	-10724
▁स्वाभि	-10725
▁व्यक्तिमा	-10726
▁उम्मेद्वार	-10727
▁विद्यार्थीहरु	-10728
ूँ	-10729
▁नरेश	-10730
▁त्यसयता	-10731
▁फाइनान्स	-10732
▁साप्ताहिक	-10733
▁तिर्	-10734
▁पल्ट	-10735
▁छुवाछ	-10736
एउ	-10737
▁पिडित	-10738
▁गुम्बा	-10739
▁लाभांश	-10740
▁प्रगतिशील	-10741
▁घृ	-10742
▁शरि	-10743
▁बाइड	-10744
▁वर्षकी	-10745
▁बाहेकका	-10746
▁स्नातको	-10747
शंकर	-10748
कुण्ड	-10749
▁देवेन्द्र	-10750
न्डो	-10751
▁होली	-10752
▁आफैँले	-10753
▁आइपुगेका	-10754
▁नागरिकका	-10755
▁महोत्तरी	-10756
▁ज्ञापनपत्र	-10757
लू	-10758
▁ओखल	-10759
▁बायो	-10760
▁विघट	-10761
▁माथिका	-10762
निन	-10763
▁डेमो	-10764
▁लेखि	-10765
▁खतरनाक	-10766
▁अधिकारका	-10767
शो	-10768
वेला	-10769
▁झल्	-10770
▁लगत	-10771
▁बोक्	-10772
▁अभावले	-10773
▁फ्लो	-10774
रामीले	-10775
▁मार्न	-10776
▁कोरियाको	-10777
▁सम्भाव्यता	-10778
▁फेसन	-10779
▁जोडेको	-10780
▁पौडेललाई	-10781
शय	-10782
म्न	-10783
▁चहल	-10784
▁बन्दर	-10785
▁जाजरकोट	-10786
▁इतिहासको	-10787
जहा	-10788
विदेश	-10789
ारीको	-10790
▁तोक्ने	-10791
▁दिइन्छ	-10792
▁कृत्रिम	-10793
▁दाहालको	-10794
▁हुनुपर्दछ	-10795
▁जुवा	-10796
▁अध्यापन	-10797
▁पहिलेको	-10798
खमा	-10799
हाली	-10800
▁स्वे	-10801
▁ग्राहकलाई	-10802
▁दिदीबहिनी	-10803
▁नियमाव	-10804
▁इजा	-10805
▁तिनीहरूलाई	-10806
हाय	-10807
आएको	-10808
▁उम्	-10809
▁पवन	-10810
▁कमिसन	-10811
▁चलायमान	-10812
इमा	-10813
कुन	-10814
▁थपि	-10815
▁अनुभवी	-10816
▁सर्भिस	-10817
▁नजिकबाट	-10818
▁साथीहरू	-10819
▁उद्देश्यका	-10820
▁अठ	-10821
बाबा	-10822
याममा	-10823
▁सन्ध	-10824
त्रीको	-10825
▁ग्रन्थ	-10826
▁धर्मको	-10827
▁गतिविधिमा	-10828
▁शुद्धीकरण	-10829
▁भित्र्याउने	-10830
आफ्नै	-10831
मुलक	-10832
▁सदन	-10833
▁शीतल	-10834
▁बृद्ध	-10835
▁बनाइने	-10836
▁मोरङको	-10837
▁नखु	-10838
▁सूचक	-10839
▁पेरिस	-10840
▁यतिखेर	-10841
▁सबैजसो	-10842
▁गुमाउने	-10843
▁हेरिएको	-10844
▁विद्यालयलाई	-10845
▁सव	-10846
▁छाता	-10847
बारीमा	-10848
▁पोखराका	-10849
ंशी	-10850
▁टस	-10851
▁सोसल	-10852
▁पुसमा	-10853
▁महोत्सवको	-10854
शू	-10855
▁बोध	-10856
▁मिन	-10857
▁घण्टाको	-10858
▁आउनुभएको	-10859
▁देखाइएको	-10860
▁साइन	-10861
▁बाहिरका	-10862
▁बैठकबाट	-10863
▁माल्दिभ	-10864
जगढ	-10865
▁भंग	-10866
▁बजारी	-10867
▁सिटौला	-10868
▁कैलालीको	-10869
ठान	-10870
वासभा	-10871
शास्त्री	-10872
▁भित्रको	-10873
▁मिश्रले	-10874
▁संगीतकार	-10875
▁टप	-10876
▁कुश	-10877
▁खेतमा	-10878
▁कलेजका	-10879
▁देशबाट	-10880
▁प्रशासनको	-10881
जुट	-10882
▁अश्	-10883
▁एक्सन	-10884
▁सञ्जय	-10885
▁देख्नु	-10886
▁फुर्सद	-10887
▁तीव्रता	-10888
म्भु	-10889
द्वन्द	-10890
▁बहुदलीय	-10891
▁अव्यवस्थित	-10892
▁गरिन	-10893
▁टेक्	-10894
लगायतको	-10895
▁सिंहको	-10896
▁विश्वविद्यालयले	-10897
पदा	-10898
भाई	-10899
प्रो	-10900
▁अहम	-10901
▁खसी	-10902
▁साफ	-10903
▁सेल	-10904
▁विकट	-10905
▁मार्क्स	-10906
गाड	-10907
▁आयातमा	-10908
▁उदयपुर	-10909
▁संसारको	-10910
बिच	-10911
▁पुग्दैन	-10912
▁बटु	-10913
▁भोली	-10914
पछिका	-10915
स्थानीय	-10916
▁मिलाइएको	-10917
▁राजधानीको	-10918
▁दुर्व्यवहार	-10919
▁हेल	-10920
सामाजिक	-10921
नुका	-10922
▁दसैँ	-10923
▁पाठे	-10924
▁झ्याल	-10925
▁उत्खनन	-10926
▁दक्षिणी	-10927
▁झे	-10928
▁भर्ने	-10929
▁सर्ने	-10930
▁राज्यलाई	-10931
▁चलचित्रले	-10932
▁उब्	-10933
योग्रा	-10934
▁वृद्धिदर	-10935
▁हानिकारक	-10936
▁खत	-10937
▁दमक	-10938
▁जातको	-10939
▁म्यानेज	-10940
ठे	-10941
▁२०१२	-10942
▁पर्यटनको	-10943
▁बनिरहेको	-10944
▁प्रतिस्थापन	-10945
▁तँ	-10946
▁गहन	-10947
▁पाएन	-10948
खुवासभा	-10949
कति	-10950
▁आँग	-10951
▁महीना	-10952
▁टुङ्गो	-10953
▁स्वरमा	-10954
▁संरचनाको	-10955
▁नउ	-10956
ञ्चोक	-10957
▁दिएन	-10958
▁जर्मन	-10959
▁बजेटले	-10960
▁दुर्लभ	-10961
▁भानुभक्त	-10962
com	-10963
गिरि	-10964
रीलाई	-10965
▁२०११	-10966
▁ल्याउँछ	-10967
▁रंगशालामा	-10968
▁धामी	-10969
▁अनन्त	-10970
▁अपडेट	-10971
▁खुवाउने	-10972
▁कार्यकर्ताको	-10973
▁कलम	-10974
इसकेको	-10975
▁साथीभाइ	-10976
▁पुस्ताले	-10977
▁अनुमतिपत्र	-10978
▁सिप	-10979
▁सस्था	-10980
▁भूमिमा	-10981
▁प्रदेशसभाको	-10982
पक्व	-10983
राधिक	-10984
▁बेचबि	-10985
▁बस्नुपर्ने	-10986
▁व्यक्तिहरुको	-10987
ज्जत	-10988
▁गुड	-10989
▁टोक	-10990
▁भेगमा	-10991
▁नारायणकाजी	-10992
▁पाकिस्तानी	-10993
▁ट्रि	-10994
▁निश्	-10995
▁पर्वको	-10996
▁पदयात्रा	-10997
▁उपत्यकाको	-10998
▁पूर्वानुमान	-10999
▁घटेर	-11000
डिरहेका	-11001
▁गुमाएर	-11002
▁सान्दर्भिक	-11003
▁२०१०	-11004
▁जुटेको	-11005
▁महाप्र	-11006
▁संज्ञा	-11007
▁फौजदारी	-11008
▁मानसिकता	-11009
▁बिर	-11010
▁युर	-11011
▁४००	-11012
▁२०६८	-11013
▁उभिएर	-11014
▁छैटौं	-11015
▁सबैतिर	-11016
▁परीक्षणमा	-11017
▁बैंकहरुले	-11018
देखी	-11019
▁पुग्छन्	-11020
▁नेपालसँग	-11021
कर्ताले	-11022
▁मुनाफा	-11023
▁अधिकारीहरु	-11024
वु	-11025
्रोन	-11026
▁तुल्या	-11027
▁बुझ्नु	-11028
▁सीमामा	-11029
▁सारिएको	-11030
▁वास्तविकता	-11031
▁समाजवादीका	-11032
▁पत्रपत्रिका	-11033
▁रसा	-11034
▁मौला	-11035
▁साँघ	-11036
▁वकालत	-11037
▁प्रलोभ	-11038
▁सचिवमा	-11039
▁संस्करणको	-11040
नेश	-11041
▁स्टु	-11042
▁नियोग	-11043
त्कृष्ट	-11044
▁हुर्का	-11045
▁द्विपक्षीय	-11046
▁आरोही	-11047
▁लिँदा	-11048
▁उपन्या	-11049
▁सेनामा	-11050
▁समाधानको	-11051
▁उम्मेदवारले	-11052
▁कल्	-11053
▁जोर	-11054
▁राणाले	-11055
▁बढाउनुपर्ने	-11056
भास	-11057
एमएस	-11058
एसम्म	-11059
▁सोलुखु	-11060
यदि	-11061
वीच	-11062
०००	-11063
▁भन्थे	-11064
▁हाजिर	-11065
▁दिन्छु	-11066
▁पर्यावरण	-11067
▁सेलि	-11068
▁हाते	-11069
▁ब्युरो	-11070
▁रोक्का	-11071
▁सेमिफाइनल	-11072
▁सर्वसाधारणलाई	-11073
साङ	-11074
त्मिक	-11075
▁महत्वका	-11076
▁चाउ	-11077
▁सदै	-11078
▁जनरल	-11079
▁बोलेका	-11080
वश	-11081
च्ची	-11082
▁हिट	-11083
ेसनमा	-11084
▁ब्याक	-11085
▁अवधिको	-11086
▁एकमात्र	-11087
▁स्थिरता	-11088
बमा	-11089
▁तप	-11090
▁लय	-11091
राका	-11092
▁लन्ड	-11093
▁२०४६	-11094
▁म्यारा	-11095
▁हिमपात	-11096
▁आपराधिक	-11097
झैँ	-11098
▁जुध	-11099
▁समृद्धिका	-11100
▁स्वतन्त्रताको	-11101
्राचार्य	-11102
▁खड्काको	-11103
▁तमा	-11104
▁गन्ध	-11105
▁स्कट	-11106
▁दर्जनौं	-11107
▁प्रतिष्ठानको	-11108
सञ्चार	-11109
▁टेलिभि	-11110
▁लेखकले	-11111
▁जोगाउने	-11112
ललाई	-11113
क्सको	-11114
लेश्वर	-11115
▁तेह्र	-11116
▁हुनुपर्नेमा	-11117
▁कैलाश	-11118
▁रक्तदान	-11119
▁सुनुवार	-11120
▁प्रयोगले	-11121
▁उपर	-11122
▁गजुर	-11123
सूचीमा	-11124
▁खड्ग	-11125
पीड	-11126
▁खुले	-11127
▁बित्	-11128
▁एकजुट	-11129
▁युगमा	-11130
समु	-11131
सक्नु	-11132
▁पारा	-11133
▁हावी	-11134
माई	-11135
▁सम्झि	-11136
▁बर्षमा	-11137
▁बिरुद्ध	-11138
▁चल्छ	-11139
▁मिटरको	-11140
▁बढाउँदै	-11141
▁चोकमा	-11142
स्कोटाले	-11143
▁इन्डिया	-11144
▁उप्रेती	-11145
▁घिसिङले	-11146
▁झुट	-11147
▁विल	-11148
▁पारस	-11149
▁सार्थक	-11150
▁भूप	-11151
▁अभावका	-11152
▁मनाइने	-11153
वैज्ञानिक	-11154
▁सदस्यहरुले	-11155
न्टल	-11156
▁दही	-11157
▁निभ	-11158
ात्मक	-11159
▁महशुस	-11160
▁तेक्वा	-11161
▁संसारका	-11162
▁असम	-11163
▁इकाइ	-11164
▁दिपा	-11165
▁सिग्	-11166
▁मुलुकी	-11167
▁गर्नुअघि	-11168
▁प्रविधिम	-11169
▁सहकारीले	-11170
भरको	-11171
ेडिट	-11172
▁धैर्य	-11173
▁प्रदर्शनकारी	-11174
हेल	-11175
▁बैङ्	-11176
क्यौता	-11177
▁अर्पण	-11178
▁पञ्जा	-11179
▁हुर्क	-11180
▁बैंकबाट	-11181
▁संघीयताको	-11182
▁संस्थाहरु	-11183
त्वको	-11184
▁लिभरपुल	-11185
▁स्नातकोत्तर	-11186
ड्को	-11187
▁किनार	-11188
▁अनुकुल	-11189
▁कलेजले	-11190
▁लागुऔषध	-11191
▁लामखुट्	-11192
किएर	-11193
▁लेक	-11194
▁दोहोरी	-11195
▁युद्धको	-11196
▁आफूहरुको	-11197
▁गरिरहँदा	-11198
क्रेट	-11199
▁गच्छ	-11200
▁मिसन	-11201
▁पोर्ट	-11202
▁यादवलाई	-11203
▁पालिकामा	-11204
▁विचाराधीन	-11205
▁च्याम्पियन्स	-11206
तीका	-11207
▁जसबाट	-11208
▁माई	-11209
▁आयाम	-11210
▁जोगि	-11211
▁न्यायालय	-11212
▁अञ्चल	-11213
▁भगवती	-11214
▁आक्रोशित	-11215
▁ट्रम्पको	-11216
▁अल्ट	-11217
▁काट्	-11218
▁ठेगाना	-11219
▁क्रिकेटमा	-11220
भुत	-11221
य्या	-11222
र्डिङ	-11223
▁फिल्मका	-11224
▁जनशक्तिको	-11225
▁इन्टरनेशनल	-11226
▁केभी	-11227
▁राजि	-11228
▁सुखद	-11229
▁राजाको	-11230
▁पहिलेदेखि	-11231
▁प्रविधिमा	-11232
▁क्षेत्रीले	-11233
▁हनुमान	-11234
▁रोगबाट	-11235
▁बराबरीमा	-11236
▁यन्त्र	-11237
▁गराउँदा	-11238
▁आपूर्	-11239
▁खेल्दा	-11240
▁कत्तिको	-11241
▁खगेन्द्र	-11242
▁विस्तारको	-11243
७६	-11244
ञ्जना	-11245
▁पढ्दै	-11246
▁खानाको	-11247
▁कहाँबाट	-11248
▁सत्तापक्ष	-11249
पार्टी	-11250
▁जंगलमा	-11251
▁परीक्षाको	-11252
▁सङ्ख्यामा	-11253
▁अड	-11254
▁झै	-11255
▁बिघा	-11256
र्जनको	-11257
▁पोलिट	-11258
▁उपधारा	-11259
▁स्वरोजगार	-11260
▁महिलाहरुको	-11261
▁काण्ड	-11262
▁नहोला	-11263
▁छोड्न	-11264
▁विष्ण	-11265
फेस	-11266
बीको	-11267
▁तालिब	-11268
▁चीनसँग	-11269
▁बिर्तामो	-11270
ीति	-11271
▁आरोपित	-11272
दफा	-11273
▁राष्ट्रका	-11274
▁खेल्नेछ	-11275
▁घरजग्गा	-11276
▁रचनात्मक	-11277
७५	-11278
प्रे	-11279
▁दुग्ध	-11280
▁हुनबाट	-11281
पहल	-11282
्नुभयो	-11283
▁चलेका	-11284
▁रुपमै	-11285
▁ब्यूरो	-11286
▁आचार्यको	-11287
पछी	-11288
▁फर्केका	-11289
▁पुर्याउँछ	-11290
▁देखिन्थ्यो	-11291
कित	-11292
▁नदिई	-11293
▁चल्यो	-11294
क्षामन्त्री	-11295
▁राजव	-11296
सम्पन्न	-11297
च्युट	-11298
क्र्या	-11299
▁इजाजत	-11300
▁समयका	-11301
▁फुटबलमा	-11302
▁त्यसबाहेक	-11303
अमेर	-11304
▁फेब्रुअरी	-11305
▁क्यु	-11306
▁प्रतिष्ठित	-11307
दरमा	-11308
▁मजा	-11309
लकण्ठ	-11310
▁सम्मिलित	-11311
▁जबर्जस्ती	-11312
पश्चात	-11313
▁बर्से	-11314
▁फुटबलको	-11315
▁उहा	-11316
म्पिया	-11317
▁पढाउन	-11318
▁गरिरहेकी	-11319
वह	-11320
द्री	-11321
मानव	-11322
▁मञ्चमा	-11323
▁मारेको	-11324
▁सकिरहेको	-11325
▁निष्क्रिय	-11326
▁लभ	-11327
▁बाउ	-11328
▁ल्हो	-11329
▁धरौटी	-11330
▁भित्रका	-11331
▁कीर्तिपुर	-11332
is	-11333
मौ	-11334
सरो	-11335
▁वकि	-11336
अधिका	-11337
▁भुइँ	-11338
▁विवेकशील	-11339
▁बन्दुक	-11340
▁सुशीला	-11341
▁विचारमा	-11342
▁सेन्टरमा	-11343
कस	-11344
▁टेकु	-11345
▁अँध्य	-11346
▁दाङको	-11347
▁ल्याई	-11348
▁वर्षयता	-11349
▁महिलाहरू	-11350
▁समस्याबाट	-11351
▁अनसन	-11352
गाँ	-11353
न्ना	-11354
र्नी	-11355
▁ताकि	-11356
▁अखण्ड	-11357
▁बुटवलमा	-11358
▁संरक्षक	-11359
▁साहित्यमा	-11360
▁प्रतिवेदनले	-11361
▁अनलाइनखबरलाई	-11362
डु	-11363
७७	-11364
▁मम	-11365
्रित	-11366
▁दीपा	-11367
▁राधा	-11368
डम्बना	-11369
▁बालेन	-11370
▁क्यान्सरको	-11371
▁प्रधानमन्त्रीका	-11372
▁वर्गका	-11373
▁सोच्ने	-11374
▁सम्पत्तिको	-11375
अन	-11376
सेज	-11377
▁बुक	-11378
▁सीआई	-11379
▁सिन्धुली	-11380
▁अन्तरराष्ट्रिय	-11381
▁सेटमा	-11382
▁नाराका	-11383
प्रश्वास	-11384
▁उपलब्धी	-11385
▁अद्यावधिक	-11386
तय	-11387
▁लाय	-11388
र्माले	-11389
▁निकालि	-11390
नुपर्थ्यो	-11391
व्यवसाय	-11392
▁ज्यादै	-11393
▁भोजपुर	-11394
▁साथसाथै	-11395
▁लोडसेडिङ	-11396
▁सचिवालयका	-11397
▁उम्मेदवारलाई	-11398
टोल	-11399
▁वेस्ट	-11400
भरिका	-11401
र्टमेन्ट	-11402
▁अविश्वासको	-11403
▁व्यवस्थाले	-11404
ेडी	-11405
▁रेट	-11406
र्षिको	-11407
▁एकदिव	-11408
▁शुरुमा	-11409
ूले	-11410
▁श्रृ	-11411
▁धर्ना	-11412
एपनि	-11413
▁सुह	-11414
▁आरक्षण	-11415
▁गौरवको	-11416
▁आक्रमणमा	-11417
▁सिभिल	-11418
▁आफूहरू	-11419
▁बिहिबार	-11420
▁अस्थिरता	-11421
▁बडा	-11422
▁बुढी	-11423
▁आगजनी	-11424
▁साँचो	-11425
▁चाहन्छौं	-11426
▁सदस्यहरू	-11427
▁अनेरास्ववियु	-11428
उँथे	-11429
क्ला	-11430
संविधान	-11431
▁तयारीका	-11432
▁सदस्यहरुको	-11433
फत	-11434
▁केस	-11435
निकरण	-11436
▁मनको	-11437
▁आध्या	-11438
▁जनजीवन	-11439
▁बनाइएका	-11440
▁महिलाका	-11441
▁पत्रकारको	-11442
▁प्रदेशलाई	-11443
▁बार्सिलोना	-11444
▁हेलिकोप्टर	-11445
▁हजारौँ	-11446
▁मिहिनेत	-11447
▁s	-11448
▁उपज	-11449
▁होस्ट	-11450
▁स्टेशन	-11451
▁उपभोग्य	-11452
▁निकालिएको	-11453
▁उपाध्यायले	-11454
▁गढ	-11455
▁पच	-11456
घाती	-11457
मोचन	-11458
▁गोलको	-11459
▁इरा	-11460
▁थोक	-11461
▁पाप	-11462
▁सूत्र	-11463
▁वैवाहिक	-11464
▁इको	-11465
▁सुम्प	-11466
डिरहेको	-11467
▁बाणिज्य	-11468
▁युक्रेन	-11469
जेन	-11470
▁साई	-11471
▁अष्ट	-11472
▁ध्रुव	-11473
▁काँग्रेसले	-11474
▁अधिकारकर्मी	-11475
▁व्यवसायीहरुले	-11476
देल	-11477
▁उस	-11478
ाउदै	-11479
▁बर्षा	-11480
▁सदनमा	-11481
▁स्मार	-11482
▁प्रमोद	-11483
▁डाक्टरले	-11484
▁पोखरेलको	-11485
सहर	-11486
▁२०६२	-11487
ँदैनन्	-11488
▁यससँगै	-11489
▁रविन्द्र	-11490
थरी	-11491
▁दुबई	-11492
▁हातले	-11493
▁निर्दोष	-11494
▁राजमार्गको	-11495
▁लाइभ	-11496
▁उत्थान	-11497
▁उद्धृत	-11498
▁भेरियन्ट	-11499
▁एमबी	-11500
▁२०८२	-11501
▁स्पेस	-11502
▁हर्मो	-11503
▁हास्य	-11504
▁सचिवालयमा	-11505
▁घिसिङ	-11506
▁चौतारी	-11507
▁हैर	-11508
▁सम्मका	-11509
▁कानुनले	-11510
एचओ	-11511
रहन	-11512
▁हँु	-11513
▁माघमा	-11514
▁सङ्कट	-11515
▁छाडेका	-11516
▁शुरुवात	-11517
▁कोरियाले	-11518
ंगोल	-11519
▁घले	-11520
्वाइस	-11521
▁वीरेन्द्रनगर	-11522
ङ्कर	-11523
▁टीकापुर	-11524
▁भूत	-11525
▁आर्ट	-11526
▁मिडियाले	-11527
▁लापरबाही	-11528
▁कतिले	-11529
▁मनसुन	-11530
▁रातको	-11531
▁स्तम्भ	-11532
▁बाहिरको	-11533
सन्ध	-11534
शमशेर	-11535
शान्ति	-11536
▁संविधानसभाको	-11537
▁चर्	-11538
टरफाइ	-11539
▁गरेरै	-11540
▁भन्छु	-11541
▁वक्ता	-11542
छिन्द्र	-11543
▁अभिभावकले	-11544
▁सोलुखुम्बु	-11545
▁धक	-11546
▁नवनि	-11547
▁डाउनलोड	-11548
▁अन्स	-11549
▁ठ्या	-11550
▁सातै	-11551
▁बलिदान	-11552
▁ल्याउनुपर्ने	-11553
निमा	-11554
▁दवाव	-11555
▁प्रतिरोध	-11556
▁बनिसकेको	-11557
▁नेतृत्वलाई	-11558
२१	-11559
घरको	-11560
▁औजार	-11561
▁नपुग्	-11562
▁केहीले	-11563
▁रुम	-11564
▁कक्षमा	-11565
▁सिजनमा	-11566
▁सम्भवतः	-11567
भण्ड	-11568
नुसार	-11569
▁जीवन्त	-11570
▁चलचित्रलाई	-11571
▁भित्र्याउन	-11572
▁संघमा	-11573
▁आधु	-11574
क्ष्य	-11575
▁नियामक	-11576
किय	-11577
स्वी	-11578
पीआर	-11579
▁अध्यागमन	-11580
▁पाचन	-11581
▁जिन्दग	-11582
▁ल्याउँदा	-11583
▁चाहनुहुन्छ	-11584
▁१९५	-11585
▁बसमा	-11586
दह	-11587
▁करणी	-11588
▁निजगढ	-11589
▁बाँधि	-11590
▁रगतको	-11591
▁कर्णालीमा	-11592
ंच	-11593
▁बिचमा	-11594
▁जातिको	-11595
▁भक्तपुरको	-11596
▁ठोक्	-11597
▁स्टल	-11598
लक्ष्मी	-11599
▁गरेकाे	-11600
▁प्रेममा	-11601
▁भित्रिएको	-11602
हेको	-11603
▁डोटी	-11604
पथ्र्यो	-11605
▁लकडाउनका	-11606
▁हलि	-11607
ाधिकार	-11608
▁नम्वर	-11609
▁सौर्य	-11610
▁कास्कीका	-11611
▁भ्याक्सिन	-11612
वेल	-11613
इन्स	-11614
▁आदिको	-11615
▁समयअघि	-11616
▁सेनालाई	-11617
▁असुल	-11618
▁२००८	-11619
▁रोकेर	-11620
▁थपिएका	-11621
▁अवस्थाबारे	-11622
सोम	-11623
▁बनेकी	-11624
▁महराले	-11625
नुपर्नेमा	-11626
▁शिक्षाका	-11627
पालो	-11628
▁नामा	-11629
▁देवता	-11630
▁लडाकु	-11631
▁आफन्तले	-11632
▁प्रसाईं	-11633
▁अधिकारीका	-11634
िनले	-11635
▁नपाएका	-11636
▁परमेश्वर	-11637
▁शिक्षकलाई	-11638
पहा	-11639
क्सिको	-11640
▁बक्यौता	-11641
▁मिलेमतो	-11642
▁टंक	-11643
▁ब्यु	-11644
बजारमा	-11645
▁बिहार	-11646
निकीकरण	-11647
▁खण्डको	-11648
पेश	-11649
▁अनशन	-11650
▁केयर	-11651
▁दृष्टिकोणले	-11652
स्म	-11653
निने	-11654
पाँच	-11655
▁ठाउ	-11656
▁वाचन	-11657
▁शिर्ष	-11658
▁मितिमा	-11659
▁सुस्ता	-11660
▁आमन्त्र	-11661
▁गच्छदार	-11662
▁महाराजग	-11663
▁राख्छन्	-11664
▁अपेक्षित	-11665
पर्य	-11666
▁लेखे	-11667
▁अलावा	-11668
▁अग्रवाल	-11669
▁प्रबन्धक	-11670
सिटी	-11671
▁छोडि	-11672
▁प्रदिप	-11673
▁रोकेको	-11674
▁सामुहिक	-11675
▁सुन्दरी	-11676
▁निकायबाट	-11677
▁बिरामीले	-11678
▁गाँउपालिका	-11679
▁यसवर्ष	-11680
▁जिवन	-11681
▁दलमा	-11682
▁छनोटमा	-11683
▁आशावादी	-11684
▁सिकाउने	-11685
▁पशुपतिनाथ	-11686
आरआई	-11687
▁हरित	-11688
▁बस्छन्	-11689
▁समर्थनमा	-11690
ब्रा	-11691
्नुभएको	-11692
▁टेलिकम	-11693
▁प्रशान्त	-11694
▁ब्याट्री	-11695
र्धन	-11696
गर्दै	-11697
▁गोला	-11698
▁लिम्पिया	-11699
जब	-11700
▁सप्	-11701
▁किमी	-11702
▁टेकेर	-11703
▁आदेशमा	-11704
▁गीतकार	-11705
▁मारिएका	-11706
वेणी	-11707
▁गुग	-11708
▁धन्दा	-11709
▁विनिमय	-11710
▁सर्वोच्चको	-11711
▁०४	-11712
जात्रा	-11713
▁जीर्ण	-11714
▁च्याम्पियनसि	-11715
पहिरो	-11716
▁अग्रज	-11717
▁वडाको	-11718
▁जुटेका	-11719
▁प्रतिष्	-11720
▁मुक्तिनाथ	-11721
अफ	-11722
वालि	-11723
व्र्य	-11724
▁साह्रै	-11725
▁पुरुषले	-11726
▁हिँडेको	-11727
▁बिचौलिया	-11728
डाले	-11729
▁जवाफदेही	-11730
जेको	-11731
▁अनलाई	-11732
▁छोड्ने	-11733
▁भन्दैमा	-11734
▁आकांक्षी	-11735
▁जिप	-11736
ac	-11737
▁केहीबेर	-11738
▁अस्पतालबाट	-11739
▁आईत	-11740
▁फेवा	-11741
▁वाचा	-11742
▁तीनजना	-11743
▁निबन्ध	-11744
▁कमिटीले	-11745
▁बैंकलाई	-11746
▁म्यानेजर	-11747
▁श्रमिकको	-11748
▁कांग्रेसबाट	-11749
ज्दा	-11750
रासस	-11751
देशीय	-11752
▁रोगका	-11753
▁अभियानले	-11754
▁डरलाग्दो	-11755
▁प्रोत्साहित	-11756
निटाइ	-11757
▁विमल	-11758
▁पुर्याइ	-11759
▁मुद्दालाई	-11760
▁ब्यवस्थापन	-11761
णले	-11762
बाली	-11763
▁निष्ठा	-11764
▁पूर्वाधारको	-11765
▁अहि	-11766
▁गार्	-11767
▁छाती	-11768
▁मनसाय	-11769
▁हुन्छु	-11770
▁नारायणगढ	-11771
▁पुनर्स्थापना	-11772
तान	-11773
गुरु	-11774
चोटि	-11775
▁मिठो	-11776
▁सुगर	-11777
एला	-11778
मञ्च	-11779
▁आएकाले	-11780
▁एकताका	-11781
▁कमिटीका	-11782
▁हुनुअघि	-11783
▁सभामुखले	-11784
▁पुस्तालाई	-11785
पमेन्ट	-11786
▁ग्राहकको	-11787
▁रिप	-11788
▁दाब	-11789
▁२०२५	-11790
नागरिक	-11791
▁अदुवा	-11792
▁कलेजको	-11793
▁जोडिने	-11794
▁लिमिटेडले	-11795
▁टाउकोमा	-11796
▁महाभारत	-11797
▁विश्वकपको	-11798
पुर्जा	-11799
सामान्य	-11800
▁निर्या	-11801
रहनुभएको	-11802
▁अगाडिको	-11803
▁विश्वसनीय	-11804
▁श्रीकृष्ण	-11805
शालाको	-11806
▁उपदफा	-11807
▁साम्य	-11808
▁मानिसहरूलाई	-11809
टिको	-11810
धारमा	-11811
▁बाबजुद	-11812
▁क्रेडिट	-11813
▁उत्पादनका	-11814
▁ग्	-11815
सूचक	-11816
▁सदैव	-11817
▁समीकरण	-11818
▁बुद्धको	-11819
पाका	-11820
▁ईन्	-11821
▁नापी	-11822
▁मर्का	-11823
ेसो	-11824
ीमाथि	-11825
▁एभरेष्ट	-11826
▁लैङ्गिक	-11827
बोल	-11828
वाङ	-11829
▁नसो	-11830
▁गुप्त	-11831
▁दिनेछ	-11832
▁अनुरूप	-11833
▁गर्नमा	-11834
▁प्रवन्ध	-11835
ढि	-11836
षेक	-11837
मिना	-11838
▁ऐनले	-11839
▁गर्छौ	-11840
▁वास्ता	-11841
▁महानगरका	-11842
▁राजनीतिज्ञ	-11843
ट्य	-11844
▁नसकि	-11845
▁न्युज	-11846
▁शाखाले	-11847
?'	-11848
विद	-11849
▁तला	-11850
▁अस्त	-11851
▁बृहत्	-11852
▁बिर्सि	-11853
▁मिथिला	-11854
▁मित	-11855
▁शरद	-11856
▁यसर्थ	-11857
▁साक्षी	-11858
▁हस्पिटल	-11859
बिया	-11860
्राम	-11861
▁बाद	-11862
▁ल्याप	-11863
▁निकासा	-11864
▁उतै	-11865
काण्ड	-11866
▁कोहि	-11867
▁जोहो	-11868
ठाउँमा	-11869
▁सच्या	-11870
▁सभाले	-11871
▁पाठकले	-11872
▁अन्तरले	-11873
▁लिपुलेक	-11874
▁साहित्यको	-11875
सेको	-11876
्रास	-11877
▁सार्न	-11878
▁जबसम्म	-11879
▁जतिबेला	-11880
▁आन्दोलनले	-11881
▁जिम्मेवारीमा	-11882
७८	-11883
दीमा	-11884
▁गणित	-11885
▁बग्ने	-11886
▁गाउँमै	-11887
थिति	-11888
न्टी	-11889
▁सोझै	-11890
नान्तर	-11891
▁बोलाउने	-11892
▁यहाँबाट	-11893
▁उपमहासचिव	-11894
२२	-11895
दिक	-11896
▁टाइम	-11897
▁वर्क	-11898
प्रयोग	-11899
▁असन्त	-11900
▁मर्ने	-11901
▁सांसदहरु	-11902
▁बज्राचार्य	-11903
बिक	-11904
▁प्रेमको	-11905
▁शतप्रतिशत	-11906
▁मूल्यवृद्धि	-11907
ँै	-11908
▁।)	-11909
लाउन	-11910
▁मिथ	-11911
▁गोर्ख	-11912
▁मंगलवार	-11913
▁एपि	-11914
▁धारण	-11915
▁बतायो	-11916
▁भेटिए	-11917
▁झापाका	-11918
▁कोहलपुर	-11919
▁म्यानपावर	-11920
ष्टी	-11921
साइड	-11922
▁गरियोस्	-11923
थाने	-11924
दुरी	-11925
▁उत्तरा	-11926
▁केटाके	-11927
▁सोमवार	-11928
▁तौ	-11929
▁सिटमा	-11930
▁मैत्रीपूर्ण	-11931
▁ग्रह	-11932
▁मातहतका	-11933
▁यात्रुलाई	-11934
पट्टि	-11935
राउने	-11936
▁नपर्	-11937
▁एसएलसी	-11938
▁चाहेका	-11939
▁रिसर्च	-11940
▁नागरिकताको	-11941
▁बोझ	-11942
▁जानेछ	-11943
▁टेष्ट	-11944
▁निर्मल	-11945
चाँ	-11946
णिक	-11947
▁तरुण	-11948
ढुङ्गा	-11949
▁ट्रयाक	-11950
▁निरौला	-11951
▁मोदीको	-11952
▁प्रवासी	-11953
▁उपभोक्ताको	-11954
धिन	-11955
कोटको	-11956
▁ताना	-11957
▁मातह	-11958
र्षिकोत्सव	-11959
▁बाहिरिएको	-11960
्रमा	-11961
▁कोषका	-11962
▁नीतिले	-11963
▁कक्षाको	-11964
▁फर्काउन	-11965
▁इजलास	-11966
▁लैंगिक	-11967
▁स्त्री	-11968
▁प्रमुखले	-11969
▁उहाँहरुको	-11970
इस	-11971
स्कु	-11972
▁बाथ	-11973
▁मस्तिष्क	-11974
▁देशव्यापी	-11975
▁प्रतिरक्षा	-11976
चीको	-11977
▁शान	-11978
विश्व	-11979
▁घृणा	-11980
▁गरिदिए	-11981
▁आफूमाथि	-11982
▁कुँवरले	-11983
▁दार्चुला	-11984
▁विस्तारका	-11985
▁विद्यार्थीहरुले	-11986
वासमा	-11987
▁लिङ्	-11988
▁भावुक	-11989
्थे	-11990
▁''	-11991
पाठी	-11992
▁शोभा	-11993
▁अलम	-11994
▁काँधमा	-11995
▁चन्द्रा	-11996
▁हुन्छौं	-11997
▁पुस्ताको	-11998
किपर	-11999
▁नखो	-12000
जीलाई	-12001
▁गायन	-12002
▁परमा	-12003
▁शैले	-12004
चनमा	-12005
▁कट्	-12006
▁ढुंग	-12007
▁दिएनन्	-12008
फले	-12009
कोटमा	-12010
ेन्सन	-12011
▁पचास	-12012
▁बद्री	-12013
▁प्राणी	-12014
▁मागेका	-12015
▁कारोवार	-12016
▁दशकदेखि	-12017
▁अँध्यारो	-12018
▁जुलुस	-12019
▁प्रर्द	-12020
▁सांसदलाई	-12021
उद्	-12022
िले	-12023
पसार	-12024
बिधान	-12025
▁आशिष	-12026
▁ब्लक	-12027
▁मास्	-12028
▁चलाएर	-12029
▁चन्दले	-12030
▁निरंकुश	-12031
▁लागूऔषध	-12032
▁तिनीहरूको	-12033
▁हिंसात्मक	-12034
▁आध्यात्मिक	-12035
इट	-12036
▁आब	-12037
मधुर	-12038
▁झैँ	-12039
विज्ञ	-12040
▁ओरालो	-12041
▁छिमेक	-12042
पै	-12043
रणीय	-12044
▁ओमान	-12045
▁तीब्र	-12046
▁पाइन्	-12047
▁पाइलट	-12048
▁गीतलाई	-12049
▁निम्तो	-12050
▁खेलाडीहरु	-12051
▁भैं	-12052
▁भेडा	-12053
▁उभ्या	-12054
▁आइतवार	-12055
▁वाई	-12056
ेसनले	-12057
▁उनमा	-12058
▁पुग्नेछ	-12059
▁अन्र्तगत	-12060
▁बहिष्कार	-12061
▁त्यत्तिकै	-12062
▁अफगानिस्तान	-12063
क्षे	-12064
▁पोजि	-12065
▁रजिष्ट्र	-12066
▁आयोजनालाई	-12067
▁कम्पनीहरुले	-12068
चौकी	-12069
ष्मा	-12070
▁कोड	-12071
▁धके	-12072
विकोपा	-12073
▁साताको	-12074
▁वय	-12075
▁गरु	-12076
यस्तो	-12077
र्मिला	-12078
▁खर्चि	-12079
▁निरुप	-12080
▁फड्को	-12081
तर्फबाट	-12082
▁गुप्ता	-12083
▁नपुगेको	-12084
▁माक्र्स	-12085
▁बिराटनगर	-12086
▁महासमिति	-12087
▁नेपालीहरुले	-12088
२३	-12089
दास	-12090
▁१२०	-12091
प्रेम	-12092
▁तराईमा	-12093
▁नुह	-12094
▁अम्ब	-12095
▁वर्षाका	-12096
तल	-12097
▁आले	-12098
▁मीन	-12099
▁चहलपहल	-12100
▁लाखौँ	-12101
महामन्त्री	-12102
▁कारागारमा	-12103
▁पाठ्यपुस्त	-12104
▁उपभोक्तालाई	-12105
दैछ	-12106
पिड	-12107
▁एथ	-12108
जाति	-12109
▁बखत	-12110
▁फस्ट	-12111
▁फास्ट	-12112
▁अफिसमा	-12113
▁चुहावट	-12114
डेन्ट	-12115
▁ब्राजिल	-12116
▁कारोबारमा	-12117
▁उपभोक्ताले	-12118
▁मस	-12119
रात्मक	-12120
▁बाँडफाँट	-12121
▁मतदाताले	-12122
▁नेदरल्याण्ड	-12123
क्सले	-12124
▁गरीब	-12125
▁नलिने	-12126
▁न्युजि	-12127
▁बोलपत्र	-12128
▁जिम	-12129
▁सकु	-12130
▁बर्खास्त	-12131
▁सुकुम्बासी	-12132
र्सानी	-12133
▁बजेको	-12134
▁ओझेलमा	-12135
▁मेयरमा	-12136
▁स्वस्थ्य	-12137
८१	-12138
कोरोना	-12139
▁विस्तारमा	-12140
▁गैँ	-12141
▁धानको	-12142
▁शारदा	-12143
▁रानाले	-12144
▁आरम्भ	-12145
▁चल्दै	-12146
▁स्नान	-12147
▁गराइने	-12148
▁लामाको	-12149
▁गरिनुपर्छ	-12150
▁हुनुभन्दा	-12151
यसी	-12152
▁वल्	-12153
▁किनबे	-12154
▁मनमोहन	-12155
पाटन	-12156
▁नपु	-12157
▁सिड्	-12158
प्रेमी	-12159
▁भत्का	-12160
स्थितिमा	-12161
▁पीडितले	-12162
▁जोखिमपूर्ण	-12163
जारा	-12164
▁सान	-12165
पहिलो	-12166
▁सङ्घका	-12167
▁नियन्त्रणको	-12168
पद	-12169
निकट	-12170
क्षामा	-12171
▁खोजेर	-12172
▁सहजता	-12173
▁छोराछो	-12174
▁विकासलाई	-12175
णको	-12176
लमाथि	-12177
▁आईपीओ	-12178
बन्दीको	-12179
▁प्रक्रियाको	-12180
गाइ	-12181
▁दाग	-12182
करणका	-12183
▁बेरु	-12184
▁वाइड	-12185
▁अरूलाई	-12186
▁इन्स्टि	-12187
▁विकल्पमा	-12188
पीएल	-12189
▁फैलाउने	-12190
▁मानिसहरुलाई	-12191
खोकी	-12192
ल्याक	-12193
हाल्ने	-12194
▁अगस्ट	-12195
▁हुनुमा	-12196
▁दिमागमा	-12197
▁अनुदानमा	-12198
▁ज्वा	-12199
▁गौतमको	-12200
▁नगरेका	-12201
▁दुवैलाई	-12202
▁मेक्सिको	-12203
इराख	-12204
पीले	-12205
▁यथावत	-12206
▁चौला	-12207
▁गठनको	-12208
▁जातका	-12209
▁प्याक	-12210
नेपालको	-12211
▁कार्यक	-12212
ँडो	-12213
▁ओछ	-12214
▁मज्जा	-12215
▁एकताबद्ध	-12216
सागर	-12217
ेलियन	-12218
▁टेबल	-12219
▁एकछिन	-12220
▁गीतले	-12221
▁एक्कासी	-12222
▁गाउपालिका	-12223
▁जनसंख्याको	-12224
राजले	-12225
▁खाका	-12226
▁जायज	-12227
▁हेरेको	-12228
▁लाभान्वित	-12229
▁इनि	-12230
▁२५०	-12231
▁ईश्व	-12232
▁कार्यक्रमहरू	-12233
वादमा	-12234
▁अर्बको	-12235
▁सुमधुर	-12236
▁सर्वसाधारणले	-12237
अर्थ	-12238
▁किशो	-12239
हाल्यो	-12240
▁धक्का	-12241
▁पढेको	-12242
▁हड्डी	-12243
▁हिँड्	-12244
▁कमिटीमा	-12245
▁कार्यभार	-12246
▁महान्यायाधि	-12247
▁महेन्द्रनगर	-12248
▁प्रतिष्ठानमा	-12249
▁०७४	-12250
▁आईसीसी	-12251
▁ओलीसँग	-12252
▁रैथाने	-12253
▁प्रधानले	-12254
जीपी	-12255
▁कोदो	-12256
▁वनमा	-12257
▁विष्	-12258
▁निलम्ब	-12259
▁जतिसुकै	-12260
▁बहुमुखी	-12261
▁वनस्पति	-12262
▁हिसावले	-12263
▁सहकारीका	-12264
▁पाउँदैनन्	-12265
▁उचा	-12266
▁ग्रेड	-12267
▁प्रेमिका	-12268
▁श्रीमतीको	-12269
▁भाँ	-12270
▁क्वि	-12271
▁महन्थ	-12272
▁दक्षता	-12273
▁रोपाइँ	-12274
जलाई	-12275
▁गुरू	-12276
▁गिरोह	-12277
▁शम्भु	-12278
▁समाजिक	-12279
▁आम्दानीको	-12280
▁राजनीतिलाई	-12281
पाट	-12282
▁आईसीयू	-12283
▁गतवर्ष	-12284
▁गर्नेगरी	-12285
▁डिल	-12286
▁उग्र	-12287
▁कोले	-12288
▁वहाँ	-12289
▁भनिरहेका	-12290
▁मनोवैज्ञानिक	-12291
लिखित	-12292
▁सरिता	-12293
▁तीनवटै	-12294
▁शिक्षित	-12295
▁तेक्वान्दो	-12296
▁झिक	-12297
वाकां	-12298
▁उभिएको	-12299
▁संसदबाट	-12300
मिङ	-12301
्र्य	-12302
धिकृत	-12303
▁तेलको	-12304
▁सिन्ड	-12305
▁भित्रिने	-12306
▁महिलाहरुले	-12307
▁माथी	-12308
▁लुका	-12309
▁तिब्र	-12310
▁यात्री	-12311
▁योसँगै	-12312
▁हुनसक्	-12313
▁प्रतिव्यक्ति	-12314
▁नगरिएको	-12315
▁बसी	-12316
▁पठाएर	-12317
कालदेखि	-12318
▁दुव्र्य	-12319
▁सिफारिश	-12320
▁सांसदहरूले	-12321
फोट	-12322
हरुख	-12323
▁डिपो	-12324
▁पिसि	-12325
▁विराट	-12326
▁सातामा	-12327
▁बहुमतको	-12328
▁अन्तरिक्ष	-12329
▁गणतन्त्रको	-12330
ँध	-12331
श्मी	-12332
स्ले	-12333
त्पाद	-12334
▁बलिउ	-12335
▁एन्टी	-12336
▁दिलाएका	-12337
▁गुठ	-12338
दर्शी	-12339
▁सोहि	-12340
परिषद्	-12341
▁सृष्टि	-12342
▁अधिनायक	-12343
▁स्टार्ट	-12344
▁परियोजनामा	-12345
▁पाकिस्तानको	-12346
▁जनप्रतिनिधिले	-12347
यका	-12348
िकाको	-12349
▁रोमाञ्च	-12350
▁लगन	-12351
ङ्गको	-12352
ट्रिक	-12353
रिक्षक	-12354
▁सेक्य	-12355
▁भण्डार	-12356
▁पुस्ताका	-12357
▁प्रतियोगिताका	-12358
टेक	-12359
▁लाज	-12360
▁सुपरि	-12361
▁भेलामा	-12362
▁सुनिता	-12363
७९	-12364
कवि	-12365
▁संकटको	-12366
▁खबरदारी	-12367
▁बर्सेनि	-12368
▁यसबीचमा	-12369
▁रहनेछन्	-12370
▁बिद्यार्थी	-12371
▁प्राथमिकताका	-12372
उनको	-12373
▁गर्भपतन	-12374
चलन	-12375
▁हत्य	-12376
▁दौरान	-12377
▁परेकी	-12378
▁पाण्डेको	-12379
▁विम	-12380
▁झापामा	-12381
▁गिरफ्तार	-12382
▁अधिवेशनमा	-12383
▁राव	-12384
जगारी	-12385
▁कथित	-12386
▁दाता	-12387
▁लिंक	-12388
▁पछिको	-12389
▁भयावह	-12390
ूत	-12391
केजी	-12392
म्मर	-12393
▁अङ्क	-12394
अनुरूप	-12395
▁खण्डन	-12396
▁पार्वती	-12397
▁कार्यशैली	-12398
▁प्रदेशबाट	-12399
▁व्यापारमा	-12400
▁निरुत्साहित	-12401
तित	-12402
▁खानले	-12403
▁खानामा	-12404
▁मनोनित	-12405
▁व्यवसायको	-12406
▁भाज	-12407
▁देखाए	-12408
▁दबाबमा	-12409
▁पकाउने	-12410
▁चौतर्फी	-12411
▁पाएकी	-12412
▁चक्रपथ	-12413
▁थाल्ने	-12414
▁कार्यलय	-12415
▁एमालेसँग	-12416
▁दिल्लीमा	-12417
▁च्याम्पियनसिप	-12418
२४	-12419
बिधा	-12420
▁पाखा	-12421
बले	-12422
ुवाँ	-12423
▁कयौं	-12424
▁गाउने	-12425
नेपालमा	-12426
▁गरिँदै	-12427
▁अमेरिकन	-12428
▁योजनाका	-12429
▁कलाकारले	-12430
▁स्टुडियो	-12431
▁लिम्पियाधुरा	-12432
डेरी	-12433
▁निमो	-12434
▁राजाले	-12435
▁प्रार्थ	-12436
गे	-12437
थिको	-12438
लिटर	-12439
स्दै	-12440
▁डेरा	-12441
▁हालत	-12442
▁फैलिन	-12443
▁तहसम्म	-12444
▁आफैमा	-12445
▁तिमल्	-12446
▁नपरोस्	-12447
▁इन्स्टा	-12448
▁समूहबाट	-12449
▁स्ववियु	-12450
▁ठ्याक्कै	-12451
▁तत्कालका	-12452
▁निकाल्दै	-12453
पाको	-12454
▁आईसी	-12455
ृङ्खला	-12456
▁किनेको	-12457
▁योगदानको	-12458
▁साथीहरुले	-12459
नीयता	-12460
▁२०६९	-12461
▁मान्छेहरु	-12462
il	-12463
न्यु	-12464
सिस्ट	-12465
▁गोकुल	-12466
▁भिन्नता	-12467
▁निमन्त्र	-12468
▁सभापतिमा	-12469
▁जर्	-12470
राधना	-12471
▁तिहाई	-12472
स्थानमा	-12473
▁पदमुक्त	-12474
▁मोबाइलमा	-12475
▁म्यानेजमेन्ट	-12476
▁टोपी	-12477
▁अस्वा	-12478
▁इलेक्ट्रो	-12479
▁पुत	-12480
▁जबकी	-12481
▁दस्त	-12482
▁साइड	-12483
▁सेके	-12484
▁कर्मा	-12485
▁क्रसर	-12486
▁तिब्बत	-12487
▁दुर्घटनाको	-12488
▁कान्छा	-12489
▁तामाङको	-12490
▁नपाएपछि	-12491
▁अधिग्रहण	-12492
▁उत्तरदायी	-12493
▁आन्दोलनकारी	-12494
ेटमा	-12495
▁वना	-12496
▁भनें	-12497
▁खरिदमा	-12498
▁ढंगबाट	-12499
▁कन्सर्ट	-12500
▁काठमाडौँको	-12501
ञ्चा	-12502
ाउनमा	-12503
▁इन्भे	-12504
▁बाँझो	-12505
▁रुद्र	-12506
कुमेन्ट	-12507
▁पुस्तकको	-12508
ol	-12509
▁बृहत	-12510
▁रनले	-12511
▁आसन्न	-12512
▁मञ्जु	-12513
▁संघिय	-12514
नीलाई	-12515
ित्या	-12516
▁हाइड्रोपावर	-12517
टरी	-12518
▁एएफ	-12519
▁दाह	-12520
▁सुझ	-12521
▁ठाडो	-12522
▁अर्डर	-12523
▁समसाम	-12524
एउटा	-12525
▁भड्	-12526
▁पुनर्ग	-12527
▁एकदिवसीय	-12528
▁काठमाण्डौं	-12529
▁संसदले	-12530
▁संहिता	-12531
▁मिनेटको	-12532
▁फाइबर	-12533
▁समर्पण	-12534
▁अस्वस्थ	-12535
▁कानुनमा	-12536
▁नेपालीमा	-12537
▁बानेश्वर	-12538
▁जफत	-12539
▁आविष्कार	-12540
▁सगरमाथाको	-12541
दशी	-12542
ध्व	-12543
▁डट	-12544
ब्रि	-12545
▁साबित	-12546
▁विरुवा	-12547
▁यात्रुको	-12548
▁रहनुभएका	-12549
▁म्याग्दीको	-12550
भियत	-12551
टिक्स	-12552
▁रित्	-12553
▁खेलका	-12554
▁भ्याट	-12555
▁चालि	-12556
▁नविन	-12557
▁पाइन	-12558
▁मौसमी	-12559
▁बेरुजु	-12560
▁पूँजीगत	-12561
▁बढेसँगै	-12562
▁प्रिमियम	-12563
▁संरक्षणको	-12564
▁संस्थाबाट	-12565
▁स्वीकार्य	-12566
▁सोचेको	-12567
▁ज्ञानको	-12568
ूको	-12569
▁आल	-12570
तारो	-12571
बाहक	-12572
▁बर्त	-12573
▁मेडल	-12574
हरूमध्ये	-12575
▁रायमाझी	-12576
▁सुनिन्छ	-12577
▁मर्यादित	-12578
▁डडेल्धुरा	-12579
▁विमानस्थलबाट	-12580
दिशा	-12581
रियल	-12582
सुरु	-12583
▁जनही	-12584
▁संका	-12585
▁प्रदु	-12586
▁काउन्टर	-12587
▁प्रसङ्ग	-12588
▁सूचनामा	-12589
▁योजनाहरु	-12590
बन्धक	-12591
त्ताको	-12592
▁लमजुङ	-12593
▁जान्ने	-12594
▁स्पोर्	-12595
▁बालिकाको	-12596
▁युवाहरुको	-12597
▁क्रस	-12598
▁छँदै	-12599
▁तिलो	-12600
▁कन्या	-12601
▁पुनस्	-12602
▁घरदैलो	-12603
▁शासकीय	-12604
तत्व	-12605
▁डटक	-12606
▁चार्ट	-12607
▁खोलेको	-12608
▁जनवादी	-12609
▁अधिकारीहरूले	-12610
▁आँच	-12611
▁रामा	-12612
▁समया	-12613
▁लोकमार्ग	-12614
▁श्रृंखला	-12615
▁अध्यक्षका	-12616
▁चढा	-12617
▁सान्	-12618
▁बजारका	-12619
▁जस्ताको	-12620
▁मार्गमा	-12621
▁हत्याको	-12622
▁कार्कीलाई	-12623
▁इन्टरनेसनल	-12624
ट्ने	-12625
▁गएँ	-12626
▁मुट	-12627
▁स्कोर	-12628
▁चिनिने	-12629
▁हुम्ला	-12630
▁दिइसकेको	-12631
गठ	-12632
एमसी	-12633
▁अमे	-12634
▁नोक्सान	-12635
▁विचारधारा	-12636
▁अं	-12637
▁बदनाम	-12638
▁पहिचानको	-12639
▁मानबहादुर	-12640
▁केन्द्रलाई	-12641
▁मीठो	-12642
▁अगावै	-12643
▁माटोको	-12644
▁प्लाष्टिक	-12645
▁जरा	-12646
▁इकाई	-12647
▁नाकाबाट	-12648
▁साँघुरो	-12649
▁चौधरीलाई	-12650
्वाइट	-12651
▁स्याहार	-12652
▁उपविजेता	-12653
▁हामीकहाँ	-12654
▁मेन	-12655
▁ब्लड	-12656
▁भन्द	-12657
गाउँमा	-12658
▁ताप्लेजु	-12659
▁गर्नुभन्दा	-12660
▁रुपन्देहीको	-12661
▁सित	-12662
▁बचाउने	-12663
▁प्रतिद्वन्द	-12664
▁लगानीकर्ताले	-12665
दोहो	-12666
▁मलको	-12667
▁सँधै	-12668
▁जुनियर	-12669
▁मागलाई	-12670
▁सिरिया	-12671
▁प्रजाति	-12672
▁न्युयोर्क	-12673
▁सुरुङमार्ग	-12674
▁फलो	-12675
म्यान	-12676
▁हितका	-12677
▁घरायसी	-12678
▁पेन्सन	-12679
▁गर्नेको	-12680
▁देवकोटाले	-12681
▁नेताहरूलाई	-12682
गंज	-12683
भाषित	-12684
▁मेरै	-12685
▁जनआन्दोलन	-12686
स्का	-12687
▁खेम	-12688
करणमा	-12689
▁अब्द	-12690
▁अल्झ	-12691
वस्थामा	-12692
▁भेट्ने	-12693
▁अघिल्ला	-12694
▁बुझिएको	-12695
▁सक्दैनौं	-12696
▁जर्ज	-12697
▁बनाउँ	-12698
▁वाग्मती	-12699
▁संक्षिप्त	-12700
▁पुनःस्थापना	-12701
▁दर्जा	-12702
▁सप्ता	-12703
▁सुटिङ	-12704
▁गतिशील	-12705
▁ओसारपसार	-12706
▁प्रख्यात	-12707
▁बालबच्चा	-12708
▁उहाँहरूले	-12709
▁जस्तोसुकै	-12710
▁भएछ	-12711
▁व्यास	-12712
▁घरघरमा	-12713
▁अस्वाभाविक	-12714
▁बृ	-12715
▁पनी	-12716
▁श्व	-12717
▁चेल्	-12718
▁ब्लग	-12719
उनुभएको	-12720
▁ट्राभल	-12721
▁अख्तियारको	-12722
▁रुची	-12723
▁संयोज	-12724
▁छोडेको	-12725
▁मृतकको	-12726
▁समितिबाट	-12727
▁सहभागितामा	-12728
▁वैठ	-12729
▁मिल्यो	-12730
▁कँडेलले	-12731
▁वितरणमा	-12732
▁घिमिरेको	-12733
निकल	-12734
▁पहिरन	-12735
▁इन्जिन	-12736
▁परिपक्व	-12737
▁पुँजीगत	-12738
▁म्याराथ	-12739
▁लेखिएका	-12740
▁रहँदैन	-12741
▁उपचाररत	-12742
▁मानिसहरूको	-12743
जीमा	-12744
ोषित	-12745
ाउन्ड	-12746
▁च्याले	-12747
▁हस्पिट	-12748
▁जडीबुटी	-12749
▁परिश्रम	-12750
बाह	-12751
▁बहर	-12752
▁वित	-12753
न्ध्र	-12754
▁धर्मावल	-12755
▁संबिधान	-12756
ेकै	-12757
खर्क	-12758
न्छी	-12759
टाइएको	-12760
▁पेशागत	-12761
▁घरभित्र	-12762
▁खोटाङ	-12763
▁लाइनको	-12764
▁तिलोत्त	-12765
▁विवादका	-12766
▁पत्रकारलाई	-12767
▁तम	-12768
जनले	-12769
ुपमा	-12770
▁एसई	-12771
▁सल्	-12772
▁बन्धक	-12773
▁सघाउने	-12774
▁दलहरुको	-12775
▁दैनिकले	-12776
▁पार्टनर	-12777
▁मुलुकबाट	-12778
▁सहकारीमा	-12779
नास	-12780
▁बिगा	-12781
▁छालाको	-12782
▁समेतको	-12783
▁डिस्चार्ज	-12784
▁त्यसक्रममा	-12785
▁अन्व	-12786
▁खेप्	-12787
▁सर्ट	-12788
▁क्वालि	-12789
▁लापरवाही	-12790
टेन	-12791
▁मेश	-12792
▁एन्ड्रो	-12793
▁गर्नेहरु	-12794
▁एप्	-12795
▁खुद	-12796
▁किनारा	-12797
▁हालेको	-12798
▁घटनापछि	-12799
▁त्यतिखेर	-12800
▁परिक्रमा	-12801
▁कार्यसूची	-12802
▁शिक्षालाई	-12803
घार	-12804
▁आयक	-12805
स्तिका	-12806
▁च्याट	-12807
▁च्यान	-12808
▁सुनाएको	-12809
▁मोर्चाले	-12810
▁आधुनिकीकरण	-12811
▁पारदर्शिता	-12812
▁ल्यायो	-12813
▁भाइरसका	-12814
▁संग्रहालय	-12815
▁थर	-12816
ङ्कन	-12817
▁युए	-12818
▁भियत	-12819
▁निस्कन	-12820
▁दोषीलाई	-12821
▁कोरियोग्रा	-12822
▁विषयले	-12823
▁आफूहरूले	-12824
▁त्रिवेणी	-12825
▁इन्स्टाग्राम	-12826
▁बलर	-12827
▁धरहरा	-12828
▁मुहार	-12829
▁यत्रो	-12830
▁सारेका	-12831
▁स्मारक	-12832
▁तालिममा	-12833
▁गाउन	-12834
▁खरेलले	-12835
▁जनाउने	-12836
▁निगमका	-12837
▁विवादको	-12838
▁सुनाइन्	-12839
▁आफूहरुलाई	-12840
▁एडि	-12841
▁बुझ्	-12842
▁कामहरू	-12843
▁माग्दै	-12844
▁दलहरूको	-12845
▁विकेटले	-12846
▁विश्वकर्माले	-12847
▁म्यू	-12848
▁शायद	-12849
▁नपरेको	-12850
▁हिजोको	-12851
▁सकिन्थ्यो	-12852
▁व्यवस्थाका	-12853
जाउ	-12854
नीका	-12855
▁अन्तमा	-12856
▁समसामयिक	-12857
▁महामारीले	-12858
▁डेभलपमेन्ट	-12859
▁वृह	-12860
▁आकलन	-12861
▁बस्य	-12862
▁दिनलाई	-12863
▁हत्यारा	-12864
▁डकुमेन्ट	-12865
▁प्रालिले	-12866
▁बिजुलीको	-12867
▁गरिन्थ्यो	-12868
चढा	-12869
चिब	-12870
प्रद	-12871
▁पठाउनु	-12872
▁रिपोर्	-12873
ब्ध	-12874
थियो	-12875
न्छौं	-12876
विकास	-12877
जिम्मे	-12878
▁क्षतिको	-12879
▁हिँडेका	-12880
▁प्रजातिका	-12881
▁संस्करणमा	-12882
ाइमा	-12883
▁मन्	-12884
्यारि	-12885
▁घट्यो	-12886
▁हुन्छन	-12887
▁राप्रपाका	-12888
▁स्वामित्वमा	-12889
▁लोह	-12890
वाहित	-12891
▁खेलि	-12892
▁छोड्	-12893
व्यस्त	-12894
▁डान्स	-12895
▁स्कुटर	-12896
▁प्रयोगकर्ताले	-12897
▁रज	-12898
गिरी	-12899
बायो	-12900
▁एउटी	-12901
▁ल्यापटप	-12902
▁स्पोर्ट	-12903
▁स्वचालित	-12904
▁आयोजनाबाट	-12905
▁व्यक्तिहरुलाई	-12906
६०	-12907
▁सघन	-12908
▁थप्न	-12909
▁छाएको	-12910
▁बञ्चित	-12911
▁हप्ताको	-12912
▁सुनसरीको	-12913
लिने	-12914
ौलाको	-12915
▁दुःखी	-12916
▁परेमा	-12917
▁चेम्बर	-12918
▁सहितका	-12919
▁महाधिवेशनबाट	-12920
टिने	-12921
र्वा	-12922
▁काज	-12923
▁२०४८	-12924
▁कार्ट	-12925
▁सामन्त	-12926
▁दय	-12927
किशोर	-12928
▁ठमेल	-12929
▁मांस	-12930
▁सयौँ	-12931
▁स्टे	-12932
▁२००९	-12933
▁गतिलो	-12934
▁अनलाइनमा	-12935
▁लामिछानेको	-12936
▁प्रयोगशालामा	-12937
▁मन्त्रिपरिषदको	-12938
▁c	-12939
▁दशैंको	-12940
▁बगाएको	-12941
▁सिङ्गो	-12942
▁श्वासप्रश्वास	-12943
पत्	-12944
चेको	-12945
▁मन्थ	-12946
▁सावि	-12947
▁राप्रपाले	-12948
▁सक्नुहुनेछ	-12949
▁इन्स्योरेन्स	-12950
▁प्रक्रियाबाट	-12951
▁स्थानीयवासीले	-12952
▁शुल्	-12953
▁सच्याउन	-12954
▁पर्यटकले	-12955
▁सफ	-12956
र्सका	-12957
▁राखेप	-12958
▁वित्ति	-12959
▁सौराहा	-12960
▁पालिकाले	-12961
▁उभिएका	-12962
▁सङ्केत	-12963
▁टेक्नोलोजी	-12964
कीले	-12965
▁कलि	-12966
▁डढे	-12967
सम्यान	-12968
▁घटाएर	-12969
▁महत्वको	-12970
▁हिमालको	-12971
▁परिषद्का	-12972
▁भयौं	-12973
शिक्षा	-12974
▁पहुँचमा	-12975
ूर्त	-12976
▁वैध	-12977
▁हल्	-12978
▁पार्नु	-12979
▁स्ट्या	-12980
▁चाहन्थे	-12981
▁बाहिरिने	-12982
▁रक्षामन्त्री	-12983
▁मुकु	-12984
त्यसैले	-12985
▁प्रोटिन	-12986
▁अलै	-12987
▁उमेद	-12988
▁कपुर	-12989
▁करियर	-12990
▁हरायो	-12991
▁देखाउनु	-12992
▁गिरिजाप्रसाद	-12993
▁छर्	-12994
▁कट्ट	-12995
▁नल्या	-12996
▁जिब्रो	-12997
▁नाताले	-12998
▁अभ्यासमा	-12999
▁बालबालिकाले	-13000
मरी	-13001
ुको	-13002
उँछु	-13003
न्टन	-13004
रिका	-13005
▁उपलव्	-13006
▁अभिषेक	-13007
प्ला	-13008
▁सन्दि	-13009
▁दूरीमा	-13010
▁कन्स्ट्र	-13011
▁रामकृष्ण	-13012
▁वार्षिकोत्सव	-13013
▁डब्	-13014
▁गहना	-13015
▁मतले	-13016
▁माझी	-13017
▁बहाना	-13018
▁मानेको	-13019
▁सचिवको	-13020
▁ताप्लेजुङ	-13021
▁नवनिर्वाचित	-13022
▁विश्वप्रकाश	-13023
तारा	-13024
दास्पद	-13025
▁इन्दि	-13026
▁नमान्ने	-13027
▁सम्बन्धन	-13028
▁सर्वोत्कृष्ट	-13029
ग्य	-13030
▁१९४	-13031
▁चाइना	-13032
▁डिजेल	-13033
▁भुटानी	-13034
▁बनाएपछि	-13035
▁असंवैधानिक	-13036
अलि	-13037
▁मामा	-13038
▁विजु	-13039
क्टरमा	-13040
▁मान्दैन	-13041
▁रुघाखोकी	-13042
▁कम्पनीसँग	-13043
▁महत्वपुर्ण	-13044
लार	-13045
गोपाल	-13046
ाउँदो	-13047
विन्दु	-13048
▁खटिने	-13049
▁आवागमन	-13050
▁कात्तिकमा	-13051
छौँ	-13052
नाश	-13053
ारिक	-13054
▁जडि	-13055
▁समक	-13056
▁लाइट	-13057
▁बिक्र	-13058
▁बुझाई	-13059
▁खुर्सानी	-13060
▁धित	-13061
अघिका	-13062
▁बजेर	-13063
▁सिन्	-13064
▁अविजित	-13065
▁क्लबको	-13066
▁चलाएका	-13067
▁ठाउँका	-13068
▁अमा	-13069
▁बोग	-13070
हरुमध्ये	-13071
▁बेचबिखन	-13072
▁उद्योगका	-13073
सिने	-13074
▁दिलाए	-13075
▁तटबन्ध	-13076
▁ग्रामिण	-13077
▁सम्झनामा	-13078
▁गोरखापत्र	-13079
▁दिपेन्द्र	-13080
ent	-13081
र्गा	-13082
टिङमा	-13083
बोर्ड	-13084
संगीत	-13085
▁ख्या	-13086
▁झोलु	-13087
▁थियाे	-13088
▁खर	-13089
▁हेटौँ	-13090
देश्यीय	-13091
▁कुर्सी	-13092
▁गर्दथे	-13093
▁खोजिरहेका	-13094
सेस	-13095
▁नख	-13096
ेश्य	-13097
▁गरोस्	-13098
▁गैंडा	-13099
▁कसुरमा	-13100
▁तेह्रथु	-13101
▁बैठकपछि	-13102
▁यातायातको	-13103
छौ	-13104
डिने	-13105
▁अली	-13106
▁अनुपा	-13107
▁विपिन	-13108
▁शय्या	-13109
▁स्टाफ	-13110
▁इमानदार	-13111
▁विघटनको	-13112
▁विश्राम	-13113
▁आक्रमणको	-13114
▁सदस्यहरुलाई	-13115
▁अनुसन्धानबाट	-13116
चुनाव	-13117
▁अरूको	-13118
▁गर्नेमा	-13119
▁सहकर्मी	-13120
अव	-13121
▁आङ	-13122
▁बाहुल्य	-13123
▁खेलकुदमा	-13124
▁युवाहरुलाई	-13125
शनमा	-13126
▁बडी	-13127
▁चढ्ने	-13128
▁प्रसू	-13129
▁सेकेन्ड	-13130
▁यसबारेमा	-13131
▁प्रतिनिधिले	-13132
▁राष्ट्रवादी	-13133
पं	-13134
▁झुक	-13135
▁दिवा	-13136
्याक्ट	-13137
▁बिहानको	-13138
▁वित्तिय	-13139
▁सहमतिका	-13140
▁बन्दरगाह	-13141
लालाई	-13142
▁क्षय	-13143
▁निकाल्	-13144
▁बार्षिक	-13145
▁माओवादीलाई	-13146
▁वर्षौंदेखि	-13147
ूलक	-13148
चनको	-13149
▁जबरा	-13150
▁बर्ग	-13151
नेसिया	-13152
▁कतारमा	-13153
▁तिर्नु	-13154
▁संखुवासभा	-13155
▁अप्रत्यक्ष	-13156
▁ज्यू	-13157
▁किनबेच	-13158
▁प्रजनन	-13159
▁प्रतिक	-13160
▁उत्पादनलाई	-13161
▁खल्	-13162
बजारी	-13163
▁इटहर	-13164
▁निरुपण	-13165
▁कानूनको	-13166
▁बोर्डमा	-13167
हट	-13168
हस	-13169
पीएस	-13170
प्रथम	-13171
▁बोरा	-13172
▁कसैसँग	-13173
▁विधिको	-13174
▁कार्यन्व	-13175
▁सातादेखि	-13176
▁जिन	-13177
▁येश	-13178
ज्ञात	-13179
▁रसायन	-13180
▁गुमाउनु	-13181
▁थाल्छन्	-13182
इको	-13183
▁पन	-13184
णविक	-13185
ेजको	-13186
▁अभिमुख	-13187
▁क्लबमा	-13188
▁बाँधेर	-13189
▁कार्यहरु	-13190
▁पाउनुपर्छ	-13191
बर्	-13192
हिद	-13193
▁तान	-13194
फोर्ड	-13195
▁मरेको	-13196
▁महिनामै	-13197
▁क्वारेन्टिनमा	-13198
टिश	-13199
▁क्यू	-13200
▁बुझि	-13201
द्र्धन	-13202
▁वृक्ष	-13203
▁ताइवान	-13204
▁नेम्वाङ	-13205
▁गएकाले	-13206
▁विधिबाट	-13207
▁परिषद्ले	-13208
▁वार्ताको	-13209
▁मलेसियामा	-13210
▁समाजवादको	-13211
▁इंग्ल्याण्ड	-13212
खाई	-13213
चालक	-13214
ड्डी	-13215
भागमा	-13216
▁गोरख	-13217
▁जन्मिएको	-13218
▁बढिरहेका	-13219
कालको	-13220
ञ्जित	-13221
▁सिंचाइ	-13222
▁क्यासिनो	-13223
ोदर	-13224
▁हुनका	-13225
▁गुनासा	-13226
▁पुरुषो	-13227
▁मैनाली	-13228
▁सोभियत	-13229
▁ह्वाइट	-13230
▁होमस्टे	-13231
▁बालविवाह	-13232
▁पत्रकारले	-13233
as	-13234
्वाल	-13235
▁स्क्रि	-13236
▁स्तरका	-13237
▁लगाएपछि	-13238
▁मतदाताको	-13239
▁थिइनँ	-13240
▁बुकिङ	-13241
▁वैदिक	-13242
▁शहरको	-13243
▁छोराले	-13244
▁दिइनेछ	-13245
▁विद्यु	-13246
▁प्रणालीबाट	-13247
▁व्यवसायीहरु	-13248
उँदो	-13249
▁खुल	-13250
▁मत्	-13251
▁भनेँ	-13252
▁जनतासँग	-13253
▁प्रकारले	-13254
▁प्रमुखमा	-13255
वाज	-13256
लैया	-13257
▁बाँस	-13258
▁छलफलको	-13259
▁युक्रे	-13260
▁सेवनले	-13261
▁बताउछन्	-13262
▁अचेल	-13263
▁एमसी	-13264
▁अविरल	-13265
▁अग्रणी	-13266
▁न्युरो	-13267
▁वल्र्ड	-13268
▁समातेर	-13269
▁म्यानचे	-13270
▁टेलिकमले	-13271
▁राजसंस्था	-13272
▁छुट्याइएको	-13273
▁डिन	-13274
मुख्य	-13275
▁मुछि	-13276
▁बनेपा	-13277
हामीलाई	-13278
▁टोकियो	-13279
▁वृद्धा	-13280
▁बजारबाट	-13281
▁प्रतिनिधी	-13282
▁सुनाउँछन्	-13283
दमी	-13284
▁भैरव	-13285
▁परदेश	-13286
▁यत्ति	-13287
▁अवसरको	-13288
▁पुराता	-13289
▁मृतकका	-13290
क्टेरिया	-13291
▁जसअनुसार	-13292
कोही	-13293
टीलाई	-13294
▁बेन्	-13295
वृद्धा	-13296
▁नरहने	-13297
▁चिल्लो	-13298
▁खुट्टामा	-13299
▁पूर्णरूपमा	-13300
▁प्रस्तावलाई	-13301
स्केट	-13302
▁हमालले	-13303
▁वितरणको	-13304
ञ्छ	-13305
▁भृ	-13306
▁धरौ	-13307
▁मनु	-13308
▁डढेलो	-13309
▁मोवाइ	-13310
▁भुकम्प	-13311
▁हुलाकी	-13312
▁बुझिन्छ	-13313
योस्	-13314
लिएका	-13315
▁अलग्	-13316
र्निया	-13317
▁फिलिपि	-13318
▁उपप्रधान	-13319
▁घोषणापत्रमा	-13320
▁परिभाषित	-13321
▁प्रतिवाद	-13322
▁कोरोनाबाट	-13323
▁पिछ	-13324
▁बाझ	-13325
र्वाद	-13326
▁पुत्र	-13327
▁खुद्रा	-13328
▁मिसाएर	-13329
नेल	-13330
▁घडी	-13331
▁तिलक	-13332
▁सोझो	-13333
▁युवाहरू	-13334
▁हत्यामा	-13335
▁देखिएकाले	-13336
▁भेन्टिलेटर	-13337
▁व्यापारीले	-13338
तारि	-13339
▁भान	-13340
▁काका	-13341
▁चेपा	-13342
▁रगतमा	-13343
▁सोधेको	-13344
▁गरिरहनु	-13345
▁नपुग्ने	-13346
▁कर्णालीका	-13347
▁निर्वाचनलाई	-13348
▁प्रत्याभूति	-13349
▁बदला	-13350
▁बेहु	-13351
▁साहस	-13352
▁फर्नि	-13353
▁मूलतः	-13354
▁मड्रिड	-13355
▁गर्नेछौं	-13356
▁पदाधिकारीले	-13357
▁तरंग	-13358
▁खेलेर	-13359
▁वाक्य	-13360
▁साबुन	-13361
▁पन्तको	-13362
▁सुबिधा	-13363
▁चुनावका	-13364
▁अनुपस्थित	-13365
▁सेभ	-13366
▁वनको	-13367
न्तरले	-13368
ततै	-13369
क्टो	-13370
▁विन	-13371
▁स्ने	-13372
▁त्यहा	-13373
▁अयोग्य	-13374
▁रमाउने	-13375
▁सुदृढी	-13376
▁देशहरुमा	-13377
▁वेबसाइटमा	-13378
▁किलोमिटरको	-13379
लाङ	-13380
▁म्याग	-13381
▁मधेसमा	-13382
▁विमोचन	-13383
▁एशियाली	-13384
▁परिषदको	-13385
▁संस्थाहरुले	-13386
▁सट	-13387
▁हड	-13388
जहाज	-13389
▁जीप	-13390
▁फोक	-13391
▁माडी	-13392
▁मिठा	-13393
▁बलात्	-13394
जिकल	-13395
ियाले	-13396
▁ग्रि	-13397
सेनापति	-13398
▁कालखण्ड	-13399
▁रेडक्रस	-13400
▁बङ्गलादेश	-13401
होरेको	-13402
▁उपस्थिती	-13403
श्रा	-13404
ग्लिन	-13405
▁झरना	-13406
▁असुली	-13407
▁आणविक	-13408
▁शर्मालाई	-13409
▁सन्तानको	-13410
▁लोकप्रियता	-13411
पेको	-13412
▁ढल्	-13413
▁रमण	-13414
▁त्यसतर्फ	-13415
▁सहभागीता	-13416
▁सेक्युरि	-13417
▁चेली	-13418
▁बिल्	-13419
▁आइफोन	-13420
▁तोकिए	-13421
▁रसिया	-13422
▁कार्बन	-13423
▁घटनाहरु	-13424
▁क्षमताका	-13425
▁स्थापनाका	-13426
यसले	-13427
▁याे	-13428
तान्त	-13429
वासीको	-13430
▁सुरुआत	-13431
▁यात्रुले	-13432
▁विजेताले	-13433
▁कार्यसमितिको	-13434
उदा	-13435
बहु	-13436
यज्ञ	-13437
सियन	-13438
▁यदी	-13439
▁उत्पीड	-13440
▁प्रतिश	-13441
▁सबैजना	-13442
▁संचालित	-13443
▁कर्मचारीहरुको	-13444
सियम	-13445
▁ढाका	-13446
▁सतहमा	-13447
▁चीनलाई	-13448
▁दाबेदार	-13449
▁बाँच्ने	-13450
▁गुरुङलाई	-13451
देउ	-13452
ुरुस्त	-13453
▁सक्दिन	-13454
▁निष्काश	-13455
जरल्याण्ड	-13456
▁तालाबन्दी	-13457
▁पत्रिकामा	-13458
▁पुनर्संरचना	-13459
सीन	-13460
▁२०६५	-13461
प्रेषण	-13462
▁पोशाक	-13463
▁अघिदेखि	-13464
▁अन्तर्गतका	-13465
र्गे	-13466
▁जाल	-13467
▁गएकी	-13468
▁कमेडी	-13469
▁ग्रिन	-13470
▁तोकेर	-13471
▁जान्छु	-13472
▁ह्वात्तै	-13473
▁विवादास्पद	-13474
ोस	-13475
मानले	-13476
▁भनियो	-13477
▁छुटेका	-13478
▁राईलाई	-13479
▁समुद्री	-13480
▁श्रेष्ठका	-13481
पाथ	-13482
भेन्	-13483
▁आवधिक	-13484
▁कोर्स	-13485
▁सुर्य	-13486
▁कुराकानीको	-13487
▁चट	-13488
▁सोन	-13489
▁भ्रा	-13490
▁मनिष	-13491
▁दौडमा	-13492
▁गीतहरु	-13493
▁पूर्ति	-13494
▁बसिरहेको	-13495
▁सञ्जालको	-13496
▁सन्तुष्टि	-13497
▁महिलाहरुलाई	-13498
▁लगि	-13499
▁गुला	-13500
▁चढ्न	-13501
▁छँदा	-13502
▁दाङका	-13503
▁सोचमा	-13504
▁बहुउद्	-13505
▁माउन्ट	-13506
▁फर्किएर	-13507
▁लाखसम्म	-13508
▁जनसम्पर्क	-13509
▁प्राज्ञिक	-13510
▁व्यवसायलाई	-13511
▁अनुसन्धानले	-13512
▁डाँग	-13513
दिन्छु	-13514
▁अर्गा	-13515
▁ज्योतिष	-13516
▁घटनास्थलमा	-13517
▁बासिन्दाले	-13518
इङ	-13519
धर्म	-13520
पुरुष	-13521
▁सोध्ने	-13522
▁परित्या	-13523
▁पदाधिकारीको	-13524
ुतो	-13525
पाली	-13526
▁नचा	-13527
▁धरात	-13528
▁हिना	-13529
▁तवरले	-13530
▁कोलम्ब	-13531
▁हिजोआज	-13532
▁रहन्छन्	-13533
▁व्यक्तिहरूको	-13534
▁गाड	-13535
▁भिजन	-13536
▁व्यब	-13537
कासहित	-13538
▁तत्पर	-13539
▁मागेर	-13540
▁हटेको	-13541
▁बालबालिकामा	-13542
ड्र	-13543
जामा	-13544
द्दी	-13545
▁शतक	-13546
▁२०२६	-13547
▁महिने	-13548
▁बिष्णु	-13549
▁परेकाले	-13550
▁राजमार्गमा	-13551
लालले	-13552
▁टहरा	-13553
द्वारी	-13554
▁अंकमा	-13555
▁बेलैमा	-13556
▁भिडन्त	-13557
▁लायन्स	-13558
▁शक्तिले	-13559
▁स्वर्गीय	-13560
▁कार्यदिशा	-13561
▁पुनस्र्था	-13562
▁समस्याहरू	-13563
▁गोष्ठी	-13564
▁नजिकका	-13565
▁पर्थ	-13566
▁प्यान	-13567
▁जन्मेको	-13568
▁परित्याग	-13569
▁समुन्द्र	-13570
▁गन्तव्यमा	-13571
▁आडमा	-13572
▁छाड्	-13573
▁पिउन	-13574
▁यार्सा	-13575
▁छुट्याएको	-13576
किट	-13577
तम्	-13578
हुन	-13579
तिमी	-13580
मीका	-13581
▁घोर	-13582
▁फाँ	-13583
▁रोगले	-13584
▁जताततै	-13585
▁देशबीच	-13586
ालगायतका	-13587
▁तालिमको	-13588
▁दिलाउने	-13589
▁वर्षेनी	-13590
थल	-13591
▁।।	-13592
▁इँटा	-13593
▁छिटै	-13594
▁बोसो	-13595
▁रहेनछ	-13596
▁गरीएको	-13597
▁श्रेणी	-13598
▁निमन्त्रणा	-13599
▁रुपैयाँभन्दा	-13600
▁पड्	-13601
▁वाट	-13602
▁बाधक	-13603
▁सार्ब	-13604
▁आश्रित	-13605
▁टेन्डर	-13606
▁बेथिति	-13607
▁कुटनीतिक	-13608
em	-13609
▁दर्	-13610
▁पाँचथर	-13611
▁विषयका	-13612
▁रोकिएका	-13613
▁तथ्यांकले	-13614
▁पुनरावेदन	-13615
▁प्रतिकेजी	-13616
ैया	-13617
▁तात्	-13618
▁भनौं	-13619
हरूबीच	-13620
र्र	-13621
तिले	-13622
▁दशौं	-13623
▁दोहन	-13624
▁ठकुरी	-13625
▁इभेन्ट	-13626
▁माध्या	-13627
▁लेख्दै	-13628
▁पारिएका	-13629
▁व्याप्त	-13630
▁समिक्षा	-13631
परे	-13632
बस्त	-13633
▁मनले	-13634
▁डेनमा	-13635
▁बताउन	-13636
▁अनुचित	-13637
▁कन्सल्ट	-13638
▁तद	-13639
▁बदली	-13640
▁मुनि	-13641
▁काभ्रेप	-13642
▁तिवारीले	-13643
▁अल्पसंख्यक	-13644
ro	-13645
▁हेमन्त	-13646
▁सक्थ्यो	-13647
▁मोर्चाका	-13648
▁रामेश्वर	-13649
त्ते	-13650
हरुबीच	-13651
▁भवानी	-13652
▁खुलेका	-13653
▁चितुवा	-13654
▁ब्राह्	-13655
बेद	-13656
▁नोक	-13657
मारको	-13658
▁आँधी	-13659
णात्मक	-13660
▁कोणबाट	-13661
▁पुर्खा	-13662
▁लोग्ने	-13663
▁सकिदैन	-13664
▁पूर्वतय	-13665
▁देखिन्थे	-13666
▁सकिरहेका	-13667
el	-13668
पाई	-13669
बाङ	-13670
▁दाङमा	-13671
▁बायाँ	-13672
▁अधिकृतले	-13673
▁सुनाउँदै	-13674
▁क्रिकेटको	-13675
▁वडाअध्यक्ष	-13676
▁पछी	-13677
सिफिक	-13678
▁मेडि	-13679
▁जाहेर	-13680
▁मझौला	-13681
▁बन्देज	-13682
▁वर्गीय	-13683
▁हरियाली	-13684
▁सिंहदरबारमा	-13685
▁शुक्रबारदेखि	-13686
▁विद्यार्थीहरुको	-13687
▁आएमा	-13688
▁धौला	-13689
हरूमाथि	-13690
▁मोक्ता	-13691
▁मनाउँदै	-13692
▁स्थानीयलाई	-13693
ङ्दी	-13694
ैंचा	-13695
▁शिर	-13696
▁सीडी	-13697
▁लिइन्छ	-13698
▁सोच्नु	-13699
▁बढ्नुपर्ने	-13700
▁श्रीमतीलाई	-13701
ियु	-13702
▁कमाई	-13703
▁लमजु	-13704
▁आकाशमा	-13705
▁पिसिआर	-13706
▁शाखामा	-13707
▁षड	-13708
मिलो	-13709
▁बहराइ	-13710
▁नाराबाजी	-13711
▁मन्त्रिपरिषद्ले	-13712
धो	-13713
▁अराजक	-13714
▁हाँसो	-13715
▁परिपत्र	-13716
▁प्रवाहमा	-13717
▁सभापतिको	-13718
▁अभिभावकको	-13719
▁चोलेन्द्र	-13720
▁जितेन्द्र	-13721
▁निर्विरोध	-13722
▁भक्तपुरमा	-13723
डाम	-13724
▁डबल	-13725
▁तम्	-13726
▁नरम	-13727
▁नित	-13728
▁मरा	-13729
विशेष	-13730
▁अपनाएर	-13731
▁देखिनु	-13732
▁प्रताप	-13733
▁सम्पति	-13734
बहादुरले	-13735
▁हिंसाको	-13736
▁परिवारसँग	-13737
ष्म	-13738
▁ढाड	-13739
▁आभार	-13740
▁गोल्	-13741
▁पन्थ	-13742
▁अंकले	-13743
▁ग्रीन	-13744
▁लम्बाइ	-13745
▁केसीलाई	-13746
▁डुबानमा	-13747
▁पुर्याएर	-13748
▁एकाउ	-13749
▁मर्न	-13750
▁पछाडी	-13751
▁श्रेण	-13752
▁क्यालि	-13753
▁ज्वाला	-13754
▁पोर्चुग	-13755
▁वर्षमान	-13756
▁अक	-13757
▁थेग	-13758
▁प्य	-13759
▁बहाव	-13760
▁बस्यो	-13761
▁साकार	-13762
▁बास्तो	-13763
▁सुक्खा	-13764
▁अपराधमा	-13765
▁ठाकुरले	-13766
▁प्रशिक्षणमा	-13767
▁अशक्त	-13768
▁संजाल	-13769
िनै	-13770
▁गोलभे	-13771
▁पुजारी	-13772
▁सिलवाल	-13773
▁होटलको	-13774
▁सन्तोषजनक	-13775
▁ढोर	-13776
▁पढे	-13777
दथ्यो	-13778
▁क्लो	-13779
▁पठाए	-13780
▁सोध्न	-13781
▁जनगणना	-13782
▁जंगली	-13783
▁साक्षा	-13784
▁अर्कातिर	-13785
▁बाँडफाँड	-13786
कथा	-13787
▁सिंग	-13788
▁कूटनीति	-13789
▁कोलेस्ट	-13790
▁जन्मेका	-13791
▁पश्चिममा	-13792
▁मेमो	-13793
▁तिव्र	-13794
▁आँखाले	-13795
▁अपराधको	-13796
▁निवेदनमा	-13797
▁अस्तव्यस्त	-13798
▁महाप्रबन्धक	-13799
▁मद	-13800
▁जगे	-13801
▁वास	-13802
▁बाइक	-13803
▁सिटि	-13804
▁तस्कर	-13805
▁सरेको	-13806
▁अज्ञात	-13807
▁देशहरूमा	-13808
ून्	-13809
पसमा	-13810
सङ्ग	-13811
▁नाइट	-13812
▁पढेका	-13813
▁सिध्या	-13814
▁फर्काउने	-13815
▁मातृभाषा	-13816
▁सरोकारवा	-13817
▁एयरलाइन्स	-13818
रीक	-13819
बरको	-13820
ियममा	-13821
▁अठोट	-13822
▁अपुग	-13823
▁ट्यु	-13824
▁खनालको	-13825
▁त्यहीं	-13826
▁नराख्ने	-13827
▁जीविकोपा	-13828
▁काँग्रेसको	-13829
राली	-13830
चोकमा	-13831
▁मिसाइ	-13832
▁राजिनामा	-13833
▁विडम्बना	-13834
▁हुनुपर्यो	-13835
▁अन्तरवार्ता	-13836
बाई	-13837
डिएका	-13838
दृश्य	-13839
▁प्यु	-13840
▁लिला	-13841
▁शुभे	-13842
▁सेवास	-13843
▁कान्छी	-13844
▁कोरियन	-13845
▁जिताउन	-13846
▁झाँक्र	-13847
निरपेक्ष	-13848
▁कलाकारहरु	-13849
र्ते	-13850
स्तान	-13851
▁संभव	-13852
सुन्दर	-13853
▁एल्बम	-13854
▁जोगिन	-13855
▁राउण्ड	-13856
▁अपराह्न	-13857
▁आफैंलाई	-13858
▁सूक्ष्म	-13859
बुवा	-13860
ष्टर	-13861
▁नाला	-13862
▁निति	-13863
▁वस्ती	-13864
▁अनलाईन	-13865
▁संसारभर	-13866
▁वित्तिकै	-13867
▁काठमाडाैं	-13868
▁पूर्वराजा	-13869
▁प्राधिकरणलाई	-13870
▁लक	-13871
▁तिल	-13872
वादले	-13873
▁लिंग	-13874
▁र्याली	-13875
कांग्रेस	-13876
ुरोग	-13877
▁आसपास	-13878
▁कृषिको	-13879
▁बिजनेस	-13880
▁राखियो	-13881
▁अवस्थाले	-13882
▁रोमाञ्चक	-13883
चनले	-13884
ज्यो	-13885
▁पकड	-13886
▁परिव	-13887
सम्मान	-13888
▁क्यामरा	-13889
▁प्रयोगको	-13890
▁रास्वपाले	-13891
कृती	-13892
माधव	-13893
▁वर्षमै	-13894
▁गोदावरी	-13895
▁मान्छन्	-13896
▁मग	-13897
बर्ष	-13898
▁पुटिन	-13899
▁बन्नेछ	-13900
▁शाखाको	-13901
▁समयसीमा	-13902
▁अर्कालाई	-13903
▁काफ्लेले	-13904
▁निकालेका	-13905
▁योजनालाई	-13906
▁धुन	-13907
▁फुड	-13908
फोनमा	-13909
▁ड्यु	-13910
▁नर्व	-13911
▁टोलमा	-13912
▁ढिलाई	-13913
▁नोबेल	-13914
▁मुल्या	-13915
▁सुनसान	-13916
सक्नुपर्ने	-13917
खिक	-13918
▁अतः	-13919
थोकीले	-13920
▁मिल्न	-13921
▁विषयक	-13922
▁बोलाउन	-13923
▁हावाहु	-13924
▁रक्षाका	-13925
▁देशभित्र	-13926
▁सिलिन्डर	-13927
ञ्चार्ज	-13928
सकेकाले	-13929
▁जोशीको	-13930
▁साथीको	-13931
▁विच्छेद	-13932
ेय	-13933
▁घिउ	-13934
▁बिउ	-13935
▁सुव	-13936
चिन्त	-13937
▁विपद	-13938
▁आजबाट	-13939
▁पार्ट	-13940
▁पुलिसले	-13941
▁संघर्षको	-13942
▁अर्थपूर्ण	-13943
▁चट्ट	-13944
▁खुकुरी	-13945
▁टेण्डर	-13946
▁मालिका	-13947
▁रातारा	-13948
▁स्टेसन	-13949
▁परिवेशमा	-13950
▁पालिकाको	-13951
▁मुख्यसचिव	-13952
▁विश्वासमा	-13953
▁अष्ट्रेलियामा	-13954
वंश	-13955
्छौं	-13956
गत्तै	-13957
▁उत्ख	-13958
▁फेरब	-13959
▁महिन	-13960
▁पैसाले	-13961
▁प्रार्थना	-13962
भरमा	-13963
निष्ठ	-13964
रहन्छन्	-13965
▁समेट्ने	-13966
▁कञ्चनपुरको	-13967
▁पाठ्यपुस्तक	-13968
▁खाए	-13969
▁भजन	-13970
▁लहान	-13971
▁डंगोल	-13972
▁त्यता	-13973
▁बढावा	-13974
▁ढुंगाना	-13975
▁घट्न	-13976
▁दशैंमा	-13977
▁ब्रोकर	-13978
▁पुरुषोत्तम	-13979
जियो	-13980
▁छटप	-13981
▁भ्यू	-13982
सुब्बा	-13983
संस्कार	-13984
▁धरौटीमा	-13985
▁दिनहरुमा	-13986
▁यहाँसम्म	-13987
▁खोजिरहेको	-13988
▁कर्मचारीहरुले	-13989
शाही	-13990
▁टाढ	-13991
▁एन्ज	-13992
स्तरका	-13993
▁आउनेछ	-13994
▁मास्टर	-13995
▁स्वाधीन	-13996
▁बनाइरहेको	-13997
लिएर	-13998
▁केर	-13999
▁फस्	-14000
▁ओपनर	-14001
▁टापु	-14002
▁विनय	-14003
▁मानन्धर	-14004
▁अल्पम	-14005
▁पानीका	-14006
▁हुनेले	-14007
▁तोकिएका	-14008
▁द्वितीय	-14009
▁प्याराग्	-14010
▁बैंकिङ्ग	-14011
▁मोटरसाइकलमा	-14012
तुल	-14013
▁भोल	-14014
▁एकले	-14015
▁सुल्	-14016
पिच्छे	-14017
▁नेसनल	-14018
▁लिङ्ग	-14019
▁सहमती	-14020
▁एमाओवादी	-14021
▁शान्तिको	-14022
▁स्वदेशमै	-14023
▁अर्घाखाँची	-14024
▁वृद्धवृद्धा	-14025
▁विद्यार्थीका	-14026
▁प्रतिनिधिमण्ड	-14027
▁पेय	-14028
डिखेल	-14029
सिएका	-14030
▁आईएमई	-14031
▁सर्भे	-14032
▁केन्द्रीत	-14033
▁प्रदर्शनको	-14034
▁प्रस्तावको	-14035
▁प्रधानसेनापति	-14036
▁ललि	-14037
▁बेचि	-14038
▁साहसिक	-14039
▁रिपोर्टमा	-14040
▁काठमाडौंले	-14041
भिङ	-14042
▁बडो	-14043
पालीका	-14044
▁भन्नाले	-14045
▁क्षेत्रभित्र	-14046
खुसी	-14047
बिधि	-14048
▁ऋतु	-14049
▁आँकलन	-14050
▁जमिनको	-14051
▁सेन्सर	-14052
▁परिसूचक	-14053
▁बिहानैदेखि	-14054
कल्या	-14055
▁गाइड	-14056
▁२००६	-14057
▁भेलाले	-14058
▁सिर्जन	-14059
▁सीमान्त	-14060
▁परमेश्वरको	-14061
▁प्रतिद्वन्द्वी	-14062
▁जमीन	-14063
▁पुडा	-14064
विद्या	-14065
▁ब्वाइ	-14066
▁हालका	-14067
लाञ्चोक	-14068
▁गएराति	-14069
▁बलिउडमा	-14070
▁परिमाणमा	-14071
र्जि	-14072
▁नछो	-14073
▁११०	-14074
नेपछि	-14075
वेदना	-14076
▁अपार	-14077
ालक्ष्मी	-14078
▁कार्यपत्र	-14079
▁श्रद्धाञ्जली	-14080
▁गदै	-14081
ङ्ग्रा	-14082
▁मोरङका	-14083
▁लेख्नु	-14084
▁पशुपालन	-14085
▁रातारात	-14086
▁युट्युबमा	-14087
▁क्षतिग्रस्त	-14088
▁उठ्छ	-14089
▁जागर	-14090
▁महाभि	-14091
▁अनेकौं	-14092
▁सर्वदलीय	-14093
बना	-14094
▁सकस	-14095
िकाले	-14096
▁थाहै	-14097
▁बच्च	-14098
▁सानु	-14099
▁हेरे	-14100
▁लाग्दो	-14101
▁बोहराले	-14102
▁पुर्याएका	-14103
डोल	-14104
फोर	-14105
मिस	-14106
▁मठ	-14107
एक्स	-14108
▁अमित	-14109
▁खप्त	-14110
▁डाइरे	-14111
▁रातमा	-14112
▁रामकुमार	-14113
▁कम्पनीहरु	-14114
दुत	-14115
हले	-14116
कर्षमा	-14117
▁न्यूज	-14118
▁खाल्डो	-14119
▁ढकालको	-14120
▁परिर्व	-14121
▁गणेशमान	-14122
▁कामदारलाई	-14123
▁संक्रमणका	-14124
▁तोकि	-14125
▁परमाण	-14126
▁ब्याट्	-14127
▁मान्नु	-14128
▁सभालाई	-14129
▁कार्यका	-14130
▁नपाउँदै	-14131
▁फेवाताल	-14132
▁भूमिहीन	-14133
▁समाजसेवा	-14134
▁सुन्दरता	-14135
▁उप्रेतीले	-14136
▁नेतृत्वका	-14137
▁लखन	-14138
▁हवाइ	-14139
▁गरिएन	-14140
▁भर्ती	-14141
▁सर्जक	-14142
▁अङ्ग्रे	-14143
▁अर्गानिक	-14144
▁कर्णालीको	-14145
▁लाभग्राही	-14146
▁आयआ	-14147
आर्थिक	-14148
▁गाउँग	-14149
▁मर्जर	-14150
▁गिट्टी	-14151
▁बनाइयो	-14152
▁मनपर्ने	-14153
▁उठान	-14154
▁संसो	-14155
▁डिभाइ	-14156
▁बताएपछि	-14157
▁गर्दैछौं	-14158
▁युनिभर्सिटी	-14159
३५	-14160
र्के	-14161
स्रा	-14162
हिजो	-14163
▁खोकी	-14164
▁मेरु	-14165
तर्फका	-14166
▁छनोटको	-14167
▁फेर्ने	-14168
▁स्वकीय	-14169
▁ब्यान्ड	-14170
▁विकासले	-14171
▁नेपालीहरुलाई	-14172
▁आयर	-14173
वेक्षण	-14174
▁बाराको	-14175
▁बेल्जियम	-14176
▁अँग	-14177
▁रोटी	-14178
▁इज्जत	-14179
▁रुपैं	-14180
▁मौज्दा	-14181
▁बाँकेको	-14182
▁प्रतिदिन	-14183
▁षडयन्त्र	-14184
▁अक्सिजनको	-14185
एछ	-14186
▁आशय	-14187
▁दिसा	-14188
▁नजरमा	-14189
▁बढ्नेछ	-14190
▁सम्वाद	-14191
▁कतिसम्म	-14192
गर्	-14193
छाड	-14194
थिका	-14195
▁विस्	-14196
▁दाउरा	-14197
▁धनगढीमा	-14198
▁बाँकेका	-14199
▁कास्कीको	-14200
▁रिपब्लिक	-14201
▁हजारदेखि	-14202
िनँ	-14203
ज्या	-14204
त्ने	-14205
▁अहं	-14206
रूद्ध	-14207
▁चट्या	-14208
▁आजभोलि	-14209
▁प्रशासक	-14210
▁भइरहँदा	-14211
▁उत्पादकत्व	-14212
▁प्रभावकारिता	-14213
▁व्यक्तिहरुले	-14214
शिर	-14215
▁गाईको	-14216
▁अपनाउने	-14217
▁इन्डियन	-14218
▁अनुगमनका	-14219
▁उनीहरुमा	-14220
डब्	-14221
कलको	-14222
थ्यौं	-14223
नेश्व	-14224
▁रुसले	-14225
▁विषेश	-14226
▁निमोनिया	-14227
▁प्रणालीले	-14228
ुमा	-14229
टरले	-14230
▁तृत	-14231
▁लायक	-14232
▁हेरौं	-14233
▁होल्ड	-14234
▁ओखलढुंगा	-14235
▁प्रतियोगी	-14236
▁कन्स्ट्रक्सन	-14237
सम्ब	-14238
▁करु	-14239
गात्मक	-14240
क्ष्यमा	-14241
▁लम्साल	-14242
▁अनुमानित	-14243
▁रुपन्देहीका	-14244
बढ	-14245
रुम	-14246
▁सम्झा	-14247
▁गइरहेका	-14248
▁भीमदत्त	-14249
▁मूल्यको	-14250
▁इंग्ल्यान्ड	-14251
्वल	-14252
▁अयो	-14253
▁धर्	-14254
▁हाँस	-14255
▁अर्की	-14256
▁उत्ते	-14257
▁पूजाआ	-14258
दूत	-14259
्रल	-14260
▁उजु	-14261
▁डेड	-14262
▁वाह	-14263
लोचना	-14264
▁भक्ति	-14265
▁आराधना	-14266
▁कामकार	-14267
▁छालामा	-14268
▁अपांगता	-14269
▁स्क्रिन	-14270
्द	-14271
▁टक	-14272
सिएर	-14273
▁जम्म	-14274
▁ज्यादा	-14275
▁पटक्कै	-14276
▁प्रोटो	-14277
▁भ्वाइस	-14278
▁अघिसम्म	-14279
▁उत्पत्ति	-14280
▁अपन	-14281
▁उसो	-14282
▁बूढ	-14283
▁साक्षरता	-14284
सरह	-14285
विगत	-14286
▁बाहुन	-14287
▁लगेका	-14288
▁श्रावण	-14289
▁पृथ्वीको	-14290
▁राजदूतावास	-14291
▁बहुउद्देश्यीय	-14292
▁अनुसन्धानकर्ता	-14293
प्पल	-14294
▁आइएमई	-14295
▁मौखिक	-14296
▁सामसु	-14297
▁दुईपटक	-14298
▁उहाँहरू	-14299
म्व	-14300
लीलाई	-14301
▁रिया	-14302
▁खानको	-14303
▁चर्का	-14304
▁झन्झट	-14305
▁हलिउड	-14306
▁हेक्का	-14307
▁पुर्याउनु	-14308
▁सर्वोच्चमा	-14309
पृ	-14310
लील	-14311
हाको	-14312
▁एजुक	-14313
▁बापत	-14314
स्कोटा	-14315
▁अग्रिम	-14316
▁त्रसित	-14317
▁भनाइमा	-14318
▁इन्दिरा	-14319
▁कवितामा	-14320
▁बजारलाई	-14321
▁विचारको	-14322
▁संगठनमा	-14323
▁अधिवेशनको	-14324
बीमा	-14325
▁नार	-14326
▁राशी	-14327
▁२०६६	-14328
▁प्याज	-14329
▁रूपमै	-14330
▁सभासद	-14331
▁कमेन्ट	-14332
▁हटाइएको	-14333
▁भागबण्डा	-14334
▁त्यसभन्दा	-14335
राउ	-14336
▁टुङ्ग	-14337
▁पुडासै	-14338
▁सपोर्ट	-14339
▁गोल्डेन	-14340
▁अनियन्त्र	-14341
▁सम्प्रेषण	-14342
▁सफलतापूर्वक	-14343
दाँ	-14344
▁सिके	-14345
▁अन्दा	-14346
▁डिप्र	-14347
▁मूख्य	-14348
▁हराउन	-14349
▁ट्रेलर	-14350
▁मधेशमा	-14351
▁सक्दिनँ	-14352
▁अधिकारलाई	-14353
▁भण्डारीलाई	-14354
▁प्रतिष्पर्धा	-14355
▁कभर	-14356
टाएका	-14357
▁भागेर	-14358
▁पुर्वा	-14359
▁तथ्याङ्	-14360
▁नैतिकता	-14361
▁पक्षसँग	-14362
▁फेरिएको	-14363
▁सहकार्यको	-14364
▁सार्बजनिक	-14365
▁कोरोनाभाइरस	-14366
ानका	-14367
▁किमि	-14368
▁तान्ने	-14369
▁पुरुषमा	-14370
▁भूभागमा	-14371
▁प्रकाशमान	-14372
िनु	-14373
वापत	-14374
सिसी	-14375
▁एअर	-14376
▁एको	-14377
▁खोल	-14378
▁बसा	-14379
▁भरी	-14380
ियामा	-14381
▁सुलभ	-14382
▁धुवाँ	-14383
▁प्रचल	-14384
▁असहयोग	-14385
▁पहाडमा	-14386
▁बोल्नु	-14387
▁माछापु	-14388
▁साथीले	-14389
▁राजभण्ड	-14390
▁कन्ट्रोल	-14391
▁संरक्षित	-14392
▁थाइल्यान्ड	-14393
ग्रेस	-14394
▁आकृति	-14395
▁बेहोस	-14396
▁जानेको	-14397
▁दस्तुर	-14398
▁परिसंघ	-14399
▁त्रिपाठ	-14400
▁नेपालीका	-14401
८२	-14402
▁नीजि	-14403
▁भातृ	-14404
▁मृगौला	-14405
▁ब्राह्मण	-14406
▁विश्वभरका	-14407
संगको	-14408
▁नम्र	-14409
▁समित	-14410
समुदाय	-14411
▁पराजय	-14412
▁वेष्ट	-14413
▁पश्चात्	-14414
▁मांसपेश	-14415
▁घण्टासम्म	-14416
▁बितिसक्दा	-14417
ाउण्ड	-14418
▁करिअर	-14419
▁गैँडा	-14420
क्षेपको	-14421
▁आकारको	-14422
▁नहुँदै	-14423
▁गोलकिपर	-14424
▁राखेपछि	-14425
▁महाराजगञ्ज	-14426
क्चर	-14427
▁सवा	-14428
▁लोका	-14429
▁बेस्ट	-14430
▁उदघाटन	-14431
▁वाग्ले	-14432
▁स्थानका	-14433
▁अनुदानको	-14434
▁चलिरहेका	-14435
▁गर्दागर्दै	-14436
▁अनियन्त्रित	-14437
िकर	-14438
्चा	-14439
▁उषा	-14440
शुराम	-14441
▁उल्लङ्	-14442
▁पेशामा	-14443
▁प्रसूति	-14444
▁प्रभावमा	-14445
▁रोकथामका	-14446
मतीले	-14447
हीवार	-14448
▁मुसा	-14449
▁क्यारे	-14450
▁तबसम्म	-14451
▁सबैसँग	-14452
▁तिलोत्तमा	-14453
कानू	-14454
आमाको	-14455
▁देखिंदैन	-14456
▁थपेर	-14457
▁ह्रास	-14458
▁आफन्तको	-14459
▁मिडफिल्	-14460
▁मुटुरोग	-14461
▁धम	-14462
▁लडेर	-14463
▁पाँचथ	-14464
▁स्टाइ	-14465
▁मेट्रो	-14466
▁चलाउँदै	-14467
▁कालोबजारी	-14468
▁बुढाथोकीले	-14469
सुदेव	-14470
▁प्वा	-14471
▁१९९०	-14472
▁शमशेर	-14473
▁धरानमा	-14474
▁मेरुदण्ड	-14475
▁लक्ष्यका	-14476
▁इन्टरनेटको	-14477
ँया	-14478
गर्दा	-14479
ैपर्छ	-14480
▁होल्	-14481
▁छोरीले	-14482
▁डीआईजी	-14483
▁महाभियोग	-14484
कार्यकर्ता	-14485
▁कर्मचारीहरुलाई	-14486
▁काभ्रेपलाञ्चोक	-14487
▁हव	-14488
ब्जी	-14489
वर्क	-14490
▁जगमा	-14491
▁तोक्	-14492
▁नलिई	-14493
र्थीको	-14494
▁छैनौँ	-14495
▁खरिदका	-14496
▁चलाउनु	-14497
▁तिरेको	-14498
▁निन्दा	-14499
▁गर्नेछु	-14500
▁अनुपातमा	-14501
▁बस्नेतको	-14502
ियौं	-14503
▁संकु	-14504
▁सच्च	-14505
▁कालमा	-14506
▁तस्विर	-14507
▁महायज्ञ	-14508
▁राजवंशी	-14509
▁सम्हालेका	-14510
▁इन्स्टिच्युट	-14511
▁वढ	-14512
नेजु	-14513
▁हट्	-14514
▁सकिनँ	-14515
▁खुसीको	-14516
▁पर्वमा	-14517
▁प्रदुषण	-14518
▁पर्वतारो	-14519
▁सुविधाको	-14520
मह	-14521
बीएस	-14522
सायी	-14523
▁छापि	-14524
▁इटाली	-14525
▁मार्ट	-14526
▁फाल्ने	-14527
▁आपतकालीन	-14528
▁फाइदाजनक	-14529
▁गैरजिम्मे	-14530
▁त्रैमासिक	-14531
▁विष्णुप्रसाद	-14532
▁बाजुरा	-14533
▁मान्दै	-14534
▁रामपुर	-14535
▁शृंखला	-14536
▁अन्वेषण	-14537
▁उपेक्षा	-14538
▁एकतर्फी	-14539
▁चेतनाको	-14540
▁संगीतमा	-14541
▁डाक्टरको	-14542
▁डेनमार्क	-14543
▁नगरपालिकालाई	-14544
▁m	-14545
फको	-14546
स्कर	-14547
▁पौने	-14548
▁लिपि	-14549
▁वताए	-14550
▁सनातन	-14551
केन्द्रित	-14552
▁मध्यपूर्व	-14553
▁शताब्दीको	-14554
मलामा	-14555
▁भ्रातृ	-14556
▁अराजकता	-14557
▁हैसियतले	-14558
▁कर्मचारीतन्त्र	-14559
▁पिच	-14560
▁छ्या	-14561
वहादुर	-14562
▁बदल्न	-14563
▁पञ्चायती	-14564
▁हजारसम्म	-14565
▁अन्तर्वार्तामा	-14566
ंशा	-14567
कर्ण	-14568
ठनिक	-14569
▁पुछ	-14570
▁जर्न	-14571
▁तृतीय	-14572
▁नाघेको	-14573
▁मजदुरी	-14574
▁च्यालेन्ज	-14575
▁बालिकालाई	-14576
▁भेटिन्छन्	-14577
▁महत्वाकां	-14578
▁संक्रमणकालीन	-14579
▁मुख्यमन्त्रीको	-14580
घण्	-14581
ेजले	-14582
▁चना	-14583
▁अर्ग	-14584
पक्षका	-14585
▁भिजिट	-14586
▁मुकेश	-14587
▁निकाले	-14588
▁सुशासनको	-14589
▁सीमावर्ती	-14590
ूष	-14591
७४	-14592
ग्व	-14593
टेल	-14594
थलो	-14595
▁छाक	-14596
पहाडी	-14597
िएपछि	-14598
ुङ्गा	-14599
▁स्वत	-14600
▁खेलमै	-14601
▁युनिय	-14602
बैंक	-14603
▁मनी	-14604
▁दत्त	-14605
▁हटाएको	-14606
▁गाउँबाट	-14607
▁भेटिन्छ	-14608
▁समयावधि	-14609
▁कारवाहीको	-14610
मस	-14611
▁डिस	-14612
वादका	-14613
गायतका	-14614
▁पढ्नु	-14615
▁रेखदेख	-14616
▁स्वदेशमा	-14617
समय	-14618
ढोका	-14619
▁कमजो	-14620
▁विषम	-14621
▁परमाणु	-14622
▁वास्तव	-14623
▁स्वाभिमान	-14624
फुट	-14625
लेस	-14626
▁नचि	-14627
▁पाईन्छ	-14628
▁आन्दोलनरत	-14629
ec	-14630
डिज	-14631
प्ति	-14632
▁झर्ने	-14633
▁तैनाथ	-14634
▁विमला	-14635
▁सहरको	-14636
▁स्टेड	-14637
▁उत्खनन्	-14638
▁विषयहरु	-14639
▁आन्दोलित	-14640
▁पुरुषलाई	-14641
प्रश	-14642
भत्ता	-14643
▁बन्दो	-14644
ष्टाचारी	-14645
▁युवाहरुले	-14646
▁कार्यकालको	-14647
▁लगाउनुपर्ने	-14648
एकाे	-14649
मालो	-14650
▁भाट	-14651
कारिणी	-14652
परीक्षण	-14653
▁खर्चेर	-14654
▁गुजारा	-14655
▁सोसाइटी	-14656
▁मोर्चाको	-14657
▁सर्वहारा	-14658
▁मान्छेहरू	-14659
▁सुर्खेतमा	-14660
▁मन्त्रीलाई	-14661
शिला	-14662
▁युके	-14663
भिट्टा	-14664
▁अरूले	-14665
▁तालीम	-14666
▁विहार	-14667
▁स्थगन	-14668
तिमात्र	-14669
▁आत्मसात	-14670
▁न्यायका	-14671
▁सप्तरीको	-14672
ंव	-14673
▁बगै	-14674
वादलाई	-14675
▁फोनको	-14676
▁सोचेर	-14677
▁जित्दै	-14678
▁संसारकै	-14679
▁भनेजस्तो	-14680
▁बिर्तामोड	-14681
▁बुद्धिजीवी	-14682
▁क्वारेन्टिन	-14683
विरू	-14684
▁बग्	-14685
प्राइ	-14686
▁स्मृ	-14687
▁वयस्क	-14688
▁ग्याँस	-14689
▁सिकेको	-14690
▁क्लबलाई	-14691
▁वर्षाले	-14692
▁इश	-14693
ञ्चाल	-14694
▁नाम्	-14695
▁भाषिक	-14696
▁सम्रा	-14697
रोधात्मक	-14698
▁साझेदारीमा	-14699
▁धर्मनिरपेक्ष	-14700
▁तथ्यांकअनुसार	-14701
▁¥	-14702
ौडा	-14703
▁ठि	-14704
रणमा	-14705
लासी	-14706
▁पुष	-14707
▁हाड	-14708
▁डाइभ	-14709
▁सोचि	-14710
▁ब्रिटिश	-14711
▁विभागलाई	-14712
▁सानैदेखि	-14713
▁पाकिस्तानले	-14714
▁क्रियाकलापमा	-14715
▁ब्याट्सम्यान	-14716
सनका	-14717
लाग्दा	-14718
▁अंकित	-14719
▁अवतार	-14720
▁घुँडा	-14721
▁सुदुर	-14722
▁शिशुको	-14723
▁नितान्त	-14724
एन्	-14725
ानीको	-14726
▁चौडा	-14727
▁बाँचि	-14728
▁मतभेद	-14729
▁कुनामा	-14730
▁समेट्न	-14731
▁अपनाउनु	-14732
▁साविकको	-14733
▁सुनेपछि	-14734
▁रिमा	-14735
▁लाने	-14736
▁बितेको	-14737
▁सकेनौं	-14738
▁सेवाबाट	-14739
▁खरा	-14740
▁मोट	-14741
▁हर्	-14742
▁एघार	-14743
राखेका	-14744
▁स्याट	-14745
▁बुढाले	-14746
▁देखिदैन	-14747
▁लक्ष्यमा	-14748
▁शास्त्रीय	-14749
लाख	-14750
▁तलव	-14751
▁दाई	-14752
▁दातृ	-14753
▁थपेको	-14754
▁मारेर	-14755
▁कामबाट	-14756
▁योद्धा	-14757
▁साधनमा	-14758
▁सुरुमै	-14759
▁पाँचवटा	-14760
▁लाग्नेछ	-14761
२७	-14762
▁आश्	-14763
▁किच	-14764
कार्ड	-14765
▁मतको	-14766
▁रुकु	-14767
▁सातदो	-14768
▁खोलिएको	-14769
▁धनबहादुर	-14770
▁सुरुदेखि	-14771
▁करोडभन्दा	-14772
▁पुँजीवादी	-14773
▁मतदातालाई	-14774
▁महालक्ष्मी	-14775
▁पूर्णबहादुर	-14776
क्षु	-14777
न्ते	-14778
▁फायर	-14779
▁वाटर	-14780
म्रपान	-14781
▁पाल्न	-14782
▁रकममा	-14783
▁बुझाउनु	-14784
▁सुदर्शन	-14785
▁ब्यबस्था	-14786
२८	-14787
जाले	-14788
▁नलग	-14789
परिषद	-14790
▁विकले	-14791
▁गुज्रि	-14792
▁न्यूयोर्क	-14793
▁बेरोजगारी	-14794
▁ब्याक्टेरिया	-14795
बर्ग	-14796
▁स्पा	-14797
दाताले	-14798
▁कोर्ट	-14799
▁भ्यान	-14800
▁वाध्य	-14801
▁खेतीमा	-14802
▁सांसद्	-14803
▁असमानता	-14804
▁लालबाबु	-14805
▁लिन्छन्	-14806
▁नट	-14807
खरमा	-14808
▁उडा	-14809
सुधार	-14810
▁एकमु	-14811
हरुमाथि	-14812
▁भृकुटी	-14813
▁परिपाटी	-14814
दक्ष	-14815
दाको	-14816
ुद्ध	-14817
▁चपे	-14818
▁माद	-14819
दित्य	-14820
▁पौडी	-14821
▁एरिया	-14822
▁बोक्न	-14823
▁पन्ध्र	-14824
▁इजरायली	-14825
▁पर्साका	-14826
▁गजेन्द्र	-14827
▁एन्ड्रोइड	-14828
टाका	-14829
म्पो	-14830
▁पाट	-14831
▁खिच्न	-14832
▁एकलौटी	-14833
▁ट्यांक	-14834
▁तर्फको	-14835
▁अफ्रिकी	-14836
▁डेलिभरी	-14837
▁तनहुँको	-14838
▁युवतीको	-14839
▁भिडियोलाई	-14840
रोगी	-14841
▁बिनि	-14842
▁मलाइ	-14843
▁नाट्य	-14844
▁पुण्य	-14845
▁मल्टि	-14846
▁सडकका	-14847
▁रोकियो	-14848
▁शासनको	-14849
▁एन्फाले	-14850
▁कुखुराको	-14851
▁अनुप्रयोग	-14852
▁दिउ	-14853
▁इस्ट	-14854
▁सोको	-14855
▁काखमा	-14856
▁राष्ट	-14857
▁संग्र	-14858
▁हराएर	-14859
▁भोगेका	-14860
▁दिन्छौं	-14861
▁खेलकुदको	-14862
▁जनाभन्दा	-14863
▁जनप्रतिनि	-14864
▁कफ	-14865
▁थापाका	-14866
▁प्रेसर	-14867
▁उतारचढा	-14868
▁कार्यले	-14869
▁पहिरोमा	-14870
▁हेर्नुस्	-14871
साँ	-14872
पारि	-14873
▁पीपी	-14874
▁बूढी	-14875
वासीलाई	-14876
▁थालिन्	-14877
क्षेत्रमा	-14878
▁शक्तिलाई	-14879
▁मोति	-14880
▁मोती	-14881
▁रेल्	-14882
▁अनिता	-14883
दिन्छन्	-14884
▁चुपचाप	-14885
▁ठाँउमा	-14886
▁लघुवित्	-14887
▁विहीबार	-14888
▁संजालमा	-14889
▁प्रभावले	-14890
▁नेम्वाङले	-14891
▁कहिलेकाहीं	-14892
सवर्ड	-14893
▁पौरा	-14894
▁शुन्य	-14895
▁सोलार	-14896
▁बिक्रे	-14897
▁रामशरण	-14898
▁प्रजापति	-14899
▁नवनियुक्त	-14900
रास्वपा	-14901
▁बिक्रि	-14902
▁पटकसम्म	-14903
▁कथावस्तु	-14904
▁निकायसँग	-14905
अन्तर्गतको	-14906
▁उत्साहजनक	-14907
▁निगरानीमा	-14908
▁मकवानपुरको	-14909
▁संविधानलाई	-14910
करि	-14911
कालका	-14912
राजको	-14913
▁हातबाट	-14914
▁विद्वान	-14915
▁सम्वोधन	-14916
▁संस्थाहरुको	-14917
▁स्वास्थ्यलाई	-14918
कबाट	-14919
▁ननि	-14920
आमाले	-14921
▁थेरा	-14922
▁सुकै	-14923
▁फूलको	-14924
▁आफैलाई	-14925
▁प्रतिको	-14926
▁मिलाएको	-14927
▁शक्तिका	-14928
▁चुनौतीको	-14929
▁परिचालित	-14930
▁गर्नैपर्छ	-14931
२६	-14932
पिन	-14933
▁आव्	-14934
▁पौष	-14935
▁देखाउ	-14936
▁पुष्पा	-14937
▁सम्झेर	-14938
▁केटाकेटी	-14939
▁वृद्धिको	-14940
▁कारबाहीमा	-14941
▁समानान्तर	-14942
क्यान	-14943
ेशनको	-14944
▁अवधिभर	-14945
▁बालकको	-14946
▁बीबीसी	-14947
▁निस्किएको	-14948
▁विश्वयुद्ध	-14949
▁जाँग	-14950
▁आवश्य	-14951
▁रिटमा	-14952
▁समयलाई	-14953
▁आउनुपर्ने	-14954
▁रक्स	-14955
▁उद्घोष	-14956
▁ग्याले	-14957
▁चिनिन्छ	-14958
▁परिक्षा	-14959
▁सरकारकै	-14960
▁उत्पीडित	-14961
▁री	-14962
मन्द	-14963
▁चाख	-14964
वास्त	-14965
▁धातु	-14966
▁बलराम	-14967
साहित्य	-14968
▁सत्रमा	-14969
▁असन्तुल	-14970
▁वक्तव्यमा	-14971
▁परिस्थितिको	-14972
tt	-14973
जीव	-14974
सिं	-14975
▁ताज	-14976
▁शंख	-14977
▁अबेर	-14978
▁कपिल	-14979
▁लीला	-14980
▁ट्वीट	-14981
▁जनादेश	-14982
▁जित्यो	-14983
▁शाहलाई	-14984
▁सभामुखको	-14985
▁प्रतिलिपि	-14986
▁सदस्यहरुमा	-14987
ष्ठमा	-14988
▁खालि	-14989
▁किराँ	-14990
▁जनाउन	-14991
▁डम्बर	-14992
▁बेइजिङ	-14993
▁समेटिएका	-14994
▁राख्नुभयो	-14995
▁राख्नुभएको	-14996
▁जनप्रतिनिधिको	-14997
्ठा	-14998
▁कोच	-14999
ेशनमा	-15000
▁दिलिप	-15001
▁खुलाउन	-15002
▁रहेकाे	-15003
▁सन्चालन	-15004
▁ठेकेदारले	-15005
[...]
