<pad>	0
<unk>	0
<s>	0
</s>	0
<0x00>	0
<0x01>	0
<0x02>	0
<0x03>	0
<0x04>	0
<0x05>	0
<0x06>	0
<0x07>	0
<0x08>	0
<0x09>	0
<0x0A>	0
<0x0B>	0
<0x0C>	0
<0x0D>	0
<0x0E>	0
<0x0F>	0
<0x10>	0
<0x11>	0
<0x12>	0
<0x13>	0
<0x14>	0
<0x15>	0
<0x16>	0
<0x17>	0
<0x18>	0
<0x19>	0
<0x1A>	0
<0x1B>	0
<0x1C>	0
<0x1D>	0
<0x1E>	0
<0x1F>	0
<0x20>	0
<0x21>	0
<0x22>	0
<0x23>	0
<0x24>	0
<0x25>	0
<0x26>	0
<0x27>	0
<0x28>	0
<0x29>	0
<0x2A>	0
<0x2B>	0
<0x2C>	0
<0x2D>	0
<0x2E>	0
<0x2F>	0
<0x30>	0
<0x31>	0
<0x32>	0
<0x33>	0
<0x34>	0
<0x35>	0
<0x36>	0
<0x37>	0
<0x38>	0
<0x39>	0
<0x3A>	0
<0x3B>	0
<0x3C>	0
<0x3D>	0
<0x3E>	0
<0x3F>	0
<0x40>	0
<0x41>	0
<0x42>	0
<0x43>	0
<0x44>	0
<0x45>	0
<0x46>	0
<0x47>	0
<0x48>	0
<0x49>	0
<0x4A>	0
<0x4B>	0
<0x4C>	0
<0x4D>	0
<0x4E>	0
<0x4F>	0
<0x50>	0
<0x51>	0
<0x52>	0
<0x53>	0
<0x54>	0
<0x55>	0
<0x56>	0
<0x57>	0
<0x58>	0
<0x59>	0
<0x5A>	0
<0x5B>	0
<0x5C>	0
<0x5D>	0
<0x5E>	0
<0x5F>	0
<0x60>	0
<0x61>	0
<0x62>	0
<0x63>	0
<0x64>	0
<0x65>	0
<0x66>	0
<0x67>	0
<0x68>	0
<0x69>	0
<0x6A>	0
<0x6B>	0
<0x6C>	0
<0x6D>	0
<0x6E>	0
<0x6F>	0
<0x70>	0
<0x71>	0
<0x72>	0
<0x73>	0
<0x74>	0
<0x75>	0
<0x76>	0
<0x77>	0
<0x78>	0
<0x79>	0
<0x7A>	0
<0x7B>	0
<0x7C>	0
<0x7D>	0
<0x7E>	0
<0x7F>	0
<0x80>	0
<0x81>	0
<0x82>	0
<0x83>	0
<0x84>	0
<0x85>	0
<0x86>	0
<0x87>	0
<0x88>	0
<0x89>	0
<0x8A>	0
<0x8B>	0
<0x8C>	0
<0x8D>	0
<0x8E>	0
<0x8F>	0
<0x90>	0
<0x91>	0
<0x92>	0
<0x93>	0
<0x94>	0
<0x95>	0
<0x96>	0
<0x97>	0
<0x98>	0
<0x99>	0
<0x9A>	0
<0x9B>	0
<0x9C>	0
<0x9D>	0
<0x9E>	0
<0x9F>	0
<0xA0>	0
<0xA1>	0
<0xA2>	0
<0xA3>	0
<0xA4>	0
<0xA5>	0
<0xA6>	0
<0xA7>	0
<0xA8>	0
<0xA9>	0
<0xAA>	0
<0xAB>	0
<0xAC>	0
<0xAD>	0
<0xAE>	0
<0xAF>	0
<0xB0>	0
<0xB1>	0
<0xB2>	0
<0xB3>	0
<0xB4>	0
<0xB5>	0
<0xB6>	0
<0xB7>	0
<0xB8>	0
<0xB9>	0
<0xBA>	0
<0xBB>	0
<0xBC>	0
<0xBD>	0
<0xBE>	0
<0xBF>	0
<0xC0>	0
<0xC1>	0
<0xC2>	0
<0xC3>	0
<0xC4>	0
<0xC5>	0
<0xC6>	0
<0xC7>	0
<0xC8>	0
<0xC9>	0
<0xCA>	0
<0xCB>	0
<0xCC>	0
<0xCD>	0
<0xCE>	0
<0xCF>	0
<0xD0>	0
<0xD1>	0
<0xD2>	0
<0xD3>	0
<0xD4>	0
<0xD5>	0
<0xD6>	0
<0xD7>	0
<0xD8>	0
<0xD9>	0
<0xDA>	0
<0xDB>	0
<0xDC>	0
<0xDD>	0
<0xDE>	0
<0xDF>	0
<0xE0>	0
<0xE1>	0
<0xE2>	0
<0xE3>	0
<0xE4>	0
<0xE5>	0
<0xE6>	0
<0xE7>	0
<0xE8>	0
<0xE9>	0
<0xEA>	0
<0xEB>	0
<0xEC>	0
<0xED>	0
<0xEE>	0
<0xEF>	0
<0xF0>	0
<0xF1>	0
<0xF2>	0
<0xF3>	0
<0xF4>	0
<0xF5>	0
<0xF6>	0
<0xF7>	0
<0xF8>	0
<0xF9>	0
<0xFA>	0
<0xFB>	0
<0xFC>	0
<0xFD>	0
<0xFE>	0
<0xFF>	0
▁स	-0
को	-1
मा	-2
का	-3
र्	-4
▁प	-5
्र	-6
न्	-7
▁।	-8
▁ग	-9
ने	-10
ले	-11
▁र	-12
्य	-13
▁ब	-14
ला	-15
▁भ	-16
▁अ	-17
▁क	-18
▁ह	-19
▁व	-20
▁न	-21
ार	-22
▁छ	-23
▁त	-24
▁म	-25
▁द	-26
▁प्र	-27
▁ज	-28
▁आ	-29
स्	-30
ाल	-31
ति	-32
ता	-33
क्	-34
▁उ	-35
ना	-36
यो	-37
नि	-38
एको	-39
▁गर	-40
ान	-41
▁का	-42
▁वि	-43
▁गर्	-44
हर	-45
त्र	-46
लाई	-47
म्	-48
ेको	-49
नु	-50
वा	-51
▁हु	-52
▁य	-53
▁च	-54
िक	-55
ित	-56
था	-57
▁मा	-58
रा	-59
▁नि	-60
्या	-61
▁ख	-62
▁ल	-63
री	-64
▁रा	-65
▁ला	-66
▁ए	-67
या	-68
न्द	-69
▁श	-70
▁थ	-71
क्ष	-72
▁पनि	-73
▁ने	-74
त्	-75
ल्	-76
ेर	-77
▁सं	-78
▁सा	-79
▁स्	-80
पाल	-81
ेश	-82
बा	-83
हि	-84
▁दि	-85
▁सम	-86
हरु	-87
ाउ	-88
▁थि	-89
ष्	-90
नी	-91
▁लाग	-92
ुर	-93
हा	-94
ेका	-95
दा	-96
दै	-97
▁हो	-98
न्छ	-99
▁फ	-100
र्य	-101
एका	-102
▁भने	-103
रि	-104
▁त्य	-105
▁नेपाल	-106
पा	-107
कार	-108
बाट	-109
स्त	-110
▁छन्	-111
▁पा	-112
▁१	-113
▁भएको	-114
ाम	-115
▁'	-116
▁२	-117
द्	-118
न्त्र	-119
िका	-120
हरू	-121
▁के	-122
भा	-123
वि	-124
ेख	-125
क्र	-126
▁निर्	-127
ष्ट	-128
छि	-129
▁रह	-130
रण	-131
▁लागि	-132
▁पु	-133
▁गरि	-134
▁घ	-135
▁सम्	-136
▁कु	-137
ही	-138
्न	-139
लो	-140
सा	-141
▁गर्न	-142
▁उन	-143
▁गर्ने	-144
▁यो	-145
▁गरेको	-146
▁कार्य	-147
ेल	-148
▁ध	-149
▁ट	-150
ीय	-151
▁यस	-152
▁सु	-153
स्था	-154
गा	-155
र्ष	-156
ारी	-157
▁बा	-158
न्त	-159
▁एक	-160
देश	-161
▁अध	-162
▁आफ	-163
रो	-164
▁बता	-165
पर्	-166
्च	-167
▁को	-168
▁व्य	-169
▁थियो	-170
▁प्रति	-171
भि	-172
ीले	-173
ँग	-174
ौं	-175
▁ड	-176
पछि	-177
टा	-178
ेखि	-179
▁सर	-180
▁अनु	-181
रह	-182
कि	-183
▁क्	-184
म्म	-185
▁तथा	-186
▁सह	-187
ुप	-188
ण्	-189
्रो	-190
धान	-191
योग	-192
सँग	-193
गर	-194
▁हुने	-195
धि	-196
िन	-197
▁दु	-198
▁बढ	-199
▁राज	-200
ली	-201
▁तर	-202
एर	-203
▁उप	-204
की	-205
▁त्यस	-206
▁नै	-207
ालय	-208
िय	-209
ण्ड	-210
टी	-211
▁बि	-212
र्थ	-213
▁सि	-214
▁थिए	-215
ंग	-216
▁मु	-217
वस्था	-218
नुपर्	-219
▁भन्	-220
ेत	-221
ाइ	-222
ेट	-223
▁क्ष	-224
ेस	-225
िल्	-226
▁सरकार	-227
स्थ	-228
बार	-229
▁वर्ष	-230
नमा	-231
ूर्	-232
सार	-233
▁बना	-234
▁वा	-235
▁उनले	-236
क्रम	-237
▁हाम	-238
▁काम	-239
न्न	-240
ाउँ	-241
कारी	-242
्व	-243
ष्ट्र	-244
न्द्र	-245
▁ठ	-246
िम	-247
प्	-248
▁परि	-249
द्ध	-250
▁इ	-251
क्त	-252
▁जना	-253
▁लि	-254
न्त्री	-255
प्र	-256
हिले	-257
याँ	-258
बै	-259
▁रहेको	-260
न्य	-261
▁विश	-262
न्दा	-263
द्य	-264
▁उनी	-265
सी	-266
▁रुप	-267
लि	-268
▁भए	-269
ँदै	-270
हाँ	-271
नको	-272
जना	-273
ङ्	-274
जार	-275
▁स्थ	-276
सि	-277
डि	-278
▁गरेका	-279
▁२०	-280
डा	-281
▁से	-282
उने	-283
जा	-284
ैन	-285
ेत्र	-286
सम्म	-287
स्ता	-288
न्ध	-289
▁समा	-290
ानी	-291
ती	-292
्ने	-293
मु	-294
▁सबै	-295
▁पार्	-296
ुरु	-297
▁कि	-298
▁क्षेत्र	-299
्यक्ष	-300
▁हुन्छ	-301
हु	-302
दी	-303
▁मात्र	-304
उन	-305
▁देखि	-306
▁पर्	-307
ठमा	-308
▁जन	-309
▁रो	-310
▁भन्ने	-311
ेला	-312
धार	-313
▁सो	-314
▁बै	-315
▁प्रा	-316
क्षा	-317
▁जा	-318
▁३	-319
सक	-320
क्ति	-321
▁मि	-322
छन्	-323
▁भएका	-324
र्म	-325
▁काठमा	-326
तिक	-327
▁छैन	-328
म्प	-329
चार	-330
▁ना	-331
▁राख	-332
▁बु	-333
▁कुरा	-334
▁गरिएको	-335
▁गरे	-336
▁आफ्न	-337
▁काठमाड	-338
▁अर्	-339
▁राष्ट्र	-340
माण	-341
▁नेपाली	-342
निक	-343
▁मह	-344
वार	-345
िति	-346
स्तो	-347
रहेको	-348
नुभ	-349
ञ्च	-350
नै	-351
ेद	-352
▁सक्	-353
मन्त्री	-354
▁गर्दै	-355
▁दिन	-356
दि	-357
▁बताए	-358
▁उत्	-359
▁समय	-360
▁स्थान	-361
▁जो	-362
▁महि	-363
शा	-364
भाव	-365
▁जान	-366
▁कम	-367
▁अहिले	-368
ग्र	-369
बन्ध	-370
टर	-371
ंक	-372
▁गरी	-373
जी	-374
चि	-375
पालिका	-376
गत	-377
▁पुग	-378
▁५	-379
▁(	-380
टक	-381
▁था	-382
लेख	-383
मान	-384
▁हुन	-385
कै	-386
कु	-387
▁?	-388
ाउने	-389
▁पर	-390
▁ती	-391
रु	-392
नुपर्ने	-393
ोल	-394
त्व	-395
▁स्व	-396
▁कारण	-397
▁कार्यक्रम	-398
्यो	-399
▁केही	-400
कृ	-401
▁चा	-402
्रा	-403
▁काठमाडौं	-404
▁झ	-405
्रम	-406
ेरै	-407
▁प्रहर	-408
रमा	-409
▁आफ्नो	-410
उँ	-411
िल्ला	-412
▁हि	-413
▁हजार	-414
▁खा	-415
र्व	-416
डी	-417
▁भार	-418
ेक	-419
ुट	-420
ध्य	-421
▁प्रदेश	-422
▁ओ	-423
त्य	-424
▁खो	-425
▁अध्यक्ष	-426
▁दुई	-427
ाउन	-428
▁व्यवस्था	-429
▁जिल्ला	-430
▁पहि	-431
▁दा	-432
▁स्वा	-433
▁भा	-434
हरुले	-435
▁धेरै	-436
मुख	-437
▁लग	-438
ैले	-439
िया	-440
▁पार्टी	-441
▁लगा	-442
ज्	-443
इन	-444
बी	-445
देखि	-446
र्ता	-447
▁।'	-448
▁शि	-449
▁गत	-450
▁भारत	-451
▁महा	-452
▁४	-453
▁अव	-454
▁हुन्	-455
▁निर्माण	-456
कास	-457
▁बो	-458
र्फ	-459
घि	-460
▁समेत	-461
▁देश	-462
सो	-463
▁साथ	-464
▁अन्त	-465
▁अनुसार	-466
▁पूर्	-467
▁केन्द्र	-468
हरुको	-469
ेन्	-470
▁कुनै	-471
▁अवस्था	-472
जन	-473
मि	-474
▁हा	-475
▁यु	-476
फल	-477
ाली	-478
यत	-479
▁आयो	-480
ुन	-481
▁पो	-482
▁विकास	-483
स्य	-484
ँदा	-485
▁गरेर	-486
▁सद	-487
मै	-488
म्ब	-489
ँच	-490
▁सकि	-491
धा	-492
▁६	-493
टो	-494
र्च	-495
स्तै	-496
पूर्	-497
▁विष	-498
भन्दा	-499
▁रुपमा	-500
▁नेता	-501
▁या	-502
ूल	-503
पी	-504
▁प्रधान	-505
▁सञ्च	-506
▁राम	-507
▁घर	-508
ब्	-509
यु	-510
भाग	-511
▁श्र	-512
ष्ठ	-513
न्दै	-514
▁शा	-515
▁आव	-516
स्या	-517
ोर	-518
वन	-519
▁नगर	-520
ग्	-521
▁स्थानीय	-522
हित	-523
▁अभि	-524
▁गु	-525
दान	-526
▁जानकारी	-527
यन	-528
▁हामी	-529
पमा	-530
▁विषय	-531
▁प्रमुख	-532
▁भइ	-533
माले	-534
▁सरकारले	-535
▁निर्वा	-536
▁लाख	-537
श्य	-538
▁चि	-539
मी	-540
▁त्यो	-541
वास	-542
पुर	-543
▁तय	-544
▁समिति	-545
च्च	-546
ोक	-547
▁समस्या	-548
▁प्रहरी	-549
▁गाउँ	-550
ारा	-551
र्या	-552
जि	-553
स्ट	-554
थि	-555
▁विश्व	-556
▁नयाँ	-557
वी	-558
▁कार्यालय	-559
ताको	-560
▁ल्या	-561
खा	-562
सद	-563
▁ढ	-564
▁गा	-565
▁भि	-566
▁खु	-567
सन	-568
वादी	-569
▁मो	-570
ज्ञ	-571
▁संघ	-572
▁नभ	-573
णा	-574
▁एउ	-575
▁मन्त्र	-576
▁देख	-577
▁कस	-578
▁खेल	-579
▁दल	-580
मेर	-581
▁निर्वाच	-582
नुभयो	-583
▁रू	-584
▁सदस्य	-585
कमा	-586
▁आएको	-587
यर	-588
▁भन्दै	-589
नुपर्छ	-590
्रेस	-591
ेन	-592
▁भयो	-593
टि	-594
लमा	-595
▁सुरु	-596
▁७	-597
▁सेवा	-598
ट्	-599
▁अस्	-600
स्थ्य	-601
पत	-602
▁आफू	-603
ीमा	-604
्छ	-605
▁सामा	-606
▁बज	-607
इएको	-608
▁राजनी	-609
▁उनको	-610
भिन्न	-611
क्षण	-612
जिक	-613
▁गर्दा	-614
▁रहेका	-615
▁प्रयोग	-616
▁सय	-617
▁बढी	-618
सम	-619
राज	-620
▁गर्नु	-621
रहेका	-622
श्यक	-623
वाद	-624
▁विद्य	-625
णय	-626
▁महिला	-627
▁डा	-628
▁निय	-629
▁भू	-630
ौँ	-631
मो	-632
्यान	-633
सको	-634
सर	-635
▁सञ्चाल	-636
▁व्यक्ति	-637
▁अब	-638
▁निर्णय	-639
र्श	-640
सले	-641
▁-	-642
▁हुँदै	-643
लु	-644
▁पहिलो	-645
▁व्यव	-646
हरुलाई	-647
▁राष्ट्रिय	-648
पति	-649
दुर	-650
▁सुर	-651
▁प्रधानमन्त्री	-652
▁सम्बन्ध	-653
▁कम्प	-654
▁स्वास्थ्य	-655
▁१०	-656
करण	-657
▁पछि	-658
▁तपा	-659
िर	-660
▁भनेर	-661
▁आइ	-662
प्त	-663
शत	-664
हरूको	-665
▁दो	-666
चना	-667
▁हे	-668
▁विभिन्न	-669
▁जि	-670
र्त	-671
▁उहाँ	-672
हरूले	-673
सु	-674
▁छो	-675
▁प्रश	-676
▁औ	-677
धन	-678
▁रुपै	-679
पाद	-680
पि	-681
▁जी	-682
▁नाम	-683
▁आज	-684
वेश	-685
▁अन्य	-686
सं	-687
▁८	-688
ोग	-689
▁सहयोग	-690
▁मे	-691
▁चु	-692
▁पार	-693
▁एउटा	-694
सकेको	-695
टन	-696
साय	-697
▁मन	-698
▁प्रतिशत	-699
र्क	-700
पन	-701
र्ग	-702
▁बैठ	-703
▁छा	-704
त्म	-705
▁घट	-706
ङ्ग	-707
पूर्ण	-708
ंग्रेस	-709
हो	-710
▁पत्र	-711
न्ति	-712
▁कृ	-713
▁दिने	-714
▁रि	-715
पना	-716
▁आयोजना	-717
▁आवश्यक	-718
▁दिए	-719
▁मानि	-720
▁लेख	-721
▁बैंक	-722
तृ	-723
िकारी	-724
▁तीन	-725
▁आधार	-726
▁ठू	-727
▁संस्था	-728
समा	-729
▁कांग्रेस	-730
▁समाज	-731
▁रुपैयाँ	-732
ञ्	-733
▁मुख	-734
▁माग	-735
▁कम्पनी	-736
▁मन्त्रालय	-737
हादुर	-738
र्थिक	-739
▁रु	-740
▁तपाई	-741
तन्त्र	-742
▁मत	-743
रको	-744
▁आर्थिक	-745
▁बस्	-746
त्त	-747
ड्	-748
चिव	-749
▁एमाले	-750
न्या	-751
श्च	-752
▁बेला	-753
पताल	-754
वारी	-755
,'	-756
▁रूपमा	-757
▁९	-758
जु	-759
▁अस्पताल	-760
गरिक	-761
रोड	-762
भित्र	-763
हार	-764
तामा	-765
▁बस	-766
र्ड	-767
नामा	-768
ीत	-769
▁सक	-770
▁उल्	-771
दैन	-772
▁होइन	-773
▁व्या	-774
▁बने	-775
ित्	-776
▁नागरिक	-777
▁क्षेत्रमा	-778
▁स्था	-779
▁करोड	-780
ेष	-781
िएको	-782
▁डि	-783
▁सड	-784
चा	-785
▁शु	-786
▁भन्दा	-787
विधान	-788
▁उक्त	-789
शी	-790
▁सार्व	-791
▁निर्देश	-792
द्या	-793
सक्	-794
काल	-795
▁सू	-796
▁दिएको	-797
▁नेतृ	-798
▁मात्रै	-799
न्छन्	-800
▁बाल	-801
▁बुझ	-802
▁तह	-803
लेको	-804
▁क्रम	-805
सहित	-806
▁वै	-807
▁बे	-808
▁गो	-809
▁ता	-810
▁संविधान	-811
▁सभा	-812
एपछि	-813
▁बाँ	-814
ख्या	-815
▁नेतृत्व	-816
▁हाल	-817
ोष	-818
अघि	-819
जनिक	-820
▁अमेर	-821
▁गते	-822
कको	-823
धिक	-824
▁पोख	-825
▁उत्पाद	-826
▁भनि	-827
कम	-828
▁पुन	-829
▁मूल	-830
स्थित	-831
▁ति	-832
▁दे	-833
क्रिया	-834
ुत	-835
▁किन	-836
बहादुर	-837
▁नगरपालिका	-838
इन्	-839
▁अनि	-840
ुल	-841
▁निका	-842
▁सार्वजनिक	-843
▁अप	-844
न्व	-845
▁मुख्य	-846
▁पक्ष	-847
▁पर्य	-848
▁सम्प	-849
▁पू	-850
▁हाम्रो	-851
्रि	-852
बारे	-853
सँगै	-854
▁योजना	-855
▁प्रभाव	-856
क्ता	-857
नका	-858
▁अगा	-859
▁थप	-860
▁इन्	-861
▁सन्	-862
▁अधि	-863
्यु	-864
कले	-865
▁बताउ	-866
▁कर्म	-867
युक्त	-868
रोना	-869
▁पर्ने	-870
ेन्द्र	-871
▁अघि	-872
ेरो	-873
▁पटक	-874
▁कति	-875
राष्ट्र	-876
▁यस्तो	-877
बीच	-878
▁नग	-879
दाय	-880
▁पूर्व	-881
धी	-882
र्न	-883
▁चल	-884
▁२०७	-885
▁उद्य	-886
▁"	-887
▁हामीले	-888
वै	-889
▁कोरोना	-890
▁अधिकारी	-891
ूह	-892
चारी	-893
पत्र	-894
▁निक	-895
▁राजनीतिक	-896
ेष्ठ	-897
मति	-898
▁ठूलो	-899
▁मान	-900
▁मृ	-901
नाव	-902
ीको	-903
▁अन्तर्	-904
▁जनाएको	-905
▁राम्रो	-906
▁वडा	-907
▁भेट	-908
▁व्यवसाय	-909
▁बजार	-910
काश	-911
▁लगायत	-912
ेपछि	-913
प्रति	-914
र्ट	-915
▁उल्लेख	-916
क्रमण	-917
ठा	-918
▁विद्या	-919
▁अर्को	-920
▁अर्थ	-921
र्ने	-922
▁छल	-923
▁वटा	-924
से	-925
▁गाउँपालिका	-926
▁गर्छ	-927
सभा	-928
▁नी	-929
▁लगानी	-930
▁सां	-931
▁छलफल	-932
▁मन्त्री	-933
ैं	-934
▁हुनु	-935
▁सम्झ	-936
नाइ	-937
▁गठ	-938
▁नेपालको	-939
▁महिना	-940
▁चौ	-941
▁नेपालमा	-942
हान	-943
▁आएका	-944
कपा	-945
ारे	-946
पु	-947
न्ड	-948
▁कर्मचारी	-949
बर	-950
▁फिल्	-951
ञ्ज	-952
▁सम्म	-953
▁विशेष	-954
ोट	-955
बु	-956
निधि	-957
्वास	-958
न्तर	-959
तमा	-960
▁विदेश	-961
दछ	-962
ध्ये	-963
यक	-964
▁सहभाग	-965
भर	-966
▁संग	-967
रुद्ध	-968
लको	-969
वेद	-970
ओवादी	-971
▁सर्व	-972
▁बनाउन	-973
▁अगाडि	-974
त्मक	-975
▁अवस्थामा	-976
▁सक्ने	-977
त्या	-978
फा	-979
▁ठाउँ	-980
थ्यो	-981
▁सामाजिक	-982
द्धि	-983
▁निर्वाचन	-984
▁समूह	-985
▁मैले	-986
▁सुरक्षा	-987
▁जित	-988
▁हुँदा	-989
▁जे	-990
▁पाँच	-991
मार	-992
▁परी	-993
▁लोक	-994
हरूलाई	-995
▁नहु	-996
▁अन	-997
▁ले	-998
पनि	-999
सन्	-1000
राम	-1001
▁अद	-1002
त्ति	-1003
्री	-1004
▁सडक	-1005
कल	-1006
▁फो	-1007
▁पै	-1008
▁नेकपा	-1009
▁श्रेष्ठ	-1010
▁मुलु	-1011
▁राज्य	-1012
▁फिल्म	-1013
▁खे	-1014
चित्र	-1015
नले	-1016
▁भएर	-1017
▁संर	-1018
▁विद्यालय	-1019
▁विषयमा	-1020
▁अझ	-1021
▁प्राप्त	-1022
▁गर्नुपर्ने	-1023
▁उद्योग	-1024
▁उपचार	-1025
▁१५	-1026
▁क्या	-1027
▁बनाउने	-1028
ीर	-1029
▁सक्छ	-1030
कर्ता	-1031
विधि	-1032
▁परिवार	-1033
▁थापा	-1034
▁साम	-1035
नुभएको	-1036
त्ता	-1037
वरण	-1038
▁जारी	-1039
▁चार	-1040
▁नीति	-1041
▁क्रममा	-1042
▁तपाईं	-1043
दर्श	-1044
▁विद्यार्थ	-1045
▁तत्	-1046
▁उपा	-1047
▁रे	-1048
गम	-1049
▁मेरो	-1050
एन	-1051
स्रो	-1052
ुवा	-1053
माथि	-1054
▁चाह	-1055
▁साथै	-1056
▁यी	-1057
▁जनता	-1058
▁रकम	-1059
▁शिक्षा	-1060
▁आयोग	-1061
▁बजेट	-1062
क्षक	-1063
▁पाइ	-1064
▁करि	-1065
न्दोल	-1066
▁संसद	-1067
र्ण	-1068
▁कार्यक्रममा	-1069
रोध	-1070
▁न्य	-1071
▁प्रव	-1072
अनु	-1073
घा	-1074
बि	-1075
म्भ	-1076
▁पद	-1077
व्य	-1078
▁यसको	-1079
पो	-1080
▁ऐ	-1081
▁अदाल	-1082
▁आउने	-1083
▁अध्य	-1084
जग	-1085
के	-1086
पर	-1087
सन्धान	-1088
▁सञ्चालन	-1089
ेन्ट	-1090
▁पढ	-1091
ग्रह	-1092
र्फत	-1093
मित	-1094
▁तयारी	-1095
▁चलचित्र	-1096
▁घटना	-1097
▁कृष	-1098
टै	-1099
दो	-1100
▁भइरहेको	-1101
▁पानी	-1102
उँछन्	-1103
▁बाहि	-1104
डेल	-1105
▁लागेको	-1106
▁उम्म	-1107
▁अनुसन्धान	-1108
हरुमा	-1109
▁१२	-1110
▁सङ्	-1111
स्ताव	-1112
गरी	-1113
▁खर्च	-1114
▁उत्पादन	-1115
▁बन्द	-1116
त्यु	-1117
▁यहाँ	-1118
▁जाने	-1119
▁आरो	-1120
▁घोष	-1121
न्ने	-1122
▁पौ	-1123
▁आग	-1124
▁युवा	-1125
▁परेको	-1126
यान	-1127
▁बताएका	-1128
▁अस	-1129
▁क्र	-1130
▁ची	-1131
▁आन्दोल	-1132
▁सचिव	-1133
समेत	-1134
▁१९	-1135
ल्लो	-1136
▁तयार	-1137
▁भएपछि	-1138
क्स	-1139
ोधन	-1140
▁बी	-1141
▁फि	-1142
▁लक्ष	-1143
तको	-1144
तर्फ	-1145
षा	-1146
▁प्रच	-1147
▁पि	-1148
▁जुन	-1149
▁समु	-1150
▁माओवादी	-1151
▁शर्	-1152
झा	-1153
▁भएकाले	-1154
▁सफल	-1155
कृति	-1156
▁मृत्यु	-1157
▁छि	-1158
▁दोस्रो	-1159
ेरि	-1160
▁विज्ञ	-1161
वर्त	-1162
राष्ट्रिय	-1163
▁विभाग	-1164
▁उपल	-1165
▁सकिन्छ	-1166
▁साल	-1167
▁भनेको	-1168
साद	-1169
ल्ला	-1170
त्रा	-1171
▁उठ	-1172
▁सांसद	-1173
▁मौ	-1174
▁अफ	-1175
तले	-1176
▁विक	-1177
दे	-1178
▁सी	-1179
▁भु	-1180
▁उच्च	-1181
▁गीत	-1182
न्स	-1183
▁उम्मेद	-1184
▁११	-1185
ष्टि	-1186
▁पी	-1187
ध्यक्ष	-1188
▁समयमा	-1189
छा	-1190
▁प्रतिनिधि	-1191
हाल	-1192
ष्ण	-1193
ेड	-1194
▁प्रस्ताव	-1195
▁त्यहाँ	-1196
ालिका	-1197
हुन्छ	-1198
▁न्या	-1199
ामी	-1200
म्बर	-1201
ृद्धि	-1202
अनुसार	-1203
ल्या	-1204
▁प्रक्रिया	-1205
▁किस	-1206
▁ओली	-1207
▁एव	-1208
▁जोड	-1209
▁अध्ययन	-1210
▁पुर	-1211
▁अधिकार	-1212
▁हर	-1213
▁गरिने	-1214
▁मध	-1215
▁घोषणा	-1216
ल्ने	-1217
▁उपलब्	-1218
▁अमेरिका	-1219
द्दा	-1220
भव	-1221
▁भनाइ	-1222
▁प्रश्न	-1223
▁त्यसैले	-1224
वल	-1225
▁जस्तो	-1226
▁कानु	-1227
▁सम्पन्न	-1228
बल	-1229
▁टो	-1230
टमा	-1231
▁चुनाव	-1232
▁जीवन	-1233
▁देखिएको	-1234
▁दिएका	-1235
काली	-1236
▁फा	-1237
▁अर्ब	-1238
▁मूल्य	-1239
पटक	-1240
▁मलाई	-1241
▁कसरी	-1242
▁मानिस	-1243
▁निकै	-1244
▁हुनेछ	-1245
तिर	-1246
▁दश	-1247
▁व्याप	-1248
तिमा	-1249
दर	-1250
▁लिएर	-1251
ट्ट	-1252
तर	-1253
▁गएको	-1254
मिका	-1255
▁त्यही	-1256
ृत	-1257
▁रहे	-1258
▁श्री	-1259
▁कार्या	-1260
▁५०	-1261
उनु	-1262
▁मुद्दा	-1263
मिक	-1264
स्तु	-1265
▁परिवर्त	-1266
▁प्रहरीले	-1267
वाह	-1268
▁व्यवस्थापन	-1269
लग	-1270
▁पैसा	-1271
▁भो	-1272
▁प्रकाश	-1273
डियो	-1274
यात	-1275
▁केन्द्रीय	-1276
गायत	-1277
▁छु	-1278
▁विद्यार्थी	-1279
▁निर	-1280
▁ब्या	-1281
▁सरकारको	-1282
▁कार	-1283
▁नियन्त्र	-1284
▁यही	-1285
▁सबैभन्दा	-1286
▁छुट	-1287
लाइ	-1288
राई	-1289
▁प्रशा	-1290
▁ट्र	-1291
▁भाग	-1292
लब	-1293
थे	-1294
▁यसले	-1295
▁फर	-1296
▁ज्	-1297
▁हुँदैन	-1298
दार	-1299
▁देखिन्छ	-1300
▁गुरु	-1301
▁भारतीय	-1302
▁उद्	-1303
▁गरा	-1304
▁छन	-1305
कर्ष	-1306
तम	-1307
▁कृषि	-1308
▁बस्ने	-1309
▁कार्यान्व	-1310
▁पौडेल	-1311
▁सहमति	-1312
▁छौं	-1313
▁खेला	-1314
▁महत्व	-1315
▁फर्	-1316
र्जा	-1317
▁आधारमा	-1318
उँदै	-1319
▁यस्तै	-1320
▁सरकारी	-1321
र्चा	-1322
▁विश्वास	-1323
रू	-1324
कृत	-1325
जो	-1326
▁बारे	-1327
िता	-1328
▁नभएको	-1329
्नु	-1330
ृह	-1331
▁लामो	-1332
▁थिएन	-1333
▁स्प	-1334
▁डे	-1335
▁महान	-1336
जे	-1337
ंह	-1338
▁करिब	-1339
▁संख्या	-1340
▁उहाँले	-1341
▁नियन्त्रण	-1342
म्मे	-1343
▁२५	-1344
▁योग	-1345
यी	-1346
▁पत्रकार	-1347
▁बताउँछन्	-1348
▁सम्झौ	-1349
▁अरु	-1350
लेर	-1351
▁त्यस्तै	-1352
▁उनलाई	-1353
ैनिक	-1354
▁त्यसको	-1355
▁शक्ति	-1356
▁अभियान	-1357
▁प्रचण्ड	-1358
ानो	-1359
र्स	-1360
्दै	-1361
▁संस्	-1362
चाल	-1363
शु	-1364
▁पठ	-1365
स्तार	-1366
▁पछिल्लो	-1367
▁पक्र	-1368
▁अधिक	-1369
ारि	-1370
मध्ये	-1371
धारण	-1372
▁राष्ट्रपति	-1373
पक्ष	-1374
▁पुगेको	-1375
नाले	-1376
▁भित्र	-1377
च्छ	-1378
▁सूचना	-1379
सिक	-1380
▁जस	-1381
▁लु	-1382
▁रोजग	-1383
▁ग्र	-1384
▁:	-1385
▁बनेको	-1386
यम	-1387
▁सहभागी	-1388
▁आग्रह	-1389
▁होला	-1390
▁कला	-1391
▁स्रो	-1392
▁मान्छ	-1393
▁३०	-1394
ग्गा	-1395
▁ज्ञ	-1396
▁भन्छन्	-1397
▁जन्	-1398
बेला	-1399
▁रोग	-1400
▁चला	-1401
▁बाटो	-1402
्ना	-1403
टल	-1404
▁गौ	-1405
▁भूमिका	-1406
ंश	-1407
ल्प	-1408
▁त्यसपछि	-1409
▁प्रण	-1410
▁दुवै	-1411
▁पक्राउ	-1412
ेकी	-1413
जक	-1414
',	-1415
▁अन्तर्राष्ट्रिय	-1416
▁पाउने	-1417
सम्	-1418
▁प्रतियोग	-1419
▁पुर्या	-1420
▁यसै	-1421
▁सर्	-1422
▁सन्द	-1423
▁पोखरा	-1424
वर	-1425
उँछ	-1426
▁स्वी	-1427
सकेका	-1428
स्क	-1429
वेदन	-1430
परि	-1431
▁पूर्ण	-1432
▁उपलब्ध	-1433
▁गोल	-1434
▁हरेक	-1435
▁बाहिर	-1436
▁बैठक	-1437
प्रसाद	-1438
▁लिन	-1439
▁सम्भाव	-1440
▁जु	-1441
▁भाइ	-1442
▁चाहि	-1443
दिन	-1444
ल्न	-1445
एस	-1446
कालीन	-1447
▁तो	-1448
▁थाले	-1449
▁निकाय	-1450
सक्ने	-1451
▁बिक	-1452
▁जिम्मे	-1453
हरूमा	-1454
▁सोच	-1455
▁फाइ	-1456
कर्म	-1457
▁अझै	-1458
▁पूरा	-1459
▁शर्मा	-1460
▁१४	-1461
कुमार	-1462
▁म्या	-1463
तार	-1464
▁उम्मेदवार	-1465
▁खाने	-1466
▁प्रदर्श	-1467
रत	-1468
▁भट्ट	-1469
▁प्रदान	-1470
▁प्रया	-1471
▁थाल	-1472
▁जग्गा	-1473
लामा	-1474
▁समुदाय	-1475
निर्	-1476
▁१३	-1477
ेज	-1478
▁भ्रम	-1479
▁थाहा	-1480
▁आँ	-1481
तिहा	-1482
▁गरिरहेको	-1483
▁एवं	-1484
तरण	-1485
▁सहज	-1486
▁संक्रमण	-1487
▁प्रणाली	-1488
▁नेपालले	-1489
▁फै	-1490
▁चाल	-1491
▁पर्यटक	-1492
लगायत	-1493
भू	-1494
▁मानव	-1495
▁स्ट	-1496
लले	-1497
किएको	-1498
▁१८	-1499
लीले	-1500
▁आफ्ना	-1501
ेम	-1502
▁स्थापना	-1503
▁आरोप	-1504
▁हेर्	-1505
▁सामान्य	-1506
▁आगामी	-1507
▁खेलाडी	-1508
▁देउ	-1509
▁पदा	-1510
▁दुर्	-1511
चित	-1512
▁सम्झौता	-1513
▁परेका	-1514
▁बाँकी	-1515
▁परिवर्तन	-1516
▁छैनन्	-1517
न्ट	-1518
▁ऋ	-1519
▁टोली	-1520
▁याद	-1521
▁निर्देशन	-1522
▁वर्षको	-1523
ाउनु	-1524
क्का	-1525
▁दर्ता	-1526
र्ज	-1527
▁संघीय	-1528
▁खोज	-1529
विधा	-1530
स्व	-1531
▁बारेमा	-1532
▁२०१	-1533
▁बलि	-1534
▁ताल	-1535
▁टिम	-1536
ल्क	-1537
▁फेरि	-1538
मारी	-1539
▁१६	-1540
पक	-1541
▁जस्ता	-1542
डान	-1543
▁दाबी	-1544
▁क्षम	-1545
शील	-1546
▁नहुने	-1547
होस्	-1548
ढी	-1549
▁महानगर	-1550
विद्य	-1551
▁अन्ति	-1552
▁यस्ता	-1553
▁सकिने	-1554
▁गति	-1555
▁चरण	-1556
कार्य	-1557
्ले	-1558
▁स्थानमा	-1559
्दा	-1560
त्री	-1561
▁बढेको	-1562
▁सुधार	-1563
▁नम्बर	-1564
▁,	-1565
संघ	-1566
▁दर	-1567
▁दी	-1568
लाइन	-1569
▁मान्छे	-1570
हेक	-1571
द्धा	-1572
▁कै	-1573
▁धा	-1574
▁अन्तिम	-1575
▁भण्ड	-1576
▁बिहान	-1577
▁यसअघि	-1578
▁दृ	-1579
ंगल	-1580
सचिव	-1581
▁उनका	-1582
तो	-1583
▁यति	-1584
▁ध्यान	-1585
ज्ञा	-1586
▁टा	-1587
▁ठाउँमा	-1588
णी	-1589
▁रहने	-1590
▁दू	-1591
▁आफ्नै	-1592
▁जब	-1593
▁गण	-1594
च्चा	-1595
रामी	-1596
▁गरिरहेका	-1597
▁कर	-1598
ध्यम	-1599
धे	-1600
▁विस्तार	-1601
▁वितरण	-1602
स्थिति	-1603
▁तथ	-1604
ँड	-1605
▁टि	-1606
▁तत्काल	-1607
तावरण	-1608
पय	-1609
आर	-1610
डित	-1611
▁गि	-1612
दू	-1613
▁देखा	-1614
▁सोम	-1615
श्चिम	-1616
▁अति	-1617
▁खान	-1618
▁विवाद	-1619
▁बताउनुभयो	-1620
▁गुरुङ	-1621
▁फरक	-1622
म्मा	-1623
▁पर्यटन	-1624
▁दक्ष	-1625
साइ	-1626
▁जोख	-1627
▁सम्ब	-1628
▁पर्छ	-1629
▁पहिले	-1630
श्व	-1631
▁टु	-1632
▁परीक्षण	-1633
ुरुष	-1634
▁सीमा	-1635
▁प्रवेश	-1636
▁वातावरण	-1637
ताका	-1638
रुप	-1639
क्षित	-1640
▁खरि	-1641
नाको	-1642
▁आमा	-1643
पको	-1644
▁शुक्र	-1645
यार	-1646
▁ब्य	-1647
▁मै	-1648
▁कतिपय	-1649
▁पाल	-1650
वान	-1651
▁नारा	-1652
ग्री	-1653
शाख	-1654
▁संगठ	-1655
▁सभापति	-1656
ियन	-1657
ज्य	-1658
▁त्यसै	-1659
▁जोखिम	-1660
र्जन	-1661
▁शै	-1662
▁बर्ष	-1663
▁दैनिक	-1664
ालले	-1665
▁न्याय	-1666
िकी	-1667
▁यसलाई	-1668
▁छोरा	-1669
विरुद्ध	-1670
ँदैन	-1671
▁गृह	-1672
▁विमान	-1673
▁मुलुक	-1674
▁ई	-1675
▁प्रविधि	-1676
▁कार्यान्वयन	-1677
ते	-1678
▁चै	-1679
▁झा	-1680
▁त्रि	-1681
▁प्रयास	-1682
▁श्रम	-1683
▁बनाएको	-1684
▁असार	-1685
▁सुविधा	-1686
▁जसले	-1687
▁खरिद	-1688
▁सात	-1689
ढा	-1690
▁निजी	-1691
▁कार्	-1692
ल्य	-1693
ची	-1694
▁किसान	-1695
▁एन	-1696
▁संयो	-1697
▁यादव	-1698
▁राई	-1699
▁हुन्छन्	-1700
▁खेलमा	-1701
▁निरन्तर	-1702
▁गर्दछ	-1703
▁लगायतका	-1704
▁गर्नुपर्छ	-1705
▁सवारी	-1706
▁पुरुष	-1707
हन	-1708
▁फुट	-1709
▁बहु	-1710
क्टर	-1711
▁बच	-1712
▁सिंह	-1713
▁१७	-1714
▁कायम	-1715
संग	-1716
▁संक	-1717
▁०	-1718
ून	-1719
▁गरेपछि	-1720
पानी	-1721
▁त्यति	-1722
▁गर्छन्	-1723
ैर	-1724
▁एस	-1725
▁दर्श	-1726
▁भ्रमण	-1727
ंगा	-1728
लिक	-1729
▁भद	-1730
▁समाधान	-1731
ुरो	-1732
कृतिक	-1733
▁यसमा	-1734
▁यसरी	-1735
▁संश	-1736
सका	-1737
▁व्यवसायी	-1738
▁समाचार	-1739
▁ओलीले	-1740
▁जल	-1741
विक	-1742
▁औष	-1743
▁आश	-1744
▁सहकारी	-1745
षण	-1746
्युनि	-1747
▁सम्भावना	-1748
जित	-1749
▁सुझा	-1750
▁आन्दोलन	-1751
नाथ	-1752
▁सहित	-1753
धिकरण	-1754
यण	-1755
▁शरी	-1756
▁लिने	-1757
▁सोही	-1758
▁जिम्मेवारी	-1759
▁आई	-1760
हल	-1761
▁टे	-1762
▁नजिक	-1763
▁बैठकमा	-1764
▁ढु	-1765
▁घरमा	-1766
▁प्रमाण	-1767
▁लिएको	-1768
ताले	-1769
▁निर्देशक	-1770
▁बुध	-1771
▁लक्ष्य	-1772
▁व्यापार	-1773
▁नेपालका	-1774
णि	-1775
रेल	-1776
टको	-1777
▁देउवा	-1778
▁२४	-1779
लाको	-1780
▁जस्तै	-1781
▁गठन	-1782
बद्ध	-1783
घट	-1784
▁अवसर	-1785
▁बीच	-1786
स्तुत	-1787
▁भाषा	-1788
पद	-1789
▁विचार	-1790
▁शुरु	-1791
▁यात्रा	-1792
धु	-1793
योजना	-1794
श्चित	-1795
▁स्पष्ट	-1796
आई	-1797
▁तुल	-1798
▁कमि	-1799
▁प्राधिकरण	-1800
▁गठबन्ध	-1801
वासी	-1802
▁बालब	-1803
▁हात	-1804
▁बिक्री	-1805
लै	-1806
एकी	-1807
रीको	-1808
स्पर्	-1809
▁संरक्षण	-1810
चान	-1811
▁प्रस्तुत	-1812
मत	-1813
िकित्	-1814
▁आइत	-1815
ेलि	-1816
▁सर्वो	-1817
▁विगत	-1818
रिया	-1819
▁!	-1820
मे	-1821
▁तेस	-1822
▁बिरामी	-1823
▁राख्ने	-1824
▁भर्	-1825
▁नाममा	-1826
▁२१	-1827
▁जेठ	-1828
क्क	-1829
ङको	-1830
▁सम्मेल	-1831
▁सम्बन्धित	-1832
▁विधे	-1833
डिया	-1834
▁व्यक्त	-1835
देश्य	-1836
ीका	-1837
▁कम्युनि	-1838
▁भिडियो	-1839
▁बजारमा	-1840
▁अन्तर	-1841
▁तर्फ	-1842
▁सुन	-1843
▁उमेर	-1844
▁संरचना	-1845
▁गाडी	-1846
▁स्वतन्त्र	-1847
▁सोमबार	-1848
▁भाइर	-1849
▁प्राथ	-1850
▁अर्था	-1851
▁नदि	-1852
▁दाहाल	-1853
▁पराज	-1854
लव	-1855
▁आत्म	-1856
▁प्रतिस्पर्	-1857
▁मना	-1858
▁तेस्रो	-1859
▁उनीहरु	-1860
▁लाग्ने	-1861
▁भण्डारी	-1862
▁कहिले	-1863
२०	-1864
▁दिइ	-1865
▁प्रो	-1866
▁चिकित्	-1867
▁पूर्वा	-1868
उँदा	-1869
▁महत्वपूर्ण	-1870
▁माघ	-1871
ंका	-1872
▁लाग्छ	-1873
▁मनो	-1874
क्रमित	-1875
कलन	-1876
ीकरण	-1877
▁जति	-1878
▁प्राथमिक	-1879
▁मंगल	-1880
▁क्षति	-1881
▁शुक्रबार	-1882
सम्बन्ध	-1883
▁सुनि	-1884
▁अभाव	-1885
भो	-1886
▁कानुन	-1887
▁हेर	-1888
▁अहिलेसम्म	-1889
▁उपाध्यक्ष	-1890
द्वार	-1891
यौं	-1892
कारा	-1893
▁ऐन	-1894
▁अनलाइन	-1895
▁तिम	-1896
लर	-1897
▁स्रोत	-1898
ैँ	-1899
▁फाग	-1900
इरा	-1901
ौती	-1902
▁जनताको	-1903
स्त्र	-1904
ष्टा	-1905
▁सम्मान	-1906
खु	-1907
▁जीव	-1908
बाही	-1909
▁कान	-1910
▁साँ	-1911
प्ता	-1912
▁केपी	-1913
सिया	-1914
▁राजनीति	-1915
▁मिल्	-1916
कर्मी	-1917
▁शान्ति	-1918
पित	-1919
▁अमेरिकी	-1920
▁शनि	-1921
▁चर्चा	-1922
गो	-1923
▁चित	-1924
▁अवधि	-1925
वे	-1926
जर	-1927
▁बालबालिका	-1928
िकेट	-1929
▁भट्टराई	-1930
▁भएन	-1931
▁सुझाव	-1932
▁आइतबार	-1933
राब	-1934
नियाँ	-1935
▁बनाएर	-1936
स्थल	-1937
▁आम	-1938
▁दक्षि	-1939
▁प्रशासन	-1940
▁आफूले	-1941
▁अधिकृत	-1942
▁बन्न	-1943
▁ऊ	-1944
▁काठमाडौँ	-1945
▁प्रेम	-1946
▁पुनः	-1947
▁आफूलाई	-1948
एम	-1949
▁हस्ता	-1950
▁पार्टीको	-1951
म्भीर	-1952
▁यदि	-1953
ध्या	-1954
▁असर	-1955
▁निम्	-1956
▁बुधबार	-1957
वाफ	-1958
▁आउन	-1959
▁जनाको	-1960
▁धर्म	-1961
▁संयुक्त	-1962
▁क्लब	-1963
▁फर्कि	-1964
▁मन्त्रालयले	-1965
▁पेश	-1966
▁गम्भीर	-1967
पान	-1968
▁ऋण	-1969
▁गराउने	-1970
▁पाएको	-1971
▁स्त	-1972
▁रोजगारी	-1973
▁भई	-1974
▁पुरा	-1975
▁साथी	-1976
▁कथा	-1977
▁हिमा	-1978
्रै	-1979
▁४०	-1980
कारको	-1981
स्ती	-1982
▁वृद्धि	-1983
▁समितिले	-1984
▁विदेशी	-1985
▁भ्र	-1986
▁भदौ	-1987
▁सकेको	-1988
▁राख्न	-1989
▁कमा	-1990
▁खेत	-1991
▁घु	-1992
▁घण्	-1993
भिड	-1994
ाउँदै	-1995
▁भौ	-1996
▁राखेर	-1997
▁थिइन्	-1998
▁संयोजक	-1999
▁२२	-2000
▁चीन	-2001
मार्ग	-2002
▁च्या	-2003
▁सर्वोच्च	-2004
▁कले	-2005
गमन	-2006
▁गुण	-2007
▁वैशाख	-2008
▁प्रदर्शन	-2009
▁बाट	-2010
▁माथि	-2011
नो	-2012
▁मन्द	-2013
▁जवाफ	-2014
▁त्यसलाई	-2015
चार्य	-2016
▁विरोध	-2017
▁वन	-2018
▁डो	-2019
▁देशको	-2020
िल्लो	-2021
▁प्रशि	-2022
▁बच्चा	-2023
▁सन्त	-2024
षद्	-2025
शि	-2026
ामु	-2027
▁समन्व	-2028
▁थालेको	-2029
▁विज	-2030
काले	-2031
▁सिफ	-2032
▁लै	-2033
ारमा	-2034
▁किलो	-2035
▁मं	-2036
कम्प	-2037
▁पुग्ने	-2038
ेप	-2039
कारात्मक	-2040
प्प	-2041
सम्बन्धी	-2042
▁क्षेत्रको	-2043
▁प्रत्य	-2044
▁क्षमता	-2045
▁मिने	-2046
▁कुल	-2047
फो	-2048
क्रिय	-2049
▁खड्	-2050
▁नियम	-2051
▁जिल्लामा	-2052
ेले	-2053
▁रहेछ	-2054
▁वर्षीय	-2055
▁मध्य	-2056
▁अन्त्य	-2057
▁सच	-2058
▁नं	-2059
न्तरिक	-2060
ित्व	-2061
मार्फत	-2062
▁कारो	-2063
▁आदि	-2064
सोज	-2065
र्भ	-2066
▁हट	-2067
▁दिनमा	-2068
▁खुला	-2069
▁लो	-2070
▁ग्रा	-2071
▁पहिचान	-2072
▁चुन	-2073
▁सुना	-2074
▁संशोधन	-2075
▁साउन	-2076
पोर्ट	-2077
▁कर्ण	-2078
कृष्ट	-2079
तियार	-2080
▁आवश्यकता	-2081
▁आन्तरिक	-2082
न्तरण	-2083
▁चौध	-2084
हत	-2085
▁समन्वय	-2086
▁भइसकेको	-2087
▁अग्र	-2088
▁भनेका	-2089
धीश	-2090
लित	-2091
▁पूर्वाधार	-2092
▁फिर्ता	-2093
▁असोज	-2094
▁पीडित	-2095
▁अख	-2096
▁गराउन	-2097
▁वीर	-2098
▁बजे	-2099
▁हत्या	-2100
▁महाधि	-2101
लग्न	-2102
ङ्क	-2103
▁तामा	-2104
सिर	-2105
▁बन्ने	-2106
▁उद्देश्य	-2107
▁ठा	-2108
हे	-2109
▁आदेश	-2110
▁अनुभव	-2111
▁वरि	-2112
जोर	-2113
▁कृष्ण	-2114
▁जन्म	-2115
▁हामीलाई	-2116
।'	-2117
हित्य	-2118
▁प्या	-2119
▁कोइरा	-2120
सँगको	-2121
▁सिर्	-2122
▁प्रभावित	-2123
चालन	-2124
▁सिफारि	-2125
▁अस्पतालमा	-2126
▁मुख्यमन्त्री	-2127
▁कम्पनीले	-2128
डो	-2129
ालि	-2130
▁मधेस	-2131
▁नदी	-2132
काम	-2133
▁मंगलबार	-2134
▁निष्	-2135
त्तिक	-2136
▁फे	-2137
▁कसै	-2138
▁बाध्य	-2139
▁घा	-2140
बाटै	-2141
▁बोर्ड	-2142
▁दक्षिण	-2143
ेसम्म	-2144
▁भनिएको	-2145
कुल	-2146
▁छाड	-2147
हीबार	-2148
▁अंक	-2149
विद्यालय	-2150
▁अपरा	-2151
▁गैर	-2152
▁२३	-2153
▁बसेको	-2154
▁त्यस्तो	-2155
ुत्	-2156
▁हुनुपर्ने	-2157
▁धार	-2158
▁वर्षमा	-2159
▁यसका	-2160
याधीश	-2161
▁कोष	-2162
ेसन	-2163
▁पुगेका	-2164
▁सकेन	-2165
ालको	-2166
▁धन	-2167
रीले	-2168
▁सञ्ज	-2169
▁सम्बोधन	-2170
▁समर्थ	-2171
▁शिक्षक	-2172
▁भाव	-2173
▁महाधिवेश	-2174
देशिक	-2175
ष्य	-2176
▁गर्यो	-2177
▁एक्	-2178
▁।"	-2179
▁पक्षमा	-2180
▁पोखरेल	-2181
▁देव	-2182
▁पाठ	-2183
▁सिर्जना	-2184
▁राजधान	-2185
▁वित्त	-2186
▁भै	-2187
गी	-2188
योजन	-2189
▁विद्युत	-2190
ब्द	-2191
्यांक	-2192
▁आउ	-2193
▁आफैं	-2194
िनी	-2195
▁टोल	-2196
▁गुना	-2197
ल्दै	-2198
▁कारबाही	-2199
▁उनीहरुले	-2200
▁संलग्न	-2201
▁मिला	-2202
▁प्रवक्ता	-2203
▁जोडि	-2204
▁२८	-2205
▁औं	-2206
तै	-2207
▁दुर्घट	-2208
▁इतिहा	-2209
भ्या	-2210
▁चैत	-2211
▁कार्यकर्ता	-2212
ुले	-2213
सरमा	-2214
▁फागुन	-2215
▁माध्यम	-2216
मेन्ट	-2217
▁घण्टा	-2218
▁पुस्त	-2219
▁देशमा	-2220
न्थ्यो	-2221
▁साहित्य	-2222
▁शी	-2223
▁त्यसमा	-2224
सलाई	-2225
▁पृ	-2226
▁विप	-2227
▁शनिबार	-2228
▁गरिन्छ	-2229
▁२७	-2230
▁परीक्षा	-2231
सव	-2232
ंसा	-2233
▁श्रेष्ठले	-2234
क्न	-2235
▁कलाकार	-2236
▁उत्तर	-2237
▁नव	-2238
▁छिन्	-2239
▁प्रतिस्पर्धा	-2240
▁महासंघ	-2241
▁शाखा	-2242
▁कमजोर	-2243
▁व्यवहार	-2244
ाउँछ	-2245
फ्	-2246
▁अधिका	-2247
फाइ	-2248
सित	-2249
ँजी	-2250
▁पाण्ड	-2251
▁नपा	-2252
्रे	-2253
▁भवन	-2254
दल	-2255
लाले	-2256
ेश्व	-2257
▁अर्का	-2258
नुहुन्छ	-2259
स्कार	-2260
पर्ने	-2261
टे	-2262
▁संस्कृति	-2263
▁सक्रिय	-2264
▁अन्तर्गत	-2265
▁कवि	-2266
टीले	-2267
ङमा	-2268
▁विवरण	-2269
▁बैठकले	-2270
▁याता	-2271
▁विश्वविद्यालय	-2272
▁संसदीय	-2273
▁समितिको	-2274
▁एम	-2275
सीले	-2276
▁भी	-2277
िएका	-2278
▁बनाइ	-2279
▁खास	-2280
▁पर्व	-2281
▁उत्कृष्ट	-2282
▁क्रिकेट	-2283
▁तत्कालीन	-2284
ण्डा	-2285
▁कस्तो	-2286
▁कारोबार	-2287
लेका	-2288
▁सभ	-2289
▁राखिएको	-2290
▁बैंकले	-2291
▁नसकेको	-2292
▁संक्रमित	-2293
▁सम्पूर्ण	-2294
ाल्	-2295
▁शे	-2296
न्त्रिक	-2297
साब	-2298
धानिक	-2299
भार	-2300
▁साइ	-2301
ेलु	-2302
▁औषधि	-2303
▁नियमित	-2304
▁भारतको	-2305
बन्द	-2306
लाल	-2307
▁कलेज	-2308
ल्लाह	-2309
▁थापाले	-2310
▁ठूला	-2311
▁निर्वाचनमा	-2312
द्वारा	-2313
▁चे	-2314
ोरी	-2315
▁बिहीबार	-2316
लत	-2317
▁जानु	-2318
▁भन्नुभयो	-2319
▁उसले	-2320
▁तिन	-2321
▁रन	-2322
तालाई	-2323
▁लाइ	-2324
▁राजा	-2325
मन्त्र	-2326
▁२६	-2327
दु	-2328
रले	-2329
▁सश	-2330
▁एकै	-2331
नेछ	-2332
▁पार्टीका	-2333
▁ट्रा	-2334
▁एका	-2335
▁विवाह	-2336
त्यक्ष	-2337
▁भन्न	-2338
▁सहकार्य	-2339
्वा	-2340
विधिक	-2341
▁विश्वक	-2342
▁वर्ग	-2343
▁शाह	-2344
▁निर्वाचित	-2345
धिकारी	-2346
▁लिग	-2347
▁पठा	-2348
▁ल्याउन	-2349
▁विरुद्ध	-2350
सीको	-2351
भु	-2352
मती	-2353
▁कोभिड	-2354
▁समावेश	-2355
▁राखेको	-2356
▁कार्यकारी	-2357
▁बढा	-2358
▁गुनासो	-2359
▁आँखा	-2360
▁कसैले	-2361
▁सजि	-2362
▁कक्षा	-2363
रीय	-2364
वटा	-2365
▁गुमा	-2366
▁सामग्री	-2367
▁गरेकी	-2368
▁सत्ता	-2369
▁आठ	-2370
▁पुस	-2371
▁आकर्ष	-2372
पूर्व	-2373
मात्र	-2374
▁ज्यान	-2375
▁सामु	-2376
नेर	-2377
न्छु	-2378
▁सक्दैन	-2379
▁वे	-2380
▁क्षेत्रका	-2381
चारिक	-2382
▁लाई	-2383
▁फु	-2384
▁अल	-2385
▁कोही	-2386
▁हुनुपर्छ	-2387
▁हरि	-2388
▁अदालत	-2389
▁सँग	-2390
िन्	-2391
▁बर्	-2392
▁चिकित्सक	-2393
टु	-2394
बाइ	-2395
▁अघ	-2396
▁गौतम	-2397
द्द	-2398
▁सम्बन्धी	-2399
ाइएको	-2400
▁कारणले	-2401
▁भूकम्प	-2402
▁समितिका	-2403
▁वित्तीय	-2404
तः	-2405
न्ता	-2406
▁प्रतिवेदन	-2407
डमा	-2408
▁शहर	-2409
▁प्रतिष्ठ	-2410
▁भ्रष्टा	-2411
▁६०	-2412
▁बह	-2413
▁नप	-2414
भी	-2415
▁अधिकांश	-2416
▁खोप	-2417
▁कुन	-2418
▁घाइ	-2419
▁हरा	-2420
▁सरकारलाई	-2421
▁उनीहरुको	-2422
तान्त्रिक	-2423
▁परिण	-2424
▁दिव	-2425
▁मान्य	-2426
ङले	-2427
हरुका	-2428
▁प्राविधिक	-2429
▁उपत्य	-2430
▁साह	-2431
न्तु	-2432
▁भवि	-2433
▁अत्य	-2434
▁सालमा	-2435
▁एकता	-2436
▁उनीहरू	-2437
▁आचार्य	-2438
▁प्रत्येक	-2439
▁चुनौती	-2440
सिय	-2441
▁प्रभावकारी	-2442
▁शीर्ष	-2443
▁प्रतिनिधिसभा	-2444
गि	-2445
▁प्रतियोगि	-2446
▁महामारी	-2447
शन	-2448
मको	-2449
▁योगदान	-2450
▁पराजित	-2451
▁समाजवादी	-2452
▁विरा	-2453
▁परियोजना	-2454
ामुख	-2455
रीमा	-2456
▁इन्टर	-2457
▁बद	-2458
▁नसक्ने	-2459
यता	-2460
▁खाना	-2461
▁यौ	-2462
▁आयोगले	-2463
▁शब्द	-2464
▁मन्त्रि	-2465
वाल	-2466
▁खबर	-2467
▁लागू	-2468
दानी	-2469
▁विधेयक	-2470
न्ज	-2471
▁मंसिर	-2472
▁दिनु	-2473
▁बनेका	-2474
लीमा	-2475
▁युव	-2476
ेटि	-2477
ाउँदा	-2478
▁सेयर	-2479
सद्	-2480
ृत्ति	-2481
▁कमिटी	-2482
▁लगाउने	-2483
▁कठ	-2484
▁दिइएको	-2485
सल	-2486
धिकार	-2487
▁२९	-2488
▁उपत्यका	-2489
▁सुरक्षित	-2490
▁मार्फत	-2491
▁ग्राह	-2492
▁संकलन	-2493
कड	-2494
▁महानगरपालिका	-2495
▁द्व	-2496
▁सानो	-2497
ारो	-2498
▁भौतिक	-2499
▁कर्णाली	-2500
▁जहाँ	-2501
सिल	-2502
▁आए	-2503
▁छोरी	-2504
▁कार्की	-2505
▁फर्क	-2506
▁पारि	-2507
म्परा	-2508
▁सपना	-2509
कलाई	-2510
▁बोला	-2511
▁चिनियाँ	-2512
▁जम्मा	-2513
हरण	-2514
▁गुणस्त	-2515
▁सञ्चार	-2516
▁रोक	-2517
▁नब	-2518
▁एउटै	-2519
▁सम्पर्	-2520
▁प्रत्यक्ष	-2521
क्ने	-2522
चन	-2523
यमा	-2524
▁मिडिया	-2525
▁पौडेलले	-2526
जेन्	-2527
▁पेट	-2528
पूर्ति	-2529
▁बन्	-2530
थी	-2531
वसाय	-2532
▁वास्त	-2533
▁अनुमान	-2534
▁घाइते	-2535
▁अनुमति	-2536
▁सहा	-2537
▁अहिलेको	-2538
▁दबा	-2539
▁वस्तु	-2540
▁स्थिति	-2541
▁भ्रष्टाचार	-2542
ल्ट	-2543
▁ढि	-2544
▁यातायात	-2545
▁मिटर	-2546
▁गलत	-2547
िकल	-2548
▁बलियो	-2549
▁मन्त्रिपरि	-2550
्ला	-2551
टाइ	-2552
▁उदा	-2553
▁गर्नुभयो	-2554
▁सचेत	-2555
▁धारणा	-2556
ण्डकी	-2557
▁आवा	-2558
▁जम	-2559
▁ल्याएको	-2560
ःख	-2561
▁धु	-2562
▁कम्	-2563
▁टिक	-2564
▁सल्लाह	-2565
▁भनिन्	-2566
क्ट	-2567
▁ल्याउने	-2568
▁चरणमा	-2569
▁गर्नुभएको	-2570
▁परम्परा	-2571
▁उपभो	-2572
▁पुष्टि	-2573
रान	-2574
▁पदाधिकारी	-2575
▁नेतृत्वको	-2576
▁बताउँदै	-2577
टनगर	-2578
▁सञ्चालनमा	-2579
▁छान	-2580
▁संसार	-2581
▁पहल	-2582
कोट	-2583
▁अवसरमा	-2584
िमिर	-2585
▁२००	-2586
▁प्रतियोगिता	-2587
▁दिएर	-2588
▁तालिम	-2589
▁मतदान	-2590
▁सरो	-2591
▁थिएँ	-2592
▁मन्दिर	-2593
क्षर	-2594
नेको	-2595
ृद्ध	-2596
डे	-2597
लन	-2598
▁खण्ड	-2599
कन	-2600
▁की	-2601
▁दिनुभयो	-2602
ारु	-2603
इँ	-2604
ीकृत	-2605
▁पाएका	-2606
▁सिफारिस	-2607
▁भविष्य	-2608
▁अर्थतन्त्र	-2609
▁बढाउन	-2610
स्थान	-2611
▁वर्षा	-2612
▁कहाँ	-2613
▁महो	-2614
▁तहमा	-2615
▁गतिविधि	-2616
▁प्रजा	-2617
▁गएका	-2618
शक्ति	-2619
किङ	-2620
श्	-2621
क्य	-2622
▁काग	-2623
▁नाका	-2624
पदण्ड	-2625
दन	-2626
ेक्षा	-2627
गञ्ज	-2628
तीमा	-2629
▁आप	-2630
▁सध	-2631
▁सम्भव	-2632
▁छनोट	-2633
सम्मको	-2634
▁भएपनि	-2635
▁भूमि	-2636
▁किसिम	-2637
▁तर्फबाट	-2638
▁प्रचार	-2639
त्रु	-2640
▁दुःख	-2641
ममा	-2642
▁मापदण्ड	-2643
थो	-2644
बाहेक	-2645
▁सञ्जाल	-2646
▁मात्रा	-2647
▁भे	-2648
▁पहा	-2649
▁होटल	-2650
▁नभए	-2651
▁नेतृत्वमा	-2652
▁विकल्प	-2653
▁उद्ध	-2654
▁बसेर	-2655
▁छौँ	-2656
▁यू	-2657
▁फोन	-2658
णिज्य	-2659
▁आक्रमण	-2660
यल	-2661
▁स्या	-2662
ुट्	-2663
खो	-2664
▁प्रकाशित	-2665
ल्यै	-2666
▁घिमिर	-2667
▁अर्थात्	-2668
▁लाग्	-2669
न्दु	-2670
▁कात्तिक	-2671
▁ज्ञान	-2672
▁२०६	-2673
▁गएर	-2674
▁पुष्	-2675
▁वार्ता	-2676
▁खन	-2677
▁अरू	-2678
▁उडान	-2679
▁अभ्या	-2680
▁चितवन	-2681
१९	-2682
तिको	-2683
▁वरिष्ठ	-2684
▁काममा	-2685
▁छुट्	-2686
▁बाबु	-2687
हरा	-2688
▁गरिएका	-2689
▁सकारात्मक	-2690
▁जाँदा	-2691
▁विकेट	-2692
▁कर्जा	-2693
कुद	-2694
▁जरु	-2695
▁पश्चिम	-2696
जको	-2697
▁बोक	-2698
जिम	-2699
▁दृष्टि	-2700
ुक	-2701
पुग	-2702
▁राहत	-2703
▁जरुरी	-2704
▁हेर्दा	-2705
साथ	-2706
▁२०२	-2707
▁मेड	-2708
▁कप	-2709
▁पे	-2710
▁हिसाब	-2711
मिटर	-2712
▁अधिकारीले	-2713
▁बढि	-2714
नेपाल	-2715
▁स्थापित	-2716
▁अनुदान	-2717
▁महसु	-2718
लिएको	-2719
▁साता	-2720
▁देशका	-2721
▁रण	-2722
▁भनी	-2723
▁खेलकुद	-2724
नीय	-2725
▁सन्दर्भ	-2726
▁दलका	-2727
▁सेना	-2728
सकेपछि	-2729
ित्त	-2730
निय	-2731
▁पुनर्	-2732
▁खोज्	-2733
वाला	-2734
कर	-2735
▁यद्य	-2736
दम	-2737
▁भुक्ता	-2738
▁सुन्द	-2739
▁बढ्ने	-2740
▁इज	-2741
कुर	-2742
▁सङ्घ	-2743
▁माइ	-2744
▁नस	-2745
▁मेयर	-2746
▁बराब	-2747
▁भक्त	-2748
▁पाइन्छ	-2749
्यू	-2750
▁आशा	-2751
▁बेच	-2752
▁सहभागिता	-2753
लीको	-2754
▁मैदान	-2755
▁बल	-2756
▁बढ्दै	-2757
▁माया	-2758
▁संगठन	-2759
▁दुख	-2760
नाई	-2761
▁अध्या	-2762
बिन	-2763
अन्त	-2764
▁पर्या	-2765
दाता	-2766
ँडा	-2767
क्षिक	-2768
होर	-2769
▁नौ	-2770
▁शिव	-2771
▁अंग	-2772
मन	-2773
▁लड	-2774
पचारिक	-2775
▁समान	-2776
▁दाय	-2777
▁३५	-2778
मोजिम	-2779
▁हाम्रा	-2780
▁विद्युत्	-2781
▁सम्पत्ति	-2782
ेदार	-2783
▁राति	-2784
▁डु	-2785
▁क्याम्प	-2786
▁तहको	-2787
▁मोबाइ	-2788
▁पदार्थ	-2789
▁स्थायी	-2790
▁नाय	-2791
▁आलो	-2792
▁कालो	-2793
▁हुनुहुन्छ	-2794
द्र	-2795
▁ब्रा	-2796
▁बाहेक	-2797
सला	-2798
▁पास	-2799
तिकै	-2800
▁आयात	-2801
▁उसको	-2802
▁विधि	-2803
▁तरि	-2804
▁क्रा	-2805
▁क्रिया	-2806
▁शुल्क	-2807
▁साँझ	-2808
▁चन्द्र	-2809
जस्तो	-2810
▁युद्ध	-2811
▁पुल	-2812
▁बीमा	-2813
▁साउ	-2814
▁पुरस्कार	-2815
▁कार्यालयमा	-2816
▁हेर्न	-2817
नन्	-2818
औं	-2819
▁पूजा	-2820
▁सिद्धा	-2821
्वी	-2822
रीक्षक	-2823
षद	-2824
▁नो	-2825
वैधानिक	-2826
▁नगर्ने	-2827
▁हुन्थ्यो	-2828
गु	-2829
▁हुँ	-2830
▁हिमाल	-2831
पे	-2832
पश्चिम	-2833
ल्ड	-2834
▁त्यसका	-2835
▁नारायण	-2836
स्कृतिक	-2837
दय	-2838
घाटन	-2839
▁वैदेशिक	-2840
▁शैक्षिक	-2841
▁शेर	-2842
▁मन्त्रालयका	-2843
▁ठे	-2844
▁सहर	-2845
▁आम्	-2846
▁प्रतिबद्ध	-2847
▁साना	-2848
▁रंग	-2849
▁मधेश	-2850
▁त्यसले	-2851
▁बढाउने	-2852
▁उपभोक्ता	-2853
▁विराटनगर	-2854
▁कुरामा	-2855
▁शुभ	-2856
▁पहु	-2857
▁राजी	-2858
▁केहि	-2859
▁कांग्रेसका	-2860
र्सि	-2861
देव	-2862
▁राजधानी	-2863
▁सक्छन्	-2864
▁अनुगमन	-2865
न्सर	-2866
रे	-2867
ोध	-2868
लाका	-2869
▁कामदार	-2870
रुपमा	-2871
शुल्क	-2872
ंगो	-2873
र्मिक	-2874
अन्तर्	-2875
वाट	-2876
जुरी	-2877
▁गरिदि	-2878
▁एकीकृत	-2879
▁है	-2880
▁पाए	-2881
▁अपराध	-2882
▁सन्देश	-2883
▁अपेक्षा	-2884
▁स्म	-2885
खबर	-2886
▁संगीत	-2887
र्ब	-2888
▁डाक्टर	-2889
▁सौ	-2890
▁नर	-2891
▁सम्बन्धमा	-2892
▁मज	-2893
धव	-2894
▁होस्	-2895
▁संसद्	-2896
▁गरियो	-2897
कानी	-2898
▁लकड	-2899
▁विज्ञप्	-2900
▁महासचिव	-2901
दारी	-2902
▁ब्र	-2903
▁गठबन्धन	-2904
▁गर्नेछ	-2905
▁बताइन्	-2906
▁खेती	-2907
▁अदालतले	-2908
▁भन्छ	-2909
▁गर्नका	-2910
▁चासो	-2911
▁विनि	-2912
▁साधन	-2913
▁पारित	-2914
▁भुक्तानी	-2915
▁निर्माणको	-2916
ढे	-2917
▁अपना	-2918
ल्याण्ड	-2919
▁सत्य	-2920
▁बताएको	-2921
हाम	-2922
म्बा	-2923
▁?'	-2924
फी	-2925
▁लागेका	-2926
▁सोध	-2927
▁टोलीले	-2928
▁प्रचण्डले	-2929
▁आयोजित	-2930
▁क्रान्ति	-2931
▁भोलि	-2932
▁आफु	-2933
▁यौन	-2934
▁सचिवालय	-2935
▁न्यू	-2936
▁युरो	-2937
िने	-2938
▁रमा	-2939
▁मध्ये	-2940
▁नम	-2941
खर	-2942
▁आर	-2943
▁बुट	-2944
त्सव	-2945
▁आवाज	-2946
हीन	-2947
▁आजको	-2948
▁कुमार	-2949
▁जापान	-2950
▁तरकारी	-2951
▁सभामुख	-2952
▁आउँछ	-2953
▁लगाएको	-2954
मेल	-2955
▁कार्यालयले	-2956
▁गए	-2957
छिन्	-2958
▁सबैलाई	-2959
▁जसमा	-2960
▁ढकाल	-2961
▁पहुँच	-2962
▁त्यसैगरी	-2963
वधान	-2964
▁आएर	-2965
म्बिनी	-2966
▁झापा	-2967
▁उपयोग	-2968
▁खोजी	-2969
किस्ता	-2970
▁जनताले	-2971
▁विज्ञान	-2972
नय	-2973
▁कहि	-2974
▁छोड	-2975
▁सही	-2976
▁पारेको	-2977
▁लगाउन	-2978
▁प्रतिष्ठान	-2979
सू	-2980
क्षेप	-2981
▁किलोमिटर	-2982
▁दिँदै	-2983
▁राख्	-2984
दायिक	-2985
▁अख्	-2986
▁दुबै	-2987
▁लिएका	-2988
▁उहाँको	-2989
▁अघिल्लो	-2990
▁ग्या	-2991
▁अने	-2992
▁फाइदा	-2993
हरूका	-2994
राख	-2995
ानु	-2996
▁डलर	-2997
▁७०	-2998
ेश्वर	-2999
एफ	-3000
वाही	-3001
सक्छ	-3002
▁बैंकको	-3003
न्टर	-3004
एल	-3005
▁पाउन	-3006
▁जाग	-3007
▁डी	-3008
▁तस्	-3009
▁संघर्ष	-3010
▁मोटर	-3011
▁नहुँदा	-3012
▁आम्दानी	-3013
ौला	-3014
▁प्रसार	-3015
▁लोकतन्त्र	-3016
▁फुटबल	-3017
▁मानसिक	-3018
▁इन्टरने	-3019
ल्ल	-3020
हण	-3021
▁प्रदेशमा	-3022
▁कांग्रेसले	-3023
▁उठा	-3024
▁जनक	-3025
▁एयर	-3026
▁बताइएको	-3027
▁हालसम्म	-3028
▁हिँड	-3029
▁बस्न	-3030
▁मान्यता	-3031
ीलाई	-3032
▁नभई	-3033
कला	-3034
ेदेखि	-3035
▁युनि	-3036
▁धार्मिक	-3037
▁बढ्न	-3038
▁परिणाम	-3039
▁जिल्लाको	-3040
जस्ता	-3041
▁बढ्	-3042
टिङ	-3043
▁व्यक्तिगत	-3044
▁समर्थन	-3045
▁लुम्बिनी	-3046
▁नियन्त्रणमा	-3047
भरि	-3048
▁नति	-3049
ोका	-3050
▁ललित	-3051
▁पुष्प	-3052
ाउनुपर्ने	-3053
▁वाणिज्य	-3054
▁अक्	-3055
▁समग्र	-3056
▁शर्माले	-3057
▁थुप	-3058
▁निश्चित	-3059
ङ्गा	-3060
▁दलको	-3061
▁यद्यपि	-3062
वाई	-3063
भिजन	-3064
▁उपम	-3065
▁सामान	-3066
▁हिजो	-3067
▁कोठा	-3068
अन्तर्गत	-3069
▁प्रदेशसभा	-3070
▁भारतले	-3071
पुरमा	-3072
▁कुराकानी	-3073
▁लाग्यो	-3074
▁रूप	-3075
▁सबैको	-3076
साधारण	-3077
▁३१	-3078
▁गोर	-3079
▁जुट	-3080
ेमा	-3081
र्षिक	-3082
रामा	-3083
▁थालेका	-3084
▁८०	-3085
▁सिका	-3086
▁विमानस्थल	-3087
▁सुख	-3088
▁परिस्थिति	-3089
▁पार्टीले	-3090
▁वर्त	-3091
▁आधारित	-3092
▁नआ	-3093
ेलिया	-3094
▁उदाहरण	-3095
▁उनीहरूले	-3096
▁पुरानो	-3097
हारी	-3098
▁भर्ना	-3099
▁हेर्ने	-3100
▁तथ्यांक	-3101
▁दलित	-3102
▁कट	-3103
समिति	-3104
▁प्रहरीको	-3105
नगर	-3106
▁उनीहरूको	-3107
द्रा	-3108
▁अम	-3109
▁पार्ने	-3110
परेको	-3111
▁रोजगार	-3112
भने	-3113
▁कम्पनीको	-3114
▁लाभ	-3115
ग्रा	-3116
▁फोटो	-3117
▁पछा	-3118
▁जग	-3119
धुनिक	-3120
ज्ञानिक	-3121
मन्त्रीले	-3122
▁मार्ग	-3123
▁राखेका	-3124
खेत	-3125
▁शाही	-3126
▁शरीर	-3127
▁लगाएर	-3128
▁न्यून	-3129
▁भर	-3130
निर्माण	-3131
फिक	-3132
▁प्रदेशको	-3133
तह	-3134
क्कै	-3135
▁कोरिया	-3136
▁लोकतान्त्रिक	-3137
▁रिपोर्ट	-3138
▁सुन्दर	-3139
▁शव	-3140
प्रधान	-3141
किलो	-3142
▁दोहो	-3143
▁भारतमा	-3144
▁हित	-3145
▁सिट	-3146
आफ	-3147
किने	-3148
िमि	-3149
▁भाइरस	-3150
▁न्यायाधीश	-3151
▁यथा	-3152
▁उपस्थित	-3153
▁विश्ले	-3154
▁गराएको	-3155
▁जात	-3156
त्ती	-3157
▁पुग्न	-3158
▁अवि	-3159
▁मेडिकल	-3160
▁खुसी	-3161
▁प्रेस	-3162
▁केन्द्रित	-3163
▁कम्युनिष्ट	-3164
त्तै	-3165
▁महिनामा	-3166
▁सडकमा	-3167
पथ	-3168
▁त्यसो	-3169
ालो	-3170
▁माधव	-3171
▁सामुदायिक	-3172
▁खानेपानी	-3173
छु	-3174
▁कानुनी	-3175
एकाले	-3176
▁ढंग	-3177
▁सञ्चालक	-3178
▁स्वदेश	-3179
क्रो	-3180
▁यात्रु	-3181
रहे	-3182
▁ऊर्जा	-3183
▁सबैले	-3184
▁फल	-3185
कारि	-3186
▁चर्च	-3187
▁नियुक्त	-3188
▁हिंसा	-3189
▁गल्	-3190
▁अख्तियार	-3191
▁विभागले	-3192
▁यता	-3193
▁तपाईंको	-3194
▁महाधिवेशन	-3195
च्छा	-3196
पुरको	-3197
▁प्रार	-3198
जाइ	-3199
▁ज्ञा	-3200
▁समेट	-3201
▁संवैधानिक	-3202
र्का	-3203
▁नागरिकता	-3204
तक	-3205
▁निर्धारण	-3206
▁बंग	-3207
▁उपस्थिति	-3208
▁सरोकार	-3209
▁तर्क	-3210
▁बनाउ	-3211
▁चुना	-3212
त्न	-3213
एक	-3214
▁उपयुक्त	-3215
बन्दी	-3216
▁जनप्रति	-3217
▁लामा	-3218
▁जिल्लाका	-3219
▁कार्यरत	-3220
▁सार	-3221
▁सम्पर्क	-3222
वार्ड	-3223
ेली	-3224
जमा	-3225
घाट	-3226
▁भत्	-3227
▁भग	-3228
▁जाँच	-3229
▁प्रतिक्रिया	-3230
▁पाकिस्ता	-3231
▁उद्घाटन	-3232
▁साझा	-3233
वार्य	-3234
श्र	-3235
▁उजुरी	-3236
▁केसी	-3237
नीतिक	-3238
▁स्वीकार	-3239
न्तव्य	-3240
पक्षी	-3241
▁कानून	-3242
▁प्रग	-3243
▁कडा	-3244
▁समाजमा	-3245
▁काठमाडौंमा	-3246
▁प्रदेशका	-3247
▁मर्म	-3248
▁चुनावमा	-3249
▁छिम	-3250
▁स्वय	-3251
▁अनिवार्य	-3252
▁भाडा	-3253
ेन्स	-3254
▁तराई	-3255
हरुसँग	-3256
भूत	-3257
चन्द्र	-3258
▁खड्का	-3259
▁पहिरो	-3260
▁निम्ति	-3261
▁गण्डकी	-3262
▁लक्ष्	-3263
▁श्रीमती	-3264
पण	-3265
▁नगरी	-3266
▁बनाएका	-3267
▁पुगेर	-3268
▁कतै	-3269
▁कार्यक्रमको	-3270
लका	-3271
व्र	-3272
▁अनुरोध	-3273
▁अवधिमा	-3274
सहितको	-3275
ुपयोग	-3276
▁दिउँ	-3277
▁चौधरी	-3278
▁भरत	-3279
ङका	-3280
कूल	-3281
▁उनीहरुलाई	-3282
▁बार	-3283
▁बसेका	-3284
टेड	-3285
त्कार	-3286
▁भन्सार	-3287
▁बला	-3288
नियर	-3289
▁मगर	-3290
दूर	-3291
कारण	-3292
▁सशस्त्र	-3293
▁पृथ	-3294
▁सै	-3295
मिला	-3296
▁खेल्ने	-3297
▁सन्दर्भमा	-3298
▁मिति	-3299
▁बेलायत	-3300
▁व्यावसाय	-3301
▁महसुस	-3302
▁जोग	-3303
▁कहिल्यै	-3304
▁प्रारम्भ	-3305
▁प्राकृतिक	-3306
▁कम्युनिस्ट	-3307
▁नतिजा	-3308
▁चढ	-3309
▁लामि	-3310
▁मोबाइल	-3311
▁भनाई	-3312
▁मौसम	-3313
▁दबाब	-3314
▁एमालेले	-3315
▁टेलि	-3316
▁वर्तमान	-3317
▁खि	-3318
▁एमालेका	-3319
लक	-3320
राको	-3321
▁फेला	-3322
▁कोइराला	-3323
र्नु	-3324
▁मोड	-3325
ठी	-3326
▁अत्या	-3327
वात	-3328
मले	-3329
बीचको	-3330
ह्रो	-3331
▁दुर्घटना	-3332
▁थपि	-3333
ण्डै	-3334
व्यक्ति	-3335
▁तामाङ	-3336
ट्टा	-3337
▁पुस्ता	-3338
▁जनालाई	-3339
▁राजीनामा	-3340
▁पर्याप्त	-3341
▁झन्	-3342
▁अनलाइनखबर	-3343
▁वर्षदेखि	-3344
चर	-3345
▁गरिसकेको	-3346
▁दोष	-3347
नीति	-3348
▁लामिछा	-3349
▁ट्या	-3350
▁चलि	-3351
▁हाइ	-3352
त्सा	-3353
▁एन्	-3354
प्रपा	-3355
श्वास	-3356
▁यसैगरी	-3357
▁आएपछि	-3358
▁मेस	-3359
▁भावना	-3360
▁मिलेर	-3361
▁सम्मेलन	-3362
▁प्रकृति	-3363
▁निगम	-3364
▁ज्या	-3365
▁अधिवेश	-3366
▁त्यस्ता	-3367
▁चिन्ता	-3368
▁चाहिँ	-3369
हानगर	-3370
वाइ	-3371
▁पुस्तक	-3372
▁टी	-3373
निया	-3374
▁क्यान्सर	-3375
▁ढा	-3376
▁महत्	-3377
मार्ट	-3378
▁बीचमा	-3379
▁हस्ताक्षर	-3380
▁किनभने	-3381
▁प्रकार	-3382
▁स्वागत	-3383
▁व्यक्तिको	-3384
▁साझ	-3385
▁उचित	-3386
▁सिद्धान्त	-3387
▁बुझा	-3388
यनमा	-3389
▁निर्माणका	-3390
मेश	-3391
ष्णु	-3392
▁गाउँमा	-3393
डर	-3394
▁निस्	-3395
भाइ	-3396
▁३२	-3397
▁झण्डै	-3398
▁प्रहार	-3399
व्या	-3400
▁लागी	-3401
▁अभिभाव	-3402
▁नसक्	-3403
▁अग	-3404
▁हस्तान्तरण	-3405
▁पालिका	-3406
▁नगद	-3407
्याल	-3408
▁अभ्यास	-3409
देवी	-3410
▁भोट	-3411
विध	-3412
▁पार्न	-3413
▁प्ले	-3414
माव	-3415
▁जिम्मा	-3416
स्ट्र	-3417
▁तोकिएको	-3418
▁तिनी	-3419
▁जमिन	-3420
▁सजा	-3421
रोह	-3422
▁हासिल	-3423
▁हैन	-3424
सीसी	-3425
▁बहस	-3426
▁उम्मेदवारी	-3427
▁जान्छ	-3428
लम्ब	-3429
▁काँग	-3430
▁धान	-3431
हुँ	-3432
▁इतिहास	-3433
▁विकासका	-3434
▁छानबिन	-3435
लगायतका	-3436
▁छिटो	-3437
▁सरकारका	-3438
▁पाइएको	-3439
▁जनशक्ति	-3440
मूल	-3441
▁मोर्चा	-3442
▁अभिने	-3443
▁चुनावी	-3444
र्ति	-3445
लादेश	-3446
▁जहा	-3447
▁दिउँसो	-3448
▁वार्षिक	-3449
चक	-3450
ताव	-3451
▁दौ	-3452
▁सर्वसाधारण	-3453
तिहासिक	-3454
▁हिसाबले	-3455
▁भएकोले	-3456
▁तेल	-3457
▁मोर	-3458
▁बुद्ध	-3459
▁अलि	-3460
▁आलोचना	-3461
),	-3462
▁औपचारिक	-3463
श्वर	-3464
युक्ति	-3465
▁शासन	-3466
शासन	-3467
▁जनप्रतिनिधि	-3468
▁अभिनय	-3469
▁संघका	-3470
▁महिलाको	-3471
▁काँग्रेस	-3472
▁महोत्सव	-3473
▁ठेक्का	-3474
▁मेगा	-3475
▁प्रतिबद्धता	-3476
भे	-3477
गढी	-3478
सामा	-3479
ीक	-3480
शुप	-3481
▁बहादुर	-3482
सुकै	-3483
भित्रै	-3484
▁प्राथमिकता	-3485
▁दिनको	-3486
▁भएमा	-3487
००	-3488
▁एजेन्	-3489
▁सजिलो	-3490
▁विद्यालयमा	-3491
डिङ	-3492
▁राजस्व	-3493
पर्छ	-3494
▁मन्त्रिपरिषद्	-3495
▁गाह्रो	-3496
▁उत्सा	-3497
▁नेपाललाई	-3498
▁धारा	-3499
▁राप्रपा	-3500
▁४५	-3501
▁कैला	-3502
▁खारे	-3503
▁प्रवृत्ति	-3504
▁साधारण	-3505
▁पछाडि	-3506
▁अत्यन्त	-3507
▁विभा	-3508
▁घरेलु	-3509
▁मिनेटमा	-3510
दछन्	-3511
▁मेला	-3512
▁प्रवाह	-3513
▁सब	-3514
▁रक्त	-3515
▁सूर्य	-3516
▁रेल	-3517
विन	-3518
▁चित्र	-3519
▁रगत	-3520
▁पञ्च	-3521
▁कल	-3522
संख्या	-3523
प्पणी	-3524
▁नियुक्ति	-3525
▁उपकरण	-3526
प्रमुख	-3527
▁प्रतियोगितामा	-3528
बे	-3529
ारायण	-3530
▁अदालतमा	-3531
▁मुलुकमा	-3532
▁सांस्कृतिक	-3533
ठो	-3534
▁सेवन	-3535
थम	-3536
▁राउ	-3537
ीया	-3538
▁दिनुपर्ने	-3539
नल	-3540
सिंह	-3541
▁पदमा	-3542
▁साढे	-3543
▁मले	-3544
▁बमोजिम	-3545
▁रोक्न	-3546
▁आफन्त	-3547
▁कमी	-3548
▁अन्	-3549
रिक	-3550
▁आधा	-3551
पूर्वक	-3552
▁प्ला	-3553
▁मुलुकको	-3554
▁केन्द्रका	-3555
र्घ	-3556
▁शेरबहादुर	-3557
यको	-3558
▁व्यवस्थाप	-3559
▁चयन	-3560
चौ	-3561
तरा	-3562
▁पुँजी	-3563
▁ब्याज	-3564
▁बन्दै	-3565
▁उद्धार	-3566
ट्या	-3567
▁स्थित	-3568
▁प्राय	-3569
▁ऐतिहासिक	-3570
वीर	-3571
▁चालु	-3572
▁केवल	-3573
▁सुर्	-3574
तावास	-3575
कट	-3576
▁बिजु	-3577
▁चर्चित	-3578
▁मल	-3579
▁सरकारमा	-3580
▁निष्कर्ष	-3581
▁थुप्रै	-3582
▁राज्यको	-3583
▁२०७४	-3584
जाने	-3585
▁निर्मा	-3586
▁देखिने	-3587
▁उपाधि	-3588
▁रक्षा	-3589
▁जेल	-3590
▁काउ	-3591
▁तुलनामा	-3592
▁भेला	-3593
घु	-3594
▁उत्प	-3595
▁दशक	-3596
▁पशुप	-3597
▁केन्द्रमा	-3598
▁हाँ	-3599
▁जसरी	-3600
▁लकडाउन	-3601
ोरै	-3602
▁सुदूर	-3603
▁प्रगति	-3604
▁समृद्धि	-3605
▁आह	-3606
▁उपमहानगर	-3607
▁संकेत	-3608
▁सीमित	-3609
▁पीडा	-3610
फि	-3611
▁देखिएका	-3612
▁निरन्तरता	-3613
श्चा	-3614
▁दुर	-3615
▁गणतन्त्र	-3616
▁भन्नु	-3617
▁जनसंख्या	-3618
▁राजदू	-3619
नुपर्यो	-3620
▁ट्रम्प	-3621
▁सुनिश्चित	-3622
बास	-3623
▁प्रसारण	-3624
टिल	-3625
इरहेको	-3626
▁प्रावधान	-3627
फर	-3628
▁तथ्य	-3629
▁मेल	-3630
▁फैसला	-3631
▁अवार्ड	-3632
यन्त्र	-3633
वत	-3634
▁कदम	-3635
▁संविधानसभा	-3636
न्धु	-3637
▁किश	-3638
▁सदर	-3639
ियम	-3640
र्मा	-3641
▁लामिछाने	-3642
▁झु	-3643
▁प्रष्ट	-3644
▁प्रतिनि	-3645
▁राजनीतिमा	-3646
काे	-3647
▁टिकट	-3648
▁श्रमिक	-3649
ब्र	-3650
भाविक	-3651
▁सुनु	-3652
▁छिमेकी	-3653
▁लाइन	-3654
▁लगातार	-3655
▁निकट	-3656
ेशन	-3657
▁जनतालाई	-3658
▁ब्	-3659
▁परराष्ट्र	-3660
दीको	-3661
खेल	-3662
▁नगरेको	-3663
▁प्रतिवेद	-3664
शाली	-3665
स्की	-3666
▁आयोजनाको	-3667
▁वास्तविक	-3668
▁तहका	-3669
▁माथ	-3670
ईं	-3671
▁उभि	-3672
▁पाउँ	-3673
टाले	-3674
बारी	-3675
▁तपाईंले	-3676
▁बुझ्न	-3677
▁तोक	-3678
जन्य	-3679
क्रा	-3680
▁यादवले	-3681
▁मुस्	-3682
▁माध्यमबाट	-3683
▁अर्थमन्त्री	-3684
▁राजमार्ग	-3685
▁द्वन्द	-3686
▁त्यतिबेला	-3687
▁परिचालन	-3688
▁घो	-3689
हामी	-3690
्यता	-3691
▁निः	-3692
▁अन्न	-3693
▁नेताहरु	-3694
न्थ	-3695
▁३३	-3696
▁सम्पाद	-3697
जस्तै	-3698
▁हुनसक्छ	-3699
तीको	-3700
जसो	-3701
▁ढंगले	-3702
▁नरहेको	-3703
▁बाढी	-3704
ियो	-3705
▁गराइ	-3706
▁परिषद्	-3707
▁टिप्पणी	-3708
शाला	-3709
▁तिर	-3710
▁बनाइएको	-3711
▁कार्यालयका	-3712
▁असन्तु	-3713
▁मञ्च	-3714
▁बेलामा	-3715
▁हार	-3716
▁पाउ	-3717
▁२०८	-3718
▁खोजि	-3719
टीमा	-3720
▁बग	-3721
▁कांग्रेसको	-3722
्याम	-3723
▁खटि	-3724
▁एवम्	-3725
▁थोरै	-3726
▁निस्क	-3727
गोल	-3728
▁चिया	-3729
▁आपूर्ति	-3730
चु	-3731
▁गरिन्	-3732
▁पहिला	-3733
▁तीव्र	-3734
▁वाम	-3735
▁निरा	-3736
▁अनुहार	-3737
▁पात्र	-3738
ल्पना	-3739
▁संविधानको	-3740
▁दावी	-3741
कुरा	-3742
▁पर्दछ	-3743
्रोल	-3744
▁गरिरह	-3745
जान	-3746
र्द	-3747
सेवा	-3748
नित	-3749
▁फूल	-3750
▁काट	-3751
▁आधुनिक	-3752
▁नभएर	-3753
▁दिन्छ	-3754
▁गाँ	-3755
▁विजय	-3756
▁अर्य	-3757
▁खर्ब	-3758
▁गुरुङले	-3759
▁मद्द	-3760
▁जनाएका	-3761
ियर	-3762
▁व्यावसायिक	-3763
प्रिय	-3764
स्टर	-3765
▁बहि	-3766
▁भट्टराईले	-3767
▁भनिन्छ	-3768
▁२०७५	-3769
र्पा	-3770
▁मन्त्रालयको	-3771
कृष्ण	-3772
▁भ्या	-3773
वार्ता	-3774
वद्ध	-3775
रीका	-3776
▁क्वार	-3777
राइ	-3778
कामना	-3779
▁तनाव	-3780
▁विश्लेषण	-3781
▁निर्माणमा	-3782
▁पत्ता	-3783
▁विकासको	-3784
स्को	-3785
▁सिने	-3786
▁बुढा	-3787
▁प्रशिक्षक	-3788
▁हक	-3789
▁खोजेको	-3790
▁न्यौ	-3791
▁प्रशिक्षण	-3792
▁व्यवस्थित	-3793
▁सापको	-3794
▁हप्ता	-3795
जनक	-3796
▁तलब	-3797
▁विजयी	-3798
▁विधान	-3799
▁गोरखा	-3800
▁ग्राहक	-3801
▁संचालन	-3802
▁देशभर	-3803
▁समितिमा	-3804
▁आउनु	-3805
चो	-3806
▁वैज्ञानिक	-3807
जुर	-3808
▁स्वार्थ	-3809
▁पर्यटकीय	-3810
▁कन्	-3811
▁एनआर	-3812
डको	-3813
मका	-3814
▁२०५	-3815
▁फोर	-3816
▁ठु	-3817
▁सम्मेलनमा	-3818
नीको	-3819
▁जनाले	-3820
▁लगाए	-3821
▁डिजि	-3822
▁बालुवा	-3823
▁सेन्टर	-3824
▁जलविद्य	-3825
▁आफै	-3826
▁वर्षीया	-3827
▁महत्त्व	-3828
▁पसल	-3829
▁देखाएको	-3830
▁विना	-3831
श्रम	-3832
▁जसको	-3833
▁नदिने	-3834
भेद	-3835
▁बरु	-3836
▁अप्	-3837
▁उपाय	-3838
▁कानू	-3839
▁९०	-3840
▁शो	-3841
▁दिला	-3842
▁सँगै	-3843
▁चेताव	-3844
▁लेखा	-3845
▁पशु	-3846
▁पर्न	-3847
▁परे	-3848
बो	-3849
कोण	-3850
लिया	-3851
कमल	-3852
जेता	-3853
इने	-3854
▁न्यौपा	-3855
▁अष्ट्र	-3856
▁बनाए	-3857
▁७५	-3858
▁गणेश	-3859
▁टाइ	-3860
▁व्यक्तिले	-3861
▁लिए	-3862
▁समूहले	-3863
▁गरिनेछ	-3864
रीत	-3865
▁मिनेट	-3866
▁चौथो	-3867
▁अथ	-3868
▁विभागका	-3869
▁फोहोर	-3870
▁व्यक्तिलाई	-3871
िमा	-3872
▁बुटवल	-3873
लाग	-3874
क्षम	-3875
▁दर्जन	-3876
▁आवेद	-3877
▁पठाउने	-3878
ेलले	-3879
नन्द	-3880
▁गराएका	-3881
▁खाद्य	-3882
▁सफलता	-3883
न्दे	-3884
नलाई	-3885
हरूसँग	-3886
▁कविता	-3887
▁खुशी	-3888
▁सहयोगमा	-3889
▁चेतावनी	-3890
▁होट	-3891
▁वर्षअघि	-3892
▁अभिव्यक्ति	-3893
▁असफल	-3894
▁सुदूरपश्चिम	-3895
एसपी	-3896
▁दिल्	-3897
▁मानिसको	-3898
▁अर्थात	-3899
क्सी	-3900
▁युरोप	-3901
▁संसदमा	-3902
▁गयो	-3903
दिने	-3904
▁चीनको	-3905
▁भण्डारीले	-3906
▁गृहमन्त्री	-3907
लिज	-3908
▁विगतमा	-3909
▁डर	-3910
सके	-3911
टीको	-3912
▁मानिन्छ	-3913
▁द्वन्द्व	-3914
▁न्यु	-3915
▁विविध	-3916
▁आस	-3917
▁बनि	-3918
ध्यापक	-3919
माओवादी	-3920
▁एकजना	-3921
▁बिदा	-3922
र्कीले	-3923
▁सकिएको	-3924
▁भित्	-3925
▁ते	-3926
▁नजिकै	-3927
▁यसबाट	-3928
▁प्रतिबन्ध	-3929
▁चो	-3930
▁उपचारका	-3931
गरमा	-3932
▁अपा	-3933
▁बाह	-3934
▁यसपटक	-3935
▁हालै	-3936
▁विदेशमा	-3937
जनको	-3938
न्थे	-3939
▁अनेक	-3940
▁सैनिक	-3941
ताब	-3942
▁कप्ता	-3943
ेलिक	-3944
▁माओ	-3945
द्व	-3946
▁परिच	-3947
र्को	-3948
▁गर्छु	-3949
▁क्षेत्रीय	-3950
▁एमालेको	-3951
▁स्मार्ट	-3952
▁सहायक	-3953
▁कारवाही	-3954
▁मोटरसाइ	-3955
घर	-3956
रामर्श	-3957
▁पाण्डे	-3958
▁च्याम्प	-3959
▁ओलीको	-3960
▁छे	-3961
वडा	-3962
▁राणा	-3963
▁बहुमत	-3964
चाइ	-3965
लिङ	-3966
▁प्रथम	-3967
लोकन	-3968
▁स्कुल	-3969
प्रधानमन्त्री	-3970
▁लगानीकर्ता	-3971
▁सन्ता	-3972
▁बौ	-3973
स्थलमा	-3974
रूप	-3975
तिका	-3976
▁संवाद	-3977
वनमा	-3978
▁पुष्पकमल	-3979
्छन्	-3980
प्रा	-3981
▁टाढा	-3982
मला	-3983
▁बंगलादेश	-3984
▁सत्त	-3985
▁समारोह	-3986
▁लक्षित	-3987
▁पठाएको	-3988
▁थालेपछि	-3989
▁माछा	-3990
▁०७	-3991
शाखा	-3992
▁कसैलाई	-3993
▁उत्पन्न	-3994
▁गर्नुहोस्	-3995
नाका	-3996
▁ट्राफिक	-3997
▁निर्यात	-3998
षे	-3999
आइ	-4000
▁दीर्घ	-4001
▁हल	-4002
▁पुगे	-4003
▁संकट	-4004
▁लागु	-4005
▁त्रिभु	-4006
वमा	-4007
▁जीवनमा	-4008
▁लगाएका	-4009
्वान	-4010
▁महेन्द्र	-4011
▁बोल्दै	-4012
▁छै	-4013
▁खारेज	-4014
▁वडाध्यक्ष	-4015
▁विश्वकप	-4016
▁प्रस्तु	-4017
▁समयमै	-4018
अहिले	-4019
▁जनकपुर	-4020
▁गन्तव्य	-4021
िल	-4022
▁गायक	-4023
▁देख्न	-4024
▁थु	-4025
▁जय	-4026
▁स्थल	-4027
▁संस्थाको	-4028
▁निःशुल्क	-4029
▁इच्छा	-4030
▁इन्जि	-4031
▁देउवाले	-4032
▁स्थग	-4033
लिन	-4034
र्दै	-4035
▁लाग्न	-4036
ंकर	-4037
▁तिमी	-4038
व्यापी	-4039
▁नगरपालिकाले	-4040
▁सजाय	-4041
ाउको	-4042
▁प्रतिनिध	-4043
▁पाइने	-4044
▁राज्यले	-4045
▁जटिल	-4046
द्र्	-4047
जात	-4048
▁रोकि	-4049
▁रात	-4050
▁हस्त	-4051
द्रो	-4052
▁रवि	-4053
▁विकासमा	-4054
▁खेल्न	-4055
रिएको	-4056
▁गोली	-4057
▁प्रशास	-4058
▁परामर्श	-4059
▁सिन्धु	-4060
क्सा	-4061
▁पुर्याउने	-4062
▁मतदाता	-4063
▁दायित्व	-4064
▁तु	-4065
▁व्यापारी	-4066
▁चेत	-4067
▁बचत	-4068
▁मौका	-4069
▁देखियो	-4070
▁प्रधानमन्त्रीले	-4071
▁त्रिभुवन	-4072
मुकाम	-4073
क्षी	-4074
▁सुत्	-4075
▁बर	-4076
▁पालना	-4077
▁नम्ब	-4078
लाम	-4079
▁निवेदन	-4080
▁शेर्पा	-4081
▁आयोजनामा	-4082
▁पोखरेलले	-4083
▁प्रकारको	-4084
▁सफा	-4085
▁बाँच	-4086
क्सन	-4087
▁पर्यो	-4088
▁खासै	-4089
▁प्राधिकरणले	-4090
र्चु	-4091
मल	-4092
▁फ्रा	-4093
▁रहेर	-4094
▁गरौं	-4095
▁जोडिएको	-4096
सिन्दा	-4097
▁पानीको	-4098
ईको	-4099
ालका	-4100
▁शेयर	-4101
▁मासु	-4102
▁प्रसाद	-4103
▁बसो	-4104
▁स्वयं	-4105
▁आवास	-4106
▁तल	-4107
▁सुर्खेत	-4108
▁विनियोजन	-4109
▁महिनाको	-4110
▁विष्णु	-4111
▁आह्वान	-4112
▁कार्कीले	-4113
चीमा	-4114
▁बोकेर	-4115
▁समयदेखि	-4116
▁पत्रिका	-4117
ानै	-4118
▁कम्तीमा	-4119
नुपा	-4120
वादीले	-4121
▁पर्दैन	-4122
्याङ्क	-4123
गमा	-4124
▁बढ्दो	-4125
▁नगरपालिकाका	-4126
नुपर्दछ	-4127
▁न्यौपाने	-4128
पात	-4129
▁निषे	-4130
▁बिष	-4131
▁दूध	-4132
सै	-4133
▁संस्थागत	-4134
▁जहाज	-4135
▁म्यान	-4136
▁बराबरको	-4137
▁शिक्ष	-4138
▁सदरमुकाम	-4139
▁मद्दत	-4140
▁कामको	-4141
वर्ष	-4142
▁आउँदा	-4143
▁प्रतिशतले	-4144
▁२०७६	-4145
▁वीरगञ्ज	-4146
्यौं	-4147
▁मुक्त	-4148
▁आयोगको	-4149
▁रेक	-4150
▁अवरोध	-4151
▁आइपुग	-4152
▁दै	-4153
द्योग	-4154
ब्जा	-4155
▁अमेरिकाको	-4156
न्देही	-4157
▁संस्थाले	-4158
यौँ	-4159
▁नवी	-4160
▁नागरिकको	-4161
र्थी	-4162
▁लागिएको	-4163
नुपातिक	-4164
▁डिजाइ	-4165
म्बु	-4166
▁राजेन्द्र	-4167
▁कमल	-4168
▁कतार	-4169
▁यसबारे	-4170
▁रेडियो	-4171
र्ती	-4172
▁स्मरण	-4173
▁दृष्टिकोण	-4174
▁प्रोत्सा	-4175
▁नाटक	-4176
स्वा	-4177
▁पढ्न	-4178
▁वर्षसम्म	-4179
▁बस्ती	-4180
प्ले	-4181
▁अल्	-4182
▁डिजिटल	-4183
▁कुट	-4184
जुन	-4185
रुवा	-4186
सङ्	-4187
आफ्न	-4188
▁केसीले	-4189
▁मात्रामा	-4190
▁निज	-4191
र्द्ध	-4192
▁भोग	-4193
▁मलेसिया	-4194
▁उत्र	-4195
▁मैदानमा	-4196
▁माटो	-4197
▁ठो	-4198
▁पार्टीमा	-4199
▁राख्नु	-4200
▁प्रकरण	-4201
▁पुराना	-4202
▁महाशाखा	-4203
▁बताउनु	-4204
▁दृश्य	-4205
▁इट	-4206
याम	-4207
▁नेताहरुले	-4208
ितो	-4209
वहार	-4210
▁प्रक्रियामा	-4211
युद्ध	-4212
्लो	-4213
हुन्थ्यो	-4214
▁दिवस	-4215
रोधी	-4216
ौल	-4217
न्यायाधीश	-4218
▁उपमहानगरपालिका	-4219
▁अप्र	-4220
▁क्षेत्रलाई	-4221
▁बलात्कार	-4222
▁३६	-4223
▁चालक	-4224
▁सेत	-4225
▁किसिमको	-4226
▁बौद्ध	-4227
▁सधैं	-4228
वानी	-4229
▁जन्मि	-4230
▁भइरहेका	-4231
▁हिन्द	-4232
▁यसो	-4233
▁ध्या	-4234
▁प्रतिनिधित्व	-4235
▁फिल्ममा	-4236
▁चाड	-4237
कालमा	-4238
▁गुणस्तर	-4239
▁पूँजी	-4240
▁कठिन	-4241
▁छुट्टै	-4242
▁समानुपातिक	-4243
राव	-4244
ँस	-4245
▁एकल	-4246
▁कपडा	-4247
▁बिजुली	-4248
▁रमेश	-4249
▁भएकी	-4250
▁एश	-4251
▁सालको	-4252
▁चलाउन	-4253
▁लाल	-4254
▁छाया	-4255
▁सल	-4256
▁धन्य	-4257
▁नभएका	-4258
▁कास्की	-4259
▁निर्वाह	-4260
▁परिचय	-4261
▁ठीक	-4262
▁प्रयोगकर्ता	-4263
हिरो	-4264
ूट	-4265
वक्ता	-4266
ारीरिक	-4267
▁बनाउनु	-4268
▁बिता	-4269
फोन	-4270
ड्ने	-4271
▁खाली	-4272
▁खतरा	-4273
नाम	-4274
▁आवेदन	-4275
रिङ	-4276
▁लक्षण	-4277
फ्ट	-4278
▁छलफलमा	-4279
ंकन	-4280
▁सङ्ख्या	-4281
▁पक्षले	-4282
कर्षण	-4283
▁भीम	-4284
▁शरीरमा	-4285
देख	-4286
ुट्टा	-4287
▁विषयलाई	-4288
▁खति	-4289
▁मधेसी	-4290
▁अमेरिकामा	-4291
इरहेका	-4292
▁आधारभूत	-4293
▁मुटु	-4294
▁५५	-4295
नलमा	-4296
▁अग्	-4297
▁हेट	-4298
▁तयारीमा	-4299
पुरका	-4300
▁किनकि	-4301
▁सकेका	-4302
राग	-4303
▁मौलिक	-4304
▁दशैं	-4305
▁दुरुपयोग	-4306
▁जनजा	-4307
▁दर्शक	-4308
▁काठमाण्ड	-4309
कुमारी	-4310
▁जितेको	-4311
र्दा	-4312
▁सङ्ग	-4313
▁सूची	-4314
संस्था	-4315
▁खण्डमा	-4316
▁हुँदैछ	-4317
▁ठहर	-4318
▁राईले	-4319
▁एसिया	-4320
▁लेखक	-4321
▁शारीरिक	-4322
▁सर्वा	-4323
▁जडान	-4324
ंदै	-4325
▁तरिकाले	-4326
▁सरस	-4327
▁पर्दा	-4328
▁लक्ष्मी	-4329
▁शंका	-4330
▁खतिवडा	-4331
नारायण	-4332
▁हातमा	-4333
म्स	-4334
▁विष्ट	-4335
्याउने	-4336
▁रहन	-4337
▁बढाएको	-4338
पत्रमा	-4339
▁प्रकारका	-4340
दीप	-4341
▁हुनसक्ने	-4342
▁मेरा	-4343
▁डेढ	-4344
मावली	-4345
▁फर्का	-4346
▁घटनामा	-4347
▁रहेकाले	-4348
▁इजला	-4349
स्तरीय	-4350
▁नागरिकलाई	-4351
▁चन्द	-4352
ल्पा	-4353
मण	-4354
▁दूतावास	-4355
▁सिक	-4356
▁प्रधानमन्त्रीको	-4357
▁समी	-4358
▁सम्व	-4359
▁विधेय	-4360
▁कार्ड	-4361
▁जागिर	-4362
▁एण्ड	-4363
▁उद्देश्यले	-4364
ेदारी	-4365
▁गौर	-4366
भूति	-4367
▁म्याद	-4368
दृ	-4369
▁चलन	-4370
▁मिश्र	-4371
टार	-4372
▁सन्तोष	-4373
▁रौ	-4374
वनको	-4375
▁काठमाडौंको	-4376
▁आयोजक	-4377
▁बैं	-4378
हरुबाट	-4379
▁पेशा	-4380
▁गावि	-4381
▁शुभकामना	-4382
िनो	-4383
नीले	-4384
भग	-4385
▁चाँड	-4386
▁अवै	-4387
▁खालको	-4388
▁भेटि	-4389
ञ्चन	-4390
कल्प	-4391
▁स्वीकृति	-4392
▁अदालतको	-4393
▁लोकप्रिय	-4394
▁दफा	-4395
▁२०४	-4396
▁चरि	-4397
▁विधा	-4398
▁सुरुवात	-4399
▁आन्दोलनमा	-4400
▁रहन्छ	-4401
▁सप्त	-4402
▁चलचित्रमा	-4403
निर्देश	-4404
▁मुद्दामा	-4405
▁निवास	-4406
▁रिलिज	-4407
▁प्रारम्भिक	-4408
▁हुनाले	-4409
▁ल्याएर	-4410
▁जिम्मेवार	-4411
▁लागत	-4412
▁चाहना	-4413
▁क्यान	-4414
▁चलाउने	-4415
▁वृ	-4416
▁संघको	-4417
उनुपर्ने	-4418
▁बिना	-4419
▁खनाल	-4420
▁समुदायको	-4421
▁नगरपालिकाको	-4422
▁जनाइएको	-4423
उड	-4424
जोरी	-4425
▁टाउको	-4426
▁संघले	-4427
▁विद्युतीय	-4428
षि	-4429
▁होम	-4430
▁नपाउने	-4431
▁उसलाई	-4432
▁कार्यान्वयनमा	-4433
रहने	-4434
क्षेत्र	-4435
▁सरुवा	-4436
▁वर्षका	-4437
▁ध्याना	-4438
▁पन्त	-4439
▁अथवा	-4440
▁मिल्ने	-4441
▁राजदूत	-4442
दिएको	-4443
▁परिवारका	-4444
▁स्तर	-4445
▁हावा	-4446
ेमी	-4447
▁टीका	-4448
▁व्यापक	-4449
खित	-4450
▁खेलको	-4451
▁घुम्	-4452
",	-4453
▁थियौं	-4454
▁फिल्मको	-4455
▁यहाँका	-4456
▁हेरेर	-4457
हीँ	-4458
▁घरको	-4459
हामीले	-4460
▁अलग	-4461
▁अधिवेशन	-4462
▁सुरुमा	-4463
▁मामिला	-4464
▁रिज	-4465
▁पछ	-4466
▁चिसो	-4467
गण	-4468
गल	-4469
ुप्	-4470
▁मण्ड	-4471
▁हवाई	-4472
▁नेपालीको	-4473
▁एक्स	-4474
▁गतेसम्म	-4475
सीमा	-4476
▁स्ना	-4477
▁एनआरएन	-4478
▁औद्योग	-4479
▁जर्म	-4480
▁मेसिन	-4481
▁संचाल	-4482
त्वमा	-4483
▁गतेदेखि	-4484
यद	-4485
▁दीपक	-4486
▁मर्मत	-4487
▁थिएनन्	-4488
▁सन्तुल	-4489
ल्यान्ड	-4490
▁अध्यादेश	-4491
▁उनीहरूलाई	-4492
▁ओभ	-4493
▁सुनस	-4494
प्टर	-4495
▁एकद	-4496
▁ठेक	-4497
फे	-4498
रेको	-4499
ुञ्ज	-4500
▁बाग	-4501
▁निर्माता	-4502
▁६५	-4503
▁सामना	-4504
▁हुनेछन्	-4505
▁व्यस्त	-4506
गढ	-4507
▁ढुंगा	-4508
▁रेकर्ड	-4509
▁कञ्चन	-4510
▁अगाडी	-4511
▁पत्	-4512
▁परा	-4513
▁पेट्रोल	-4514
र्खा	-4515
▁हतियार	-4516
▁नायिका	-4517
▁पर्ख	-4518
▁बासिन्दा	-4519
▁चेक	-4520
नुहोस्	-4521
किन	-4522
▁खेल्	-4523
केको	-4524
▁असह	-4525
्याउन	-4526
▁नाफा	-4527
▁कसैको	-4528
▁रातो	-4529
▁ध्यानाकर्षण	-4530
▁घट्	-4531
▁खुलेको	-4532
▁शाक्य	-4533
▁बन्यो	-4534
▁प्रेर	-4535
▁परिवारको	-4536
▁आगो	-4537
घटन	-4538
▁अष्ट्रेलिया	-4539
▁संख्यामा	-4540
ईमा	-4541
▁प्रकाशन	-4542
▁आनन्द	-4543
▁वायु	-4544
▁स्थगित	-4545
▁स्कु	-4546
▁आउँदै	-4547
गन	-4548
धारणा	-4549
▁कार्यकाल	-4550
सस	-4551
▁त्या	-4552
स्सा	-4553
▁स्वस्थ	-4554
अप	-4555
▁रोप	-4556
▁सङ्क्रमण	-4557
▁अर	-4558
▁उता	-4559
▁कार्यविधि	-4560
▁१००	-4561
रिक्त	-4562
पान्तरण	-4563
▁खस	-4564
धिकारिक	-4565
▁जोशी	-4566
▁एकदमै	-4567
▁उन्	-4568
▁मसा	-4569
न्ती	-4570
विन्द	-4571
▁गाई	-4572
▁घिमिरे	-4573
▁वर्षपछि	-4574
▁दाहालले	-4575
▁समूहका	-4576
▁निधन	-4577
▁रुपन्देही	-4578
▁रह्यो	-4579
▁नसक्दा	-4580
▁गाउँपालिकाको	-4581
▁नेताले	-4582
▁गाउँपालिकाका	-4583
▁ह्या	-4584
▁कर्मचारीको	-4585
भोग	-4586
▁सभामा	-4587
▁अनौ	-4588
▁प्रबन्ध	-4589
गमती	-4590
▁जसलाई	-4591
▁परिवारलाई	-4592
बुझ	-4593
▁जरि	-4594
▁रेग्	-4595
▁मित्र	-4596
▁लिमि	-4597
छौं	-4598
▁गरिसकेका	-4599
एँ	-4600
▁अच	-4601
▁नवल	-4602
▁दम	-4603
▁लगाइ	-4604
▁धरान	-4605
▁छोटो	-4606
ंख	-4607
▁समृद्ध	-4608
▁यतिबेला	-4609
▁सरोकारवाला	-4610
▁रिय	-4611
▁भागमा	-4612
गरमाथा	-4613
▁बालिका	-4614
▁आधिकारिक	-4615
▁अफि	-4616
▁महिलालाई	-4617
▁देखिए	-4618
▁रणनीति	-4619
▁दाजु	-4620
▁खोला	-4621
रात	-4622
ठन	-4623
▁आयोगका	-4624
▁बाबुराम	-4625
▁बोल	-4626
▁पृथ्वी	-4627
▁आरोपमा	-4628
▁कुर	-4629
▁चरणको	-4630
▁विव	-4631
शै	-4632
स्ति	-4633
▁बित	-4634
▁हृ	-4635
▁अभिभावक	-4636
▁गल्ती	-4637
▁अन्तरि	-4638
▁नामक	-4639
▁हिउँ	-4640
भूमि	-4641
▁२०७७	-4642
▁विभेद	-4643
▁पुग्यो	-4644
▁प्रजातन्त्र	-4645
नीमा	-4646
लाग्	-4647
▁दिशा	-4648
▁तब	-4649
▁तपाइँ	-4650
▁अतिरिक्त	-4651
न्यास	-4652
ल्स	-4653
▁सिक्	-4654
ग्राही	-4655
एनन्	-4656
▁सिनेमा	-4657
▁कप्तान	-4658
▁बाटोमा	-4659
-'	-4660
▁सदस्यीय	-4661
रै	-4662
▁आय	-4663
▁बुबा	-4664
▁धन्यवाद	-4665
▁दीप	-4666
▁कार्यमा	-4667
▁पत्रकारि	-4668
▁गुल्	-4669
▁दिनसम्म	-4670
▁चीनले	-4671
▁थाल्यो	-4672
स्वपा	-4673
▁चलेको	-4674
▁त्यसबेला	-4675
▁घटेको	-4676
▁सत्	-4677
▁सल्लाहकार	-4678
▁संयन्त्र	-4679
▁पढाइ	-4680
▁लैजाने	-4681
▁३७	-4682
▁विपक्षी	-4683
▁बस्नेत	-4684
▁क्रमश	-4685
▁आफैँ	-4686
▁साथमा	-4687
धै	-4688
▁विशेषज्ञ	-4689
▁तस्क	-4690
दैनन्	-4691
▁समाजको	-4692
▁बाइ	-4693
▁देवी	-4694
▁थान	-4695
▁अवधारणा	-4696
▁मेट	-4697
▁मजदुर	-4698
▁एन्ड	-4699
▁प्राथमिकतामा	-4700
्रिक	-4701
▁चलचित्रको	-4702
▁बोल्	-4703
▁विघटन	-4704
▁औद्योगिक	-4705
वृद्धि	-4706
हरी	-4707
▁लिमिटेड	-4708
ारुढ	-4709
▁महिलाले	-4710
▁चल्ने	-4711
▁विद्रो	-4712
▁हटा	-4713
▁हकमा	-4714
▁जोड्ने	-4715
ग्राम	-4716
▁राखि	-4717
▁चलिरहेको	-4718
▁अप्ठ	-4719
▁माल	-4720
वती	-4721
▁बुद्धि	-4722
▁साझेदारी	-4723
▁परिषद	-4724
▁बैंकका	-4725
▁लागेर	-4726
▁म्याग्	-4727
▁अस्पतालको	-4728
होला	-4729
▁३४	-4730
▁माथिल्लो	-4731
▁क्रियाकला	-4732
▁मी	-4733
चे	-4734
स्ने	-4735
▁पहाडी	-4736
▁गर्भ	-4737
यले	-4738
▁सृ	-4739
चार्ज	-4740
झदारी	-4741
▁राखे	-4742
▁अर्जुन	-4743
▁निकुञ्ज	-4744
लुङ	-4745
▁सगरमाथा	-4746
▁पस	-4747
▁कुरालाई	-4748
नुभन्दा	-4749
▁स्रोतले	-4750
▁वर्षे	-4751
बजार	-4752
▁निर्वाचनको	-4753
मुखी	-4754
▁किताब	-4755
▁सत्तारुढ	-4756
▁गर्छौं	-4757
▁सघ	-4758
जनमा	-4759
▁क्रि	-4760
ारण	-4761
सोले	-4762
▁सिरि	-4763
▁केन्द्रले	-4764
▁बुझाइ	-4765
▁गर्दछन्	-4766
▁अस्वी	-4767
गाउँ	-4768
ल्का	-4769
▁३८	-4770
▁हटाउन	-4771
▁लगाइएको	-4772
▁बेल	-4773
▁घि	-4774
▁डिभिजन	-4775
▁इन	-4776
▁लगभग	-4777
▁प्रतियोगिताको	-4778
▁सीप	-4779
▁दस	-4780
▁परम्परागत	-4781
▁भारतबाट	-4782
हत्या	-4783
▁कुराको	-4784
▁समीक्षा	-4785
ियाली	-4786
▁पुग्छ	-4787
▁आकाश	-4788
डीले	-4789
▁गाय	-4790
▁नगर्न	-4791
▁सहयोगी	-4792
▁वेब	-4793
▁अभियानमा	-4794
▁प्रतिवद्ध	-4795
▁समयसम्म	-4796
ृति	-4797
▁संस्कार	-4798
▁मन्त्रालयमा	-4799
▁दुर्घटनामा	-4800
▁राख्दै	-4801
▁हैसिय	-4802
▁साँच	-4803
▁सुनाए	-4804
▁पेस	-4805
▁रेख	-4806
▁ढोका	-4807
▁बाहिरि	-4808
▁मोटरसाइकल	-4809
▁स्वीकृत	-4810
▁प्रधानन्यायाधीश	-4811
▁हौं	-4812
▁महत्त्वपूर्ण	-4813
▁भन्छिन्	-4814
▁थालिएको	-4815
▁चोरी	-4816
▁पुग्	-4817
▁पारेर	-4818
▁बिहे	-4819
▁बाध्यता	-4820
▁भत्ता	-4821
▁तपाईंलाई	-4822
प्ने	-4823
सनमा	-4824
▁पृष्ठ	-4825
▁बेलु	-4826
र्यो	-4827
कां	-4828
▁चाम	-4829
्वि	-4830
▁उपलब्धि	-4831
▁कार्यसमिति	-4832
पुग्	-4833
▁सके	-4834
▁संस्करण	-4835
▁पाण्डेले	-4836
▁सक्नुहुन्छ	-4837
माल	-4838
▁पहिलोपटक	-4839
▁चौधरीले	-4840
मण्ड	-4841
ियत	-4842
▁मनमा	-4843
▁खड्काले	-4844
▁केन्द्रको	-4845
रका	-4846
▁आकर्षण	-4847
▁अत्यधिक	-4848
खण्ड	-4849
▁मिल	-4850
▁सक्षम	-4851
▁आत	-4852
▁नकारात्मक	-4853
धीन	-4854
▁बसि	-4855
प्लव	-4856
▁सरकारसँग	-4857
▁खानेकुरा	-4858
▁कार्यक्रमका	-4859
शेष	-4860
▁कसले	-4861
▁त्र	-4862
▁मल्	-4863
▁नराम	-4864
रहँदा	-4865
▁पुनर्निर्माण	-4866
▁मुक्ति	-4867
निङ	-4868
▁बाँड	-4869
▁खुट्टा	-4870
▁गाउँपालिकामा	-4871
▁यथार्थ	-4872
▁कार्यालयको	-4873
सिए	-4874
तु	-4875
▁च्याम्पियन	-4876
▁अक्सि	-4877
▁गर्नेछन्	-4878
ंगी	-4879
▁चरित्र	-4880
१०	-4881
▁पुलि	-4882
▁बिग्र	-4883
▁मोह	-4884
▁बनाउँछ	-4885
▁बिच	-4886
▁जीवनको	-4887
▁लेखेका	-4888
वादको	-4889
▁डिजाइन	-4890
▁त्यसरी	-4891
▁उपरीक्षक	-4892
▁उदय	-4893
▁केश	-4894
▁टुंगो	-4895
▁थारु	-4896
▁अस्था	-4897
▁विजेता	-4898
▁आशंका	-4899
▁पुर्याउन	-4900
▁ठेकेदार	-4901
▁आन्दोलनको	-4902
▁लेखेको	-4903
जत	-4904
▁४२	-4905
मय	-4906
वेदनशील	-4907
मूलक	-4908
▁फलफ	-4909
▁साध	-4910
ँदे	-4911
▁दलले	-4912
नेन्द्र	-4913
जय	-4914
▁ठुलो	-4915
▁पुगि	-4916
▁हाउ	-4917
▁नसकिने	-4918
▁प्रतिकिलो	-4919
▁सिमा	-4920
▁सञ्जालमा	-4921
वाको	-4922
▁लघु	-4923
▁बयान	-4924
▁भइसकेका	-4925
▁फ्र	-4926
▁घटनाको	-4927
▁प्रमाणपत्र	-4928
▁विज्ञप्तिमा	-4929
▁काल	-4930
▁आयु	-4931
▁तरिका	-4932
▁सम्मा	-4933
▁स्थानिय	-4934
▁तोड	-4935
▁तार	-4936
▁आउँ	-4937
▁हिम	-4938
सत	-4939
▁कोरि	-4940
▁विश्वका	-4941
▁प्रिम	-4942
▁बिभिन्न	-4943
▁भारतका	-4944
▁छाडेर	-4945
सकीय	-4946
▁श्रील	-4947
▁अनलाइनखबरसँग	-4948
अब	-4949
▁खराब	-4950
▁अवरुद्ध	-4951
ुरू	-4952
गन्ज	-4953
बाबु	-4954
▁रमाइ	-4955
वाना	-4956
▁क्य	-4957
▁प्रवद्र्	-4958
▁पशुपति	-4959
शल	-4960
▁मूर्	-4961
▁चल्	-4962
▁१९९	-4963
▁कल्पना	-4964
▁कैद	-4965
▁मक	-4966
▁बिस्तार	-4967
▁भाइरसको	-4968
▁प्रतिवेदनमा	-4969
▁खोज्ने	-4970
▁कमजोरी	-4971
▁रहेछन्	-4972
जल	-4973
भल	-4974
▁सेट	-4975
▁बारा	-4976
▁मासिक	-4977
▁दायर	-4978
▁अगुवा	-4979
▁सेनाले	-4980
▁आचार्यले	-4981
▁विज्ञा	-4982
स्टि	-4983
परा	-4984
मात्रै	-4985
▁निको	-4986
▁कर्मचारीलाई	-4987
▁असु	-4988
▁शिक्षण	-4989
मलाई	-4990
▁महामन्त्री	-4991
▁बागमती	-4992
▁दियो	-4993
▁मुद्रा	-4994
▁मेगावाट	-4995
▁दुईवटा	-4996
▁समस्याको	-4997
न्टा	-4998
▁ग्रहण	-4999
डाइ	-5000
दरबार	-5001
विहीन	-5002
▁लेखिएको	-5003
▁मसान्त	-5004
▁दरबार	-5005
▁सुशासन	-5006
▁बाँध	-5007
▁पठाउन	-5008
▁नीतिगत	-5009
▁नोट	-5010
▁शिवि	-5011
▁क्षेत्रबाट	-5012
ोस्	-5013
▁बरा	-5014
▁भित्र्या	-5015
▁सत	-5016
▁समूहको	-5017
▁महतो	-5018
▁उत्त	-5019
▁भन्यो	-5020
▁अश	-5021
▁प्रवर्द्ध	-5022
टका	-5023
▁भरतपुर	-5024
▁भर्खर	-5025
▁अतिथि	-5026
▁बस्दै	-5027
▁नाच	-5028
आफ्नो	-5029
▁२०७९	-5030
▁स्वर्ण	-5031
▁ललितपुर	-5032
कल्पिक	-5033
▁.	-5034
▁रचना	-5035
▁ल्याइएको	-5036
▁सहि	-5037
▁ठाकुर	-5038
▁खाता	-5039
▁खुवा	-5040
▁सेवामा	-5041
▁दाइ	-5042
▁कुकुर	-5043
▁हल्ला	-5044
ट्स	-5045
▁बसोबास	-5046
▁अस्पतालका	-5047
▁सकेनन्	-5048
खन	-5049
नेका	-5050
योग्य	-5051
यस	-5052
▁गिरी	-5053
सम्मका	-5054
धारा	-5055
▁न्यूनतम	-5056
▁नपर्ने	-5057
in	-5058
▁विभाजन	-5059
ेटिभ	-5060
▁२०७८	-5061
▁अग्रता	-5062
▁घाटा	-5063
▁हेरि	-5064
क्ष्	-5065
जले	-5066
▁एफ	-5067
▁लागे	-5068
▁काभ	-5069
भारत	-5070
▁मदन	-5071
ब्य	-5072
▁योग्य	-5073
छो	-5074
नैतिक	-5075
वस्तु	-5076
▁धर	-5077
▁सडकको	-5078
यनको	-5079
भक्त	-5080
पल्ट	-5081
▁चाहिन्छ	-5082
▁समझदारी	-5083
यू	-5084
धाम	-5085
▁भुस	-5086
नुहु	-5087
▁टेक	-5088
▁आकर्षक	-5089
एच	-5090
▁हजुर	-5091
▁जुनसुकै	-5092
▁विकसित	-5093
राले	-5094
▁संस्थाका	-5095
प्रकाश	-5096
▁हिँ	-5097
▁गराए	-5098
ौली	-5099
▁भुट	-5100
काइ	-5101
पिट	-5102
सक्यो	-5103
▁समुह	-5104
निर्वा	-5105
▁स्टार	-5106
▁अन्नपूर्ण	-5107
▁अडान	-5108
▁सुवे	-5109
▁प्रमाणित	-5110
▁एल	-5111
▁कन्ट	-5112
▁देखेर	-5113
जीको	-5114
▁जातीय	-5115
क्रममा	-5116
▁तस्वीर	-5117
▁चाहन्छु	-5118
▁सर्वाधिक	-5119
▁गोविन्द	-5120
ब्बा	-5121
▁इजरा	-5122
▁जै	-5123
▁यिन	-5124
▁यहाँको	-5125
पोख	-5126
▁नेट	-5127
▁अस्थायी	-5128
विका	-5129
▁व्याख्या	-5130
▁प्रणालीमा	-5131
उमा	-5132
▁भेटिएको	-5133
हाइ	-5134
▁करी	-5135
▁दिनुपर्छ	-5136
▁मानिसहरु	-5137
▁५१	-5138
▁अस्ति	-5139
▁काँ	-5140
▁गर्थे	-5141
▁इन्टरनेट	-5142
किल	-5143
सिङ	-5144
▁आदिवासी	-5145
▁चोक	-5146
▁भक्तपुर	-5147
▁गाउँपालिकाले	-5148
▁सहितको	-5149
▁कोशी	-5150
▁गर्दैन	-5151
▁चिन्	-5152
▁पाठ्य	-5153
स्यौ	-5154
प्रतिको	-5155
सिना	-5156
नुभएका	-5157
▁कोइरालाले	-5158
▁फेस	-5159
▁प्रोत्साहन	-5160
▁काराग	-5161
▁सिंहले	-5162
एई	-5163
▁मिस	-5164
▁विद्यार्थीलाई	-5165
▁पाउनु	-5166
▁रिट	-5167
▁मार्	-5168
▁सजिलै	-5169
▁बढ्छ	-5170
ौंडा	-5171
▁अबको	-5172
▁तोकेको	-5173
▁निजाम	-5174
पले	-5175
▁कूट	-5176
▁दिगो	-5177
▁चर	-5178
▁प्रायः	-5179
स्वास्थ्य	-5180
चोक	-5181
▁प्रविधिको	-5182
▁हिस्सा	-5183
लम्बन	-5184
▁गुणस्तरीय	-5185
▁कर्मचारीले	-5186
▁विपरीत	-5187
मुना	-5188
▁४८	-5189
्वाइ	-5190
▁देशलाई	-5191
▁गरिब	-5192
▁बम	-5193
▁अवैध	-5194
आमा	-5195
▁सूचीमा	-5196
▁काउन्	-5197
नाल्	-5198
▁भाषामा	-5199
▁रोकिएको	-5200
▁पठाइ	-5201
ित्तिकै	-5202
▁रावल	-5203
▁भोज	-5204
▁२०७२	-5205
▁कपि	-5206
▁दिदी	-5207
▁मधु	-5208
▁हस्तक्षेप	-5209
▁अध्यक्षतामा	-5210
▁दशम	-5211
▁नगरपालिकामा	-5212
▁शैली	-5213
▁प्रती	-5214
▁तत्व	-5215
▁पूर्वी	-5216
▁म्यु	-5217
▁ज्ञानेन्द्र	-5218
▁मकवान	-5219
▁ढकालले	-5220
▁फैलि	-5221
▁लिखित	-5222
▁पोखरामा	-5223
▁गुट	-5224
▁खडा	-5225
र्फत्	-5226
▁नैतिक	-5227
मुक्त	-5228
▁आफैंले	-5229
▁श्रीमा	-5230
▁३९	-5231
ञ्जन	-5232
न्थी	-5233
▁पुग्दा	-5234
▁तल्लो	-5235
▁एजेन्सी	-5236
▁दर्शन	-5237
▁हिन्दु	-5238
▁क्वारेन्	-5239
▁पछिल्ला	-5240
टले	-5241
ङ्गो	-5242
▁सम्पदा	-5243
दायी	-5244
ामीण	-5245
▁घिमिरेले	-5246
▁संवेदनशील	-5247
▁भिड	-5248
▁चिकित्सा	-5249
रूपमा	-5250
▁मूल्यमा	-5251
▁रास्वपा	-5252
▁डुब	-5253
▁धनगढी	-5254
वायु	-5255
▁लिइ	-5256
▁चौकी	-5257
▁माओवादीले	-5258
ोषण	-5259
▁अलिक	-5260
क्कली	-5261
▁भिसा	-5262
▁शू	-5263
▁विशि	-5264
▁इन्द्र	-5265
▁नायक	-5266
▁दिल्ली	-5267
▁बढिरहेको	-5268
▁सस्तो	-5269
निर्देशक	-5270
▁रुख	-5271
▁ब्रि	-5272
▁भरि	-5273
▁धनु	-5274
▁भन्नेमा	-5275
▁विश्वव्यापी	-5276
▁कहिलेका	-5277
पू	-5278
▁मन्त्रिपरिषद	-5279
▁एकपटक	-5280
▁गएपछि	-5281
▁खेलेको	-5282
▁बनाई	-5283
▁उपभोग	-5284
▁जाति	-5285
▁कोरोनाको	-5286
▁कीर्ति	-5287
▁उड	-5288
▁बजेटमा	-5289
▁उपप्रमुख	-5290
▁अस्ट्र	-5291
,"	-5292
▁जसका	-5293
▁विस्त	-5294
▁डाइ	-5295
▁बहा	-5296
▁गौरव	-5297
▁बनाउँदै	-5298
▁मस्यौ	-5299
▁जुम्	-5300
▁मानवीय	-5301
▁ग्रामीण	-5302
▁असन्तुष्टि	-5303
▁सवाल	-5304
हरूबाट	-5305
▁आइरहेको	-5306
▁गौतमले	-5307
▁विश्वासको	-5308
▁कम्पनीका	-5309
▁जित्ने	-5310
▁आइसोले	-5311
▁जेन	-5312
एमा	-5313
▁तिहार	-5314
▁उत्साह	-5315
▁चक्र	-5316
▁आत्महत्या	-5317
▁कित्	-5318
▁सेनाको	-5319
▁खाद्या	-5320
▁औँ	-5321
▁समयको	-5322
▁बोल्न	-5323
कका	-5324
▁पाल्	-5325
▁लुट	-5326
▁नलाग	-5327
ख्य	-5328
▁खनालले	-5329
▁दुर्गा	-5330
▁आर्म	-5331
▁प्रदीप	-5332
सिस	-5333
▁धितो	-5334
▁जोडी	-5335
नुको	-5336
ङक	-5337
▁ओभरमा	-5338
▁पोस्ट	-5339
▁कानूनी	-5340
▁त्यसकारण	-5341
▁देखिन	-5342
▁चिनि	-5343
▁परिवारले	-5344
▁गीतमा	-5345
र्प	-5346
▁अवलोकन	-5347
▁फैलिएको	-5348
यमित	-5349
▁विप्लव	-5350
▁जनजाति	-5351
▁बेप	-5352
▁युट	-5353
▁मस्यौदा	-5354
▁विद्यार्थीको	-5355
वश्यक	-5356
▁पर्सा	-5357
▁बजेसम्म	-5358
▁सेवाको	-5359
▁दिनेश	-5360
▁रामचन्द्र	-5361
▁ग्यास	-5362
▁दीर्घकालीन	-5363
▁स्टो	-5364
मैत्री	-5365
ूहिक	-5366
▁प्रहरीका	-5367
▁हद	-5368
▁रमाइलो	-5369
लिम	-5370
स्पद	-5371
▁भगवान	-5372
▁नक्कली	-5373
▁अल्प	-5374
ाउनुपर्छ	-5375
काउने	-5376
▁बनेर	-5377
▁उस्तै	-5378
ेरा	-5379
▁विवेक	-5380
▁पहाड	-5381
त्तर	-5382
▁शाहले	-5383
▁मनोर	-5384
दुई	-5385
▁धेरैले	-5386
▁नमा	-5387
▁छौ	-5388
्यारो	-5389
▁मोहन	-5390
▁दिएपछि	-5391
▁मनाउने	-5392
▁क्याम्पस	-5393
▁अस्पतालले	-5394
साई	-5395
▁बैशाख	-5396
▁भीड	-5397
▁आक्रो	-5398
▁मूल्यांक	-5399
यात्रा	-5400
▁४४	-5401
▁निगर	-5402
▁खुल्ला	-5403
ङ्ग्र	-5404
भरी	-5405
▁जरिवाना	-5406
▁हुन्न	-5407
ड्रो	-5408
▁फाउ	-5409
▁उत्तिकै	-5410
▁समूहमा	-5411
▁शुद्ध	-5412
▁वी	-5413
▁किरण	-5414
▁सामूहिक	-5415
विद्	-5416
जीकरण	-5417
▁बिका	-5418
▁स्थानीयले	-5419
▁भारी	-5420
▁बलमा	-5421
ण्डर	-5422
▁सायद	-5423
▁मानिसले	-5424
▁बाली	-5425
थान	-5426
घरमा	-5427
▁सापकोटा	-5428
▁मल्ल	-5429
▁भेट्न	-5430
ट्टै	-5431
▁निगरानी	-5432
स्थापना	-5433
▁समाजका	-5434
▁सञ्चालित	-5435
्यारा	-5436
▁गोपाल	-5437
कुम	-5438
▁हेटौंडा	-5439
▁चोट	-5440
▁पोष्ट	-5441
▁बर्दि	-5442
▁चुर	-5443
▁अनाव	-5444
▁ल्याइ	-5445
▁पश्चा	-5446
▁सुनुवाइ	-5447
▁कार्यक्रमलाई	-5448
▁एप	-5449
▁राय	-5450
▁नपुग	-5451
▁खानु	-5452
▁स्टा	-5453
▁लैजान	-5454
▁सुपर	-5455
भित्रको	-5456
▁पार्टीलाई	-5457
श्रमिक	-5458
▁शक्तिशाली	-5459
▁तन	-5460
▁पञ्चा	-5461
▁संविधानले	-5462
▁क्रान्तिकारी	-5463
▁धम्	-5464
▁विद्यालयको	-5465
्युटर	-5466
▁नदिन	-5467
▁२०२०	-5468
हाले	-5469
कारले	-5470
▁कर्त	-5471
▁जसपा	-5472
▁क्रमशः	-5473
टीका	-5474
▁आमाको	-5475
▁संस्थापक	-5476
ालमा	-5477
▁बराम	-5478
▁युवती	-5479
▁जलवायु	-5480
▁उल्ल	-5481
▁सामाग्री	-5482
ेरु	-5483
▁नेपालबाट	-5484
▁जित्न	-5485
on	-5486
▁वैकल्पिक	-5487
▁वटै	-5488
▁स्वतन्त्रता	-5489
▁आएकी	-5490
▁साउदी	-5491
▁युनियन	-5492
▁फलफूल	-5493
▁पारदर्श	-5494
ेन्ड	-5495
▁हिं	-5496
तन	-5497
तया	-5498
▁प्रशंसा	-5499
▁देखाउन	-5500
सेल	-5501
▁४१	-5502
▁चाहेको	-5503
▁काठमाडौ	-5504
हिता	-5505
▁हिरा	-5506
▁चाहन्छ	-5507
▁धनी	-5508
ुरुन्त	-5509
▁नेपालगञ्ज	-5510
▁सेवाग्राही	-5511
चाहि	-5512
३०	-5513
सनको	-5514
▁खिच	-5515
▁विज्ञप्ति	-5516
▁उनि	-5517
▁विशाल	-5518
▁बेपत्ता	-5519
▁खाद्यान्न	-5520
▁सहसचिव	-5521
यरमा	-5522
▁रोकथा	-5523
ढु	-5524
▁श्रेष्ठको	-5525
▁अस्वीकार	-5526
▁शंकर	-5527
▁नागरिकले	-5528
नीकरण	-5529
▁भिन्न	-5530
▁रहँदा	-5531
▁छाप	-5532
▁विशिष्ट	-5533
िरहेका	-5534
▁ताप	-5535
▁चाँ	-5536
▁रहि	-5537
▁गोप	-5538
▁नेताहरू	-5539
घन	-5540
्ल	-5541
दिए	-5542
▁उमेरमा	-5543
▁वास्तवमा	-5544
नात्मक	-5545
▁ज्व	-5546
▁कक्ष	-5547
▁बानी	-5548
▁विहान	-5549
ौट	-5550
▁अह	-5551
कता	-5552
▁सन	-5553
▁खालका	-5554
छोरी	-5555
▁तुरुन्त	-5556
▁विज्ञापन	-5557
▁आउट	-5558
▁चित्त	-5559
▁गे	-5560
▁ड्र	-5561
▁समाप्त	-5562
▁एक्लै	-5563
लाउने	-5564
▁मदि	-5565
▁जोखिममा	-5566
▁नेकपाका	-5567
▁सभाको	-5568
ालु	-5569
▁भविष्यमा	-5570
er	-5571
क्की	-5572
मित्व	-5573
▁संस्थान	-5574
▁प्रतिवद्धता	-5575
▁छुट्या	-5576
▁धादि	-5577
वित	-5578
▁बढेर	-5579
▁जनाए	-5580
म्बार	-5581
▁प्रकट	-5582
▁इलाका	-5583
▁जंग	-5584
▁आसपा	-5585
▁दरले	-5586
।"	-5587
▁बस्नेतले	-5588
▁जन्मा	-5589
▁परम	-5590
▁नुवा	-5591
▁रुपैयाँको	-5592
▁छात्र	-5593
▁आकार	-5594
▁चर्को	-5595
▁सवै	-5596
लाइन्	-5597
▁गुल्मी	-5598
▁कोठामा	-5599
▁उहाँलाई	-5600
▁1	-5601
▁मनाइ	-5602
▁बुवा	-5603
म्बुले	-5604
ेसी	-5605
▁नलि	-5606
▁एजे	-5607
र्सिलो	-5608
▁इरान	-5609
▁टेलिक	-5610
▁पद्ध	-5611
▁अमेरिकाले	-5612
र्जी	-5613
▁ठिक	-5614
▁आकर्षित	-5615
परी	-5616
▁पक्कै	-5617
▁प्राप्	-5618
▁विभागको	-5619
▁विश्वभर	-5620
स्थापित	-5621
▁सिंहदरबार	-5622
रस	-5623
▁टेलिभिजन	-5624
▁केटा	-5625
किएका	-5626
▁श्रीमान	-5627
्यानल	-5628
▁पूरै	-5629
यती	-5630
▁रनको	-5631
▁झनै	-5632
▁स्वरुप	-5633
▁लाग्दैन	-5634
▁मावि	-5635
▁संघीयता	-5636
▁काठमाण्डौ	-5637
▁वडामा	-5638
▁नेपालीले	-5639
▁नृ	-5640
ंदा	-5641
▁स्थिर	-5642
▁नष्ट	-5643
▁सिजन	-5644
षाध्यक्ष	-5645
चाह	-5646
▁नियमावली	-5647
उप	-5648
▁५२	-5649
▁दशमलव	-5650
▁सञ्चारमा	-5651
▁प्रहरीलाई	-5652
दीले	-5653
▁जोगाउन	-5654
धारित	-5655
▁उपेन्द्र	-5656
ईन	-5657
▁काठ	-5658
▁भनेपछि	-5659
निर्भर	-5660
▁बरामद	-5661
▁बैंकिङ	-5662
केट	-5663
▁सन्तान	-5664
▁खपत	-5665
पक्षीय	-5666
▁ढुवानी	-5667
▁स्वास्थ्यकर्मी	-5668
र्ना	-5669
▁हारा	-5670
▁तारा	-5671
▁जनामा	-5672
▁माझ	-5673
▁भ्रमणमा	-5674
▁बार्सिलो	-5675
▁वृद्ध	-5676
▁विस्तृत	-5677
लेन	-5678
▁इन्ध	-5679
अधिकार	-5680
▁तातो	-5681
▁थापाको	-5682
▁दुर्ग	-5683
शास्त्र	-5684
▁उठाउने	-5685
▁४३	-5686
▁दाङ	-5687
▁विसं	-5688
▁रोगको	-5689
▁नपाएको	-5690
▁क्रियाशील	-5691
त्मा	-5692
▁बाढ	-5693
▁भएसँगै	-5694
▁तुलसी	-5695
▁स्वामित्व	-5696
▁सिस्ट	-5697
▁खासगरी	-5698
▁महर्जन	-5699
▁ओलीलाई	-5700
▁छायांकन	-5701
वाली	-5702
र्नुपर्ने	-5703
रल	-5704
▁गहिरो	-5705
▁तिनै	-5706
▁रिस	-5707
▁गीतको	-5708
▁बिरामीको	-5709
▁चाहने	-5710
▁मृत	-5711
▁२०७३	-5712
▁समायोजन	-5713
▁गर्नै	-5714
▁इन्जिनियर	-5715
▁प्रशासनले	-5716
▁ग्लो	-5717
▁कैलाली	-5718
्रु	-5719
▁रेड	-5720
▁व्यक्तित्व	-5721
▁निम	-5722
परिवार	-5723
▁नक्सा	-5724
▁झो	-5725
बिर	-5726
▁निर्णा	-5727
▁चर्चामा	-5728
न्नु	-5729
▁निजामती	-5730
▁कुँ	-5731
▁घरमै	-5732
▁आपत्ति	-5733
▁चाहिने	-5734
▁जमा	-5735
▁राइ	-5736
▁टन	-5737
▁पारिश्रमिक	-5738
▁तपाईको	-5739
▁अनियमित	-5740
▁अभिनेता	-5741
▁श्रीलंका	-5742
▁काली	-5743
मीले	-5744
थ्य	-5745
▁उर्जा	-5746
▁सेमि	-5747
▁कामका	-5748
▁अलपत्र	-5749
▁फाइनल	-5750
▁रौतह	-5751
▁पढ्ने	-5752
▁भैरह	-5753
▁लाइस	-5754
अल	-5755
ज्ञान	-5756
▁जनयुद्ध	-5757
▁गुप्	-5758
▁सुवेदी	-5759
बासी	-5760
मैले	-5761
▁त्याग	-5762
▁बुँदे	-5763
▁हाइड्रो	-5764
जिङ	-5765
▁हिमाली	-5766
▁हामीसँग	-5767
▁नराम्रो	-5768
▁राम्रोसँग	-5769
एमाले	-5770
▁दोषी	-5771
▁कल्या	-5772
▁हाराहारी	-5773
▁प्रिय	-5774
ंग्	-5775
ड्दै	-5776
▁छिट्टै	-5777
▁मिल्दैन	-5778
▁किसानले	-5779
▁पला	-5780
▁योजनामा	-5781
दको	-5782
श्रो	-5783
्चोक	-5784
हिर	-5785
▁भएकै	-5786
▁ल्याएका	-5787
▁भूमिकामा	-5788
▁भिडियोमा	-5789
नालाई	-5790
▁मारि	-5791
▁एकीकरण	-5792
▁कपाल	-5793
▁विश्वमा	-5794
▁अफ्र	-5795
▁नरेन्द्र	-5796
▁शरण	-5797
▁देवको	-5798
जरको	-5799
वारिक	-5800
▁निकालेको	-5801
▁स्वच्छ	-5802
ईएको	-5803
▁कम्प्युटर	-5804
▁शौ	-5805
▁त्रा	-5806
▁संसदको	-5807
▁एमसीसी	-5808
▁विस्तारै	-5809
▁प्याके	-5810
ञ्चल	-5811
▁सहजीकरण	-5812
▁भाषण	-5813
▁ग्राम	-5814
▁रेखा	-5815
▁लगायतको	-5816
▁जोश	-5817
▁समस्यामा	-5818
ेँ	-5819
▁५६	-5820
▁भेटघाट	-5821
▁त्यहाँको	-5822
▁जलविद्युत्	-5823
▁वाइ	-5824
निस्ता	-5825
an	-5826
▁हङक	-5827
▁संविधानमा	-5828
▁४७	-5829
▁अक्सिजन	-5830
▁क्षण	-5831
▁४६	-5832
पार	-5833
्रेजी	-5834
न्डर	-5835
▁गरेमा	-5836
▁गतिमा	-5837
▁पठाइएको	-5838
पाल्चोक	-5839
जीवन	-5840
▁बोर्डले	-5841
▁मान्ने	-5842
साधन	-5843
▁मतदा	-5844
▁आरोहण	-5845
▁नदीमा	-5846
▁बोल्ने	-5847
▁जनमत	-5848
नोद	-5849
▁नाइ	-5850
टाम	-5851
▁उचाइ	-5852
▁सुरक्षाको	-5853
तका	-5854
▁कुराहरु	-5855
▁सुरू	-5856
▁शून्य	-5857
▁आक्रोश	-5858
▁अन्तरिम	-5859
▁कृषक	-5860
▁सङ्घीय	-5861
याली	-5862
▁ज्ञापन	-5863
शेर	-5864
▁शल्य	-5865
▁नवलपरा	-5866
लभ	-5867
▁सिम	-5868
▁धनुषा	-5869
▁शेख	-5870
▁कागजात	-5871
▁सञ्चारमाध्यम	-5872
ाउँछन्	-5873
्युब	-5874
▁गाउ	-5875
पीडित	-5876
▁सिर	-5877
र्इ	-5878
ृंख	-5879
क्या	-5880
▁जितेका	-5881
▁तै	-5882
▁पारे	-5883
▁सहायता	-5884
▁महँग	-5885
▁व्यवसायीले	-5886
उँछिन्	-5887
ुरेन्ट	-5888
काउ	-5889
ज्यू	-5890
शालामा	-5891
विश्वास	-5892
▁त्यसबाट	-5893
▁क्षमताको	-5894
पावर	-5895
▁उठाउन	-5896
▁अभियोग	-5897
▁अधिकारको	-5898
▁प्रशासनिक	-5899
लेट	-5900
त्तिकै	-5901
▁छोडेर	-5902
▁मानिसलाई	-5903
▁पैदा	-5904
न्डै	-5905
▁नु	-5906
▁अनावश्यक	-5907
▁प्रतिपक्ष	-5908
▁नमिल्	-5909
▁तथ्याङ्क	-5910
▁पारिवारिक	-5911
स्फ	-5912
विरुद्धको	-5913
चाप	-5914
▁पक्षको	-5915
▁महासंघका	-5916
हको	-5917
▁ग्रुप	-5918
▁सुदृ	-5919
खोला	-5920
▁कान्ति	-5921
▁फ्रान्स	-5922
▁वर	-5923
▁पत्रमा	-5924
▁प्रस्तुति	-5925
▁बराबर	-5926
गानिस्ता	-5927
गडा	-5928
▁पाउँदा	-5929
सीय	-5930
▁शिक्षाको	-5931
▁सिमेन्ट	-5932
▁लिनु	-5933
▁अनुभूति	-5934
▁पत्नी	-5935
▁सशक्त	-5936
▁नम्बरको	-5937
ब्या	-5938
पट	-5939
िकरण	-5940
▁टिमले	-5941
धर	-5942
ड्ड	-5943
काएर	-5944
▁एजेण्डा	-5945
▁अनुप	-5946
▁बताइ	-5947
▁सहमत	-5948
▁अपाङ्ग	-5949
शैली	-5950
हिने	-5951
▁नियमन	-5952
▁सिन्धुपाल्चोक	-5953
▁सिल	-5954
▁मोदी	-5955
▁कर्तव्य	-5956
▁गरिए	-5957
▁उपहार	-5958
▁क्रियाकलाप	-5959
▁फरार	-5960
▁विमानस्थलमा	-5961
कस्	-5962
▁खोज्न	-5963
▁समुदायका	-5964
▁अत्यावश्यक	-5965
▁विद्यालयका	-5966
▁हौ	-5967
▁गर्नुहुन्छ	-5968
▁कल्याण	-5969
▁उत्पादनमा	-5970
▁उपत्यकामा	-5971
▁आख	-5972
▁बढाइ	-5973
▁हात्ती	-5974
▁काला	-5975
▁श्रे	-5976
▁परिक	-5977
▁राजेश	-5978
फर्म	-5979
▁ट्रे	-5980
▁नराख	-5981
▁कब्जा	-5982
▁पाएपछि	-5983
▁फ्या	-5984
▁संक्रमितको	-5985
जका	-5986
▁म्युजिक	-5987
ाधीन	-5988
▁संस्थामा	-5989
▁परियार	-5990
▁कूल	-5991
▁अन्तराष्ट्रिय	-5992
▁स्वि	-5993
▁लहर	-5994
▁सेतो	-5995
▁माध्य	-5996
▁सहभागि	-5997
▁स्रोतका	-5998
▁स्क्र	-5999
▁मौन	-6000
▁चाँडै	-6001
▁रेमि	-6002
▁क्षतिपूर्ति	-6003
▁विद्यार्थीले	-6004
▁घाँ	-6005
▁आफुले	-6006
▁सदस्यको	-6007
याे	-6008
▁तनहुँ	-6009
भौ	-6010
▁पोलि	-6011
ँचा	-6012
▁बलिउड	-6013
▁सैन्य	-6014
▁किसिमका	-6015
▁झन्डै	-6016
▁उत्तम	-6017
महा	-6018
▁तारि	-6019
▁किशोर	-6020
▁कुखु	-6021
▁दिइने	-6022
▁उपाध्या	-6023
▁धेरैजसो	-6024
▁सेमिफाइ	-6025
१५	-6026
▁उपचारको	-6027
▁सद्	-6028
ाराम	-6029
▁बन्छ	-6030
▁संग्रह	-6031
▁परिवर्तनको	-6032
ँदैछ	-6033
▁पदक	-6034
ग्रस्त	-6035
▁७६	-6036
▁ध्व	-6037
वास्ता	-6038
▁किन्न	-6039
▁परेर	-6040
लाग्दो	-6041
▁आबद्ध	-6042
▁विनोद	-6043
▁जोडिएका	-6044
िरमा	-6045
िए	-6046
▁अभिनेत्री	-6047
▁ब्यवस्था	-6048
▁निर्देशिका	-6049
▁पुर्याएको	-6050
▁उद्योगी	-6051
▁टिका	-6052
▁तिर्न	-6053
▁पुगेपछि	-6054
भाष	-6055
डीमा	-6056
निस	-6057
▁लगेर	-6058
▁अध्यक्षमा	-6059
लोक	-6060
or	-6061
▁करीब	-6062
▁प्रय	-6063
▁प्रवद्र्धन	-6064
ेनन्	-6065
ङ्गल	-6066
▁गाली	-6067
▁दिनदेखि	-6068
▁मातृ	-6069
▁विपक्ष	-6070
▁बिल	-6071
▁अधिवक्ता	-6072
▁फर्किएका	-6073
▁भाउ	-6074
▁त्रिवि	-6075
ण्डित	-6076
पन्थी	-6077
▁अफगानिस्ता	-6078
▁विपद्	-6079
होस	-6080
पेक्ष	-6081
▁सुरेन्द्र	-6082
ेनले	-6083
्ररी	-6084
▁वेबसाइ	-6085
राष्ट्रपति	-6086
िरहेको	-6087
जन्तु	-6088
▁राजपा	-6089
▁वु	-6090
▁५४	-6091
बहि	-6092
▁बारम्बार	-6093
▁सम्भावित	-6094
वरी	-6095
▁मूल्यांकन	-6096
▁सट्टा	-6097
अध्यक्ष	-6098
▁राम्रा	-6099
ेकाले	-6100
▁निरीक्षक	-6101
▁रहनेछ	-6102
▁निकायले	-6103
माया	-6104
▁लडा	-6105
▁नृत्य	-6106
▁व्यवसायिक	-6107
▁कोषाध्यक्ष	-6108
▁हटाउने	-6109
डिएको	-6110
▁देखाउने	-6111
▁आयोज	-6112
▁सरकारबाट	-6113
▁२०१९	-6114
▁पाकिस्तान	-6115
लाही	-6116
▁मास्क	-6117
▁अटो	-6118
▁गुणा	-6119
▁प्रतिपक्षी	-6120
▁बस्त	-6121
▁अधिकतम	-6122
▁फिट	-6123
▁नेटव	-6124
▁नदेखि	-6125
उनुपर्छ	-6126
▁दान	-6127
▁रानी	-6128
क्वा	-6129
▁गराउनु	-6130
▁संयोजकत्वमा	-6131
▁उपचारमा	-6132
▁फोरम	-6133
▁विधेयकमा	-6134
न्धि	-6135
▁हरु	-6136
▁निर्णायक	-6137
▁चामल	-6138
▁जनताका	-6139
▁५८	-6140
▁कम्तिमा	-6141
▁५३	-6142
▁सरल	-6143
खे	-6144
▁राजनैतिक	-6145
स्टा	-6146
▁होइनन्	-6147
▁अस्ट्रेलिया	-6148
▁भलि	-6149
▁प्रशासकीय	-6150
▁प्राध्यापक	-6151
▁मृतक	-6152
शनल	-6153
▁रोमा	-6154
▁प्रालि	-6155
▁राखी	-6156
▁देशले	-6157
▁अंग्रेजी	-6158
▁अत्यन्तै	-6159
▁सदस्यता	-6160
▁मार्च	-6161
▁विक्र	-6162
ड्दा	-6163
▁लगत्तै	-6164
▁जोडेर	-6165
▁उत्पादक	-6166
▁भैरहेको	-6167
▁गरिबी	-6168
▁जिक	-6169
पार्क	-6170
▁प्रादेशिक	-6171
लेले	-6172
▁६४	-6173
वृत्ति	-6174
▁उद	-6175
▁काय	-6176
▁शल्यक्रिया	-6177
िनमा	-6178
सम्पाद	-6179
अर्का	-6180
▁स्वास्थ्यमा	-6181
ताब्	-6182
▁तपाईँ	-6183
▁जला	-6184
▁ज्यो	-6185
▁अनुकूल	-6186
शिल	-6187
▁हाफ	-6188
▁यसैबीच	-6189
▁उठेको	-6190
काउन	-6191
▁रोक्	-6192
▁सन्धि	-6193
▁हजारौं	-6194
न्याय	-6195
▁चाप	-6196
al	-6197
▁बुझ्ने	-6198
▁समावेशी	-6199
▁वीरेन्द्र	-6200
ट्टी	-6201
▁दुइ	-6202
▁परिसर	-6203
▁८५	-6204
हाम्रो	-6205
▁पुरानै	-6206
▁स्तरमा	-6207
▁हतार	-6208
▁हुदै	-6209
▁जिन्द	-6210
दायक	-6211
▁रेग्मी	-6212
▁अंश	-6213
▁अड्	-6214
▁पह	-6215
▁सकियो	-6216
▁४९	-6217
▁गैरआ	-6218
▁नारी	-6219
▁साँच्च	-6220
▁श्रीमान्	-6221
▁ढिलो	-6222
▁प्रि	-6223
▁प्रतिस्पर्धी	-6224
▁हप्	-6225
▁वाग्	-6226
▁सहुल	-6227
▁मनि	-6228
▁बाँके	-6229
कहाँ	-6230
▁एसपी	-6231
▁क्वा	-6232
▁न्यूनीकरण	-6233
िङ	-6234
▁छनौट	-6235
▁सुनको	-6236
स्थापन	-6237
▁पं	-6238
हुँदै	-6239
▁ढिला	-6240
▁स्वाभाविक	-6241
▁समाजले	-6242
▁फेर	-6243
▁सिटी	-6244
र्कि	-6245
▁पाल्पा	-6246
स्न	-6247
▁मर्या	-6248
▁युवराज	-6249
▁शरीरको	-6250
ंस	-6251
▁बाघ	-6252
▁औषधी	-6253
दलीय	-6254
▁मोरङ	-6255
▁शिशु	-6256
▁ठोस	-6257
▁बजारको	-6258
डामा	-6259
▁महरा	-6260
▁असल	-6261
▁बेस	-6262
▁डाटा	-6263
▁बजेटको	-6264
▁सतर्क	-6265
▁निरी	-6266
जगार	-6267
▁किम	-6268
िनको	-6269
▁रासस	-6270
ैयाँ	-6271
▁खरेल	-6272
▁दलहरु	-6273
▁७२	-6274
्रत	-6275
▁सदस्यले	-6276
ह्	-6277
▁पारेका	-6278
▁सर्लाही	-6279
हिक	-6280
मुनि	-6281
▁ठगी	-6282
ँचाइ	-6283
▁लिटर	-6284
ह्र	-6285
▁आवद्ध	-6286
▁राम्रै	-6287
▁होलान्	-6288
▁माध्यमिक	-6289
▁शौच	-6290
▁परिमा	-6291
लेपछि	-6292
डाको	-6293
▁बजेदेखि	-6294
▁वर्षभित्र	-6295
सनल	-6296
▁सरसफाइ	-6297
▁होटलमा	-6298
▁तीनै	-6299
▁माग्	-6300
▁एसो	-6301
▁प्रतिभा	-6302
▁सुरुङ	-6303
खत	-6304
▁अपर	-6305
प्रसार	-6306
▁कटौती	-6307
▁आलु	-6308
▁रोपनी	-6309
▁जनतामा	-6310
▁बालबालिकालाई	-6311
▁करण	-6312
िल्ली	-6313
▁ट्रान्स	-6314
▁नभएपछि	-6315
▁टुंग	-6316
▁नेताको	-6317
▁विच	-6318
▁कामलाई	-6319
▁दिइन्	-6320
बाद	-6321
व्	-6322
िन्छ	-6323
▁छवि	-6324
▁अनुमो	-6325
▁प्राधिकरणका	-6326
▁प्रदू	-6327
▁छोराछोरी	-6328
नेकपा	-6329
▁गायिका	-6330
▁देखिन्छन्	-6331
सिप	-6332
▁समारोहमा	-6333
ेलको	-6334
कृया	-6335
▁आया	-6336
▁लिइएको	-6337
▁बिमा	-6338
▁करिव	-6339
▁मार्क	-6340
▁दाँ	-6341
▁ब्याजदर	-6342
सहितका	-6343
▁सन्तु	-6344
▁त्यहाँका	-6345
▁गरेकाले	-6346
▁सम्मानित	-6347
▁ओम	-6348
▁लघुव	-6349
स्तिष्	-6350
र्की	-6351
▁तौल	-6352
▁विरामी	-6353
▁खेल्दै	-6354
▁साब	-6355
▁श्रो	-6356
स्तरमा	-6357
स्थलको	-6358
ँचो	-6359
▁चरम	-6360
▁अधिकारीको	-6361
वान्	-6362
▁यहि	-6363
रहेकी	-6364
▁आचार	-6365
▁५७	-6366
मणि	-6367
जाको	-6368
▁ट्रम्पले	-6369
▁सङ्कलन	-6370
०७	-6371
▁भोक	-6372
▁तहले	-6373
▁भरमा	-6374
▁बचाउन	-6375
िको	-6376
▁नमुना	-6377
▁लोड	-6378
▁ब्यक्ति	-6379
▁ष	-6380
▁७७	-6381
वासीय	-6382
▁कालोपत्र	-6383
▁हृदय	-6384
यौ	-6385
▁शान्त	-6386
▁संशोध	-6387
ञ्चित	-6388
▁विपन्न	-6389
कान	-6390
▁विदा	-6391
▁घरबाट	-6392
▁सतह	-6393
▁दिमा	-6394
▁प्राधिकरणको	-6395
टामा	-6396
▁युग	-6397
▁सिं	-6398
▁बराबरी	-6399
▁गोर्खा	-6400
▁लगानीमा	-6401
▁तालमेल	-6402
▁सम्वन्ध	-6403
▁अा	-6404
▁एम्बुले	-6405
▁रत्न	-6406
▁हिन्दू	-6407
▁मुस्ता	-6408
ानीले	-6409
▁जित्	-6410
ेटिङ	-6411
▁बढुवा	-6412
▁घाम	-6413
▁गर्मी	-6414
▁बनायो	-6415
▁हुनुहुन्थ्यो	-6416
▁बृह	-6417
▁नदिएको	-6418
▁भैरहवा	-6419
▁खोल्ने	-6420
▁क्षेत्रफल	-6421
▁संक्रमणको	-6422
▁ढिलाइ	-6423
▁हलमा	-6424
धाज्ञा	-6425
ाउनको	-6426
▁महेश	-6427
▁स्वर	-6428
▁दोश्रो	-6429
▁कम्पनीलाई	-6430
स्तर	-6431
▁सम्पादन	-6432
▁रोक्ने	-6433
▁स्वदेशी	-6434
▁निर्धारित	-6435
▁रोज	-6436
ानमा	-6437
▁शताब्	-6438
▁सम्हाल	-6439
▁उन्न	-6440
▁पुनले	-6441
▁व्यापारिक	-6442
▁मुलुकका	-6443
▁महानिर्देशक	-6444
▁बताएकी	-6445
सङ्घ	-6446
▁बुझाएको	-6447
▁अस्तित्व	-6448
▁लाइसेन्स	-6449
▁परिणत	-6450
▁विशेषगरी	-6451
▁गेट	-6452
▁एन्फा	-6453
▁कारागार	-6454
▁रहेन	-6455
▁दिनभित्र	-6456
▁पत्रकारिता	-6457
▁राह	-6458
गोलिक	-6459
▁लामाले	-6460
▁गर्भव	-6461
▁आफुलाई	-6462
▁लाग्दा	-6463
▁तपाईले	-6464
औँ	-6465
▁नबुझ	-6466
▁सृजना	-6467
▁बनाउनुपर्ने	-6468
▁त्यहाँबाट	-6469
▁मिलाउन	-6470
▁जलविद्युत	-6471
लागि	-6472
▁बाह्य	-6473
मेरो	-6474
▁फौ	-6475
▁रूपैयाँ	-6476
▁गराइएको	-6477
▁अर्यालले	-6478
▁उत्साहित	-6479
र्पण	-6480
▁छाला	-6481
१२	-6482
रेड	-6483
▁आतंक	-6484
भाषा	-6485
लगत्तै	-6486
▁सिँचाइ	-6487
ँट	-6488
▁नेताहरुको	-6489
▁आइपुग्	-6490
▁एसियाली	-6491
▁अस्थ	-6492
▁अन्ततः	-6493
▁मेलम्	-6494
नुस्	-6495
▁लगाउनु	-6496
▁गराएर	-6497
▁म्याग्दी	-6498
▁कार्ययोजना	-6499
▁अरब	-6500
▁ख्याल	-6501
▁अपि	-6502
खेर	-6503
▁नोक्स	-6504
▁श्याम	-6505
▁एकको	-6506
▁निस्कि	-6507
▁फरा	-6508
▁प्रको	-6509
▁भर्खरै	-6510
▁राजश्व	-6511
▁सकेसम्म	-6512
▁देखिँदैन	-6513
▁बालबालिकाको	-6514
टाएर	-6515
▁खोल्न	-6516
▁नेपालीलाई	-6517
▁एकातिर	-6518
▁निकायको	-6519
▁ग्य	-6520
▁बन	-6521
▁गिरि	-6522
▁तामाङले	-6523
▁जिकिर	-6524
▁परेपछि	-6525
ह्न	-6526
▁भोग्	-6527
▁स्तरो	-6528
▁निम्त्या	-6529
्छु	-6530
▁कान्छ	-6531
ैमा	-6532
▁अर्याल	-6533
▁व्यवस्थापनमा	-6534
जीले	-6535
निकी	-6536
डीको	-6537
▁मानिसहरू	-6538
▁पक्का	-6539
▁किसानलाई	-6540
▁बिक्रीदर	-6541
▁छैन्	-6542
▁नवीकरण	-6543
st	-6544
▁किरा	-6545
▁आयोगमा	-6546
▁रोल्पा	-6547
▁दिनुभएको	-6548
▁नेप्	-6549
▁तिम्रो	-6550
ब्ब	-6551
लागी	-6552
रोग	-6553
▁सक्नेछन्	-6554
▁एच	-6555
▁नमू	-6556
▁बेलुका	-6557
▁मोडल	-6558
▁कुराले	-6559
आज	-6560
▁पावर	-6561
▁विश्वको	-6562
▁सुवेद	-6563
▁मनाउन	-6564
▁निमित्त	-6565
▁बिषयमा	-6566
▁बैंकमा	-6567
▁आदर्श	-6568
▁सुरक्षाकर्मी	-6569
▁एयरलाइन्	-6570
ारोपण	-6571
▁पट	-6572
▁इन्स	-6573
▁मात	-6574
▁अपरि	-6575
▁अन्यो	-6576
सुन	-6577
▁नर्स	-6578
सरकारी	-6579
▁नभएकाले	-6580
दित	-6581
▁लुगा	-6582
▁२०१८	-6583
▁समुदायमा	-6584
▁पार्टीभित्र	-6585
▁चिनी	-6586
११	-6587
▁कन्स	-6588
▁मिल्छ	-6589
▁समृद्धिको	-6590
▁सुशील	-6591
▁प्लेट	-6592
▁जनस्वास्थ्य	-6593
▁पात	-6594
सिद्ध	-6595
▁शर्त	-6596
▁एकताको	-6597
ण्डको	-6598
▁निषेध	-6599
▁भौगोलिक	-6600
टिभ	-6601
ामक	-6602
▁दौड	-6603
▁मदिरा	-6604
▁राष्ट्रसंघ	-6605
▁गभ	-6606
▁जाडो	-6607
▁ईश्वर	-6608
▁जानकार	-6609
▁विरोधी	-6610
▁प्रचण्डको	-6611
पछ	-6612
▁सकिँदैन	-6613
▁कौ	-6614
▁जगत	-6615
▁दिनअघि	-6616
▁बनाउँदा	-6617
▁बिज	-6618
▁पक्षका	-6619
टरमा	-6620
▁/	-6621
▁सङ्क्रमित	-6622
▁स्तरोन्न	-6623
▁शाहीले	-6624
ीता	-6625
▁शौचालय	-6626
▁मध्यम	-6627
▁प्रिमियर	-6628
क्सि	-6629
समक्ष	-6630
सर्थ	-6631
▁उद्यम	-6632
▁प्रकरणमा	-6633
▁गगन	-6634
▁गैरआवासीय	-6635
▁केजी	-6636
▁घन्टा	-6637
प्टे	-6638
न्यजन्तु	-6639
▁बढ्यो	-6640
▁प्रत्या	-6641
▁लगायतले	-6642
▁अभावमा	-6643
षक	-6644
सन्त	-6645
▁पति	-6646
▁फेरी	-6647
▁धम्की	-6648
▁पुर्व	-6649
▁सम्पर्कमा	-6650
▁बिस्तारै	-6651
▁अभिवृद्धि	-6652
▁नमिल्ने	-6653
▁एमाओवादी	-6654
▁मन्दिरमा	-6655
▁चीनमा	-6656
▁दिवसको	-6657
ञ्जि	-6658
▁आन्दोलनका	-6659
कीय	-6660
▁व्यहो	-6661
▁देखाएर	-6662
▁सद्भाव	-6663
ञ्चार	-6664
वट	-6665
चाहिँ	-6666
घात	-6667
▁ग्लोबल	-6668
▁पर्यटकको	-6669
▁कृति	-6670
पालन	-6671
औष	-6672
▁लिनुपर्ने	-6673
▁दोहोरो	-6674
▁सुन्त	-6675
▁ज्ञवाली	-6676
▁सन्दी	-6677
▁मस्तिष्	-6678
प्ती	-6679
▁सुवेदीले	-6680
▁आत्मनिर्भर	-6681
▁निषेधाज्ञा	-6682
▁दरबन्दी	-6683
▁प्रयोगमा	-6684
▁लाभा	-6685
स्टिक	-6686
▁शुरू	-6687
▁समाजवाद	-6688
प्ट	-6689
▁राजु	-6690
▁भूभाग	-6691
▁खै	-6692
▁बास	-6693
▁गइरहेको	-6694
▁बताउनुभएको	-6695
विना	-6696
▁कुव	-6697
▁मिर्ग	-6698
▁स्वभाव	-6699
▁सँ	-6700
▁उप्र	-6701
▁गाउँका	-6702
पार्	-6703
▁आजै	-6704
▁त्यहीँ	-6705
▁कूटनीतिक	-6706
ालगायत	-6707
▁प्रयत्न	-6708
▁राना	-6709
▁विषा	-6710
▁२०१७	-6711
▁अन्तरक्रिया	-6712
परित	-6713
▁गरेँ	-6714
▁तस्बिर	-6715
जुङ	-6716
पाइ	-6717
ेषण	-6718
▁महोत्त	-6719
▁समाधानका	-6720
▁पुरस्	-6721
▁बगा	-6722
▁प्रणालीको	-6723
▁सुरक्षाका	-6724
▁ज्वरो	-6725
▁पार्क	-6726
▁स्रोतको	-6727
▁राष्ट्रको	-6728
▁यसपाल	-6729
▁हानि	-6730
्नुपर्ने	-6731
खाना	-6732
▁मान्छेले	-6733
▁महामारीको	-6734
गण्डकी	-6735
▁प्रचलन	-6736
▁अमर	-6737
▁उनकी	-6738
▁एकेड	-6739
ें	-6740
▁कालि	-6741
▁जाँदै	-6742
▁ट्वी	-6743
बाजी	-6744
▁नायब	-6745
▁लेख्न	-6746
▁तालिका	-6747
▁अशोक	-6748
▁तत्कालै	-6749
▁संचार	-6750
पाटी	-6751
म्वा	-6752
▁पार्दै	-6753
▁फाइनलमा	-6754
ड्नु	-6755
न्दर्य	-6756
▁प्रस्तावित	-6757
▁बोकेको	-6758
▁चरा	-6759
▁पवि	-6760
श्री	-6761
▁अनुरुप	-6762
काई	-6763
▁उड्ड	-6764
▁प्रवर्द्धन	-6765
▁इतिहासमा	-6766
▁सहकार्यमा	-6767
▁फ्	-6768
ज्यालो	-6769
▁केन्द्रिय	-6770
▁विस्थापित	-6771
▁विद्यमान	-6772
ण्डमा	-6773
▁दिँदा	-6774
आउ	-6775
र्नर	-6776
्स	-6777
▁आश्वास	-6778
याको	-6779
▁गराउँदै	-6780
ामन्त्री	-6781
▁अनुसारको	-6782
▁राजकुमार	-6783
क्कर	-6784
▁६२	-6785
त्यस	-6786
▁टेक्	-6787
▁शक्तिको	-6788
लवस्तु	-6789
▁डरा	-6790
▁कसुर	-6791
▁रहनु	-6792
ंदैन	-6793
ar	-6794
▁कँ	-6795
▁उल्लेख्य	-6796
▁पक्षलाई	-6797
पश्चा	-6798
▁रुचि	-6799
▁ज्य	-6800
▁कागज	-6801
▁थाइ	-6802
अभि	-6803
ानको	-6804
▁कित्ता	-6805
▁अलिकति	-6806
▁हेम	-6807
▁स्वर्ग	-6808
▁तसर्थ	-6809
▁अभिलेख	-6810
▁जग्गामा	-6811
▁९५	-6812
▁म्याने	-6813
▁उठाएको	-6814
उहाँ	-6815
ख्रा	-6816
▁दिई	-6817
▁कुँवर	-6818
▁इमा	-6819
▁चेतना	-6820
▁खरिददर	-6821
▁पण्डित	-6822
▁आफूहरु	-6823
णु	-6824
▁०६	-6825
▁६३	-6826
▁छानविन	-6827
▁६६	-6828
ालीले	-6829
▁कुर्	-6830
▁२०८०	-6831
▁बेरो	-6832
▁फर्म	-6833
▁तत्कालिन	-6834
नासाथ	-6835
▁५९	-6836
न्तिक	-6837
▁फुटब	-6838
▁अस्थिर	-6839
▁स्थानीयवासी	-6840
निज	-6841
▁आस्था	-6842
▁टिममा	-6843
▁गठबन्धनको	-6844
सम्मत	-6845
▁कतिपयले	-6846
▁आकां	-6847
▁मुम्ब	-6848
ेछा	-6849
▁सहुलियत	-6850
दियो	-6851
▁गर्नुको	-6852
डाँडा	-6853
थु	-6854
चीन	-6855
▁असन्तुष्ट	-6856
्नुपर्छ	-6857
▁तट	-6858
▁किनकी	-6859
▁वरिपरि	-6860
▁रै	-6861
▁अखिल	-6862
at	-6863
गाई	-6864
▁केशव	-6865
▁पाई	-6866
▁यात्रामा	-6867
डोर	-6868
▁झर	-6869
▁रुपैयाँमा	-6870
▁गाविस	-6871
▁सक्छौं	-6872
▁विशेषता	-6873
ुरि	-6874
▁फार्म	-6875
▁सत्र	-6876
▁कुमारी	-6877
▁गरेपनि	-6878
▁प्रभु	-6879
मुक्ति	-6880
▁पुरुषको	-6881
▁खाएर	-6882
▁उका	-6883
▁साविक	-6884
▁उप्रेत	-6885
▁निक्षेप	-6886
▁बस्नु	-6887
▁गर्यौं	-6888
▁सहजै	-6889
▁सौन्दर्य	-6890
टाको	-6891
▁गोल्ड	-6892
एकै	-6893
हेरी	-6894
▁स्मृति	-6895
▁माइक्रो	-6896
▁हराएको	-6897
▁नियन्त्रणका	-6898
ण्ठ	-6899
▁दोल	-6900
▁सर्वे	-6901
▁बरि	-6902
▁दाउ	-6903
▁आमाले	-6904
▁स्कूल	-6905
▁महिनादेखि	-6906
▁स्याउ	-6907
▁जनाउँदै	-6908
थर	-6909
मिता	-6910
▁राष्ट्रियसभा	-6911
▁जोशीले	-6912
▁सर्त	-6913
▁छैनौं	-6914
न्द्रा	-6915
जनी	-6916
▁मकै	-6917
▁प्रशस्त	-6918
▁भाग्य	-6919
पर्व	-6920
सम्ममा	-6921
लोमा	-6922
▁लम	-6923
▁पाइप	-6924
▁महाकाली	-6925
▁कम्पनीमा	-6926
टिस	-6927
▁अनिल	-6928
▁लगानीको	-6929
सक्दा	-6930
▁यिनी	-6931
लास	-6932
▁डिसे	-6933
▁सदुपयोग	-6934
▁राम्ररी	-6935
अर	-6936
▁बन्दा	-6937
▁सुन्न	-6938
▁खेलाडीले	-6939
▁झण्डा	-6940
समध्ये	-6941
▁मान्छेको	-6942
लट	-6943
च्या	-6944
▁उल्लं	-6945
▁ब्राजि	-6946
▁बताउँछिन्	-6947
▁पारिएको	-6948
▁मुस्लिम	-6949
▁आप्र	-6950
▁सार्वभौ	-6951
▁आर्य	-6952
▁खेलेका	-6953
▁निकाल्न	-6954
सतमा	-6955
▁रामेछा	-6956
▁नेताहरूले	-6957
▁पेट्रोलियम	-6958
ज्जा	-6959
▁सुनिल	-6960
▁बेवास्ता	-6961
धुरा	-6962
▁परिवारमा	-6963
▁विवादमा	-6964
चेत	-6965
▁सुरुवा	-6966
▁महानगरपालिकाले	-6967
▁मनोज	-6968
८०	-6969
▁कार्यद	-6970
▁बल्ल	-6971
▁उड्डयन	-6972
▁श्रद्धा	-6973
▁गर्नुहु	-6974
धाना	-6975
▁पुर्	-6976
▁पेन	-6977
▁रुपान्तरण	-6978
वटै	-6979
ेलमा	-6980
▁चाहे	-6981
▁सधैँ	-6982
▁गर्भवती	-6983
▁औसत	-6984
▁क्लि	-6985
▁देख्दा	-6986
▁निर्भर	-6987
▁परिचित	-6988
▁तरल	-6989
▁जानुपर्ने	-6990
लम्प	-6991
▁बुझाउन	-6992
पुल	-6993
▁उत्पादित	-6994
▁सिकाइ	-6995
▁कुटपिट	-6996
नेस	-6997
पाठ	-6998
▁सुत्के	-6999
▁सागर	-7000
▁ठग	-7001
▁निगमले	-7002
▁सक्दैनन्	-7003
▁५००	-7004
▁भन	-7005
▁खाइ	-7006
▁उत्पादनको	-7007
▁खोज्दा	-7008
▁जात्रा	-7009
▁हेक्टर	-7010
▁ज्येष्ठ	-7011
▁नमूना	-7012
▁रोजगारीमा	-7013
▁राज्यका	-7014
सह	-7015
गरि	-7016
▁युक्र	-7017
▁प्रेरणा	-7018
▁शहरी	-7019
▁सापकोटाले	-7020
▁देखेको	-7021
▁उज्यालो	-7022
▁गणना	-7023
▁महारा	-7024
▁विद्रोह	-7025
गणना	-7026
▁बढे	-7027
▁गर्दैछ	-7028
तर्फको	-7029
माथिको	-7030
वालीले	-7031
औषध	-7032
▁अधिकृ	-7033
▁दिनपछि	-7034
▁रहर	-7035
श्चिमा	-7036
▁वन्यजन्तु	-7037
▁मिलेको	-7038
▁सकिनेछ	-7039
▁शिला	-7040
मर	-7041
▁उनै	-7042
▁जग्गाको	-7043
▁अनुमोदन	-7044
▁अवकाश	-7045
केका	-7046
▁जेनजी	-7047
▁दोलखा	-7048
▁खेलाडीको	-7049
▁अक्ष	-7050
▁एड	-7051
वक	-7052
▁अफ्रिका	-7053
▁वक्त	-7054
धिका	-7055
▁फराकिलो	-7056
जारी	-7057
▁निर्वाचनका	-7058
▁मान्न	-7059
विप	-7060
▁पोल	-7061
▁कमाइ	-7062
▁वर्ण	-7063
▁कँडेल	-7064
▁बिरामीलाई	-7065
▁महँगो	-7066
▁साहित्यकार	-7067
▁थिइन	-7068
▁शासक	-7069
▁महानगरले	-7070
▁काठमाडौंका	-7071
मध	-7072
▁नेतृत्वले	-7073
ड्य	-7074
▁भएकोमा	-7075
▁अप्ठ्यारो	-7076
▁हुन्थे	-7077
सेन	-7078
बाहिर	-7079
▁सदा	-7080
▁जिज्ञा	-7081
▁कुशल	-7082
लोड	-7083
▁मूर्ति	-7084
▁अन्यत्र	-7085
▁सिधै	-7086
▁दिएकी	-7087
▁सदस्यमा	-7088
▁६८	-7089
▁बसाइ	-7090
▁प्रश्नको	-7091
▁नदेख	-7092
▁अरुण	-7093
▁हल्का	-7094
▁डाँडा	-7095
▁महाधिवेशनमा	-7096
▁मैत्री	-7097
▁इंग्	-7098
▁सिलि	-7099
टारमा	-7100
▁सत्तामा	-7101
▁६७	-7102
▁रुट	-7103
▁निकास	-7104
▁विक्रम	-7105
▁ब्याटिङ	-7106
ल्ब	-7107
बमोजिम	-7108
▁मालिक	-7109
▁उहाँका	-7110
▁तिवारी	-7111
मेट	-7112
त्रो	-7113
▁पढा	-7114
▁आयोजकले	-7115
▁गंगा	-7116
▁खातामा	-7117
▁कता	-7118
▁सुवास	-7119
▁ढुङ्गा	-7120
▁सेप्टे	-7121
ओस्	-7122
▁स्पे	-7123
▁गर्नको	-7124
▁लामिछानेले	-7125
▁नदीको	-7126
▁उद्यमी	-7127
▁मातहत	-7128
चको	-7129
▁सुब्बा	-7130
ठू	-7131
जीवी	-7132
▁विरुद्धको	-7133
▁घन	-7134
▁थो	-7135
▁पेन्	-7136
▁रियल	-7137
▁आदान	-7138
▁मानिने	-7139
▁द्र	-7140
ङ्गी	-7141
▁चम्	-7142
▁९९	-7143
ब्लिक	-7144
तपा	-7145
▁गर्दछु	-7146
▁महिनासम्म	-7147
▁बाहु	-7148
▁डाय	-7149
▁बेइ	-7150
वृ	-7151
▁ओलम्प	-7152
▁किशोरी	-7153
▁खतिवडाले	-7154
वत्	-7155
▁असा	-7156
झो	-7157
▁६१	-7158
▁ज्ञवालीले	-7159
▁प्रदूषण	-7160
▁तीनवटा	-7161
▁आश्वासन	-7162
ख्	-7163
▁धनकु	-7164
▁सेल्	-7165
ब्बर	-7166
दर्शन	-7167
▁बिहानै	-7168
▁गरेन	-7169
en	-7170
▁दिप	-7171
▁आराम	-7172
▁लियो	-7173
▁अचम्म	-7174
▁कार्यदल	-7175
▁ओभर	-7176
▁लाखौं	-7177
▁बोलाएर	-7178
▁दर्शकले	-7179
▁२०३	-7180
▁क्यामे	-7181
▁अतिक्रमण	-7182
▁बिद्य	-7183
बापत	-7184
▁झगडा	-7185
▁पर्वत	-7186
▁नेपालमै	-7187
रहन्छ	-7188
▁उपमे	-7189
द्धान्तिक	-7190
▁अर्कै	-7191
▁ब्रान्ड	-7192
ारू	-7193
द्वय	-7194
▁चुनावको	-7195
▁बुँदा	-7196
▁रेष्ट	-7197
▁अन्त्यमा	-7198
▁तिब्ब	-7199
शरण	-7200
▁थपिएको	-7201
▁इले	-7202
▁विदेशबाट	-7203
५०	-7204
टिक	-7205
ेटर	-7206
▁शही	-7207
▁राजतन्त्र	-7208
म्या	-7209
▁बच्न	-7210
▁२०१६	-7211
मानी	-7212
▁दिदै	-7213
▁बू	-7214
▁प्रदर्शनमा	-7215
▁आर्जन	-7216
▁गिरीले	-7217
▁साम्रा	-7218
▁खुकु	-7219
▁खोल्	-7220
▁बेल्	-7221
▁करोडको	-7222
▁कोषमा	-7223
▁खटिएका	-7224
▁साइकल	-7225
▁विरोधमा	-7226
▁परिमार्जन	-7227
▁खरी	-7228
▁वर्	-7229
▁साग	-7230
▁२०१५	-7231
▁संकल	-7232
▁माओवादीको	-7233
▁ब्रो	-7234
▁चलाएको	-7235
काठमा	-7236
ाउँमा	-7237
▁कुनैपनि	-7238
तीले	-7239
▁करा	-7240
▁मानिएको	-7241
▁पदार्थको	-7242
▁आउँछन्	-7243
▁चाहिं	-7244
भित्रका	-7245
▁इन्ट	-7246
▁भव्य	-7247
ष्कार	-7248
▁गराउ	-7249
न्दि	-7250
ारको	-7251
▁अविश्वास	-7252
▁उच्चस्तरीय	-7253
वधि	-7254
▁नवीन	-7255
▁यसैले	-7256
▁सधै	-7257
▁न्यायिक	-7258
▁कडाइ	-7259
▁सारा	-7260
▁साझेदार	-7261
▁हजारभन्दा	-7262
▁भद्र	-7263
▁मिलन	-7264
्रिड	-7265
सभ	-7266
▁मेहन	-7267
▁उनकै	-7268
▁हेल्	-7269
ज्ज	-7270
काको	-7271
▁तर्	-7272
▁सामान्यतया	-7273
फ्ले	-7274
▁स्वाद	-7275
वारण	-7276
▁उद्योगमा	-7277
▁गाइ	-7278
▁बच्चाको	-7279
वले	-7280
▁ठप्प	-7281
▁रसु	-7282
▁भित्री	-7283
▁रोजगारीका	-7284
▁लिम्बु	-7285
▁विकृति	-7286
▁प्ल	-7287
क्व	-7288
नयन	-7289
▁दूरी	-7290
▁परिवेश	-7291
▁बिरुवा	-7292
▁लक्ष्मण	-7293
▁सम्झना	-7294
▁हरियो	-7295
▁स्थितिमा	-7296
▁नवराज	-7297
गृह	-7298
▁शुक्	-7299
▁भाडामा	-7300
▁शैलीमा	-7301
..	-7302
▁आयुक्त	-7303
▁पठन	-7304
▁घोषित	-7305
▁जनकपुरधाम	-7306
▁माधवकुमार	-7307
▁अछ	-7308
▁युट्युब	-7309
▁नच	-7310
सिएको	-7311
▁ट्रेड	-7312
हक	-7313
सिएसन	-7314
▁रहँदै	-7315
तापूर्वक	-7316
▁खोज्दै	-7317
▁बैठकको	-7318
▁कपिलवस्तु	-7319
▁कामना	-7320
▁आफूहरुले	-7321
▁रजि	-7322
▁)	-7323
▁एपी	-7324
ेरिया	-7325
▁फागु	-7326
▁पाइँदैन	-7327
▁दैलेख	-7328
केन्द्र	-7329
▁शास्त्र	-7330
▁ज्योति	-7331
▁जसमध्ये	-7332
▁त्यसअघि	-7333
▁पैदल	-7334
▁लिई	-7335
▁इन्धन	-7336
▁प्रधाना	-7337
▁सैद्धान्तिक	-7338
पछिको	-7339
▁महासंघले	-7340
▁समुदायले	-7341
संर	-7342
▁विश्वकपमा	-7343
वण	-7344
▁लडाइ	-7345
▁रोचक	-7346
सीका	-7347
▁रोजगारीको	-7348
▁रोकथाम	-7349
▁हुनै	-7350
▁कार्तिक	-7351
च्छेद	-7352
▁आयोजनाले	-7353
▁राखिएका	-7354
▁निकायमा	-7355
▁अन्तर्वार्ता	-7356
▁नेत्र	-7357
▁रामबहादुर	-7358
▁डल	-7359
साना	-7360
सत्ता	-7361
▁जैविक	-7362
▁साहले	-7363
वेयर	-7364
कस्मिक	-7365
▁पाउँछन्	-7366
वाहक	-7367
▁मिलाएर	-7368
▁नेकपाको	-7369
▁औचित	-7370
▁बढ्नु	-7371
▁बाँडफा	-7372
▁कृष्णप्रसाद	-7373
▁तारिख	-7374
▁बोहरा	-7375
▁जाजरको	-7376
▁किट	-7377
▁भलिबल	-7378
क्षि	-7379
▁जिता	-7380
▁खट	-7381
▁चिन्त	-7382
▁नेम्वा	-7383
▁थाल्छ	-7384
▁सामेल	-7385
▁अर्थतन्त्रमा	-7386
▁सदस्यहरु	-7387
▁जितेर	-7388
▁उठाएका	-7389
▁अक्टो	-7390
▁पराजु	-7391
▁सम्मको	-7392
▁अनौपचारिक	-7393
लियो	-7394
▁हस्	-7395
▁पद्धति	-7396
सबै	-7397
माको	-7398
▁देखाउँछ	-7399
▁नेपालगन्ज	-7400
▁७४	-7401
▁आफैले	-7402
▁प्रस	-7403
▁सफ्ट	-7404
▁गिर	-7405
▁फेसबु	-7406
▁अभिय	-7407
▁बहिनी	-7408
▁खोजिएको	-7409
▁अर्ध	-7410
▁शरणा	-7411
▁धमा	-7412
र्दिक	-7413
▁पर्यट	-7414
▁डिस्	-7415
▁मिले	-7416
▁नहोस्	-7417
▁बाढीले	-7418
▁गइ	-7419
न्सको	-7420
बीचमा	-7421
हरि	-7422
▁टिकटक	-7423
▁न्यौपानेले	-7424
पोर्	-7425
▁हुनेमा	-7426
▁पथ	-7427
▁आत्मा	-7428
▁मनोनयन	-7429
हिन	-7430
▁आवत	-7431
▁अपहरण	-7432
▁भट्टले	-7433
ाचार	-7434
▁एआई	-7435
▁शिविर	-7436
वियु	-7437
▁शिखर	-7438
ेलिकप्टर	-7439
▁मुल	-7440
▁अवस्थाको	-7441
▁मानवअधिकार	-7442
जेल	-7443
▁कस्ता	-7444
रन	-7445
जिन	-7446
▁रद्द	-7447
▁भएँ	-7448
▁बाबा	-7449
▁बिकास	-7450
▁उपप्रधानमन्त्री	-7451
प्रच	-7452
▁पटकपटक	-7453
▁सहमतिमा	-7454
फु	-7455
▁मधुमे	-7456
न्दार	-7457
▁लेख्ने	-7458
▁दम्प	-7459
▁भन्नुहुन्छ	-7460
ुटि	-7461
▁गुमाएका	-7462
ङ्गले	-7463
▁उम्मे	-7464
▁नहुनु	-7465
▁उपसमिति	-7466
▁नुवाकोट	-7467
▁संसद्मा	-7468
▁रेस	-7469
्र्यो	-7470
▁गोप्य	-7471
लान्	-7472
▁नसके	-7473
▁बाख्रा	-7474
ंशिक	-7475
▁चल्न	-7476
गामी	-7477
ञ्जु	-7478
र्पोर	-7479
▁बाक्	-7480
▁भेटमा	-7481
▁हार्दिक	-7482
म्बू	-7483
याउने	-7484
▁गराई	-7485
▁बत्ती	-7486
▁वक्तव्य	-7487
संगै	-7488
▁सभासद	-7489
▁अडि	-7490
▁तापक्रम	-7491
▁कार्यपालिका	-7492
▁बुढ	-7493
▁रुच	-7494
▁सुकु	-7495
▁प्रकृया	-7496
▁पाउनेछन्	-7497
▁रुपले	-7498
▁संघसंस्था	-7499
▁सर्वेक्षण	-7500
▁भानु	-7501
▁७३	-7502
▁क्रो	-7503
नाइटेड	-7504
▁औचित्य	-7505
नस	-7506
▁पोषण	-7507
▁इजराय	-7508
▁काभ्र	-7509
▁निवारण	-7510
▁सुधारका	-7511
▁शान्तिपूर्ण	-7512
▁पारी	-7513
▁किसानको	-7514
▁निर्णयमा	-7515
▁चितवनको	-7516
▁अन्ध	-7517
▁रुकुम	-7518
▁जनआ	-7519
▁पश्चात	-7520
▁मार	-7521
▁पोखरी	-7522
द्रिक	-7523
▁केटी	-7524
▁दलाल	-7525
▁नजर	-7526
▁सकिएपछि	-7527
▁वता	-7528
▁मनाङ	-7529
सीआर	-7530
▁निवेद	-7531
▁बच्चालाई	-7532
▁प्रकोप	-7533
▁आकस्मिक	-7534
▁नम्बरमा	-7535
▁हेलिकप्टर	-7536
▁काटि	-7537
▁बीपी	-7538
▁सुत्केरी	-7539
▁भवनमा	-7540
▁उम	-7541
▁दस्ताव	-7542
om	-7543
पेर	-7544
▁ध्रु	-7545
▁निराशा	-7546
▁राजनीतिको	-7547
▁मैन	-7548
जेन्ट	-7549
▁मर्	-7550
▁हाराहारीमा	-7551
▁भिटाम	-7552
▁पौडेलको	-7553
▁कठि	-7554
▁गुज	-7555
▁राउत	-7556
▁प्रतिफल	-7557
▁भण्डारण	-7558
दिनँ	-7559
▁समि	-7560
ालयमा	-7561
▁थप्	-7562
▁मोटो	-7563
▁अनुसन्धानमा	-7564
▁किस्ता	-7565
▁मान्छेलाई	-7566
▁एम्बुलेन्स	-7567
▁इलाम	-7568
च्	-7569
▁भन्नेबारे	-7570
▁सामग्र	-7571
▁महिनाभित्र	-7572
▁सुदृढ	-7573
▁प्रसंग	-7574
ाल्ने	-7575
▁सिस्टम	-7576
▁धितोपत्र	-7577
क्रान्ति	-7578
▁गर्नुका	-7579
▁देखी	-7580
▁आचारसं	-7581
▁क्षेत्रले	-7582
▁संगठित	-7583
▁ब्यब	-7584
▁कमरेड	-7585
▁विगतका	-7586
▁पुलिस	-7587
▁भेटवार्ता	-7588
▁आपसी	-7589
▁सरस्व	-7590
▁सञ्चालनका	-7591
▁एसि	-7592
सभापति	-7593
▁प्रचारप्रसार	-7594
▁एप्प	-7595
▁सिलसि	-7596
▁संसारमा	-7597
नयाँ	-7598
▁टिमको	-7599
▁चलाइ	-7600
▁बेनी	-7601
▁सानै	-7602
▁बस्दा	-7603
▁थपे	-7604
▁लाग्नु	-7605
▁पञ्चायत	-7606
▁सहयोगको	-7607
▁सालदेखि	-7608
▁सम्बन्धि	-7609
▁बैत	-7610
नेपाली	-7611
▁योग्यता	-7612
▁शिक्षामा	-7613
चमा	-7614
ौलाले	-7615
▁रूपान्तरण	-7616
▁मू	-7617
▁डेब	-7618
नुभएन	-7619
▁घुम्न	-7620
▁भूगोल	-7621
▁दवा	-7622
▁रहेकी	-7623
▁मार्ने	-7624
▁लापर	-7625
▁चैत्र	-7626
▁अग्रसर	-7627
▁बनेपछि	-7628
▁एकअर्का	-7629
▁धो	-7630
▁व्यवहारमा	-7631
साम	-7632
त्तिको	-7633
▁अनुगम	-7634
▁खत्री	-7635
वरको	-7636
▁बीबी	-7637
▁सुरेश	-7638
ङ्ख	-7639
▁देशभरका	-7640
▁पारदर्शी	-7641
कियो	-7642
▁हेड	-7643
▁	-7644
ा	-7645
्	-7646
र	-7647
न	-7648
क	-7649
ि	-7650
े	-7651
म	-7652
स	-7653
ल	-7654
ो	-7655
त	-7656
प	-7657
य	-7658
ु	-7659
ह	-7660
ग	-7661
ी	-7662
व	-7663
द	-7664
ब	-7665
भ	-7666
ज	-7667
।	-7668
ए	-7669
छ	-7670
ट	-7671
ै	-7672
उ	-7673
अ	-7674
थ	-7675
श	-7676
च	-7677
ध	-7678
ष	-7679
ख	-7680
ड	-7681
,	-7682
आ	-7683
ँ	-7684
ं	-7685
ई	-7686
ण	-7687
ू	-7688
फ	-7689
इ	-7690
'	-7691
ठ	-7692
ौ	-7693
घ	-7694
१	-7695
२	-7696
ृ	-7697
०	-7698
ढ	-7699
ङ	-7700
झ	-7701
-	-7702
५	-7703
ञ	-7704
३	-7705
७	-7706
४	-7707
६	-7708
ओ	-7709
८	-7710
९	-7711
.	-7712
?	-7713
)	-7714
(	-7715
"	-7716
ः	-7717
औ	-7718
:	-7719
/	-7720
ऐ	-7721
e	-7722
a	-7723
ऊ	-7724
ऋ	-7725
o	-7726
!	-7727
t	-7728
i	-7729
n	-7730
r	-7731
s	-7732
l	-7733
m	-7734
¥	-7735
c	-7736
d	-7737
p	-7738
1	-7739
