<pad>	0
<unk>	0
<s>	0
</s>	0
<0x00>	0
<0x01>	0
<0x02>	0
<0x03>	0
<0x04>	0
<0x05>	0
<0x06>	0
<0x07>	0
<0x08>	0
<0x09>	0
<0x0A>	0
<0x0B>	0
<0x0C>	0
<0x0D>	0
<0x0E>	0
<0x0F>	0
<0x10>	0
<0x11>	0
<0x12>	0
<0x13>	0
<0x14>	0
<0x15>	0
<0x16>	0
<0x17>	0
<0x18>	0
<0x19>	0
<0x1A>	0
<0x1B>	0
<0x1C>	0
<0x1D>	0
<0x1E>	0
<0x1F>	0
<0x20>	0
<0x21>	0
<0x22>	0
<0x23>	0
<0x24>	0
<0x25>	0
<0x26>	0
<0x27>	0
<0x28>	0
<0x29>	0
<0x2A>	0
<0x2B>	0
<0x2C>	0
<0x2D>	0
<0x2E>	0
<0x2F>	0
<0x30>	0
<0x31>	0
<0x32>	0
<0x33>	0
<0x34>	0
<0x35>	0
<0x36>	0
<0x37>	0
<0x38>	0
<0x39>	0
<0x3A>	0
<0x3B>	0
<0x3C>	0
<0x3D>	0
<0x3E>	0
<0x3F>	0
<0x40>	0
<0x41>	0
<0x42>	0
<0x43>	0
<0x44>	0
<0x45>	0
<0x46>	0
<0x47>	0
<0x48>	0
<0x49>	0
<0x4A>	0
<0x4B>	0
<0x4C>	0
<0x4D>	0
<0x4E>	0
<0x4F>	0
<0x50>	0
<0x51>	0
<0x52>	0
<0x53>	0
<0x54>	0
<0x55>	0
<0x56>	0
<0x57>	0
<0x58>	0
<0x59>	0
<0x5A>	0
<0x5B>	0
<0x5C>	0
<0x5D>	0
<0x5E>	0
<0x5F>	0
<0x60>	0
<0x61>	0
<0x62>	0
<0x63>	0
<0x64>	0
<0x65>	0
<0x66>	0
<0x67>	0
<0x68>	0
<0x69>	0
<0x6A>	0
<0x6B>	0
<0x6C>	0
<0x6D>	0
<0x6E>	0
<0x6F>	0
<0x70>	0
<0x71>	0
<0x72>	0
<0x73>	0
<0x74>	0
<0x75>	0
<0x76>	0
<0x77>	0
<0x78>	0
<0x79>	0
<0x7A>	0
<0x7B>	0
<0x7C>	0
<0x7D>	0
<0x7E>	0
<0x7F>	0
<0x80>	0
<0x81>	0
<0x82>	0
<0x83>	0
<0x84>	0
<0x85>	0
<0x86>	0
<0x87>	0
<0x88>	0
<0x89>	0
<0x8A>	0
<0x8B>	0
<0x8C>	0
<0x8D>	0
<0x8E>	0
<0x8F>	0
<0x90>	0
<0x91>	0
<0x92>	0
<0x93>	0
<0x94>	0
<0x95>	0
<0x96>	0
<0x97>	0
<0x98>	0
<0x99>	0
<0x9A>	0
<0x9B>	0
<0x9C>	0
<0x9D>	0
<0x9E>	0
<0x9F>	0
<0xA0>	0
<0xA1>	0
<0xA2>	0
<0xA3>	0
<0xA4>	0
<0xA5>	0
<0xA6>	0
<0xA7>	0
<0xA8>	0
<0xA9>	0
<0xAA>	0
<0xAB>	0
<0xAC>	0
<0xAD>	0
<0xAE>	0
<0xAF>	0
<0xB0>	0
<0xB1>	0
<0xB2>	0
<0xB3>	0
<0xB4>	0
<0xB5>	0
<0xB6>	0
<0xB7>	0
<0xB8>	0
<0xB9>	0
<0xBA>	0
<0xBB>	0
<0xBC>	0
<0xBD>	0
<0xBE>	0
<0xBF>	0
<0xC0>	0
<0xC1>	0
<0xC2>	0
<0xC3>	0
<0xC4>	0
<0xC5>	0
<0xC6>	0
<0xC7>	0
<0xC8>	0
<0xC9>	0
<0xCA>	0
<0xCB>	0
<0xCC>	0
<0xCD>	0
<0xCE>	0
<0xCF>	0
<0xD0>	0
<0xD1>	0
<0xD2>	0
<0xD3>	0
<0xD4>	0
<0xD5>	0
<0xD6>	0
<0xD7>	0
<0xD8>	0
<0xD9>	0
<0xDA>	0
<0xDB>	0
<0xDC>	0
<0xDD>	0
<0xDE>	0
<0xDF>	0
<0xE0>	0
<0xE1>	0
<0xE2>	0
<0xE3>	0
<0xE4>	0
<0xE5>	0
<0xE6>	0
<0xE7>	0
<0xE8>	0
<0xE9>	0
<0xEA>	0
<0xEB>	0
<0xEC>	0
<0xED>	0
<0xEE>	0
<0xEF>	0
<0xF0>	0
<0xF1>	0
<0xF2>	0
<0xF3>	0
<0xF4>	0
<0xF5>	0
<0xF6>	0
<0xF7>	0
<0xF8>	0
<0xF9>	0
<0xFA>	0
<0xFB>	0
<0xFC>	0
<0xFD>	0
<0xFE>	0
<0xFF>	0
▁स	-0
को	-1
मा	-2
का	-3
र्	-4
▁प	-5
्र	-6
न्	-7
▁।	-8
▁ग	-9
ने	-10
ले	-11
▁र	-12
्य	-13
▁ब	-14
ला	-15
▁भ	-16
▁अ	-17
▁क	-18
▁ह	-19
▁व	-20
▁न	-21
ार	-22
▁छ	-23
▁त	-24
▁म	-25
▁द	-26
▁प्र	-27
▁ज	-28
▁आ	-29
स्	-30
ाल	-31
ति	-32
ता	-33
क्	-34
▁उ	-35
ना	-36
यो	-37
नि	-38
एको	-39
▁गर	-40
ान	-41
▁का	-42
▁वि	-43
▁गर्	-44
हर	-45
त्र	-46
लाई	-47
म्	-48
ेको	-49
नु	-50
वा	-51
▁हु	-52
▁य	-53
▁च	-54
िक	-55
ित	-56
था	-57
▁मा	-58
रा	-59
▁नि	-60
्या	-61
▁ख	-62
▁ल	-63
री	-64
▁रा	-65
▁ला	-66
▁ए	-67
या	-68
न्द	-69
▁श	-70
▁थ	-71
क्ष	-72
▁पनि	-73
▁ने	-74
त्	-75
ल्	-76
ेर	-77
▁सं	-78
▁सा	-79
▁स्	-80
पाल	-81
ेश	-82
बा	-83
हि	-84
▁दि	-85
▁सम	-86
हरु	-87
ाउ	-88
▁थि	-89
ष्	-90
नी	-91
▁लाग	-92
ुर	-93
हा	-94
ेका	-95
दा	-96
दै	-97
▁हो	-98
न्छ	-99
▁फ	-100
र्य	-101
एका	-102
▁भने	-103
रि	-104
▁त्य	-105
▁नेपाल	-106
पा	-107
कार	-108
बाट	-109
स्त	-110
▁छन्	-111
▁पा	-112
▁१	-113
▁भएको	-114
ाम	-115
▁'	-116
▁२	-117
द्	-118
न्त्र	-119
िका	-120
हरू	-121
▁के	-122
भा	-123
वि	-124
ेख	-125
क्र	-126
▁निर्	-127
ष्ट	-128
छि	-129
▁रह	-130
रण	-131
▁लागि	-132
▁पु	-133
▁गरि	-134
▁घ	-135
▁सम्	-136
▁कु	-137
ही	-138
्न	-139
लो	-140
सा	-141
▁गर्न	-142
▁उन	-143
▁गर्ने	-144
▁यो	-145
▁गरेको	-146
▁कार्य	-147
ेल	-148
▁ध	-149
▁ट	-150
ीय	-151
▁यस	-152
▁सु	-153
स्था	-154
गा	-155
र्ष	-156
ारी	-157
▁बा	-158
न्त	-159
▁एक	-160
देश	-161
▁अध	-162
▁आफ	-163
रो	-164
▁बता	-165
पर्	-166
्च	-167
▁को	-168
▁व्य	-169
▁थियो	-170
▁प्रति	-171
भि	-172
ीले	-173
ँग	-174
ौं	-175
▁ड	-176
पछि	-177
टा	-178
ेखि	-179
▁सर	-180
▁अनु	-181
रह	-182
कि	-183
▁क्	-184
म्म	-185
▁तथा	-186
▁सह	-187
ुप	-188
ण्	-189
्रो	-190
धान	-191
योग	-192
सँग	-193
गर	-194
▁हुने	-195
धि	-196
िन	-197
▁दु	-198
▁बढ	-199
▁राज	-200
ली	-201
▁तर	-202
एर	-203
▁उप	-204
की	-205
▁त्यस	-206
▁नै	-207
ालय	-208
िय	-209
ण्ड	-210
टी	-211
▁बि	-212
र्थ	-213
▁सि	-214
▁थिए	-215
ंग	-216
▁मु	-217
वस्था	-218
नुपर्	-219
▁भन्	-220
ेत	-221
ाइ	-222
ेट	-223
▁क्ष	-224
ेस	-225
िल्	-226
▁सरकार	-227
स्थ	-228
बार	-229
▁वर्ष	-230
नमा	-231
ूर्	-232
सार	-233
▁बना	-234
▁वा	-235
▁उनले	-236
क्रम	-237
▁हाम	-238
▁काम	-239
न्न	-240
ाउँ	-241
कारी	-242
्व	-243
ष्ट्र	-244
न्द्र	-245
▁ठ	-246
िम	-247
प्	-248
▁परि	-249
द्ध	-250
▁इ	-251
क्त	-252
▁जना	-253
▁लि	-254
न्त्री	-255
प्र	-256
हिले	-257
याँ	-258
बै	-259
▁रहेको	-260
न्य	-261
▁विश	-262
न्दा	-263
द्य	-264
▁उनी	-265
सी	-266
▁रुप	-267
लि	-268
▁भए	-269
ँदै	-270
हाँ	-271
नको	-272
जना	-273
ङ्	-274
जार	-275
▁स्थ	-276
सि	-277
डि	-278
▁गरेका	-279
▁२०	-280
डा	-281
▁से	-282
उने	-283
जा	-284
ैन	-285
ेत्र	-286
सम्म	-287
स्ता	-288
न्ध	-289
▁समा	-290
ानी	-291
ती	-292
्ने	-293
मु	-294
▁सबै	-295
▁पार्	-296
ुरु	-297
▁कि	-298
▁क्षेत्र	-299
्यक्ष	-300
▁हुन्छ	-301
हु	-302
दी	-303
▁मात्र	-304
उन	-305
▁देखि	-306
▁पर्	-307
ठमा	-308
▁जन	-309
▁रो	-310
▁भन्ने	-311
ेला	-312
धार	-313
▁सो	-314
▁बै	-315
▁प्रा	-316
क्षा	-317
▁जा	-318
▁३	-319
सक	-320
क्ति	-321
▁मि	-322
छन्	-323
▁भएका	-324
र्म	-325
▁काठमा	-326
तिक	-327
▁छैन	-328
म्प	-329
चार	-330
▁ना	-331
▁राख	-332
▁बु	-333
▁कुरा	-334
▁गरिएको	-335
▁गरे	-336
▁आफ्न	-337
▁काठमाड	-338
▁अर्	-339
▁राष्ट्र	-340
माण	-341
▁नेपाली	-342
निक	-343
▁मह	-344
वार	-345
िति	-346
स्तो	-347
रहेको	-348
नुभ	-349
ञ्च	-350
नै	-351
ेद	-352
▁सक्	-353
मन्त्री	-354
▁गर्दै	-355
▁दिन	-356
दि	-357
▁बताए	-358
▁उत्	-359
▁समय	-360
▁स्थान	-361
▁जो	-362
▁महि	-363
शा	-364
भाव	-365
▁जान	-366
▁कम	-367
▁अहिले	-368
ग्र	-369
बन्ध	-370
टर	-371
ंक	-372
▁गरी	-373
जी	-374
चि	-375
पालिका	-376
गत	-377
▁पुग	-378
▁५	-379
▁(	-380
टक	-381
▁था	-382
लेख	-383
मान	-384
▁हुन	-385
कै	-386
कु	-387
▁?	-388
ाउने	-389
▁पर	-390
▁ती	-391
रु	-392
नुपर्ने	-393
ोल	-394
त्व	-395
▁स्व	-396
▁कारण	-397
▁कार्यक्रम	-398
्यो	-399
▁केही	-400
कृ	-401
▁चा	-402
्रा	-403
▁काठमाडौं	-404
▁झ	-405
्रम	-406
ेरै	-407
▁प्रहर	-408
रमा	-409
▁आफ्नो	-410
उँ	-411
िल्ला	-412
▁हि	-413
▁हजार	-414
▁खा	-415
र्व	-416
डी	-417
▁भार	-418
ेक	-419
ुट	-420
ध्य	-421
▁प्रदेश	-422
▁ओ	-423
त्य	-424
▁खो	-425
▁अध्यक्ष	-426
▁दुई	-427
ाउन	-428
▁व्यवस्था	-429
▁जिल्ला	-430
▁पहि	-431
▁दा	-432
▁स्वा	-433
▁भा	-434
हरुले	-435
▁धेरै	-436
मुख	-437
▁लग	-438
ैले	-439
िया	-440
▁पार्टी	-441
▁लगा	-442
ज्	-443
इन	-444
बी	-445
देखि	-446
र्ता	-447
▁।'	-448
▁शि	-449
▁गत	-450
▁भारत	-451
▁महा	-452
▁४	-453
▁अव	-454
▁हुन्	-455
▁निर्माण	-456
कास	-457
▁बो	-458
र्फ	-459
घि	-460
▁समेत	-461
▁देश	-462
सो	-463
▁साथ	-464
▁अन्त	-465
▁अनुसार	-466
▁पूर्	-467
▁केन्द्र	-468
हरुको	-469
ेन्	-470
▁कुनै	-471
▁अवस्था	-472
जन	-473
मि	-474
▁हा	-475
▁यु	-476
फल	-477
ाली	-478
यत	-479
▁आयो	-480
ुन	-481
▁पो	-482
▁विकास	-483
स्य	-484
ँदा	-485
▁गरेर	-486
▁सद	-487
मै	-488
म्ब	-489
ँच	-490
▁सकि	-491
धा	-492
▁६	-493
टो	-494
र्च	-495
स्तै	-496
पूर्	-497
▁विष	-498
भन्दा	-499
▁रुपमा	-500
▁नेता	-501
▁या	-502
ूल	-503
पी	-504
▁प्रधान	-505
▁सञ्च	-506
▁राम	-507
▁घर	-508
ब्	-509
यु	-510
भाग	-511
▁श्र	-512
ष्ठ	-513
न्दै	-514
▁शा	-515
▁आव	-516
स्या	-517
ोर	-518
वन	-519
▁नगर	-520
ग्	-521
▁स्थानीय	-522
हित	-523
▁अभि	-524
▁गु	-525
दान	-526
▁जानकारी	-527
यन	-528
▁हामी	-529
पमा	-530
▁विषय	-531
▁प्रमुख	-532
▁भइ	-533
माले	-534
▁सरकारले	-535
▁निर्वा	-536
▁लाख	-537
श्य	-538
▁चि	-539
मी	-540
▁त्यो	-541
वास	-542
पुर	-543
▁तय	-544
▁समिति	-545
च्च	-546
ोक	-547
▁समस्या	-548
▁प्रहरी	-549
▁गाउँ	-550
ारा	-551
र्या	-552
जि	-553
स्ट	-554
थि	-555
▁विश्व	-556
▁नयाँ	-557
वी	-558
▁कार्यालय	-559
ताको	-560
▁ल्या	-561
खा	-562
सद	-563
▁ढ	-564
▁गा	-565
▁भि	-566
▁खु	-567
सन	-568
वादी	-569
▁मो	-570
ज्ञ	-571
▁संघ	-572
▁नभ	-573
णा	-574
▁एउ	-575
▁मन्त्र	-576
▁देख	-577
▁कस	-578
▁खेल	-579
▁दल	-580
मेर	-581
▁निर्वाच	-582
नुभयो	-583
▁रू	-584
▁सदस्य	-585
कमा	-586
▁आएको	-587
यर	-588
▁भन्दै	-589
नुपर्छ	-590
्रेस	-591
ेन	-592
▁भयो	-593
टि	-594
लमा	-595
▁सुरु	-596
▁७	-597
▁सेवा	-598
ट्	-599
▁अस्	-600
स्थ्य	-601
पत	-602
▁आफू	-603
ीमा	-604
्छ	-605
▁सामा	-606
▁बज	-607
इएको	-608
▁राजनी	-609
▁उनको	-610
भिन्न	-611
क्षण	-612
जिक	-613
▁गर्दा	-614
▁रहेका	-615
▁प्रयोग	-616
▁सय	-617
▁बढी	-618
सम	-619
राज	-620
▁गर्नु	-621
रहेका	-622
श्यक	-623
वाद	-624
▁विद्य	-625
णय	-626
▁महिला	-627
▁डा	-628
▁निय	-629
▁भू	-630
ौँ	-631
मो	-632
्यान	-633
सको	-634
सर	-635
▁सञ्चाल	-636
▁व्यक्ति	-637
▁अब	-638
▁निर्णय	-639
र्श	-640
सले	-641
▁-	-642
▁हुँदै	-643
लु	-644
▁पहिलो	-645
▁व्यव	-646
हरुलाई	-647
▁राष्ट्रिय	-648
पति	-649
दुर	-650
▁सुर	-651
▁प्रधानमन्त्री	-652
▁सम्बन्ध	-653
▁कम्प	-654
▁स्वास्थ्य	-655
▁१०	-656
करण	-657
▁पछि	-658
▁तपा	-659
िर	-660
▁भनेर	-661
▁आइ	-662
प्त	-663
शत	-664
हरूको	-665
▁दो	-666
चना	-667
▁हे	-668
▁विभिन्न	-669
▁जि	-670
र्त	-671
▁उहाँ	-672
हरूले	-673
सु	-674
▁छो	-675
▁प्रश	-676
▁औ	-677
धन	-678
▁रुपै	-679
पाद	-680
पि	-681
▁जी	-682
▁नाम	-683
▁आज	-684
वेश	-685
▁अन्य	-686
सं	-687
▁८	-688
ोग	-689
▁सहयोग	-690
▁मे	-691
▁चु	-692
▁पार	-693
▁एउटा	-694
सकेको	-695
टन	-696
साय	-697
▁मन	-698
▁प्रतिशत	-699
र्क	-700
पन	-701
र्ग	-702
▁बैठ	-703
▁छा	-704
त्म	-705
▁घट	-706
ङ्ग	-707
पूर्ण	-708
ंग्रेस	-709
हो	-710
▁पत्र	-711
न्ति	-712
▁कृ	-713
▁दिने	-714
▁रि	-715
पना	-716
▁आयोजना	-717
▁आवश्यक	-718
▁दिए	-719
▁मानि	-720
▁लेख	-721
▁बैंक	-722
तृ	-723
िकारी	-724
▁तीन	-725
▁आधार	-726
▁ठू	-727
▁संस्था	-728
समा	-729
▁कांग्रेस	-730
▁समाज	-731
▁रुपैयाँ	-732
ञ्	-733
▁मुख	-734
▁माग	-735
▁कम्पनी	-736
▁मन्त्रालय	-737
हादुर	-738
र्थिक	-739
▁रु	-740
▁तपाई	-741
तन्त्र	-742
▁मत	-743
रको	-744
▁आर्थिक	-745
▁बस्	-746
त्त	-747
ड्	-748
चिव	-749
▁एमाले	-750
न्या	-751
श्च	-752
▁बेला	-753
पताल	-754
वारी	-755
,'	-756
▁रूपमा	-757
▁९	-758
जु	-759
▁अस्पताल	-760
गरिक	-761
रोड	-762
भित्र	-763
हार	-764
तामा	-765
▁बस	-766
र्ड	-767
नामा	-768
ीत	-769
▁सक	-770
▁उल्	-771
दैन	-772
▁होइन	-773
▁व्या	-774
▁बने	-775
ित्	-776
▁नागरिक	-777
▁क्षेत्रमा	-778
▁स्था	-779
▁करोड	-780
ेष	-781
िएको	-782
▁डि	-783
▁सड	-784
चा	-785
▁शु	-786
▁भन्दा	-787
विधान	-788
▁उक्त	-789
शी	-790
▁सार्व	-791
▁निर्देश	-792
द्या	-793
सक्	-794
काल	-795
▁सू	-796
▁दिएको	-797
▁नेतृ	-798
▁मात्रै	-799
न्छन्	-800
▁बाल	-801
▁बुझ	-802
▁तह	-803
लेको	-804
▁क्रम	-805
सहित	-806
▁वै	-807
▁बे	-808
▁गो	-809
▁ता	-810
▁संविधान	-811
▁सभा	-812
एपछि	-813
▁बाँ	-814
ख्या	-815
▁नेतृत्व	-816
▁हाल	-817
ोष	-818
अघि	-819
जनिक	-820
▁अमेर	-821
▁गते	-822
कको	-823
धिक	-824
▁पोख	-825
▁उत्पाद	-826
▁भनि	-827
कम	-828
▁पुन	-829
▁मूल	-830
स्थित	-831
▁ति	-832
▁दे	-833
क्रिया	-834
ुत	-835
▁किन	-836
बहादुर	-837
▁नगरपालिका	-838
इन्	-839
▁अनि	-840
ुल	-841
▁निका	-842
▁सार्वजनिक	-843
▁अप	-844
न्व	-845
▁मुख्य	-846
▁पक्ष	-847
▁पर्य	-848
▁सम्प	-849
▁पू	-850
▁हाम्रो	-851
्रि	-852
बारे	-853
सँगै	-854
▁योजना	-855
▁प्रभाव	-856
क्ता	-857
नका	-858
▁अगा	-859
▁थप	-860
▁इन्	-861
▁सन्	-862
▁अधि	-863
्यु	-864
कले	-865
▁बताउ	-866
▁कर्म	-867
युक्त	-868
रोना	-869
▁पर्ने	-870
ेन्द्र	-871
▁अघि	-872
ेरो	-873
▁पटक	-874
▁कति	-875
राष्ट्र	-876
▁यस्तो	-877
बीच	-878
▁नग	-879
दाय	-880
▁पूर्व	-881
धी	-882
र्न	-883
▁चल	-884
▁२०७	-885
▁उद्य	-886
▁"	-887
▁हामीले	-888
वै	-889
▁कोरोना	-890
▁अधिकारी	-891
ूह	-892
चारी	-893
पत्र	-894
▁निक	-895
▁राजनीतिक	-896
ेष्ठ	-897
मति	-898
▁ठूलो	-899
▁मान	-900
▁मृ	-901
नाव	-902
ीको	-903
▁अन्तर्	-904
▁जनाएको	-905
▁राम्रो	-906
▁वडा	-907
▁भेट	-908
▁व्यवसाय	-909
▁बजार	-910
काश	-911
▁लगायत	-912
ेपछि	-913
प्रति	-914
र्ट	-915
▁उल्लेख	-916
क्रमण	-917
ठा	-918
▁विद्या	-919
▁अर्को	-920
▁अर्थ	-921
र्ने	-922
▁छल	-923
▁वटा	-924
से	-925
▁गाउँपालिका	-926
▁गर्छ	-927
सभा	-928
▁नी	-929
▁लगानी	-930
▁सां	-931
▁छलफल	-932
▁मन्त्री	-933
ैं	-934
▁हुनु	-935
▁सम्झ	-936
नाइ	-937
▁गठ	-938
▁नेपालको	-939
▁महिना	-940
▁चौ	-941
▁नेपालमा	-942
हान	-943
▁आएका	-944
कपा	-945
ारे	-946
पु	-947
न्ड	-948
▁कर्मचारी	-949
बर	-950
▁फिल्	-951
ञ्ज	-952
▁सम्म	-953
▁विशेष	-954
ोट	-955
बु	-956
निधि	-957
्वास	-958
न्तर	-959
तमा	-960
▁विदेश	-961
दछ	-962
ध्ये	-963
यक	-964
▁सहभाग	-965
भर	-966
▁संग	-967
रुद्ध	-968
लको	-969
वेद	-970
ओवादी	-971
▁सर्व	-972
▁बनाउन	-973
▁अगाडि	-974
त्मक	-975
▁अवस्थामा	-976
▁सक्ने	-977
त्या	-978
फा	-979
▁ठाउँ	-980
थ्यो	-981
▁सामाजिक	-982
द्धि	-983
▁निर्वाचन	-984
▁समूह	-985
▁मैले	-986
▁सुरक्षा	-987
▁जित	-988
▁हुँदा	-989
▁जे	-990
▁पाँच	-991
मार	-992
▁परी	-993
▁लोक	-994
हरूलाई	-995
▁नहु	-996
▁अन	-997
▁ले	-998
पनि	-999
सन्	-1000
राम	-1001
▁अद	-1002
त्ति	-1003
्री	-1004
▁सडक	-1005
कल	-1006
▁फो	-1007
▁पै	-1008
▁नेकपा	-1009
▁श्रेष्ठ	-1010
▁मुलु	-1011
▁राज्य	-1012
▁फिल्म	-1013
▁खे	-1014
चित्र	-1015
नले	-1016
▁भएर	-1017
▁संर	-1018
▁विद्यालय	-1019
▁विषयमा	-1020
▁अझ	-1021
▁प्राप्त	-1022
▁गर्नुपर्ने	-1023
▁उद्योग	-1024
▁उपचार	-1025
▁१५	-1026
▁क्या	-1027
▁बनाउने	-1028
ीर	-1029
▁सक्छ	-1030
कर्ता	-1031
विधि	-1032
▁परिवार	-1033
▁थापा	-1034
▁साम	-1035
नुभएको	-1036
त्ता	-1037
वरण	-1038
▁जारी	-1039
▁चार	-1040
▁नीति	-1041
▁क्रममा	-1042
▁तपाईं	-1043
दर्श	-1044
▁विद्यार्थ	-1045
▁तत्	-1046
▁उपा	-1047
▁रे	-1048
गम	-1049
▁मेरो	-1050
एन	-1051
स्रो	-1052
ुवा	-1053
माथि	-1054
▁चाह	-1055
▁साथै	-1056
▁यी	-1057
▁जनता	-1058
▁रकम	-1059
▁शिक्षा	-1060
▁आयोग	-1061
▁बजेट	-1062
क्षक	-1063
▁पाइ	-1064
▁करि	-1065
न्दोल	-1066
▁संसद	-1067
र्ण	-1068
▁कार्यक्रममा	-1069
रोध	-1070
▁न्य	-1071
▁प्रव	-1072
अनु	-1073
घा	-1074
बि	-1075
म्भ	-1076
▁पद	-1077
व्य	-1078
▁यसको	-1079
पो	-1080
▁ऐ	-1081
▁अदाल	-1082
▁आउने	-1083
▁अध्य	-1084
जग	-1085
के	-1086
पर	-1087
सन्धान	-1088
▁सञ्चालन	-1089
ेन्ट	-1090
▁पढ	-1091
ग्रह	-1092
र्फत	-1093
मित	-1094
▁तयारी	-1095
▁चलचित्र	-1096
▁घटना	-1097
▁कृष	-1098
टै	-1099
दो	-1100
▁भइरहेको	-1101
▁पानी	-1102
उँछन्	-1103
▁बाहि	-1104
डेल	-1105
▁लागेको	-1106
▁उम्म	-1107
▁अनुसन्धान	-1108
हरुमा	-1109
▁१२	-1110
▁सङ्	-1111
स्ताव	-1112
गरी	-1113
▁खर्च	-1114
▁उत्पादन	-1115
▁बन्द	-1116
त्यु	-1117
▁यहाँ	-1118
▁जाने	-1119
▁आरो	-1120
▁घोष	-1121
न्ने	-1122
▁पौ	-1123
▁आग	-1124
▁युवा	-1125
▁परेको	-1126
यान	-1127
▁बताएका	-1128
▁अस	-1129
▁क्र	-1130
▁ची	-1131
▁आन्दोल	-1132
▁सचिव	-1133
समेत	-1134
▁१९	-1135
ल्लो	-1136
▁तयार	-1137
▁भएपछि	-1138
क्स	-1139
ोधन	-1140
▁बी	-1141
▁फि	-1142
▁लक्ष	-1143
तको	-1144
तर्फ	-1145
षा	-1146
▁प्रच	-1147
▁पि	-1148
▁जुन	-1149
▁समु	-1150
▁माओवादी	-1151
▁शर्	-1152
झा	-1153
▁भएकाले	-1154
▁सफल	-1155
कृति	-1156
▁मृत्यु	-1157
▁छि	-1158
▁दोस्रो	-1159
ेरि	-1160
▁विज्ञ	-1161
वर्त	-1162
राष्ट्रिय	-1163
▁विभाग	-1164
▁उपल	-1165
▁सकिन्छ	-1166
▁साल	-1167
▁भनेको	-1168
साद	-1169
ल्ला	-1170
त्रा	-1171
▁उठ	-1172
▁सांसद	-1173
▁मौ	-1174
▁अफ	-1175
तले	-1176
▁विक	-1177
दे	-1178
▁सी	-1179
▁भु	-1180
▁उच्च	-1181
▁गीत	-1182
न्स	-1183
▁उम्मेद	-1184
▁११	-1185
ष्टि	-1186
▁पी	-1187
ध्यक्ष	-1188
▁समयमा	-1189
छा	-1190
▁प्रतिनिधि	-1191
हाल	-1192
ष्ण	-1193
ेड	-1194
▁प्रस्ताव	-1195
▁त्यहाँ	-1196
ालिका	-1197
हुन्छ	-1198
▁न्या	-1199
ामी	-1200
म्बर	-1201
ृद्धि	-1202
अनुसार	-1203
ल्या	-1204
▁प्रक्रिया	-1205
▁किस	-1206
▁ओली	-1207
▁एव	-1208
▁जोड	-1209
▁अध्ययन	-1210
▁पुर	-1211
▁अधिकार	-1212
▁हर	-1213
▁गरिने	-1214
▁मध	-1215
▁घोषणा	-1216
ल्ने	-1217
▁उपलब्	-1218
▁अमेरिका	-1219
द्दा	-1220
भव	-1221
▁भनाइ	-1222
▁प्रश्न	-1223
▁त्यसैले	-1224
वल	-1225
▁जस्तो	-1226
▁कानु	-1227
▁सम्पन्न	-1228
बल	-1229
▁टो	-1230
टमा	-1231
▁चुनाव	-1232
▁जीवन	-1233
▁देखिएको	-1234
▁दिएका	-1235
काली	-1236
▁फा	-1237
▁अर्ब	-1238
▁मूल्य	-1239
पटक	-1240
▁मलाई	-1241
▁कसरी	-1242
▁मानिस	-1243
▁निकै	-1244
▁हुनेछ	-1245
तिर	-1246
▁दश	-1247
▁व्याप	-1248
तिमा	-1249
दर	-1250
▁लिएर	-1251
ट्ट	-1252
तर	-1253
▁गएको	-1254
मिका	-1255
▁त्यही	-1256
ृत	-1257
▁रहे	-1258
▁श्री	-1259
▁कार्या	-1260
▁५०	-1261
उनु	-1262
▁मुद्दा	-1263
मिक	-1264
स्तु	-1265
▁परिवर्त	-1266
▁प्रहरीले	-1267
वाह	-1268
▁व्यवस्थापन	-1269
लग	-1270
▁पैसा	-1271
▁भो	-1272
▁प्रकाश	-1273
डियो	-1274
यात	-1275
▁केन्द्रीय	-1276
गायत	-1277
▁छु	-1278
▁विद्यार्थी	-1279
▁निर	-1280
▁ब्या	-1281
▁सरकारको	-1282
▁कार	-1283
▁नियन्त्र	-1284
▁यही	-1285
▁सबैभन्दा	-1286
▁छुट	-1287
लाइ	-1288
राई	-1289
▁प्रशा	-1290
▁ट्र	-1291
▁भाग	-1292
लब	-1293
थे	-1294
▁यसले	-1295
▁फर	-1296
▁ज्	-1297
▁हुँदैन	-1298
दार	-1299
▁देखिन्छ	-1300
▁गुरु	-1301
▁भारतीय	-1302
▁उद्	-1303
▁गरा	-1304
▁छन	-1305
कर्ष	-1306
तम	-1307
▁कृषि	-1308
▁बस्ने	-1309
▁कार्यान्व	-1310
▁पौडेल	-1311
▁सहमति	-1312
▁छौं	-1313
▁खेला	-1314
▁महत्व	-1315
▁फर्	-1316
र्जा	-1317
▁आधारमा	-1318
उँदै	-1319
▁यस्तै	-1320
▁सरकारी	-1321
र्चा	-1322
▁विश्वास	-1323
रू	-1324
कृत	-1325
जो	-1326
▁बारे	-1327
िता	-1328
▁नभएको	-1329
्नु	-1330
ृह	-1331
▁लामो	-1332
▁थिएन	-1333
▁स्प	-1334
▁डे	-1335
▁महान	-1336
जे	-1337
ंह	-1338
▁करिब	-1339
▁संख्या	-1340
▁उहाँले	-1341
▁नियन्त्रण	-1342
म्मे	-1343
▁२५	-1344
▁योग	-1345
यी	-1346
▁पत्रकार	-1347
▁बताउँछन्	-1348
▁सम्झौ	-1349
▁अरु	-1350
लेर	-1351
▁त्यस्तै	-1352
▁उनलाई	-1353
ैनिक	-1354
▁त्यसको	-1355
▁शक्ति	-1356
▁अभियान	-1357
▁प्रचण्ड	-1358
ानो	-1359
र्स	-1360
्दै	-1361
▁संस्	-1362
चाल	-1363
शु	-1364
▁पठ	-1365
स्तार	-1366
▁पछिल्लो	-1367
▁पक्र	-1368
▁अधिक	-1369
ारि	-1370
मध्ये	-1371
धारण	-1372
▁राष्ट्रपति	-1373
पक्ष	-1374
▁पुगेको	-1375
नाले	-1376
▁भित्र	-1377
च्छ	-1378
▁सूचना	-1379
सिक	-1380
▁जस	-1381
▁लु	-1382
▁रोजग	-1383
▁ग्र	-1384
▁:	-1385
▁बनेको	-1386
यम	-1387
▁सहभागी	-1388
▁आग्रह	-1389
▁होला	-1390
▁कला	-1391
▁स्रो	-1392
▁मान्छ	-1393
▁३०	-1394
ग्गा	-1395
▁ज्ञ	-1396
▁भन्छन्	-1397
▁जन्	-1398
बेला	-1399
▁रोग	-1400
▁चला	-1401
▁बाटो	-1402
्ना	-1403
टल	-1404
▁गौ	-1405
▁भूमिका	-1406
ंश	-1407
ल्प	-1408
▁त्यसपछि	-1409
▁प्रण	-1410
▁दुवै	-1411
▁पक्राउ	-1412
ेकी	-1413
जक	-1414
',	-1415
▁अन्तर्राष्ट्रिय	-1416
▁पाउने	-1417
सम्	-1418
▁प्रतियोग	-1419
▁पुर्या	-1420
▁यसै	-1421
▁सर्	-1422
▁सन्द	-1423
▁पोखरा	-1424
वर	-1425
उँछ	-1426
▁स्वी	-1427
सकेका	-1428
स्क	-1429
वेदन	-1430
परि	-1431
▁पूर्ण	-1432
▁उपलब्ध	-1433
▁गोल	-1434
▁हरेक	-1435
▁बाहिर	-1436
▁बैठक	-1437
प्रसाद	-1438
▁लिन	-1439
▁सम्भाव	-1440
▁जु	-1441
▁भाइ	-1442
▁चाहि	-1443
दिन	-1444
ल्न	-1445
एस	-1446
कालीन	-1447
▁तो	-1448
▁थाले	-1449
▁निकाय	-1450
सक्ने	-1451
▁बिक	-1452
▁जिम्मे	-1453
हरूमा	-1454
▁सोच	-1455
▁फाइ	-1456
कर्म	-1457
▁अझै	-1458
▁पूरा	-1459
▁शर्मा	-1460
▁१४	-1461
कुमार	-1462
▁म्या	-1463
तार	-1464
▁उम्मेदवार	-1465
▁खाने	-1466
▁प्रदर्श	-1467
रत	-1468
▁भट्ट	-1469
▁प्रदान	-1470
▁प्रया	-1471
▁थाल	-1472
▁जग्गा	-1473
लामा	-1474
▁समुदाय	-1475
निर्	-1476
▁१३	-1477
ेज	-1478
▁भ्रम	-1479
▁थाहा	-1480
▁आँ	-1481
तिहा	-1482
▁गरिरहेको	-1483
▁एवं	-1484
तरण	-1485
▁सहज	-1486
▁संक्रमण	-1487
▁प्रणाली	-1488
▁नेपालले	-1489
▁फै	-1490
▁चाल	-1491
▁पर्यटक	-1492
लगायत	-1493
भू	-1494
▁मानव	-1495
▁स्ट	-1496
लले	-1497
किएको	-1498
▁१८	-1499
लीले	-1500
▁आफ्ना	-1501
ेम	-1502
▁स्थापना	-1503
▁आरोप	-1504
▁हेर्	-1505
▁सामान्य	-1506
▁आगामी	-1507
▁खेलाडी	-1508
▁देउ	-1509
▁पदा	-1510
▁दुर्	-1511
चित	-1512
▁सम्झौता	-1513
▁परेका	-1514
▁बाँकी	-1515
▁परिवर्तन	-1516
▁छैनन्	-1517
न्ट	-1518
▁ऋ	-1519
▁टोली	-1520
▁याद	-1521
▁निर्देशन	-1522
▁वर्षको	-1523
ाउनु	-1524
क्का	-1525
▁दर्ता	-1526
र्ज	-1527
▁संघीय	-1528
▁खोज	-1529
विधा	-1530
स्व	-1531
▁बारेमा	-1532
▁२०१	-1533
▁बलि	-1534
▁ताल	-1535
▁टिम	-1536
ल्क	-1537
▁फेरि	-1538
मारी	-1539
▁१६	-1540
पक	-1541
▁जस्ता	-1542
डान	-1543
▁दाबी	-1544
▁क्षम	-1545
शील	-1546
▁नहुने	-1547
होस्	-1548
ढी	-1549
▁महानगर	-1550
विद्य	-1551
▁अन्ति	-1552
▁यस्ता	-1553
▁सकिने	-1554
▁गति	-1555
▁चरण	-1556
कार्य	-1557
्ले	-1558
▁स्थानमा	-1559
्दा	-1560
त्री	-1561
▁बढेको	-1562
▁सुधार	-1563
▁नम्बर	-1564
▁,	-1565
संघ	-1566
▁दर	-1567
▁दी	-1568
लाइन	-1569
▁मान्छे	-1570
हेक	-1571
द्धा	-1572
▁कै	-1573
▁धा	-1574
▁अन्तिम	-1575
▁भण्ड	-1576
▁बिहान	-1577
▁यसअघि	-1578
▁दृ	-1579
ंगल	-1580
सचिव	-1581
▁उनका	-1582
तो	-1583
▁यति	-1584
▁ध्यान	-1585
ज्ञा	-1586
▁टा	-1587
▁ठाउँमा	-1588
णी	-1589
▁रहने	-1590
▁दू	-1591
▁आफ्नै	-1592
▁जब	-1593
▁गण	-1594
च्चा	-1595
रामी	-1596
▁गरिरहेका	-1597
▁कर	-1598
ध्यम	-1599
धे	-1600
▁विस्तार	-1601
▁वितरण	-1602
स्थिति	-1603
▁तथ	-1604
ँड	-1605
▁टि	-1606
▁तत्काल	-1607
तावरण	-1608
पय	-1609
आर	-1610
डित	-1611
▁गि	-1612
दू	-1613
▁देखा	-1614
▁सोम	-1615
श्चिम	-1616
▁अति	-1617
▁खान	-1618
▁विवाद	-1619
▁बताउनुभयो	-1620
▁गुरुङ	-1621
▁फरक	-1622
म्मा	-1623
▁पर्यटन	-1624
▁दक्ष	-1625
साइ	-1626
▁जोख	-1627
▁सम्ब	-1628
▁पर्छ	-1629
▁पहिले	-1630
श्व	-1631
▁टु	-1632
▁परीक्षण	-1633
ुरुष	-1634
▁सीमा	-1635
▁प्रवेश	-1636
▁वातावरण	-1637
ताका	-1638
रुप	-1639
क्षित	-1640
▁खरि	-1641
नाको	-1642
▁आमा	-1643
पको	-1644
▁शुक्र	-1645
यार	-1646
▁ब्य	-1647
▁मै	-1648
▁कतिपय	-1649
▁पाल	-1650
वान	-1651
▁नारा	-1652
ग्री	-1653
शाख	-1654
▁संगठ	-1655
▁सभापति	-1656
ियन	-1657
ज्य	-1658
▁त्यसै	-1659
▁जोखिम	-1660
र्जन	-1661
▁शै	-1662
▁बर्ष	-1663
▁दैनिक	-1664
ालले	-1665
▁न्याय	-1666
िकी	-1667
▁यसलाई	-1668
▁छोरा	-1669
विरुद्ध	-1670
ँदैन	-1671
▁गृह	-1672
▁विमान	-1673
▁मुलुक	-1674
▁ई	-1675
▁प्रविधि	-1676
▁कार्यान्वयन	-1677
ते	-1678
▁चै	-1679
▁झा	-1680
▁त्रि	-1681
▁प्रयास	-1682
▁श्रम	-1683
▁बनाएको	-1684
▁असार	-1685
▁सुविधा	-1686
▁जसले	-1687
▁खरिद	-1688
▁सात	-1689
ढा	-1690
▁निजी	-1691
▁कार्	-1692
ल्य	-1693
ची	-1694
▁किसान	-1695
▁एन	-1696
▁संयो	-1697
▁यादव	-1698
▁राई	-1699
▁हुन्छन्	-1700
▁खेलमा	-1701
▁निरन्तर	-1702
▁गर्दछ	-1703
▁लगायतका	-1704
▁गर्नुपर्छ	-1705
▁सवारी	-1706
▁पुरुष	-1707
हन	-1708
▁फुट	-1709
▁बहु	-1710
क्टर	-1711
▁बच	-1712
▁सिंह	-1713
▁१७	-1714
▁कायम	-1715
संग	-1716
▁संक	-1717
▁०	-1718
ून	-1719
▁गरेपछि	-1720
पानी	-1721
▁त्यति	-1722
▁गर्छन्	-1723
ैर	-1724
▁एस	-1725
▁दर्श	-1726
▁भ्रमण	-1727
ंगा	-1728
लिक	-1729
▁भद	-1730
▁समाधान	-1731
ुरो	-1732
कृतिक	-1733
▁यसमा	-1734
▁यसरी	-1735
▁संश	-1736
सका	-1737
▁व्यवसायी	-1738
▁समाचार	-1739
▁ओलीले	-1740
▁जल	-1741
विक	-1742
▁औष	-1743
▁आश	-1744
▁सहकारी	-1745
षण	-1746
्युनि	-1747
▁सम्भावना	-1748
जित	-1749
▁सुझा	-1750
▁आन्दोलन	-1751
नाथ	-1752
▁सहित	-1753
धिकरण	-1754
यण	-1755
▁शरी	-1756
▁लिने	-1757
▁सोही	-1758
▁जिम्मेवारी	-1759
▁आई	-1760
हल	-1761
▁टे	-1762
▁नजिक	-1763
▁बैठकमा	-1764
▁ढु	-1765
▁घरमा	-1766
▁प्रमाण	-1767
▁लिएको	-1768
ताले	-1769
▁निर्देशक	-1770
▁बुध	-1771
▁लक्ष्य	-1772
▁व्यापार	-1773
▁नेपालका	-1774
णि	-1775
रेल	-1776
टको	-1777
▁देउवा	-1778
▁२४	-1779
लाको	-1780
▁जस्तै	-1781
▁गठन	-1782
बद्ध	-1783
घट	-1784
▁अवसर	-1785
▁बीच	-1786
स्तुत	-1787
▁भाषा	-1788
पद	-1789
▁विचार	-1790
▁शुरु	-1791
▁यात्रा	-1792
धु	-1793
योजना	-1794
श्चित	-1795
▁स्पष्ट	-1796
आई	-1797
▁तुल	-1798
▁कमि	-1799
▁प्राधिकरण	-1800
▁गठबन्ध	-1801
वासी	-1802
▁बालब	-1803
▁हात	-1804
▁बिक्री	-1805
लै	-1806
एकी	-1807
रीको	-1808
स्पर्	-1809
▁संरक्षण	-1810
चान	-1811
▁प्रस्तुत	-1812
मत	-1813
िकित्	-1814
▁आइत	-1815
ेलि	-1816
▁सर्वो	-1817
▁विगत	-1818
रिया	-1819
▁!	-1820
मे	-1821
▁तेस	-1822
▁बिरामी	-1823
▁राख्ने	-1824
▁भर्	-1825
▁नाममा	-1826
▁२१	-1827
▁जेठ	-1828
क्क	-1829
ङको	-1830
▁सम्मेल	-1831
▁सम्बन्धित	-1832
▁विधे	-1833
डिया	-1834
▁व्यक्त	-1835
देश्य	-1836
ीका	-1837
▁कम्युनि	-1838
▁भिडियो	-1839
▁बजारमा	-1840
▁अन्तर	-1841
▁तर्फ	-1842
▁सुन	-1843
▁उमेर	-1844
▁संरचना	-1845
▁गाडी	-1846
▁स्वतन्त्र	-1847
▁सोमबार	-1848
▁भाइर	-1849
▁प्राथ	-1850
▁अर्था	-1851
▁नदि	-1852
▁दाहाल	-1853
▁पराज	-1854
लव	-1855
▁आत्म	-1856
▁प्रतिस्पर्	-1857
▁मना	-1858
▁तेस्रो	-1859
▁उनीहरु	-1860
▁लाग्ने	-1861
▁भण्डारी	-1862
▁कहिले	-1863
२०	-1864
▁दिइ	-1865
▁प्रो	-1866
▁चिकित्	-1867
▁पूर्वा	-1868
उँदा	-1869
▁महत्वपूर्ण	-1870
▁माघ	-1871
ंका	-1872
▁लाग्छ	-1873
▁मनो	-1874
क्रमित	-1875
कलन	-1876
ीकरण	-1877
▁जति	-1878
▁प्राथमिक	-1879
▁मंगल	-1880
▁क्षति	-1881
▁शुक्रबार	-1882
सम्बन्ध	-1883
▁सुनि	-1884
▁अभाव	-1885
भो	-1886
▁कानुन	-1887
▁हेर	-1888
▁अहिलेसम्म	-1889
▁उपाध्यक्ष	-1890
द्वार	-1891
यौं	-1892
कारा	-1893
▁ऐन	-1894
▁अनलाइन	-1895
▁तिम	-1896
लर	-1897
▁स्रोत	-1898
ैँ	-1899
▁फाग	-1900
इरा	-1901
ौती	-1902
▁जनताको	-1903
स्त्र	-1904
ष्टा	-1905
▁सम्मान	-1906
खु	-1907
▁जीव	-1908
बाही	-1909
▁कान	-1910
▁साँ	-1911
प्ता	-1912
▁केपी	-1913
सिया	-1914
▁राजनीति	-1915
▁मिल्	-1916
कर्मी	-1917
▁शान्ति	-1918
पित	-1919
▁अमेरिकी	-1920
▁शनि	-1921
▁चर्चा	-1922
गो	-1923
▁चित	-1924
▁अवधि	-1925
वे	-1926
जर	-1927
▁बालबालिका	-1928
िकेट	-1929
▁भट्टराई	-1930
▁भएन	-1931
▁सुझाव	-1932
▁आइतबार	-1933
राब	-1934
नियाँ	-1935
▁बनाएर	-1936
स्थल	-1937
▁आम	-1938
▁दक्षि	-1939
▁प्रशासन	-1940
▁आफूले	-1941
▁अधिकृत	-1942
▁बन्न	-1943
▁ऊ	-1944
▁काठमाडौँ	-1945
▁प्रेम	-1946
▁पुनः	-1947
▁आफूलाई	-1948
एम	-1949
▁हस्ता	-1950
▁पार्टीको	-1951
म्भीर	-1952
▁यदि	-1953
ध्या	-1954
▁असर	-1955
▁निम्	-1956
▁बुधबार	-1957
वाफ	-1958
▁आउन	-1959
▁जनाको	-1960
▁धर्म	-1961
▁संयुक्त	-1962
▁क्लब	-1963
▁फर्कि	-1964
▁मन्त्रालयले	-1965
▁पेश	-1966
▁गम्भीर	-1967
पान	-1968
▁ऋण	-1969
▁गराउने	-1970
▁पाएको	-1971
▁स्त	-1972
▁रोजगारी	-1973
▁भई	-1974
▁पुरा	-1975
▁साथी	-1976
▁कथा	-1977
▁हिमा	-1978
्रै	-1979
▁४०	-1980
कारको	-1981
स्ती	-1982
▁वृद्धि	-1983
▁समितिले	-1984
▁विदेशी	-1985
▁भ्र	-1986
▁भदौ	-1987
▁सकेको	-1988
▁राख्न	-1989
▁कमा	-1990
▁खेत	-1991
▁घु	-1992
▁घण्	-1993
भिड	-1994
ाउँदै	-1995
▁भौ	-1996
▁राखेर	-1997
▁थिइन्	-1998
▁संयोजक	-1999
▁२२	-2000
▁चीन	-2001
मार्ग	-2002
▁च्या	-2003
▁सर्वोच्च	-2004
▁कले	-2005
गमन	-2006
▁गुण	-2007
▁वैशाख	-2008
▁प्रदर्शन	-2009
▁बाट	-2010
▁माथि	-2011
नो	-2012
▁मन्द	-2013
▁जवाफ	-2014
▁त्यसलाई	-2015
चार्य	-2016
▁विरोध	-2017
▁वन	-2018
▁डो	-2019
▁देशको	-2020
िल्लो	-2021
▁प्रशि	-2022
▁बच्चा	-2023
▁सन्त	-2024
षद्	-2025
शि	-2026
ामु	-2027
▁समन्व	-2028
▁थालेको	-2029
▁विज	-2030
काले	-2031
▁सिफ	-2032
▁लै	-2033
ारमा	-2034
▁किलो	-2035
▁मं	-2036
कम्प	-2037
▁पुग्ने	-2038
ेप	-2039
कारात्मक	-2040
प्प	-2041
सम्बन्धी	-2042
▁क्षेत्रको	-2043
▁प्रत्य	-2044
▁क्षमता	-2045
▁मिने	-2046
▁कुल	-2047
फो	-2048
क्रिय	-2049
▁खड्	-2050
▁नियम	-2051
▁जिल्लामा	-2052
ेले	-2053
▁रहेछ	-2054
▁वर्षीय	-2055
▁मध्य	-2056
▁अन्त्य	-2057
▁सच	-2058
▁नं	-2059
न्तरिक	-2060
ित्व	-2061
मार्फत	-2062
▁कारो	-2063
▁आदि	-2064
सोज	-2065
र्भ	-2066
▁हट	-2067
▁दिनमा	-2068
▁खुला	-2069
▁लो	-2070
▁ग्रा	-2071
▁पहिचान	-2072
▁चुन	-2073
▁सुना	-2074
▁संशोधन	-2075
▁साउन	-2076
पोर्ट	-2077
▁कर्ण	-2078
कृष्ट	-2079
तियार	-2080
▁आवश्यकता	-2081
▁आन्तरिक	-2082
न्तरण	-2083
▁चौध	-2084
हत	-2085
▁समन्वय	-2086
▁भइसकेको	-2087
▁अग्र	-2088
▁भनेका	-2089
धीश	-2090
लित	-2091
▁पूर्वाधार	-2092
▁फिर्ता	-2093
▁असोज	-2094
▁पीडित	-2095
▁अख	-2096
▁गराउन	-2097
▁वीर	-2098
▁बजे	-2099
▁हत्या	-2100
▁महाधि	-2101
लग्न	-2102
ङ्क	-2103
▁तामा	-2104
सिर	-2105
▁बन्ने	-2106
▁उद्देश्य	-2107
▁ठा	-2108
हे	-2109
▁आदेश	-2110
▁अनुभव	-2111
▁वरि	-2112
जोर	-2113
▁कृष्ण	-2114
▁जन्म	-2115
▁हामीलाई	-2116
।'	-2117
हित्य	-2118
▁प्या	-2119
▁कोइरा	-2120
सँगको	-2121
▁सिर्	-2122
▁प्रभावित	-2123
चालन	-2124
▁सिफारि	-2125
▁अस्पतालमा	-2126
▁मुख्यमन्त्री	-2127
▁कम्पनीले	-2128
डो	-2129
ालि	-2130
▁मधेस	-2131
▁नदी	-2132
काम	-2133
▁मंगलबार	-2134
▁निष्	-2135
त्तिक	-2136
▁फे	-2137
▁कसै	-2138
▁बाध्य	-2139
▁घा	-2140
बाटै	-2141
▁बोर्ड	-2142
▁दक्षिण	-2143
ेसम्म	-2144
▁भनिएको	-2145
कुल	-2146
▁छाड	-2147
हीबार	-2148
▁अंक	-2149
विद्यालय	-2150
▁अपरा	-2151
▁गैर	-2152
▁२३	-2153
▁बसेको	-2154
▁त्यस्तो	-2155
ुत्	-2156
▁हुनुपर्ने	-2157
▁धार	-2158
▁वर्षमा	-2159
▁यसका	-2160
याधीश	-2161
▁कोष	-2162
ेसन	-2163
▁पुगेका	-2164
▁सकेन	-2165
ालको	-2166
▁धन	-2167
रीले	-2168
▁सञ्ज	-2169
▁सम्बोधन	-2170
▁समर्थ	-2171
▁शिक्षक	-2172
▁भाव	-2173
▁महाधिवेश	-2174
देशिक	-2175
ष्य	-2176
▁गर्यो	-2177
▁एक्	-2178
▁।"	-2179
▁पक्षमा	-2180
▁पोखरेल	-2181
▁देव	-2182
▁पाठ	-2183
▁सिर्जना	-2184
▁राजधान	-2185
▁वित्त	-2186
▁भै	-2187
गी	-2188
योजन	-2189
▁विद्युत	-2190
ब्द	-2191
्यांक	-2192
▁आउ	-2193
▁आफैं	-2194
िनी	-2195
▁टोल	-2196
▁गुना	-2197
ल्दै	-2198
▁कारबाही	-2199
▁उनीहरुले	-2200
▁संलग्न	-2201
▁मिला	-2202
▁प्रवक्ता	-2203
▁जोडि	-2204
▁२८	-2205
▁औं	-2206
तै	-2207
▁दुर्घट	-2208
▁इतिहा	-2209
भ्या	-2210
▁चैत	-2211
▁कार्यकर्ता	-2212
ुले	-2213
सरमा	-2214
▁फागुन	-2215
▁माध्यम	-2216
मेन्ट	-2217
▁घण्टा	-2218
▁पुस्त	-2219
▁देशमा	-2220
न्थ्यो	-2221
▁साहित्य	-2222
▁शी	-2223
▁त्यसमा	-2224
सलाई	-2225
▁पृ	-2226
▁विप	-2227
▁शनिबार	-2228
▁गरिन्छ	-2229
▁२७	-2230
▁परीक्षा	-2231
सव	-2232
ंसा	-2233
▁श्रेष्ठले	-2234
क्न	-2235
▁कलाकार	-2236
▁उत्तर	-2237
▁नव	-2238
▁छिन्	-2239
▁प्रतिस्पर्धा	-2240
▁महासंघ	-2241
▁शाखा	-2242
▁कमजोर	-2243
▁व्यवहार	-2244
ाउँछ	-2245
फ्	-2246
▁अधिका	-2247
फाइ	-2248
सित	-2249
ँजी	-2250
▁पाण्ड	-2251
▁नपा	-2252
्रे	-2253
▁भवन	-2254
दल	-2255
लाले	-2256
ेश्व	-2257
▁अर्का	-2258
नुहुन्छ	-2259
स्कार	-2260
पर्ने	-2261
टे	-2262
▁संस्कृति	-2263
▁सक्रिय	-2264
▁अन्तर्गत	-2265
▁कवि	-2266
टीले	-2267
ङमा	-2268
▁विवरण	-2269
▁बैठकले	-2270
▁याता	-2271
▁विश्वविद्यालय	-2272
▁संसदीय	-2273
▁समितिको	-2274
▁एम	-2275
सीले	-2276
▁भी	-2277
िएका	-2278
▁बनाइ	-2279
▁खास	-2280
▁पर्व	-2281
▁उत्कृष्ट	-2282
▁क्रिकेट	-2283
▁तत्कालीन	-2284
ण्डा	-2285
▁कस्तो	-2286
▁कारोबार	-2287
लेका	-2288
▁सभ	-2289
▁राखिएको	-2290
▁बैंकले	-2291
▁नसकेको	-2292
▁संक्रमित	-2293
▁सम्पूर्ण	-2294
ाल्	-2295
▁शे	-2296
न्त्रिक	-2297
साब	-2298
धानिक	-2299
भार	-2300
▁साइ	-2301
ेलु	-2302
▁औषधि	-2303
▁नियमित	-2304
▁भारतको	-2305
बन्द	-2306
लाल	-2307
▁कलेज	-2308
ल्लाह	-2309
▁थापाले	-2310
▁ठूला	-2311
▁निर्वाचनमा	-2312
द्वारा	-2313
▁चे	-2314
ोरी	-2315
▁बिहीबार	-2316
लत	-2317
▁जानु	-2318
▁भन्नुभयो	-2319
▁उसले	-2320
▁तिन	-2321
▁रन	-2322
तालाई	-2323
▁लाइ	-2324
▁राजा	-2325
मन्त्र	-2326
▁२६	-2327
दु	-2328
रले	-2329
▁सश	-2330
▁एकै	-2331
नेछ	-2332
▁पार्टीका	-2333
▁ट्रा	-2334
▁एका	-2335
▁विवाह	-2336
त्यक्ष	-2337
▁भन्न	-2338
▁सहकार्य	-2339
्वा	-2340
विधिक	-2341
▁विश्वक	-2342
▁वर्ग	-2343
▁शाह	-2344
▁निर्वाचित	-2345
धिकारी	-2346
▁लिग	-2347
▁पठा	-2348
▁ल्याउन	-2349
▁विरुद्ध	-2350
सीको	-2351
भु	-2352
मती	-2353
▁कोभिड	-2354
▁समावेश	-2355
▁राखेको	-2356
▁कार्यकारी	-2357
▁बढा	-2358
▁गुनासो	-2359
▁आँखा	-2360
▁कसैले	-2361
▁सजि	-2362
▁कक्षा	-2363
रीय	-2364
वटा	-2365
▁गुमा	-2366
▁सामग्री	-2367
▁गरेकी	-2368
▁सत्ता	-2369
▁आठ	-2370
▁पुस	-2371
▁आकर्ष	-2372
पूर्व	-2373
मात्र	-2374
▁ज्यान	-2375
▁सामु	-2376
नेर	-2377
न्छु	-2378
▁सक्दैन	-2379
▁वे	-2380
▁क्षेत्रका	-2381
चारिक	-2382
▁लाई	-2383
▁फु	-2384
▁अल	-2385
▁कोही	-2386
▁हुनुपर्छ	-2387
▁हरि	-2388
▁अदालत	-2389
▁सँग	-2390
िन्	-2391
▁बर्	-2392
▁चिकित्सक	-2393
टु	-2394
बाइ	-2395
▁अघ	-2396
▁गौतम	-2397
द्द	-2398
▁सम्बन्धी	-2399
ाइएको	-2400
▁कारणले	-2401
▁भूकम्प	-2402
▁समितिका	-2403
▁वित्तीय	-2404
तः	-2405
न्ता	-2406
▁प्रतिवेदन	-2407
डमा	-2408
▁शहर	-2409
▁प्रतिष्ठ	-2410
▁भ्रष्टा	-2411
▁६०	-2412
▁बह	-2413
▁नप	-2414
भी	-2415
▁अधिकांश	-2416
▁खोप	-2417
▁कुन	-2418
▁घाइ	-2419
▁हरा	-2420
▁सरकारलाई	-2421
▁उनीहरुको	-2422
तान्त्रिक	-2423
▁परिण	-2424
▁दिव	-2425
▁मान्य	-2426
ङले	-2427
हरुका	-2428
▁प्राविधिक	-2429
▁उपत्य	-2430
▁साह	-2431
न्तु	-2432
▁भवि	-2433
▁अत्य	-2434
▁सालमा	-2435
▁एकता	-2436
▁उनीहरू	-2437
▁आचार्य	-2438
▁प्रत्येक	-2439
▁चुनौती	-2440
सिय	-2441
▁प्रभावकारी	-2442
▁शीर्ष	-2443
▁प्रतिनिधिसभा	-2444
गि	-2445
▁प्रतियोगि	-2446
▁महामारी	-2447
शन	-2448
मको	-2449
▁योगदान	-2450
▁पराजित	-2451
▁समाजवादी	-2452
▁विरा	-2453
▁परियोजना	-2454
ामुख	-2455
रीमा	-2456
▁इन्टर	-2457
▁बद	-2458
▁नसक्ने	-2459
यता	-2460
▁खाना	-2461
▁यौ	-2462
▁आयोगले	-2463
▁शब्द	-2464
▁मन्त्रि	-2465
वाल	-2466
▁खबर	-2467
▁लागू	-2468
दानी	-2469
▁विधेयक	-2470
न्ज	-2471
▁मंसिर	-2472
▁दिनु	-2473
▁बनेका	-2474
लीमा	-2475
▁युव	-2476
ेटि	-2477
ाउँदा	-2478
▁सेयर	-2479
सद्	-2480
ृत्ति	-2481
▁कमिटी	-2482
▁लगाउने	-2483
▁कठ	-2484
▁दिइएको	-2485
सल	-2486
धिकार	-2487
▁२९	-2488
▁उपत्यका	-2489
▁सुरक्षित	-2490
▁मार्फत	-2491
▁ग्राह	-2492
▁संकलन	-2493
कड	-2494
▁महानगरपालिका	-2495
▁द्व	-2496
▁सानो	-2497
ारो	-2498
▁भौतिक	-2499
▁कर्णाली	-2500
▁जहाँ	-2501
सिल	-2502
▁आए	-2503
▁छोरी	-2504
▁कार्की	-2505
▁फर्क	-2506
▁पारि	-2507
म्परा	-2508
▁सपना	-2509
कलाई	-2510
▁बोला	-2511
▁चिनियाँ	-2512
▁जम्मा	-2513
हरण	-2514
▁गुणस्त	-2515
▁सञ्चार	-2516
▁रोक	-2517
▁नब	-2518
▁एउटै	-2519
▁सम्पर्	-2520
▁प्रत्यक्ष	-2521
क्ने	-2522
चन	-2523
यमा	-2524
▁मिडिया	-2525
▁पौडेलले	-2526
जेन्	-2527
▁पेट	-2528
पूर्ति	-2529
▁बन्	-2530
थी	-2531
वसाय	-2532
▁वास्त	-2533
▁अनुमान	-2534
▁घाइते	-2535
▁अनुमति	-2536
▁सहा	-2537
▁अहिलेको	-2538
▁दबा	-2539
▁वस्तु	-2540
▁स्थिति	-2541
▁भ्रष्टाचार	-2542
ल्ट	-2543
▁ढि	-2544
▁यातायात	-2545
▁मिटर	-2546
▁गलत	-2547
िकल	-2548
▁बलियो	-2549
▁मन्त्रिपरि	-2550
्ला	-2551
टाइ	-2552
▁उदा	-2553
▁गर्नुभयो	-2554
▁सचेत	-2555
▁धारणा	-2556
ण्डकी	-2557
▁आवा	-2558
▁जम	-2559
▁ल्याएको	-2560
ःख	-2561
▁धु	-2562
▁कम्	-2563
▁टिक	-2564
▁सल्लाह	-2565
▁भनिन्	-2566
क्ट	-2567
▁ल्याउने	-2568
▁चरणमा	-2569
▁गर्नुभएको	-2570
▁परम्परा	-2571
▁उपभो	-2572
▁पुष्टि	-2573
रान	-2574
▁पदाधिकारी	-2575
▁नेतृत्वको	-2576
▁बताउँदै	-2577
टनगर	-2578
▁सञ्चालनमा	-2579
▁छान	-2580
▁संसार	-2581
▁पहल	-2582
कोट	-2583
▁अवसरमा	-2584
िमिर	-2585
▁२००	-2586
▁प्रतियोगिता	-2587
▁दिएर	-2588
▁तालिम	-2589
▁मतदान	-2590
▁सरो	-2591
▁थिएँ	-2592
▁मन्दिर	-2593
क्षर	-2594
नेको	-2595
ृद्ध	-2596
डे	-2597
लन	-2598
▁खण्ड	-2599
कन	-2600
▁की	-2601
▁दिनुभयो	-2602
ारु	-2603
इँ	-2604
ीकृत	-2605
▁पाएका	-2606
▁सिफारिस	-2607
▁भविष्य	-2608
▁अर्थतन्त्र	-2609
▁बढाउन	-2610
स्थान	-2611
▁वर्षा	-2612
▁कहाँ	-2613
▁महो	-2614
▁तहमा	-2615
▁गतिविधि	-2616
▁प्रजा	-2617
▁गएका	-2618
शक्ति	-2619
किङ	-2620
श्	-2621
क्य	-2622
▁काग	-2623
▁नाका	-2624
पदण्ड	-2625
दन	-2626
ेक्षा	-2627
गञ्ज	-2628
तीमा	-2629
▁आप	-2630
▁सध	-2631
▁सम्भव	-2632
▁छनोट	-2633
सम्मको	-2634
▁भएपनि	-2635
▁भूमि	-2636
▁किसिम	-2637
▁तर्फबाट	-2638
▁प्रचार	-2639
त्रु	-2640
▁दुःख	-2641
ममा	-2642
▁मापदण्ड	-2643
थो	-2644
बाहेक	-2645
▁सञ्जाल	-2646
▁मात्रा	-2647
▁भे	-2648
▁पहा	-2649
▁होटल	-2650
▁नभए	-2651
▁नेतृत्वमा	-2652
▁विकल्प	-2653
▁उद्ध	-2654
▁बसेर	-2655
▁छौँ	-2656
▁यू	-2657
▁फोन	-2658
णिज्य	-2659
▁आक्रमण	-2660
यल	-2661
▁स्या	-2662
ुट्	-2663
खो	-2664
▁प्रकाशित	-2665
ल्यै	-2666
▁घिमिर	-2667
▁अर्थात्	-2668
▁लाग्	-2669
न्दु	-2670
▁कात्तिक	-2671
▁ज्ञान	-2672
▁२०६	-2673
▁गएर	-2674
▁पुष्	-2675
▁वार्ता	-2676
▁खन	-2677
▁अरू	-2678
▁उडान	-2679
▁अभ्या	-2680
▁चितवन	-2681
१९	-2682
तिको	-2683
▁वरिष्ठ	-2684
▁काममा	-2685
▁छुट्	-2686
▁बाबु	-2687
हरा	-2688
▁गरिएका	-2689
▁सकारात्मक	-2690
▁जाँदा	-2691
▁विकेट	-2692
▁कर्जा	-2693
कुद	-2694
▁जरु	-2695
▁पश्चिम	-2696
जको	-2697
▁बोक	-2698
जिम	-2699
▁दृष्टि	-2700
ुक	-2701
पुग	-2702
▁राहत	-2703
▁जरुरी	-2704
▁हेर्दा	-2705
साथ	-2706
▁२०२	-2707
▁मेड	-2708
▁कप	-2709
▁पे	-2710
▁हिसाब	-2711
मिटर	-2712
▁अधिकारीले	-2713
▁बढि	-2714
नेपाल	-2715
▁स्थापित	-2716
▁अनुदान	-2717
▁महसु	-2718
लिएको	-2719
▁साता	-2720
▁देशका	-2721
▁रण	-2722
▁भनी	-2723
▁खेलकुद	-2724
नीय	-2725
▁सन्दर्भ	-2726
▁दलका	-2727
▁सेना	-2728
सकेपछि	-2729
ित्त	-2730
निय	-2731
▁पुनर्	-2732
▁खोज्	-2733
वाला	-2734
कर	-2735
▁यद्य	-2736
दम	-2737
▁भुक्ता	-2738
▁सुन्द	-2739
▁बढ्ने	-2740
▁इज	-2741
कुर	-2742
▁सङ्घ	-2743
▁माइ	-2744
▁नस	-2745
▁मेयर	-2746
▁बराब	-2747
▁भक्त	-2748
▁पाइन्छ	-2749
्यू	-2750
▁आशा	-2751
▁बेच	-2752
▁सहभागिता	-2753
लीको	-2754
▁मैदान	-2755
▁बल	-2756
▁बढ्दै	-2757
▁माया	-2758
▁संगठन	-2759
▁दुख	-2760
नाई	-2761
▁अध्या	-2762
बिन	-2763
अन्त	-2764
▁पर्या	-2765
दाता	-2766
ँडा	-2767
क्षिक	-2768
होर	-2769
▁नौ	-2770
▁शिव	-2771
▁अंग	-2772
मन	-2773
▁लड	-2774
पचारिक	-2775
▁समान	-2776
▁दाय	-2777
▁३५	-2778
मोजिम	-2779
▁हाम्रा	-2780
▁विद्युत्	-2781
▁सम्पत्ति	-2782
ेदार	-2783
▁राति	-2784
▁डु	-2785
▁क्याम्प	-2786
▁तहको	-2787
▁मोबाइ	-2788
▁पदार्थ	-2789
▁स्थायी	-2790
▁नाय	-2791
▁आलो	-2792
▁कालो	-2793
▁हुनुहुन्छ	-2794
द्र	-2795
▁ब्रा	-2796
▁बाहेक	-2797
सला	-2798
▁पास	-2799
तिकै	-2800
▁आयात	-2801
▁उसको	-2802
▁विधि	-2803
▁तरि	-2804
▁क्रा	-2805
▁क्रिया	-2806
▁शुल्क	-2807
▁साँझ	-2808
▁चन्द्र	-2809
जस्तो	-2810
▁युद्ध	-2811
▁पुल	-2812
▁बीमा	-2813
▁साउ	-2814
▁पुरस्कार	-2815
▁कार्यालयमा	-2816
▁हेर्न	-2817
नन्	-2818
औं	-2819
▁पूजा	-2820
▁सिद्धा	-2821
्वी	-2822
रीक्षक	-2823
षद	-2824
▁नो	-2825
वैधानिक	-2826
▁नगर्ने	-2827
▁हुन्थ्यो	-2828
गु	-2829
▁हुँ	-2830
▁हिमाल	-2831
पे	-2832
पश्चिम	-2833
ल्ड	-2834
▁त्यसका	-2835
▁नारायण	-2836
स्कृतिक	-2837
दय	-2838
घाटन	-2839
▁वैदेशिक	-2840
▁शैक्षिक	-2841
▁शेर	-2842
▁मन्त्रालयका	-2843
▁ठे	-2844
▁सहर	-2845
▁आम्	-2846
▁प्रतिबद्ध	-2847
▁साना	-2848
▁रंग	-2849
▁मधेश	-2850
▁त्यसले	-2851
▁बढाउने	-2852
▁उपभोक्ता	-2853
▁विराटनगर	-2854
▁कुरामा	-2855
▁शुभ	-2856
▁पहु	-2857
▁राजी	-2858
▁केहि	-2859
▁कांग्रेसका	-2860
र्सि	-2861
देव	-2862
▁राजधानी	-2863
▁सक्छन्	-2864
▁अनुगमन	-2865
न्सर	-2866
रे	-2867
ोध	-2868
लाका	-2869
▁कामदार	-2870
रुपमा	-2871
शुल्क	-2872
ंगो	-2873
र्मिक	-2874
अन्तर्	-2875
वाट	-2876
जुरी	-2877
▁गरिदि	-2878
▁एकीकृत	-2879
▁है	-2880
▁पाए	-2881
▁अपराध	-2882
▁सन्देश	-2883
▁अपेक्षा	-2884
▁स्म	-2885
खबर	-2886
▁संगीत	-2887
र्ब	-2888
▁डाक्टर	-2889
▁सौ	-2890
▁नर	-2891
▁सम्बन्धमा	-2892
▁मज	-2893
धव	-2894
▁होस्	-2895
▁संसद्	-2896
▁गरियो	-2897
कानी	-2898
▁लकड	-2899
▁विज्ञप्	-2900
▁महासचिव	-2901
दारी	-2902
▁ब्र	-2903
▁गठबन्धन	-2904
▁गर्नेछ	-2905
▁बताइन्	-2906
▁खेती	-2907
▁अदालतले	-2908
▁भन्छ	-2909
▁गर्नका	-2910
▁चासो	-2911
▁विनि	-2912
▁साधन	-2913
▁पारित	-2914
▁भुक्तानी	-2915
▁निर्माणको	-2916
ढे	-2917
▁अपना	-2918
ल्याण्ड	-2919
▁सत्य	-2920
▁बताएको	-2921
हाम	-2922
म्बा	-2923
▁?'	-2924
फी	-2925
▁लागेका	-2926
▁सोध	-2927
▁टोलीले	-2928
▁प्रचण्डले	-2929
▁आयोजित	-2930
▁क्रान्ति	-2931
▁भोलि	-2932
▁आफु	-2933
▁यौन	-2934
▁सचिवालय	-2935
▁न्यू	-2936
▁युरो	-2937
िने	-2938
▁रमा	-2939
▁मध्ये	-2940
▁नम	-2941
खर	-2942
▁आर	-2943
▁बुट	-2944
त्सव	-2945
▁आवाज	-2946
हीन	-2947
▁आजको	-2948
▁कुमार	-2949
▁जापान	-2950
▁तरकारी	-2951
▁सभामुख	-2952
▁आउँछ	-2953
▁लगाएको	-2954
मेल	-2955
▁कार्यालयले	-2956
▁गए	-2957
छिन्	-2958
▁सबैलाई	-2959
▁जसमा	-2960
▁ढकाल	-2961
▁पहुँच	-2962
▁त्यसैगरी	-2963
वधान	-2964
▁आएर	-2965
म्बिनी	-2966
▁झापा	-2967
▁उपयोग	-2968
▁खोजी	-2969
किस्ता	-2970
▁जनताले	-2971
▁विज्ञान	-2972
नय	-2973
▁कहि	-2974
▁छोड	-2975
▁सही	-2976
▁पारेको	-2977
▁लगाउन	-2978
▁प्रतिष्ठान	-2979
सू	-2980
क्षेप	-2981
▁किलोमिटर	-2982
▁दिँदै	-2983
▁राख्	-2984
दायिक	-2985
▁अख्	-2986
▁दुबै	-2987
▁लिएका	-2988
▁उहाँको	-2989
▁अघिल्लो	-2990
▁ग्या	-2991
▁अने	-2992
▁फाइदा	-2993
हरूका	-2994
राख	-2995
ानु	-2996
▁डलर	-2997
▁७०	-2998
ेश्वर	-2999
एफ	-3000
वाही	-3001
सक्छ	-3002
▁बैंकको	-3003
न्टर	-3004
एल	-3005
▁पाउन	-3006
▁जाग	-3007
▁डी	-3008
▁तस्	-3009
▁संघर्ष	-3010
▁मोटर	-3011
▁नहुँदा	-3012
▁आम्दानी	-3013
ौला	-3014
▁प्रसार	-3015
▁लोकतन्त्र	-3016
▁फुटबल	-3017
▁मानसिक	-3018
▁इन्टरने	-3019
ल्ल	-3020
हण	-3021
▁प्रदेशमा	-3022
▁कांग्रेसले	-3023
▁उठा	-3024
▁जनक	-3025
▁एयर	-3026
▁बताइएको	-3027
▁हालसम्म	-3028
▁हिँड	-3029
▁बस्न	-3030
▁मान्यता	-3031
ीलाई	-3032
▁नभई	-3033
कला	-3034
ेदेखि	-3035
▁युनि	-3036
▁धार्मिक	-3037
▁बढ्न	-3038
▁परिणाम	-3039
▁जिल्लाको	-3040
जस्ता	-3041
▁बढ्	-3042
टिङ	-3043
▁व्यक्तिगत	-3044
▁समर्थन	-3045
▁लुम्बिनी	-3046
▁नियन्त्रणमा	-3047
भरि	-3048
▁नति	-3049
ोका	-3050
▁ललित	-3051
▁पुष्प	-3052
ाउनुपर्ने	-3053
▁वाणिज्य	-3054
▁अक्	-3055
▁समग्र	-3056
▁शर्माले	-3057
▁थुप	-3058
▁निश्चित	-3059
ङ्गा	-3060
▁दलको	-3061
▁यद्यपि	-3062
वाई	-3063
भिजन	-3064
▁उपम	-3065
▁सामान	-3066
▁हिजो	-3067
▁कोठा	-3068
अन्तर्गत	-3069
▁प्रदेशसभा	-3070
▁भारतले	-3071
पुरमा	-3072
▁कुराकानी	-3073
▁लाग्यो	-3074
▁रूप	-3075
▁सबैको	-3076
साधारण	-3077
▁३१	-3078
▁गोर	-3079
▁जुट	-3080
ेमा	-3081
र्षिक	-3082
रामा	-3083
▁थालेका	-3084
▁८०	-3085
▁सिका	-3086
▁विमानस्थल	-3087
▁सुख	-3088
▁परिस्थिति	-3089
▁पार्टीले	-3090
▁वर्त	-3091
▁आधारित	-3092
▁नआ	-3093
ेलिया	-3094
▁उदाहरण	-3095
▁उनीहरूले	-3096
▁पुरानो	-3097
हारी	-3098
▁भर्ना	-3099
▁हेर्ने	-3100
▁तथ्यांक	-3101
▁दलित	-3102
▁कट	-3103
समिति	-3104
▁प्रहरीको	-3105
नगर	-3106
▁उनीहरूको	-3107
द्रा	-3108
▁अम	-3109
▁पार्ने	-3110
परेको	-3111
▁रोजगार	-3112
भने	-3113
▁कम्पनीको	-3114
▁लाभ	-3115
ग्रा	-3116
▁फोटो	-3117
▁पछा	-3118
▁जग	-3119
धुनिक	-3120
ज्ञानिक	-3121
मन्त्रीले	-3122
▁मार्ग	-3123
▁राखेका	-3124
खेत	-3125
▁शाही	-3126
▁शरीर	-3127
▁लगाएर	-3128
▁न्यून	-3129
▁भर	-3130
निर्माण	-3131
फिक	-3132
▁प्रदेशको	-3133
तह	-3134
क्कै	-3135
▁कोरिया	-3136
▁लोकतान्त्रिक	-3137
▁रिपोर्ट	-3138
▁सुन्दर	-3139
▁शव	-3140
प्रधान	-3141
किलो	-3142
▁दोहो	-3143
▁भारतमा	-3144
▁हित	-3145
▁सिट	-3146
आफ	-3147
किने	-3148
िमि	-3149
▁भाइरस	-3150
▁न्यायाधीश	-3151
▁यथा	-3152
▁उपस्थित	-3153
▁विश्ले	-3154
▁गराएको	-3155
▁जात	-3156
त्ती	-3157
▁पुग्न	-3158
▁अवि	-3159
▁मेडिकल	-3160
▁खुसी	-3161
▁प्रेस	-3162
▁केन्द्रित	-3163
▁कम्युनिष्ट	-3164
त्तै	-3165
▁महिनामा	-3166
▁सडकमा	-3167
पथ	-3168
▁त्यसो	-3169
ालो	-3170
▁माधव	-3171
▁सामुदायिक	-3172
▁खानेपानी	-3173
छु	-3174
▁कानुनी	-3175
एकाले	-3176
▁ढंग	-3177
▁सञ्चालक	-3178
▁स्वदेश	-3179
क्रो	-3180
▁यात्रु	-3181
रहे	-3182
▁ऊर्जा	-3183
▁सबैले	-3184
▁फल	-3185
कारि	-3186
▁चर्च	-3187
▁नियुक्त	-3188
▁हिंसा	-3189
▁गल्	-3190
▁अख्तियार	-3191
▁विभागले	-3192
▁यता	-3193
▁तपाईंको	-3194
▁महाधिवेशन	-3195
च्छा	-3196
पुरको	-3197
▁प्रार	-3198
जाइ	-3199
▁ज्ञा	-3200
▁समेट	-3201
▁संवैधानिक	-3202
र्का	-3203
▁नागरिकता	-3204
तक	-3205
▁निर्धारण	-3206
▁बंग	-3207
▁उपस्थिति	-3208
▁सरोकार	-3209
▁तर्क	-3210
▁बनाउ	-3211
▁चुना	-3212
त्न	-3213
एक	-3214
▁उपयुक्त	-3215
बन्दी	-3216
▁जनप्रति	-3217
▁लामा	-3218
▁जिल्लाका	-3219
▁कार्यरत	-3220
▁सार	-3221
▁सम्पर्क	-3222
वार्ड	-3223
ेली	-3224
जमा	-3225
घाट	-3226
▁भत्	-3227
▁भग	-3228
▁जाँच	-3229
▁प्रतिक्रिया	-3230
▁पाकिस्ता	-3231
▁उद्घाटन	-3232
▁साझा	-3233
वार्य	-3234
श्र	-3235
▁उजुरी	-3236
▁केसी	-3237
नीतिक	-3238
▁स्वीकार	-3239
न्तव्य	-3240
पक्षी	-3241
▁कानून	-3242
▁प्रग	-3243
▁कडा	-3244
▁समाजमा	-3245
▁काठमाडौंमा	-3246
▁प्रदेशका	-3247
▁मर्म	-3248
▁चुनावमा	-3249
▁छिम	-3250
▁स्वय	-3251
▁अनिवार्य	-3252
▁भाडा	-3253
ेन्स	-3254
▁तराई	-3255
हरुसँग	-3256
भूत	-3257
चन्द्र	-3258
▁खड्का	-3259
▁पहिरो	-3260
▁निम्ति	-3261
▁गण्डकी	-3262
▁लक्ष्	-3263
▁श्रीमती	-3264
पण	-3265
▁नगरी	-3266
▁बनाएका	-3267
▁पुगेर	-3268
▁कतै	-3269
▁कार्यक्रमको	-3270
लका	-3271
व्र	-3272
▁अनुरोध	-3273
▁अवधिमा	-3274
सहितको	-3275
ुपयोग	-3276
▁दिउँ	-3277
▁चौधरी	-3278
▁भरत	-3279
ङका	-3280
कूल	-3281
▁उनीहरुलाई	-3282
▁बार	-3283
▁बसेका	-3284
टेड	-3285
त्कार	-3286
▁भन्सार	-3287
▁बला	-3288
नियर	-3289
▁मगर	-3290
दूर	-3291
कारण	-3292
▁सशस्त्र	-3293
▁पृथ	-3294
▁सै	-3295
मिला	-3296
▁खेल्ने	-3297
▁सन्दर्भमा	-3298
▁मिति	-3299
▁बेलायत	-3300
▁व्यावसाय	-3301
▁महसुस	-3302
▁जोग	-3303
▁कहिल्यै	-3304
▁प्रारम्भ	-3305
▁प्राकृतिक	-3306
▁कम्युनिस्ट	-3307
▁नतिजा	-3308
▁चढ	-3309
▁लामि	-3310
▁मोबाइल	-3311
▁भनाई	-3312
▁मौसम	-3313
▁दबाब	-3314
▁एमालेले	-3315
▁टेलि	-3316
▁वर्तमान	-3317
▁खि	-3318
▁एमालेका	-3319
लक	-3320
राको	-3321
▁फेला	-3322
▁कोइराला	-3323
र्नु	-3324
▁मोड	-3325
ठी	-3326
▁अत्या	-3327
वात	-3328
मले	-3329
बीचको	-3330
ह्रो	-3331
▁दुर्घटना	-3332
▁थपि	-3333
ण्डै	-3334
व्यक्ति	-3335
▁तामाङ	-3336
ट्टा	-3337
▁पुस्ता	-3338
▁जनालाई	-3339
▁राजीनामा	-3340
▁पर्याप्त	-3341
▁झन्	-3342
▁अनलाइनखबर	-3343
▁वर्षदेखि	-3344
चर	-3345
▁गरिसकेको	-3346
▁दोष	-3347
नीति	-3348
▁लामिछा	-3349
▁ट्या	-3350
▁चलि	-3351
▁हाइ	-3352
त्सा	-3353
▁एन्	-3354
प्रपा	-3355
श्वास	-3356
▁यसैगरी	-3357
▁आएपछि	-3358
▁मेस	-3359
▁भावना	-3360
▁मिलेर	-3361
▁सम्मेलन	-3362
▁प्रकृति	-3363
▁निगम	-3364
▁ज्या	-3365
▁अधिवेश	-3366
▁त्यस्ता	-3367
▁चिन्ता	-3368
▁चाहिँ	-3369
हानगर	-3370
वाइ	-3371
▁पुस्तक	-3372
▁टी	-3373
निया	-3374
▁क्यान्सर	-3375
▁ढा	-3376
▁महत्	-3377
मार्ट	-3378
▁बीचमा	-3379
▁हस्ताक्षर	-3380
▁किनभने	-3381
▁प्रकार	-3382
▁स्वागत	-3383
▁व्यक्तिको	-3384
▁साझ	-3385
▁उचित	-3386
▁सिद्धान्त	-3387
▁बुझा	-3388
यनमा	-3389
▁निर्माणका	-3390
मेश	-3391
ष्णु	-3392
▁गाउँमा	-3393
डर	-3394
▁निस्	-3395
भाइ	-3396
▁३२	-3397
▁झण्डै	-3398
▁प्रहार	-3399
व्या	-3400
▁लागी	-3401
▁अभिभाव	-3402
▁नसक्	-3403
▁अग	-3404
▁हस्तान्तरण	-3405
▁पालिका	-3406
▁नगद	-3407
्याल	-3408
▁अभ्यास	-3409
देवी	-3410
▁भोट	-3411
विध	-3412
▁पार्न	-3413
▁प्ले	-3414
माव	-3415
▁जिम्मा	-3416
स्ट्र	-3417
▁तोकिएको	-3418
▁तिनी	-3419
▁जमिन	-3420
▁सजा	-3421
रोह	-3422
▁हासिल	-3423
▁हैन	-3424
सीसी	-3425
▁बहस	-3426
▁उम्मेदवारी	-3427
▁जान्छ	-3428
लम्ब	-3429
▁काँग	-3430
▁धान	-3431
हुँ	-3432
▁इतिहास	-3433
▁विकासका	-3434
▁छानबिन	-3435
लगायतका	-3436
▁छिटो	-3437
▁सरकारका	-3438
▁पाइएको	-3439
▁जनशक्ति	-3440
मूल	-3441
▁मोर्चा	-3442
▁अभिने	-3443
▁चुनावी	-3444
र्ति	-3445
लादेश	-3446
▁जहा	-3447
▁दिउँसो	-3448
▁वार्षिक	-3449
चक	-3450
ताव	-3451
▁दौ	-3452
▁सर्वसाधारण	-3453
तिहासिक	-3454
▁हिसाबले	-3455
▁भएकोले	-3456
▁तेल	-3457
▁मोर	-3458
▁बुद्ध	-3459
▁अलि	-3460
▁आलोचना	-3461
),	-3462
▁औपचारिक	-3463
श्वर	-3464
युक्ति	-3465
▁शासन	-3466
शासन	-3467
▁जनप्रतिनिधि	-3468
▁अभिनय	-3469
▁संघका	-3470
▁महिलाको	-3471
▁काँग्रेस	-3472
▁महोत्सव	-3473
▁ठेक्का	-3474
▁मेगा	-3475
▁प्रतिबद्धता	-3476
भे	-3477
गढी	-3478
सामा	-3479
ीक	-3480
शुप	-3481
▁बहादुर	-3482
सुकै	-3483
भित्रै	-3484
▁प्राथमिकता	-3485
▁दिनको	-3486
▁भएमा	-3487
००	-3488
▁एजेन्	-3489
▁सजिलो	-3490
▁विद्यालयमा	-3491
डिङ	-3492
▁राजस्व	-3493
पर्छ	-3494
▁मन्त्रिपरिषद्	-3495
▁गाह्रो	-3496
▁उत्सा	-3497
▁नेपाललाई	-3498
▁धारा	-3499
▁राप्रपा	-3500
▁४५	-3501
▁कैला	-3502
▁खारे	-3503
▁प्रवृत्ति	-3504
▁साधारण	-3505
▁पछाडि	-3506
▁अत्यन्त	-3507
▁विभा	-3508
▁घरेलु	-3509
▁मिनेटमा	-3510
दछन्	-3511
▁मेला	-3512
▁प्रवाह	-3513
▁सब	-3514
▁रक्त	-3515
▁सूर्य	-3516
▁रेल	-3517
विन	-3518
▁चित्र	-3519
▁रगत	-3520
▁पञ्च	-3521
▁कल	-3522
संख्या	-3523
प्पणी	-3524
▁नियुक्ति	-3525
▁उपकरण	-3526
प्रमुख	-3527
▁प्रतियोगितामा	-3528
बे	-3529
ारायण	-3530
▁अदालतमा	-3531
▁मुलुकमा	-3532
▁सांस्कृतिक	-3533
ठो	-3534
▁सेवन	-3535
थम	-3536
▁राउ	-3537
ीया	-3538
▁दिनुपर्ने	-3539
नल	-3540
सिंह	-3541
▁पदमा	-3542
▁साढे	-3543
▁मले	-3544
▁बमोजिम	-3545
▁रोक्न	-3546
▁आफन्त	-3547
▁कमी	-3548
▁अन्	-3549
रिक	-3550
▁आधा	-3551
पूर्वक	-3552
▁प्ला	-3553
▁मुलुकको	-3554
▁केन्द्रका	-3555
र्घ	-3556
▁शेरबहादुर	-3557
यको	-3558
▁व्यवस्थाप	-3559
▁चयन	-3560
चौ	-3561
तरा	-3562
▁पुँजी	-3563
▁ब्याज	-3564
▁बन्दै	-3565
▁उद्धार	-3566
ट्या	-3567
▁स्थित	-3568
▁प्राय	-3569
▁ऐतिहासिक	-3570
वीर	-3571
▁चालु	-3572
▁केवल	-3573
▁सुर्	-3574
तावास	-3575
कट	-3576
▁बिजु	-3577
▁चर्चित	-3578
▁मल	-3579
▁सरकारमा	-3580
▁निष्कर्ष	-3581
▁थुप्रै	-3582
▁राज्यको	-3583
▁२०७४	-3584
जाने	-3585
▁निर्मा	-3586
▁देखिने	-3587
▁उपाधि	-3588
▁रक्षा	-3589
▁जेल	-3590
▁काउ	-3591
▁तुलनामा	-3592
▁भेला	-3593
घु	-3594
▁उत्प	-3595
▁दशक	-3596
▁पशुप	-3597
▁केन्द्रमा	-3598
▁हाँ	-3599
▁जसरी	-3600
▁लकडाउन	-3601
ोरै	-3602
▁सुदूर	-3603
▁प्रगति	-3604
▁समृद्धि	-3605
▁आह	-3606
▁उपमहानगर	-3607
▁संकेत	-3608
▁सीमित	-3609
▁पीडा	-3610
फि	-3611
▁देखिएका	-3612
▁निरन्तरता	-3613
श्चा	-3614
▁दुर	-3615
▁गणतन्त्र	-3616
▁भन्नु	-3617
▁जनसंख्या	-3618
▁राजदू	-3619
नुपर्यो	-3620
▁ट्रम्प	-3621
▁सुनिश्चित	-3622
बास	-3623
▁प्रसारण	-3624
टिल	-3625
इरहेको	-3626
▁प्रावधान	-3627
फर	-3628
▁तथ्य	-3629
▁मेल	-3630
▁फैसला	-3631
▁अवार्ड	-3632
यन्त्र	-3633
वत	-3634
▁कदम	-3635
▁संविधानसभा	-3636
न्धु	-3637
▁किश	-3638
▁सदर	-3639
ियम	-3640
र्मा	-3641
▁लामिछाने	-3642
▁झु	-3643
▁प्रष्ट	-3644
▁प्रतिनि	-3645
▁राजनीतिमा	-3646
काे	-3647
▁टिकट	-3648
▁श्रमिक	-3649
ब्र	-3650
भाविक	-3651
▁सुनु	-3652
▁छिमेकी	-3653
▁लाइन	-3654
▁लगातार	-3655
▁निकट	-3656
ेशन	-3657
▁जनतालाई	-3658
▁ब्	-3659
▁परराष्ट्र	-3660
दीको	-3661
खेल	-3662
▁नगरेको	-3663
▁प्रतिवेद	-3664
शाली	-3665
स्की	-3666
▁आयोजनाको	-3667
▁वास्तविक	-3668
▁तहका	-3669
▁माथ	-3670
ईं	-3671
▁उभि	-3672
▁पाउँ	-3673
टाले	-3674
बारी	-3675
▁तपाईंले	-3676
▁बुझ्न	-3677
▁तोक	-3678
जन्य	-3679
क्रा	-3680
▁यादवले	-3681
▁मुस्	-3682
▁माध्यमबाट	-3683
▁अर्थमन्त्री	-3684
▁राजमार्ग	-3685
▁द्वन्द	-3686
▁त्यतिबेला	-3687
▁परिचालन	-3688
▁घो	-3689
हामी	-3690
्यता	-3691
▁निः	-3692
▁अन्न	-3693
▁नेताहरु	-3694
न्थ	-3695
▁३३	-3696
▁सम्पाद	-3697
जस्तै	-3698
▁हुनसक्छ	-3699
तीको	-3700
जसो	-3701
▁ढंगले	-3702
▁नरहेको	-3703
▁बाढी	-3704
ियो	-3705
▁गराइ	-3706
▁परिषद्	-3707
▁टिप्पणी	-3708
शाला	-3709
▁तिर	-3710
▁बनाइएको	-3711
▁कार्यालयका	-3712
▁असन्तु	-3713
▁मञ्च	-3714
▁बेलामा	-3715
▁हार	-3716
▁पाउ	-3717
▁२०८	-3718
▁खोजि	-3719
टीमा	-3720
▁बग	-3721
▁कांग्रेसको	-3722
्याम	-3723
▁खटि	-3724
▁एवम्	-3725
▁थोरै	-3726
▁निस्क	-3727
गोल	-3728
▁चिया	-3729
▁आपूर्ति	-3730
चु	-3731
▁गरिन्	-3732
▁पहिला	-3733
▁तीव्र	-3734
▁वाम	-3735
▁निरा	-3736
▁अनुहार	-3737
▁पात्र	-3738
ल्पना	-3739
▁संविधानको	-3740
▁दावी	-3741
कुरा	-3742
▁पर्दछ	-3743
्रोल	-3744
▁गरिरह	-3745
जान	-3746
र्द	-3747
सेवा	-3748
नित	-3749
▁फूल	-3750
▁काट	-3751
▁आधुनिक	-3752
▁नभएर	-3753
▁दिन्छ	-3754
▁गाँ	-3755
▁विजय	-3756
▁अर्य	-3757
▁खर्ब	-3758
▁गुरुङले	-3759
▁मद्द	-3760
▁जनाएका	-3761
ियर	-3762
▁व्यावसायिक	-3763
प्रिय	-3764
स्टर	-3765
▁बहि	-3766
▁भट्टराईले	-3767
▁भनिन्छ	-3768
▁२०७५	-3769
र्पा	-3770
▁मन्त्रालयको	-3771
कृष्ण	-3772
▁भ्या	-3773
वार्ता	-3774
वद्ध	-3775
रीका	-3776
▁क्वार	-3777
राइ	-3778
कामना	-3779
▁तनाव	-3780
▁विश्लेषण	-3781
▁निर्माणमा	-3782
▁पत्ता	-3783
▁विकासको	-3784
स्को	-3785
▁सिने	-3786
▁बुढा	-3787
▁प्रशिक्षक	-3788
▁हक	-3789
▁खोजेको	-3790
▁न्यौ	-3791
▁प्रशिक्षण	-3792
▁व्यवस्थित	-3793
▁सापको	-3794
▁हप्ता	-3795
जनक	-3796
▁तलब	-3797
▁विजयी	-3798
▁विधान	-3799
▁गोरखा	-3800
▁ग्राहक	-3801
▁संचालन	-3802
▁देशभर	-3803
▁समितिमा	-3804
▁आउनु	-3805
चो	-3806
▁वैज्ञानिक	-3807
जुर	-3808
▁स्वार्थ	-3809
▁पर्यटकीय	-3810
▁कन्	-3811
▁एनआर	-3812
डको	-3813
मका	-3814
▁२०५	-3815
▁फोर	-3816
▁ठु	-3817
▁सम्मेलनमा	-3818
नीको	-3819
▁जनाले	-3820
▁लगाए	-3821
▁डिजि	-3822
▁बालुवा	-3823
▁सेन्टर	-3824
▁जलविद्य	-3825
▁आफै	-3826
▁वर्षीया	-3827
▁महत्त्व	-3828
▁पसल	-3829
▁देखाएको	-3830
▁विना	-3831
श्रम	-3832
▁जसको	-3833
▁नदिने	-3834
भेद	-3835
▁बरु	-3836
▁अप्	-3837
▁उपाय	-3838
▁कानू	-3839
▁९०	-3840
▁शो	-3841
▁दिला	-3842
▁सँगै	-3843
▁चेताव	-3844
▁लेखा	-3845
▁पशु	-3846
▁पर्न	-3847
▁परे	-3848
बो	-3849
कोण	-3850
लिया	-3851
कमल	-3852
जेता	-3853
इने	-3854
▁न्यौपा	-3855
▁अष्ट्र	-3856
▁बनाए	-3857
▁७५	-3858
▁गणेश	-3859
▁टाइ	-3860
▁व्यक्तिले	-3861
▁लिए	-3862
▁समूहले	-3863
▁गरिनेछ	-3864
रीत	-3865
▁मिनेट	-3866
▁चौथो	-3867
▁अथ	-3868
▁विभागका	-3869
▁फोहोर	-3870
▁व्यक्तिलाई	-3871
िमा	-3872
▁बुटवल	-3873
लाग	-3874
क्षम	-3875
▁दर्जन	-3876
▁आवेद	-3877
▁पठाउने	-3878
ेलले	-3879
नन्द	-3880
▁गराएका	-3881
▁खाद्य	-3882
▁सफलता	-3883
न्दे	-3884
नलाई	-3885
हरूसँग	-3886
▁कविता	-3887
▁खुशी	-3888
▁सहयोगमा	-3889
▁चेतावनी	-3890
▁होट	-3891
▁वर्षअघि	-3892
▁अभिव्यक्ति	-3893
▁असफल	-3894
▁सुदूरपश्चिम	-3895
एसपी	-3896
▁दिल्	-3897
▁मानिसको	-3898
▁अर्थात	-3899
क्सी	-3900
▁युरोप	-3901
▁संसदमा	-3902
▁गयो	-3903
दिने	-3904
▁चीनको	-3905
▁भण्डारीले	-3906
▁गृहमन्त्री	-3907
लिज	-3908
▁विगतमा	-3909
▁डर	-3910
सके	-3911
टीको	-3912
▁मानिन्छ	-3913
▁द्वन्द्व	-3914
▁न्यु	-3915
▁विविध	-3916
▁आस	-3917
▁बनि	-3918
ध्यापक	-3919
माओवादी	-3920
▁एकजना	-3921
▁बिदा	-3922
र्कीले	-3923
▁सकिएको	-3924
▁भित्	-3925
▁ते	-3926
▁नजिकै	-3927
▁यसबाट	-3928
▁प्रतिबन्ध	-3929
▁चो	-3930
▁उपचारका	-3931
गरमा	-3932
▁अपा	-3933
▁बाह	-3934
▁यसपटक	-3935
▁हालै	-3936
▁विदेशमा	-3937
जनको	-3938
न्थे	-3939
▁अनेक	-3940
▁सैनिक	-3941
ताब	-3942
▁कप्ता	-3943
ेलिक	-3944
▁माओ	-3945
द्व	-3946
▁परिच	-3947
र्को	-3948
▁गर्छु	-3949
▁क्षेत्रीय	-3950
▁एमालेको	-3951
▁स्मार्ट	-3952
▁सहायक	-3953
▁कारवाही	-3954
▁मोटरसाइ	-3955
घर	-3956
रामर्श	-3957
▁पाण्डे	-3958
▁च्याम्प	-3959
▁ओलीको	-3960
▁छे	-3961
वडा	-3962
▁राणा	-3963
▁बहुमत	-3964
चाइ	-3965
लिङ	-3966
▁प्रथम	-3967
लोकन	-3968
▁स्कुल	-3969
प्रधानमन्त्री	-3970
▁लगानीकर्ता	-3971
▁सन्ता	-3972
▁बौ	-3973
स्थलमा	-3974
रूप	-3975
तिका	-3976
▁संवाद	-3977
वनमा	-3978
▁पुष्पकमल	-3979
्छन्	-3980
प्रा	-3981
▁टाढा	-3982
मला	-3983
▁बंगलादेश	-3984
▁सत्त	-3985
▁समारोह	-3986
▁लक्षित	-3987
▁पठाएको	-3988
▁थालेपछि	-3989
▁माछा	-3990
▁०७	-3991
शाखा	-3992
▁कसैलाई	-3993
▁उत्पन्न	-3994
▁गर्नुहोस्	-3995
नाका	-3996
▁ट्राफिक	-3997
▁निर्यात	-3998
षे	-3999
आइ	-4000
▁दीर्घ	-4001
▁हल	-4002
▁पुगे	-4003
▁संकट	-4004
▁लागु	-4005
▁त्रिभु	-4006
वमा	-4007
▁जीवनमा	-4008
▁लगाएका	-4009
्वान	-4010
▁महेन्द्र	-4011
▁बोल्दै	-4012
▁छै	-4013
▁खारेज	-4014
▁वडाध्यक्ष	-4015
▁विश्वकप	-4016
▁प्रस्तु	-4017
▁समयमै	-4018
अहिले	-4019
▁जनकपुर	-4020
▁गन्तव्य	-4021
िल	-4022
▁गायक	-4023
▁देख्न	-4024
▁थु	-4025
▁जय	-4026
▁स्थल	-4027
▁संस्थाको	-4028
▁निःशुल्क	-4029
▁इच्छा	-4030
▁इन्जि	-4031
▁देउवाले	-4032
▁स्थग	-4033
लिन	-4034
र्दै	-4035
▁लाग्न	-4036
ंकर	-4037
▁तिमी	-4038
व्यापी	-4039
▁नगरपालिकाले	-4040
▁सजाय	-4041
ाउको	-4042
▁प्रतिनिध	-4043
▁पाइने	-4044
▁राज्यले	-4045
▁जटिल	-4046
द्र्	-4047
जात	-4048
▁रोकि	-4049
▁रात	-4050
▁हस्त	-4051
द्रो	-4052
▁रवि	-4053
▁विकासमा	-4054
▁खेल्न	-4055
रिएको	-4056
▁गोली	-4057
▁प्रशास	-4058
▁परामर्श	-4059
▁सिन्धु	-4060
क्सा	-4061
▁पुर्याउने	-4062
▁मतदाता	-4063
▁दायित्व	-4064
▁तु	-4065
▁व्यापारी	-4066
▁चेत	-4067
▁बचत	-4068
▁मौका	-4069
▁देखियो	-4070
▁प्रधानमन्त्रीले	-4071
▁त्रिभुवन	-4072
मुकाम	-4073
क्षी	-4074
▁सुत्	-4075
▁बर	-4076
▁पालना	-4077
▁नम्ब	-4078
लाम	-4079
▁निवेदन	-4080
▁शेर्पा	-4081
▁आयोजनामा	-4082
▁पोखरेलले	-4083
▁प्रकारको	-4084
▁सफा	-4085
▁बाँच	-4086
क्सन	-4087
▁पर्यो	-4088
▁खासै	-4089
▁प्राधिकरणले	-4090
र्चु	-4091
मल	-4092
▁फ्रा	-4093
▁रहेर	-4094
▁गरौं	-4095
▁जोडिएको	-4096
सिन्दा	-4097
▁पानीको	-4098
ईको	-4099
ालका	-4100
▁शेयर	-4101
▁मासु	-4102
▁प्रसाद	-4103
▁बसो	-4104
▁स्वयं	-4105
▁आवास	-4106
▁तल	-4107
▁सुर्खेत	-4108
▁विनियोजन	-4109
▁महिनाको	-4110
▁विष्णु	-4111
▁आह्वान	-4112
▁कार्कीले	-4113
चीमा	-4114
▁बोकेर	-4115
▁समयदेखि	-4116
▁पत्रिका	-4117
ानै	-4118
▁कम्तीमा	-4119
नुपा	-4120
वादीले	-4121
▁पर्दैन	-4122
्याङ्क	-4123
गमा	-4124
▁बढ्दो	-4125
▁नगरपालिकाका	-4126
नुपर्दछ	-4127
▁न्यौपाने	-4128
पात	-4129
▁निषे	-4130
▁बिष	-4131
▁दूध	-4132
सै	-4133
▁संस्थागत	-4134
▁जहाज	-4135
▁म्यान	-4136
▁बराबरको	-4137
▁शिक्ष	-4138
▁सदरमुकाम	-4139
▁मद्दत	-4140
▁कामको	-4141
वर्ष	-4142
▁आउँदा	-4143
▁प्रतिशतले	-4144
▁२०७६	-4145
▁वीरगञ्ज	-4146
्यौं	-4147
▁मुक्त	-4148
▁आयोगको	-4149
▁रेक	-4150
▁अवरोध	-4151
▁आइपुग	-4152
▁दै	-4153
द्योग	-4154
ब्जा	-4155
▁अमेरिकाको	-4156
न्देही	-4157
▁संस्थाले	-4158
यौँ	-4159
▁नवी	-4160
▁नागरिकको	-4161
र्थी	-4162
▁लागिएको	-4163
नुपातिक	-4164
▁डिजाइ	-4165
म्बु	-4166
▁राजेन्द्र	-4167
▁कमल	-4168
▁कतार	-4169
▁यसबारे	-4170
▁रेडियो	-4171
र्ती	-4172
▁स्मरण	-4173
▁दृष्टिकोण	-4174
▁प्रोत्सा	-4175
▁नाटक	-4176
स्वा	-4177
▁पढ्न	-4178
▁वर्षसम्म	-4179
▁बस्ती	-4180
प्ले	-4181
▁अल्	-4182
▁डिजिटल	-4183
▁कुट	-4184
जुन	-4185
रुवा	-4186
सङ्	-4187
आफ्न	-4188
▁केसीले	-4189
▁मात्रामा	-4190
▁निज	-4191
र्द्ध	-4192
▁भोग	-4193
▁मलेसिया	-4194
▁उत्र	-4195
▁मैदानमा	-4196
▁माटो	-4197
▁ठो	-4198
▁पार्टीमा	-4199
▁राख्नु	-4200
▁प्रकरण	-4201
▁पुराना	-4202
▁महाशाखा	-4203
▁बताउनु	-4204
▁दृश्य	-4205
▁इट	-4206
याम	-4207
▁नेताहरुले	-4208
ितो	-4209
वहार	-4210
▁प्रक्रियामा	-4211
युद्ध	-4212
्लो	-4213
हुन्थ्यो	-4214
▁दिवस	-4215
रोधी	-4216
ौल	-4217
न्यायाधीश	-4218
▁उपमहानगरपालिका	-4219
▁अप्र	-4220
▁क्षेत्रलाई	-4221
▁बलात्कार	-4222
▁३६	-4223
▁चालक	-4224
▁सेत	-4225
▁किसिमको	-4226
▁बौद्ध	-4227
▁सधैं	-4228
वानी	-4229
▁जन्मि	-4230
▁भइरहेका	-4231
▁हिन्द	-4232
▁यसो	-4233
▁ध्या	-4234
▁प्रतिनिधित्व	-4235
▁फिल्ममा	-4236
▁चाड	-4237
कालमा	-4238
▁गुणस्तर	-4239
▁पूँजी	-4240
▁कठिन	-4241
▁छुट्टै	-4242
▁समानुपातिक	-4243
राव	-4244
ँस	-4245
▁एकल	-4246
▁कपडा	-4247
▁बिजुली	-4248
▁रमेश	-4249
▁भएकी	-4250
▁एश	-4251
▁सालको	-4252
▁चलाउन	-4253
▁लाल	-4254
▁छाया	-4255
▁सल	-4256
▁धन्य	-4257
▁नभएका	-4258
▁कास्की	-4259
▁निर्वाह	-4260
▁परिचय	-4261
▁ठीक	-4262
▁प्रयोगकर्ता	-4263
हिरो	-4264
ूट	-4265
वक्ता	-4266
ारीरिक	-4267
▁बनाउनु	-4268
▁बिता	-4269
फोन	-4270
ड्ने	-4271
▁खाली	-4272
▁खतरा	-4273
नाम	-4274
▁आवेदन	-4275
रिङ	-4276
▁लक्षण	-4277
फ्ट	-4278
▁छलफलमा	-4279
ंकन	-4280
▁सङ्ख्या	-4281
▁पक्षले	-4282
कर्षण	-4283
▁भीम	-4284
▁शरीरमा	-4285
देख	-4286
ुट्टा	-4287
▁विषयलाई	-4288
▁खति	-4289
▁मधेसी	-4290
▁अमेरिकामा	-4291
इरहेका	-4292
▁आधारभूत	-4293
▁मुटु	-4294
▁५५	-4295
नलमा	-4296
▁अग्	-4297
▁हेट	-4298
▁तयारीमा	-4299
पुरका	-4300
▁किनकि	-4301
▁सकेका	-4302
राग	-4303
▁मौलिक	-4304
▁दशैं	-4305
▁दुरुपयोग	-4306
▁जनजा	-4307
▁दर्शक	-4308
▁काठमाण्ड	-4309
कुमारी	-4310
▁जितेको	-4311
र्दा	-4312
▁सङ्ग	-4313
▁सूची	-4314
संस्था	-4315
▁खण्डमा	-4316
▁हुँदैछ	-4317
▁ठहर	-4318
▁राईले	-4319
▁एसिया	-4320
▁लेखक	-4321
▁शारीरिक	-4322
▁सर्वा	-4323
▁जडान	-4324
ंदै	-4325
▁तरिकाले	-4326
▁सरस	-4327
▁पर्दा	-4328
▁लक्ष्मी	-4329
▁शंका	-4330
▁खतिवडा	-4331
नारायण	-4332
▁हातमा	-4333
म्स	-4334
▁विष्ट	-4335
्याउने	-4336
▁रहन	-4337
▁बढाएको	-4338
पत्रमा	-4339
▁प्रकारका	-4340
दीप	-4341
▁हुनसक्ने	-4342
▁मेरा	-4343
▁डेढ	-4344
मावली	-4345
▁फर्का	-4346
▁घटनामा	-4347
▁रहेकाले	-4348
▁इजला	-4349
स्तरीय	-4350
▁नागरिकलाई	-4351
▁चन्द	-4352
ल्पा	-4353
मण	-4354
▁दूतावास	-4355
▁सिक	-4356
▁प्रधानमन्त्रीको	-4357
▁समी	-4358
▁सम्व	-4359
▁विधेय	-4360
▁कार्ड	-4361
▁जागिर	-4362
▁एण्ड	-4363
▁उद्देश्यले	-4364
ेदारी	-4365
▁गौर	-4366
भूति	-4367
▁म्याद	-4368
दृ	-4369
▁चलन	-4370
▁मिश्र	-4371
टार	-4372
▁सन्तोष	-4373
▁रौ	-4374
वनको	-4375
▁काठमाडौंको	-4376
▁आयोजक	-4377
▁बैं	-4378
हरुबाट	-4379
▁पेशा	-4380
▁गावि	-4381
▁शुभकामना	-4382
िनो	-4383
नीले	-4384
भग	-4385
▁चाँड	-4386
▁अवै	-4387
▁खालको	-4388
▁भेटि	-4389
ञ्चन	-4390
कल्प	-4391
▁स्वीकृति	-4392
▁अदालतको	-4393
▁लोकप्रिय	-4394
▁दफा	-4395
▁२०४	-4396
▁चरि	-4397
▁विधा	-4398
▁सुरुवात	-4399
▁आन्दोलनमा	-4400
▁रहन्छ	-4401
▁सप्त	-4402
▁चलचित्रमा	-4403
निर्देश	-4404
▁मुद्दामा	-4405
▁निवास	-4406
▁रिलिज	-4407
▁प्रारम्भिक	-4408
▁हुनाले	-4409
▁ल्याएर	-4410
▁जिम्मेवार	-4411
▁लागत	-4412
▁चाहना	-4413
▁क्यान	-4414
▁चलाउने	-4415
▁वृ	-4416
▁संघको	-4417
उनुपर्ने	-4418
▁बिना	-4419
▁खनाल	-4420
▁समुदायको	-4421
▁नगरपालिकाको	-4422
▁जनाइएको	-4423
उड	-4424
जोरी	-4425
▁टाउको	-4426
▁संघले	-4427
▁विद्युतीय	-4428
षि	-4429
▁होम	-4430
▁नपाउने	-4431
▁उसलाई	-4432
▁कार्यान्वयनमा	-4433
रहने	-4434
क्षेत्र	-4435
▁सरुवा	-4436
▁वर्षका	-4437
▁ध्याना	-4438
▁पन्त	-4439
▁अथवा	-4440
▁मिल्ने	-4441
▁राजदूत	-4442
दिएको	-4443
▁परिवारका	-4444
▁स्तर	-4445
▁हावा	-4446
ेमी	-4447
▁टीका	-4448
▁व्यापक	-4449
खित	-4450
▁खेलको	-4451
▁घुम्	-4452
",	-4453
▁थियौं	-4454
▁फिल्मको	-4455
▁यहाँका	-4456
▁हेरेर	-4457
हीँ	-4458
▁घरको	-4459
हामीले	-4460
▁अलग	-4461
▁अधिवेशन	-4462
▁सुरुमा	-4463
▁मामिला	-4464
▁रिज	-4465
▁पछ	-4466
▁चिसो	-4467
गण	-4468
गल	-4469
ुप्	-4470
▁मण्ड	-4471
▁हवाई	-4472
▁नेपालीको	-4473
▁एक्स	-4474
▁गतेसम्म	-4475
सीमा	-4476
▁स्ना	-4477
▁एनआरएन	-4478
▁औद्योग	-4479
▁जर्म	-4480
▁मेसिन	-4481
▁संचाल	-4482
त्वमा	-4483
▁गतेदेखि	-4484
यद	-4485
▁दीपक	-4486
▁मर्मत	-4487
▁थिएनन्	-4488
▁सन्तुल	-4489
ल्यान्ड	-4490
▁अध्यादेश	-4491
▁उनीहरूलाई	-4492
▁ओभ	-4493
▁सुनस	-4494
प्टर	-4495
▁एकद	-4496
▁ठेक	-4497
फे	-4498
रेको	-4499
ुञ्ज	-4500
▁बाग	-4501
▁निर्माता	-4502
▁६५	-4503
▁सामना	-4504
▁हुनेछन्	-4505
▁व्यस्त	-4506
गढ	-4507
▁ढुंगा	-4508
▁रेकर्ड	-4509
▁कञ्चन	-4510
▁अगाडी	-4511
▁पत्	-4512
▁परा	-4513
▁पेट्रोल	-4514
र्खा	-4515
▁हतियार	-4516
▁नायिका	-4517
▁पर्ख	-4518
▁बासिन्दा	-4519
▁चेक	-4520
नुहोस्	-4521
किन	-4522
▁खेल्	-4523
केको	-4524
▁असह	-4525
्याउन	-4526
▁नाफा	-4527
▁कसैको	-4528
▁रातो	-4529
▁ध्यानाकर्षण	-4530
▁घट्	-4531
▁खुलेको	-4532
▁शाक्य	-4533
▁बन्यो	-4534
▁प्रेर	-4535
▁परिवारको	-4536
▁आगो	-4537
घटन	-4538
▁अष्ट्रेलिया	-4539
▁संख्यामा	-4540
ईमा	-4541
▁प्रकाशन	-4542
▁आनन्द	-4543
▁वायु	-4544
▁स्थगित	-4545
▁स्कु	-4546
▁आउँदै	-4547
गन	-4548
धारणा	-4549
▁कार्यकाल	-4550
सस	-4551
▁त्या	-4552
स्सा	-4553
▁स्वस्थ	-4554
अप	-4555
▁रोप	-4556
▁सङ्क्रमण	-4557
▁अर	-4558
▁उता	-4559
▁कार्यविधि	-4560
▁१००	-4561
रिक्त	-4562
पान्तरण	-4563
▁खस	-4564
धिकारिक	-4565
▁जोशी	-4566
▁एकदमै	-4567
▁उन्	-4568
▁मसा	-4569
न्ती	-4570
विन्द	-4571
▁गाई	-4572
▁घिमिरे	-4573
▁वर्षपछि	-4574
▁दाहालले	-4575
▁समूहका	-4576
▁निधन	-4577
▁रुपन्देही	-4578
▁रह्यो	-4579
▁नसक्दा	-4580
▁गाउँपालिकाको	-4581
▁नेताले	-4582
▁गाउँपालिकाका	-4583
▁ह्या	-4584
▁कर्मचारीको	-4585
भोग	-4586
▁सभामा	-4587
▁अनौ	-4588
▁प्रबन्ध	-4589
गमती	-4590
▁जसलाई	-4591
▁परिवारलाई	-4592
बुझ	-4593
▁जरि	-4594
▁रेग्	-4595
▁मित्र	-4596
▁लिमि	-4597
छौं	-4598
▁गरिसकेका	-4599
एँ	-4600
▁अच	-4601
▁नवल	-4602
▁दम	-4603
▁लगाइ	-4604
▁धरान	-4605
▁छोटो	-4606
ंख	-4607
▁समृद्ध	-4608
▁यतिबेला	-4609
▁सरोकारवाला	-4610
▁रिय	-4611
▁भागमा	-4612
गरमाथा	-4613
▁बालिका	-4614
▁आधिकारिक	-4615
▁अफि	-4616
▁महिलालाई	-4617
▁देखिए	-4618
▁रणनीति	-4619
▁दाजु	-4620
▁खोला	-4621
रात	-4622
ठन	-4623
▁आयोगका	-4624
▁बाबुराम	-4625
▁बोल	-4626
▁पृथ्वी	-4627
▁आरोपमा	-4628
▁कुर	-4629
▁चरणको	-4630
▁विव	-4631
शै	-4632
स्ति	-4633
▁बित	-4634
▁हृ	-4635
▁अभिभावक	-4636
▁गल्ती	-4637
▁अन्तरि	-4638
▁नामक	-4639
▁हिउँ	-4640
भूमि	-4641
▁२०७७	-4642
▁विभेद	-4643
▁पुग्यो	-4644
▁प्रजातन्त्र	-4645
नीमा	-4646
लाग्	-4647
▁दिशा	-4648
▁तब	-4649
▁तपाइँ	-4650
▁अतिरिक्त	-4651
न्यास	-4652
ल्स	-4653
▁सिक्	-4654
ग्राही	-4655
एनन्	-4656
▁सिनेमा	-4657
▁कप्तान	-4658
▁बाटोमा	-4659
-'	-4660
▁सदस्यीय	-4661
रै	-4662
▁आय	-4663
▁बुबा	-4664
▁धन्यवाद	-4665
▁दीप	-4666
▁कार्यमा	-4667
▁पत्रकारि	-4668
▁गुल्	-4669
▁दिनसम्म	-4670
▁चीनले	-4671
▁थाल्यो	-4672
स्वपा	-4673
▁चलेको	-4674
▁त्यसबेला	-4675
▁घटेको	-4676
▁सत्	-4677
▁सल्लाहकार	-4678
▁संयन्त्र	-4679
▁पढाइ	-4680
▁लैजाने	-4681
▁३७	-4682
▁विपक्षी	-4683
▁बस्नेत	-4684
▁क्रमश	-4685
▁आफैँ	-4686
▁साथमा	-4687
धै	-4688
▁विशेषज्ञ	-4689
▁तस्क	-4690
दैनन्	-4691
▁समाजको	-4692
▁बाइ	-4693
▁देवी	-4694
▁थान	-4695
▁अवधारणा	-4696
▁मेट	-4697
▁मजदुर	-4698
▁एन्ड	-4699
▁प्राथमिकतामा	-4700
्रिक	-4701
▁चलचित्रको	-4702
▁बोल्	-4703
▁विघटन	-4704
▁औद्योगिक	-4705
वृद्धि	-4706
हरी	-4707
▁लिमिटेड	-4708
ारुढ	-4709
▁महिलाले	-4710
▁चल्ने	-4711
▁विद्रो	-4712
▁हटा	-4713
▁हकमा	-4714
▁जोड्ने	-4715
ग्राम	-4716
▁राखि	-4717
▁चलिरहेको	-4718
▁अप्ठ	-4719
▁माल	-4720
वती	-4721
▁बुद्धि	-4722
▁साझेदारी	-4723
▁परिषद	-4724
▁बैंकका	-4725
▁लागेर	-4726
▁म्याग्	-4727
▁अस्पतालको	-4728
होला	-4729
▁३४	-4730
▁माथिल्लो	-4731
▁क्रियाकला	-4732
▁मी	-4733
चे	-4734
स्ने	-4735
▁पहाडी	-4736
▁गर्भ	-4737
यले	-4738
▁सृ	-4739
चार्ज	-4740
झदारी	-4741
▁राखे	-4742
▁अर्जुन	-4743
▁निकुञ्ज	-4744
लुङ	-4745
▁सगरमाथा	-4746
▁पस	-4747
▁कुरालाई	-4748
नुभन्दा	-4749
▁स्रोतले	-4750
▁वर्षे	-4751
बजार	-4752
▁निर्वाचनको	-4753
मुखी	-4754
▁किताब	-4755
▁सत्तारुढ	-4756
▁गर्छौं	-4757
▁सघ	-4758
जनमा	-4759
▁क्रि	-4760
ारण	-4761
सोले	-4762
▁सिरि	-4763
▁केन्द्रले	-4764
▁बुझाइ	-4765
▁गर्दछन्	-4766
▁अस्वी	-4767
गाउँ	-4768
ल्का	-4769
▁३८	-4770
▁हटाउन	-4771
▁लगाइएको	-4772
▁बेल	-4773
▁घि	-4774
▁डिभिजन	-4775
▁इन	-4776
▁लगभग	-4777
▁प्रतियोगिताको	-4778
▁सीप	-4779
▁दस	-4780
▁परम्परागत	-4781
▁भारतबाट	-4782
हत्या	-4783
▁कुराको	-4784
▁समीक्षा	-4785
ियाली	-4786
▁पुग्छ	-4787
▁आकाश	-4788
डीले	-4789
▁गाय	-4790
▁नगर्न	-4791
▁सहयोगी	-4792
▁वेब	-4793
▁अभियानमा	-4794
▁प्रतिवद्ध	-4795
▁समयसम्म	-4796
ृति	-4797
▁संस्कार	-4798
▁मन्त्रालयमा	-4799
▁दुर्घटनामा	-4800
▁राख्दै	-4801
▁हैसिय	-4802
▁साँच	-4803
▁सुनाए	-4804
▁पेस	-4805
▁रेख	-4806
▁ढोका	-4807
▁बाहिरि	-4808
▁मोटरसाइकल	-4809
▁स्वीकृत	-4810
▁प्रधानन्यायाधीश	-4811
▁हौं	-4812
▁महत्त्वपूर्ण	-4813
▁भन्छिन्	-4814
▁थालिएको	-4815
▁चोरी	-4816
▁पुग्	-4817
▁पारेर	-4818
▁बिहे	-4819
▁बाध्यता	-4820
▁भत्ता	-4821
▁तपाईंलाई	-4822
प्ने	-4823
सनमा	-4824
▁पृष्ठ	-4825
▁बेलु	-4826
र्यो	-4827
कां	-4828
▁चाम	-4829
्वि	-4830
▁उपलब्धि	-4831
▁कार्यसमिति	-4832
पुग्	-4833
▁सके	-4834
▁संस्करण	-4835
▁पाण्डेले	-4836
▁सक्नुहुन्छ	-4837
माल	-4838
▁पहिलोपटक	-4839
▁चौधरीले	-4840
मण्ड	-4841
ियत	-4842
▁मनमा	-4843
▁खड्काले	-4844
▁केन्द्रको	-4845
रका	-4846
▁आकर्षण	-4847
▁अत्यधिक	-4848
खण्ड	-4849
▁मिल	-4850
▁सक्षम	-4851
▁आत	-4852
▁नकारात्मक	-4853
धीन	-4854
▁बसि	-4855
प्लव	-4856
▁सरकारसँग	-4857
▁खानेकुरा	-4858
▁कार्यक्रमका	-4859
शेष	-4860
▁कसले	-4861
▁त्र	-4862
▁मल्	-4863
▁नराम	-4864
रहँदा	-4865
▁पुनर्निर्माण	-4866
▁मुक्ति	-4867
निङ	-4868
▁बाँड	-4869
▁खुट्टा	-4870
▁गाउँपालिकामा	-4871
▁यथार्थ	-4872
▁कार्यालयको	-4873
सिए	-4874
तु	-4875
▁च्याम्पियन	-4876
▁अक्सि	-4877
▁गर्नेछन्	-4878
ंगी	-4879
▁चरित्र	-4880
१०	-4881
▁पुलि	-4882
▁बिग्र	-4883
▁मोह	-4884
▁बनाउँछ	-4885
▁बिच	-4886
▁जीवनको	-4887
▁लेखेका	-4888
वादको	-4889
▁डिजाइन	-4890
▁त्यसरी	-4891
▁उपरीक्षक	-4892
▁उदय	-4893
▁केश	-4894
▁टुंगो	-4895
▁थारु	-4896
▁अस्था	-4897
▁विजेता	-4898
▁आशंका	-4899
▁पुर्याउन	-4900
▁ठेकेदार	-4901
▁आन्दोलनको	-4902
▁लेखेको	-4903
जत	-4904
▁४२	-4905
मय	-4906
वेदनशील	-4907
मूलक	-4908
▁फलफ	-4909
▁साध	-4910
ँदे	-4911
▁दलले	-4912
नेन्द्र	-4913
जय	-4914
▁ठुलो	-4915
▁पुगि	-4916
▁हाउ	-4917
▁नसकिने	-4918
▁प्रतिकिलो	-4919
▁सिमा	-4920
▁सञ्जालमा	-4921
वाको	-4922
▁लघु	-4923
▁बयान	-4924
▁भइसकेका	-4925
▁फ्र	-4926
▁घटनाको	-4927
▁प्रमाणपत्र	-4928
▁विज्ञप्तिमा	-4929
▁काल	-4930
▁आयु	-4931
▁तरिका	-4932
▁सम्मा	-4933
▁स्थानिय	-4934
▁तोड	-4935
▁तार	-4936
▁आउँ	-4937
▁हिम	-4938
सत	-4939
▁कोरि	-4940
▁विश्वका	-4941
▁प्रिम	-4942
▁बिभिन्न	-4943
▁भारतका	-4944
▁छाडेर	-4945
सकीय	-4946
▁श्रील	-4947
▁अनलाइनखबरसँग	-4948
अब	-4949
▁खराब	-4950
▁अवरुद्ध	-4951
ुरू	-4952
गन्ज	-4953
बाबु	-4954
▁रमाइ	-4955
वाना	-4956
▁क्य	-4957
▁प्रवद्र्	-4958
▁पशुपति	-4959
शल	-4960
▁मूर्	-4961
▁चल्	-4962
▁१९९	-4963
▁कल्पना	-4964
▁कैद	-4965
▁मक	-4966
▁बिस्तार	-4967
▁भाइरसको	-4968
▁प्रतिवेदनमा	-4969
▁खोज्ने	-4970
▁कमजोरी	-4971
▁रहेछन्	-4972
जल	-4973
भल	-4974
▁सेट	-4975
▁बारा	-4976
▁मासिक	-4977
▁दायर	-4978
▁अगुवा	-4979
▁सेनाले	-4980
▁आचार्यले	-4981
▁विज्ञा	-4982
स्टि	-4983
परा	-4984
मात्रै	-4985
▁निको	-4986
▁कर्मचारीलाई	-4987
▁असु	-4988
▁शिक्षण	-4989
मलाई	-4990
▁महामन्त्री	-4991
▁बागमती	-4992
▁दियो	-4993
▁मुद्रा	-4994
▁मेगावाट	-4995
▁दुईवटा	-4996
▁समस्याको	-4997
न्टा	-4998
▁ग्रहण	-4999
डाइ	-5000
दरबार	-5001
विहीन	-5002
▁लेखिएको	-5003
▁मसान्त	-5004
▁दरबार	-5005
▁सुशासन	-5006
▁बाँध	-5007
▁पठाउन	-5008
▁नीतिगत	-5009
▁नोट	-5010
▁शिवि	-5011
▁क्षेत्रबाट	-5012
ोस्	-5013
▁बरा	-5014
▁भित्र्या	-5015
▁सत	-5016
▁समूहको	-5017
▁महतो	-5018
▁उत्त	-5019
▁भन्यो	-5020
▁अश	-5021
▁प्रवर्द्ध	-5022
टका	-5023
▁भरतपुर	-5024
▁भर्खर	-5025
▁अतिथि	-5026
▁बस्दै	-5027
▁नाच	-5028
आफ्नो	-5029
▁२०७९	-5030
▁स्वर्ण	-5031
▁ललितपुर	-5032
कल्पिक	-5033
▁.	-5034
▁रचना	-5035
▁ल्याइएको	-5036
▁सहि	-5037
▁ठाकुर	-5038
▁खाता	-5039
▁खुवा	-5040
▁सेवामा	-5041
▁दाइ	-5042
▁कुकुर	-5043
▁हल्ला	-5044
ट्स	-5045
▁बसोबास	-5046
▁अस्पतालका	-5047
▁सकेनन्	-5048
खन	-5049
नेका	-5050
योग्य	-5051
यस	-5052
▁गिरी	-5053
सम्मका	-5054
धारा	-5055
▁न्यूनतम	-5056
▁नपर्ने	-5057
in	-5058
▁विभाजन	-5059
ेटिभ	-5060
▁२०७८	-5061
▁अग्रता	-5062
▁घाटा	-5063
▁हेरि	-5064
क्ष्	-5065
जले	-5066
▁एफ	-5067
▁लागे	-5068
▁काभ	-5069
भारत	-5070
▁मदन	-5071
ब्य	-5072
▁योग्य	-5073
छो	-5074
नैतिक	-5075
वस्तु	-5076
▁धर	-5077
▁सडकको	-5078
यनको	-5079
भक्त	-5080
पल्ट	-5081
▁चाहिन्छ	-5082
▁समझदारी	-5083
यू	-5084
धाम	-5085
▁भुस	-5086
नुहु	-5087
▁टेक	-5088
▁आकर्षक	-5089
एच	-5090
▁हजुर	-5091
▁जुनसुकै	-5092
▁विकसित	-5093
राले	-5094
▁संस्थाका	-5095
प्रकाश	-5096
▁हिँ	-5097
▁गराए	-5098
ौली	-5099
▁भुट	-5100
काइ	-5101
पिट	-5102
सक्यो	-5103
▁समुह	-5104
निर्वा	-5105
▁स्टार	-5106
▁अन्नपूर्ण	-5107
▁अडान	-5108
▁सुवे	-5109
▁प्रमाणित	-5110
▁एल	-5111
▁कन्ट	-5112
▁देखेर	-5113
जीको	-5114
▁जातीय	-5115
क्रममा	-5116
▁तस्वीर	-5117
▁चाहन्छु	-5118
▁सर्वाधिक	-5119
▁गोविन्द	-5120
ब्बा	-5121
▁इजरा	-5122
▁जै	-5123
▁यिन	-5124
▁यहाँको	-5125
पोख	-5126
▁नेट	-5127
▁अस्थायी	-5128
विका	-5129
▁व्याख्या	-5130
▁प्रणालीमा	-5131
उमा	-5132
▁भेटिएको	-5133
हाइ	-5134
▁करी	-5135
▁दिनुपर्छ	-5136
▁मानिसहरु	-5137
▁५१	-5138
▁अस्ति	-5139
▁काँ	-5140
▁गर्थे	-5141
▁इन्टरनेट	-5142
किल	-5143
सिङ	-5144
▁आदिवासी	-5145
▁चोक	-5146
▁भक्तपुर	-5147
▁गाउँपालिकाले	-5148
▁सहितको	-5149
▁कोशी	-5150
▁गर्दैन	-5151
▁चिन्	-5152
▁पाठ्य	-5153
स्यौ	-5154
प्रतिको	-5155
सिना	-5156
नुभएका	-5157
▁कोइरालाले	-5158
▁फेस	-5159
▁प्रोत्साहन	-5160
▁काराग	-5161
▁सिंहले	-5162
एई	-5163
▁मिस	-5164
▁विद्यार्थीलाई	-5165
▁पाउनु	-5166
▁रिट	-5167
▁मार्	-5168
▁सजिलै	-5169
▁बढ्छ	-5170
ौंडा	-5171
▁अबको	-5172
▁तोकेको	-5173
▁निजाम	-5174
पले	-5175
▁कूट	-5176
▁दिगो	-5177
▁चर	-5178
▁प्रायः	-5179
स्वास्थ्य	-5180
चोक	-5181
▁प्रविधिको	-5182
▁हिस्सा	-5183
लम्बन	-5184
▁गुणस्तरीय	-5185
▁कर्मचारीले	-5186
▁विपरीत	-5187
मुना	-5188
▁४८	-5189
्वाइ	-5190
▁देशलाई	-5191
▁गरिब	-5192
▁बम	-5193
▁अवैध	-5194
आमा	-5195
▁सूचीमा	-5196
▁काउन्	-5197
नाल्	-5198
▁भाषामा	-5199
▁रोकिएको	-5200
▁पठाइ	-5201
ित्तिकै	-5202
▁रावल	-5203
▁भोज	-5204
▁२०७२	-5205
▁कपि	-5206
▁दिदी	-5207
▁मधु	-5208
▁हस्तक्षेप	-5209
▁अध्यक्षतामा	-5210
▁दशम	-5211
▁नगरपालिकामा	-5212
▁शैली	-5213
▁प्रती	-5214
▁तत्व	-5215
▁पूर्वी	-5216
▁म्यु	-5217
▁ज्ञानेन्द्र	-5218
▁मकवान	-5219
▁ढकालले	-5220
▁फैलि	-5221
▁लिखित	-5222
▁पोखरामा	-5223
▁गुट	-5224
▁खडा	-5225
र्फत्	-5226
▁नैतिक	-5227
मुक्त	-5228
▁आफैंले	-5229
▁श्रीमा	-5230
▁३९	-5231
ञ्जन	-5232
न्थी	-5233
▁पुग्दा	-5234
▁तल्लो	-5235
▁एजेन्सी	-5236
▁दर्शन	-5237
▁हिन्दु	-5238
▁क्वारेन्	-5239
▁पछिल्ला	-5240
टले	-5241
ङ्गो	-5242
▁सम्पदा	-5243
दायी	-5244
ामीण	-5245
▁घिमिरेले	-5246
▁संवेदनशील	-5247
▁भिड	-5248
▁चिकित्सा	-5249
रूपमा	-5250
▁मूल्यमा	-5251
▁रास्वपा	-5252
▁डुब	-5253
▁धनगढी	-5254
वायु	-5255
▁लिइ	-5256
▁चौकी	-5257
▁माओवादीले	-5258
ोषण	-5259
▁अलिक	-5260
क्कली	-5261
▁भिसा	-5262
▁शू	-5263
▁विशि	-5264
▁इन्द्र	-5265
▁नायक	-5266
▁दिल्ली	-5267
▁बढिरहेको	-5268
▁सस्तो	-5269
निर्देशक	-5270
▁रुख	-5271
▁ब्रि	-5272
▁भरि	-5273
▁धनु	-5274
▁भन्नेमा	-5275
▁विश्वव्यापी	-5276
▁कहिलेका	-5277
पू	-5278
▁मन्त्रिपरिषद	-5279
▁एकपटक	-5280
▁गएपछि	-5281
▁खेलेको	-5282
▁बनाई	-5283
▁उपभोग	-5284
▁जाति	-5285
▁कोरोनाको	-5286
▁कीर्ति	-5287
▁उड	-5288
▁बजेटमा	-5289
▁उपप्रमुख	-5290
▁अस्ट्र	-5291
,"	-5292
▁जसका	-5293
▁विस्त	-5294
▁डाइ	-5295
▁बहा	-5296
▁गौरव	-5297
▁बनाउँदै	-5298
▁मस्यौ	-5299
▁जुम्	-5300
▁मानवीय	-5301
▁ग्रामीण	-5302
▁असन्तुष्टि	-5303
▁सवाल	-5304
हरूबाट	-5305
▁आइरहेको	-5306
▁गौतमले	-5307
▁विश्वासको	-5308
▁कम्पनीका	-5309
▁जित्ने	-5310
▁आइसोले	-5311
▁जेन	-5312
एमा	-5313
▁तिहार	-5314
▁उत्साह	-5315
▁चक्र	-5316
▁आत्महत्या	-5317
▁कित्	-5318
▁सेनाको	-5319
▁खाद्या	-5320
▁औँ	-5321
▁समयको	-5322
▁बोल्न	-5323
कका	-5324
▁पाल्	-5325
▁लुट	-5326
▁नलाग	-5327
ख्य	-5328
▁खनालले	-5329
▁दुर्गा	-5330
▁आर्म	-5331
▁प्रदीप	-5332
सिस	-5333
▁धितो	-5334
▁जोडी	-5335
नुको	-5336
ङक	-5337
▁ओभरमा	-5338
▁पोस्ट	-5339
▁कानूनी	-5340
▁त्यसकारण	-5341
▁देखिन	-5342
▁चिनि	-5343
▁परिवारले	-5344
▁गीतमा	-5345
र्प	-5346
▁अवलोकन	-5347
▁फैलिएको	-5348
यमित	-5349
▁विप्लव	-5350
▁जनजाति	-5351
▁बेप	-5352
▁युट	-5353
▁मस्यौदा	-5354
▁विद्यार्थीको	-5355
वश्यक	-5356
▁पर्सा	-5357
▁बजेसम्म	-5358
▁सेवाको	-5359
▁दिनेश	-5360
▁रामचन्द्र	-5361
▁ग्यास	-5362
▁दीर्घकालीन	-5363
▁स्टो	-5364
मैत्री	-5365
ूहिक	-5366
▁प्रहरीका	-5367
▁हद	-5368
▁रमाइलो	-5369
लिम	-5370
स्पद	-5371
▁भगवान	-5372
▁नक्कली	-5373
▁अल्प	-5374
ाउनुपर्छ	-5375
काउने	-5376
▁बनेर	-5377
▁उस्तै	-5378
ेरा	-5379
▁विवेक	-5380
▁पहाड	-5381
त्तर	-5382
▁शाहले	-5383
▁मनोर	-5384
दुई	-5385
▁धेरैले	-5386
▁नमा	-5387
▁छौ	-5388
्यारो	-5389
▁मोहन	-5390
▁दिएपछि	-5391
▁मनाउने	-5392
▁क्याम्पस	-5393
▁अस्पतालले	-5394
साई	-5395
▁बैशाख	-5396
▁भीड	-5397
▁आक्रो	-5398
▁मूल्यांक	-5399
यात्रा	-5400
▁४४	-5401
▁निगर	-5402
▁खुल्ला	-5403
ङ्ग्र	-5404
भरी	-5405
▁जरिवाना	-5406
▁हुन्न	-5407
ड्रो	-5408
▁फाउ	-5409
▁उत्तिकै	-5410
▁समूहमा	-5411
▁शुद्ध	-5412
▁वी	-5413
▁किरण	-5414
▁सामूहिक	-5415
विद्	-5416
जीकरण	-5417
▁बिका	-5418
▁स्थानीयले	-5419
▁भारी	-5420
▁बलमा	-5421
ण्डर	-5422
▁सायद	-5423
▁मानिसले	-5424
▁बाली	-5425
थान	-5426
घरमा	-5427
▁सापकोटा	-5428
▁मल्ल	-5429
▁भेट्न	-5430
ट्टै	-5431
▁निगरानी	-5432
स्थापना	-5433
▁समाजका	-5434
▁सञ्चालित	-5435
्यारा	-5436
▁गोपाल	-5437
कुम	-5438
▁हेटौंडा	-5439
▁चोट	-5440
▁पोष्ट	-5441
▁बर्दि	-5442
▁चुर	-5443
▁अनाव	-5444
▁ल्याइ	-5445
▁पश्चा	-5446
▁सुनुवाइ	-5447
▁कार्यक्रमलाई	-5448
▁एप	-5449
▁राय	-5450
▁नपुग	-5451
▁खानु	-5452
▁स्टा	-5453
▁लैजान	-5454
▁सुपर	-5455
भित्रको	-5456
▁पार्टीलाई	-5457
श्रमिक	-5458
▁शक्तिशाली	-5459
▁तन	-5460
▁पञ्चा	-5461
▁संविधानले	-5462
▁क्रान्तिकारी	-5463
▁धम्	-5464
▁विद्यालयको	-5465
्युटर	-5466
▁नदिन	-5467
▁२०२०	-5468
हाले	-5469
कारले	-5470
▁कर्त	-5471
▁जसपा	-5472
▁क्रमशः	-5473
टीका	-5474
▁आमाको	-5475
▁संस्थापक	-5476
ालमा	-5477
▁बराम	-5478
▁युवती	-5479
▁जलवायु	-5480
▁उल्ल	-5481
▁सामाग्री	-5482
ेरु	-5483
▁नेपालबाट	-5484
▁जित्न	-5485
on	-5486
▁वैकल्पिक	-5487
▁वटै	-5488
▁स्वतन्त्रता	-5489
▁आएकी	-5490
▁साउदी	-5491
▁युनियन	-5492
▁फलफूल	-5493
▁पारदर्श	-5494
ेन्ड	-5495
▁हिं	-5496
तन	-5497
तया	-5498
▁प्रशंसा	-5499
▁देखाउन	-5500
सेल	-5501
▁४१	-5502
▁चाहेको	-5503
▁काठमाडौ	-5504
हिता	-5505
▁हिरा	-5506
▁चाहन्छ	-5507
▁धनी	-5508
ुरुन्त	-5509
▁नेपालगञ्ज	-5510
▁सेवाग्राही	-5511
चाहि	-5512
३०	-5513
सनको	-5514
▁खिच	-5515
▁विज्ञप्ति	-5516
▁उनि	-5517
▁विशाल	-5518
▁बेपत्ता	-5519
▁खाद्यान्न	-5520
▁सहसचिव	-5521
यरमा	-5522
▁रोकथा	-5523
ढु	-5524
▁श्रेष्ठको	-5525
▁अस्वीकार	-5526
▁शंकर	-5527
▁नागरिकले	-5528
नीकरण	-5529
▁भिन्न	-5530
▁रहँदा	-5531
▁छाप	-5532
▁विशिष्ट	-5533
िरहेका	-5534
▁ताप	-5535
▁चाँ	-5536
▁रहि	-5537
▁गोप	-5538
▁नेताहरू	-5539
घन	-5540
्ल	-5541
दिए	-5542
▁उमेरमा	-5543
▁वास्तवमा	-5544
नात्मक	-5545
▁ज्व	-5546
▁कक्ष	-5547
▁बानी	-5548
▁विहान	-5549
ौट	-5550
▁अह	-5551
कता	-5552
▁सन	-5553
▁खालका	-5554
छोरी	-5555
▁तुरुन्त	-5556
▁विज्ञापन	-5557
▁आउट	-5558
▁चित्त	-5559
▁गे	-5560
▁ड्र	-5561
▁समाप्त	-5562
▁एक्लै	-5563
लाउने	-5564
▁मदि	-5565
▁जोखिममा	-5566
▁नेकपाका	-5567
▁सभाको	-5568
ालु	-5569
▁भविष्यमा	-5570
er	-5571
क्की	-5572
मित्व	-5573
▁संस्थान	-5574
▁प्रतिवद्धता	-5575
▁छुट्या	-5576
▁धादि	-5577
वित	-5578
▁बढेर	-5579
▁जनाए	-5580
म्बार	-5581
▁प्रकट	-5582
▁इलाका	-5583
▁जंग	-5584
▁आसपा	-5585
▁दरले	-5586
।"	-5587
▁बस्नेतले	-5588
▁जन्मा	-5589
▁परम	-5590
▁नुवा	-5591
▁रुपैयाँको	-5592
▁छात्र	-5593
▁आकार	-5594
▁चर्को	-5595
▁सवै	-5596
लाइन्	-5597
▁गुल्मी	-5598
▁कोठामा	-5599
▁उहाँलाई	-5600
▁1	-5601
▁मनाइ	-5602
▁बुवा	-5603
म्बुले	-5604
ेसी	-5605
▁नलि	-5606
▁एजे	-5607
र्सिलो	-5608
▁इरान	-5609
▁टेलिक	-5610
▁पद्ध	-5611
▁अमेरिकाले	-5612
र्जी	-5613
▁ठिक	-5614
▁आकर्षित	-5615
परी	-5616
▁पक्कै	-5617
▁प्राप्	-5618
▁विभागको	-5619
▁विश्वभर	-5620
स्थापित	-5621
▁सिंहदरबार	-5622
रस	-5623
▁टेलिभिजन	-5624
▁केटा	-5625
किएका	-5626
▁श्रीमान	-5627
्यानल	-5628
▁पूरै	-5629
यती	-5630
▁रनको	-5631
▁झनै	-5632
▁स्वरुप	-5633
▁लाग्दैन	-5634
▁मावि	-5635
▁संघीयता	-5636
▁काठमाण्डौ	-5637
▁वडामा	-5638
▁नेपालीले	-5639
▁नृ	-5640
ंदा	-5641
▁स्थिर	-5642
▁नष्ट	-5643
▁सिजन	-5644
षाध्यक्ष	-5645
चाह	-5646
▁नियमावली	-5647
उप	-5648
▁५२	-5649
▁दशमलव	-5650
▁सञ्चारमा	-5651
▁प्रहरीलाई	-5652
दीले	-5653
▁जोगाउन	-5654
धारित	-5655
▁उपेन्द्र	-5656
ईन	-5657
▁काठ	-5658
▁भनेपछि	-5659
निर्भर	-5660
▁बरामद	-5661
▁बैंकिङ	-5662
केट	-5663
▁सन्तान	-5664
▁खपत	-5665
पक्षीय	-5666
▁ढुवानी	-5667
▁स्वास्थ्यकर्मी	-5668
र्ना	-5669
▁हारा	-5670
▁तारा	-5671
▁जनामा	-5672
▁माझ	-5673
▁भ्रमणमा	-5674
▁बार्सिलो	-5675
▁वृद्ध	-5676
▁विस्तृत	-5677
लेन	-5678
▁इन्ध	-5679
अधिकार	-5680
▁तातो	-5681
▁थापाको	-5682
▁दुर्ग	-5683
शास्त्र	-5684
▁उठाउने	-5685
▁४३	-5686
▁दाङ	-5687
▁विसं	-5688
▁रोगको	-5689
▁नपाएको	-5690
▁क्रियाशील	-5691
त्मा	-5692
▁बाढ	-5693
▁भएसँगै	-5694
▁तुलसी	-5695
▁स्वामित्व	-5696
▁सिस्ट	-5697
▁खासगरी	-5698
▁महर्जन	-5699
▁ओलीलाई	-5700
▁छायांकन	-5701
वाली	-5702
र्नुपर्ने	-5703
रल	-5704
▁गहिरो	-5705
▁तिनै	-5706
▁रिस	-5707
▁गीतको	-5708
▁बिरामीको	-5709
▁चाहने	-5710
▁मृत	-5711
▁२०७३	-5712
▁समायोजन	-5713
▁गर्नै	-5714
▁इन्जिनियर	-5715
▁प्रशासनले	-5716
▁ग्लो	-5717
▁कैलाली	-5718
्रु	-5719
▁रेड	-5720
▁व्यक्तित्व	-5721
▁निम	-5722
परिवार	-5723
▁नक्सा	-5724
▁झो	-5725
बिर	-5726
▁निर्णा	-5727
▁चर्चामा	-5728
न्नु	-5729
▁निजामती	-5730
▁कुँ	-5731
▁घरमै	-5732
▁आपत्ति	-5733
▁चाहिने	-5734
▁जमा	-5735
▁राइ	-5736
▁टन	-5737
▁पारिश्रमिक	-5738
▁तपाईको	-5739
▁अनियमित	-5740
▁अभिनेता	-5741
▁श्रीलंका	-5742
▁काली	-5743
मीले	-5744
थ्य	-5745
▁उर्जा	-5746
▁सेमि	-5747
▁कामका	-5748
▁अलपत्र	-5749
▁फाइनल	-5750
▁रौतह	-5751
▁पढ्ने	-5752
▁भैरह	-5753
▁लाइस	-5754
अल	-5755
ज्ञान	-5756
▁जनयुद्ध	-5757
▁गुप्	-5758
▁सुवेदी	-5759
बासी	-5760
मैले	-5761
▁त्याग	-5762
▁बुँदे	-5763
▁हाइड्रो	-5764
जिङ	-5765
▁हिमाली	-5766
▁हामीसँग	-5767
▁नराम्रो	-5768
▁राम्रोसँग	-5769
एमाले	-5770
▁दोषी	-5771
▁कल्या	-5772
▁हाराहारी	-5773
▁प्रिय	-5774
ंग्	-5775
ड्दै	-5776
▁छिट्टै	-5777
▁मिल्दैन	-5778
▁किसानले	-5779
▁पला	-5780
▁योजनामा	-5781
दको	-5782
श्रो	-5783
्चोक	-5784
हिर	-5785
▁भएकै	-5786
▁ल्याएका	-5787
▁भूमिकामा	-5788
▁भिडियोमा	-5789
नालाई	-5790
▁मारि	-5791
▁एकीकरण	-5792
▁कपाल	-5793
▁विश्वमा	-5794
▁अफ्र	-5795
▁नरेन्द्र	-5796
▁शरण	-5797
▁देवको	-5798
जरको	-5799
वारिक	-5800
▁निकालेको	-5801
▁स्वच्छ	-5802
ईएको	-5803
▁कम्प्युटर	-5804
▁शौ	-5805
▁त्रा	-5806
▁संसदको	-5807
▁एमसीसी	-5808
▁विस्तारै	-5809
▁प्याके	-5810
ञ्चल	-5811
▁सहजीकरण	-5812
▁भाषण	-5813
▁ग्राम	-5814
▁रेखा	-5815
▁लगायतको	-5816
▁जोश	-5817
▁समस्यामा	-5818
ेँ	-5819
▁५६	-5820
▁भेटघाट	-5821
▁त्यहाँको	-5822
▁जलविद्युत्	-5823
▁वाइ	-5824
निस्ता	-5825
an	-5826
▁हङक	-5827
▁संविधानमा	-5828
▁४७	-5829
▁अक्सिजन	-5830
▁क्षण	-5831
▁४६	-5832
पार	-5833
्रेजी	-5834
न्डर	-5835
▁गरेमा	-5836
▁गतिमा	-5837
▁पठाइएको	-5838
पाल्चोक	-5839
जीवन	-5840
▁बोर्डले	-5841
▁मान्ने	-5842
साधन	-5843
▁मतदा	-5844
▁आरोहण	-5845
▁नदीमा	-5846
▁बोल्ने	-5847
▁जनमत	-5848
नोद	-5849
▁नाइ	-5850
टाम	-5851
▁उचाइ	-5852
▁सुरक्षाको	-5853
तका	-5854
▁कुराहरु	-5855
▁सुरू	-5856
▁शून्य	-5857
▁आक्रोश	-5858
▁अन्तरिम	-5859
▁कृषक	-5860
▁सङ्घीय	-5861
याली	-5862
▁ज्ञापन	-5863
शेर	-5864
▁शल्य	-5865
▁नवलपरा	-5866
लभ	-5867
▁सिम	-5868
▁धनुषा	-5869
▁शेख	-5870
▁कागजात	-5871
▁सञ्चारमाध्यम	-5872
ाउँछन्	-5873
्युब	-5874
▁गाउ	-5875
पीडित	-5876
▁सिर	-5877
र्इ	-5878
ृंख	-5879
क्या	-5880
▁जितेका	-5881
▁तै	-5882
▁पारे	-5883
▁सहायता	-5884
▁महँग	-5885
▁व्यवसायीले	-5886
उँछिन्	-5887
ुरेन्ट	-5888
काउ	-5889
ज्यू	-5890
शालामा	-5891
विश्वास	-5892
▁त्यसबाट	-5893
▁क्षमताको	-5894
पावर	-5895
▁उठाउन	-5896
▁अभियोग	-5897
▁अधिकारको	-5898
▁प्रशासनिक	-5899
लेट	-5900
त्तिकै	-5901
▁छोडेर	-5902
▁मानिसलाई	-5903
▁पैदा	-5904
न्डै	-5905
▁नु	-5906
▁अनावश्यक	-5907
▁प्रतिपक्ष	-5908
▁नमिल्	-5909
▁तथ्याङ्क	-5910
▁पारिवारिक	-5911
स्फ	-5912
विरुद्धको	-5913
चाप	-5914
▁पक्षको	-5915
▁महासंघका	-5916
हको	-5917
▁ग्रुप	-5918
▁सुदृ	-5919
खोला	-5920
▁कान्ति	-5921
▁फ्रान्स	-5922
▁वर	-5923
▁पत्रमा	-5924
▁प्रस्तुति	-5925
▁बराबर	-5926
गानिस्ता	-5927
गडा	-5928
▁पाउँदा	-5929
सीय	-5930
▁शिक्षाको	-5931
▁सिमेन्ट	-5932
▁लिनु	-5933
▁अनुभूति	-5934
▁पत्नी	-5935
▁सशक्त	-5936
▁नम्बरको	-5937
ब्या	-5938
पट	-5939
िकरण	-5940
▁टिमले	-5941
धर	-5942
ड्ड	-5943
काएर	-5944
▁एजेण्डा	-5945
▁अनुप	-5946
▁बताइ	-5947
▁सहमत	-5948
▁अपाङ्ग	-5949
शैली	-5950
हिने	-5951
▁नियमन	-5952
▁सिन्धुपाल्चोक	-5953
▁सिल	-5954
▁मोदी	-5955
▁कर्तव्य	-5956
▁गरिए	-5957
▁उपहार	-5958
▁क्रियाकलाप	-5959
▁फरार	-5960
▁विमानस्थलमा	-5961
कस्	-5962
▁खोज्न	-5963
▁समुदायका	-5964
▁अत्यावश्यक	-5965
▁विद्यालयका	-5966
▁हौ	-5967
▁गर्नुहुन्छ	-5968
▁कल्याण	-5969
▁उत्पादनमा	-5970
▁उपत्यकामा	-5971
▁आख	-5972
▁बढाइ	-5973
▁हात्ती	-5974
▁काला	-5975
▁श्रे	-5976
▁परिक	-5977
▁राजेश	-5978
फर्म	-5979
▁ट्रे	-5980
▁नराख	-5981
▁कब्जा	-5982
▁पाएपछि	-5983
▁फ्या	-5984
▁संक्रमितको	-5985
जका	-5986
▁म्युजिक	-5987
ाधीन	-5988
▁संस्थामा	-5989
▁परियार	-5990
▁कूल	-5991
▁अन्तराष्ट्रिय	-5992
▁स्वि	-5993
▁लहर	-5994
▁सेतो	-5995
▁माध्य	-5996
▁सहभागि	-5997
▁स्रोतका	-5998
▁स्क्र	-5999
▁मौन	-6000
▁चाँडै	-6001
▁रेमि	-6002
▁क्षतिपूर्ति	-6003
▁विद्यार्थीले	-6004
▁घाँ	-6005
▁आफुले	-6006
▁सदस्यको	-6007
याे	-6008
▁तनहुँ	-6009
भौ	-6010
▁पोलि	-6011
ँचा	-6012
▁बलिउड	-6013
▁सैन्य	-6014
▁किसिमका	-6015
▁झन्डै	-6016
▁उत्तम	-6017
महा	-6018
▁तारि	-6019
▁किशोर	-6020
▁कुखु	-6021
▁दिइने	-6022
▁उपाध्या	-6023
▁धेरैजसो	-6024
▁सेमिफाइ	-6025
१५	-6026
▁उपचारको	-6027
▁सद्	-6028
ाराम	-6029
▁बन्छ	-6030
▁संग्रह	-6031
▁परिवर्तनको	-6032
ँदैछ	-6033
▁पदक	-6034
ग्रस्त	-6035
▁७६	-6036
▁ध्व	-6037
वास्ता	-6038
▁किन्न	-6039
▁परेर	-6040
लाग्दो	-6041
▁आबद्ध	-6042
▁विनोद	-6043
▁जोडिएका	-6044
िरमा	-6045
िए	-6046
▁अभिनेत्री	-6047
▁ब्यवस्था	-6048
▁निर्देशिका	-6049
▁पुर्याएको	-6050
▁उद्योगी	-6051
▁टिका	-6052
▁तिर्न	-6053
▁पुगेपछि	-6054
भाष	-6055
डीमा	-6056
निस	-6057
▁लगेर	-6058
▁अध्यक्षमा	-6059
लोक	-6060
or	-6061
▁करीब	-6062
▁प्रय	-6063
▁प्रवद्र्धन	-6064
ेनन्	-6065
ङ्गल	-6066
▁गाली	-6067
▁दिनदेखि	-6068
▁मातृ	-6069
▁विपक्ष	-6070
▁बिल	-6071
▁अधिवक्ता	-6072
▁फर्किएका	-6073
▁भाउ	-6074
▁त्रिवि	-6075
ण्डित	-6076
पन्थी	-6077
▁अफगानिस्ता	-6078
▁विपद्	-6079
होस	-6080
पेक्ष	-6081
▁सुरेन्द्र	-6082
ेनले	-6083
्ररी	-6084
▁वेबसाइ	-6085
राष्ट्रपति	-6086
िरहेको	-6087
जन्तु	-6088
▁राजपा	-6089
▁वु	-6090
▁५४	-6091
बहि	-6092
▁बारम्बार	-6093
▁सम्भावित	-6094
वरी	-6095
▁मूल्यांकन	-6096
▁सट्टा	-6097
अध्यक्ष	-6098
▁राम्रा	-6099
ेकाले	-6100
▁निरीक्षक	-6101
▁रहनेछ	-6102
▁निकायले	-6103
माया	-6104
▁लडा	-6105
▁नृत्य	-6106
▁व्यवसायिक	-6107
▁कोषाध्यक्ष	-6108
▁हटाउने	-6109
डिएको	-6110
▁देखाउने	-6111
▁आयोज	-6112
▁सरकारबाट	-6113
▁२०१९	-6114
▁पाकिस्तान	-6115
लाही	-6116
▁मास्क	-6117
▁अटो	-6118
▁गुणा	-6119
▁प्रतिपक्षी	-6120
▁बस्त	-6121
▁अधिकतम	-6122
▁फिट	-6123
▁नेटव	-6124
▁नदेखि	-6125
उनुपर्छ	-6126
▁दान	-6127
▁रानी	-6128
क्वा	-6129
▁गराउनु	-6130
▁संयोजकत्वमा	-6131
▁उपचारमा	-6132
▁फोरम	-6133
▁विधेयकमा	-6134
न्धि	-6135
▁हरु	-6136
▁निर्णायक	-6137
▁चामल	-6138
▁जनताका	-6139
▁५८	-6140
▁कम्तिमा	-6141
▁५३	-6142
▁सरल	-6143
खे	-6144
▁राजनैतिक	-6145
स्टा	-6146
▁होइनन्	-6147
▁अस्ट्रेलिया	-6148
▁भलि	-6149
▁प्रशासकीय	-6150
▁प्राध्यापक	-6151
▁मृतक	-6152
शनल	-6153
▁रोमा	-6154
▁प्रालि	-6155
▁राखी	-6156
▁देशले	-6157
▁अंग्रेजी	-6158
▁अत्यन्तै	-6159
▁सदस्यता	-6160
▁मार्च	-6161
▁विक्र	-6162
ड्दा	-6163
▁लगत्तै	-6164
▁जोडेर	-6165
▁उत्पादक	-6166
▁भैरहेको	-6167
▁गरिबी	-6168
▁जिक	-6169
पार्क	-6170
▁प्रादेशिक	-6171
लेले	-6172
▁६४	-6173
वृत्ति	-6174
▁उद	-6175
▁काय	-6176
▁शल्यक्रिया	-6177
िनमा	-6178
सम्पाद	-6179
अर्का	-6180
▁स्वास्थ्यमा	-6181
ताब्	-6182
▁तपाईँ	-6183
▁जला	-6184
▁ज्यो	-6185
▁अनुकूल	-6186
शिल	-6187
▁हाफ	-6188
▁यसैबीच	-6189
▁उठेको	-6190
काउन	-6191
▁रोक्	-6192
▁सन्धि	-6193
▁हजारौं	-6194
न्याय	-6195
▁चाप	-6196
al	-6197
▁बुझ्ने	-6198
▁समावेशी	-6199
▁वीरेन्द्र	-6200
ट्टी	-6201
▁दुइ	-6202
▁परिसर	-6203
▁८५	-6204
हाम्रो	-6205
▁पुरानै	-6206
▁स्तरमा	-6207
▁हतार	-6208
▁हुदै	-6209
▁जिन्द	-6210
दायक	-6211
▁रेग्मी	-6212
▁अंश	-6213
▁अड्	-6214
▁पह	-6215
▁सकियो	-6216
▁४९	-6217
▁गैरआ	-6218
▁नारी	-6219
▁साँच्च	-6220
▁श्रीमान्	-6221
▁ढिलो	-6222
▁प्रि	-6223
▁प्रतिस्पर्धी	-6224
▁हप्	-6225
▁वाग्	-6226
▁सहुल	-6227
▁मनि	-6228
▁बाँके	-6229
कहाँ	-6230
▁एसपी	-6231
▁क्वा	-6232
▁न्यूनीकरण	-6233
िङ	-6234
▁छनौट	-6235
▁सुनको	-6236
स्थापन	-6237
▁पं	-6238
हुँदै	-6239
▁ढिला	-6240
▁स्वाभाविक	-6241
▁समाजले	-6242
▁फेर	-6243
▁सिटी	-6244
र्कि	-6245
▁पाल्पा	-6246
स्न	-6247
▁मर्या	-6248
▁युवराज	-6249
▁शरीरको	-6250
ंस	-6251
▁बाघ	-6252
▁औषधी	-6253
दलीय	-6254
▁मोरङ	-6255
▁शिशु	-6256
▁ठोस	-6257
▁बजारको	-6258
डामा	-6259
▁महरा	-6260
▁असल	-6261
▁बेस	-6262
▁डाटा	-6263
▁बजेटको	-6264
▁सतर्क	-6265
▁निरी	-6266
जगार	-6267
▁किम	-6268
िनको	-6269
▁रासस	-6270
ैयाँ	-6271
▁खरेल	-6272
▁दलहरु	-6273
▁७२	-6274
्रत	-6275
▁सदस्यले	-6276
ह्	-6277
▁पारेका	-6278
▁सर्लाही	-6279
हिक	-6280
मुनि	-6281
▁ठगी	-6282
ँचाइ	-6283
▁लिटर	-6284
ह्र	-6285
▁आवद्ध	-6286
▁राम्रै	-6287
▁होलान्	-6288
▁माध्यमिक	-6289
▁शौच	-6290
▁परिमा	-6291
लेपछि	-6292
डाको	-6293
▁बजेदेखि	-6294
▁वर्षभित्र	-6295
सनल	-6296
▁सरसफाइ	-6297
▁होटलमा	-6298
▁तीनै	-6299
▁माग्	-6300
▁एसो	-6301
▁प्रतिभा	-6302
▁सुरुङ	-6303
खत	-6304
▁अपर	-6305
प्रसार	-6306
▁कटौती	-6307
▁आलु	-6308
▁रोपनी	-6309
▁जनतामा	-6310
▁बालबालिकालाई	-6311
▁करण	-6312
िल्ली	-6313
▁ट्रान्स	-6314
▁नभएपछि	-6315
▁टुंग	-6316
▁नेताको	-6317
▁विच	-6318
▁कामलाई	-6319
▁दिइन्	-6320
बाद	-6321
व्	-6322
िन्छ	-6323
▁छवि	-6324
▁अनुमो	-6325
▁प्राधिकरणका	-6326
▁प्रदू	-6327
▁छोराछोरी	-6328
नेकपा	-6329
▁गायिका	-6330
▁देखिन्छन्	-6331
सिप	-6332
▁समारोहमा	-6333
ेलको	-6334
कृया	-6335
▁आया	-6336
▁लिइएको	-6337
▁बिमा	-6338
▁करिव	-6339
▁मार्क	-6340
▁दाँ	-6341
▁ब्याजदर	-6342
सहितका	-6343
▁सन्तु	-6344
▁त्यहाँका	-6345
▁गरेकाले	-6346
▁सम्मानित	-6347
▁ओम	-6348
▁लघुव	-6349
स्तिष्	-6350
र्की	-6351
▁तौल	-6352
▁विरामी	-6353
▁खेल्दै	-6354
▁साब	-6355
▁श्रो	-6356
स्तरमा	-6357
स्थलको	-6358
ँचो	-6359
▁चरम	-6360
▁अधिकारीको	-6361
वान्	-6362
▁यहि	-6363
रहेकी	-6364
▁आचार	-6365
▁५७	-6366
मणि	-6367
जाको	-6368
▁ट्रम्पले	-6369
▁सङ्कलन	-6370
०७	-6371
▁भोक	-6372
▁तहले	-6373
▁भरमा	-6374
▁बचाउन	-6375
िको	-6376
▁नमुना	-6377
▁लोड	-6378
▁ब्यक्ति	-6379
▁ष	-6380
▁७७	-6381
वासीय	-6382
▁कालोपत्र	-6383
▁हृदय	-6384
यौ	-6385
▁शान्त	-6386
▁संशोध	-6387
ञ्चित	-6388
▁विपन्न	-6389
कान	-6390
▁विदा	-6391
▁घरबाट	-6392
▁सतह	-6393
▁दिमा	-6394
▁प्राधिकरणको	-6395
टामा	-6396
▁युग	-6397
▁सिं	-6398
▁बराबरी	-6399
▁गोर्खा	-6400
▁लगानीमा	-6401
▁तालमेल	-6402
▁सम्वन्ध	-6403
▁अा	-6404
▁एम्बुले	-6405
▁रत्न	-6406
▁हिन्दू	-6407
▁मुस्ता	-6408
ानीले	-6409
▁जित्	-6410
ेटिङ	-6411
▁बढुवा	-6412
▁घाम	-6413
▁गर्मी	-6414
▁बनायो	-6415
▁हुनुहुन्थ्यो	-6416
▁बृह	-6417
▁नदिएको	-6418
▁भैरहवा	-6419
▁खोल्ने	-6420
▁क्षेत्रफल	-6421
▁संक्रमणको	-6422
▁ढिलाइ	-6423
▁हलमा	-6424
धाज्ञा	-6425
ाउनको	-6426
▁महेश	-6427
▁स्वर	-6428
▁दोश्रो	-6429
▁कम्पनीलाई	-6430
स्तर	-6431
▁सम्पादन	-6432
▁रोक्ने	-6433
▁स्वदेशी	-6434
▁निर्धारित	-6435
▁रोज	-6436
ानमा	-6437
▁शताब्	-6438
▁सम्हाल	-6439
▁उन्न	-6440
▁पुनले	-6441
▁व्यापारिक	-6442
▁मुलुकका	-6443
▁महानिर्देशक	-6444
▁बताएकी	-6445
सङ्घ	-6446
▁बुझाएको	-6447
▁अस्तित्व	-6448
▁लाइसेन्स	-6449
▁परिणत	-6450
▁विशेषगरी	-6451
▁गेट	-6452
▁एन्फा	-6453
▁कारागार	-6454
▁रहेन	-6455
▁दिनभित्र	-6456
▁पत्रकारिता	-6457
▁राह	-6458
गोलिक	-6459
▁लामाले	-6460
▁गर्भव	-6461
▁आफुलाई	-6462
▁लाग्दा	-6463
▁तपाईले	-6464
औँ	-6465
▁नबुझ	-6466
▁सृजना	-6467
▁बनाउनुपर्ने	-6468
▁त्यहाँबाट	-6469
▁मिलाउन	-6470
▁जलविद्युत	-6471
लागि	-6472
▁बाह्य	-6473
मेरो	-6474
▁फौ	-6475
▁रूपैयाँ	-6476
▁गराइएको	-6477
▁अर्यालले	-6478
▁उत्साहित	-6479
र्पण	-6480
▁छाला	-6481
१२	-6482
रेड	-6483
▁आतंक	-6484
भाषा	-6485
लगत्तै	-6486
▁सिँचाइ	-6487
ँट	-6488
▁नेताहरुको	-6489
▁आइपुग्	-6490
▁एसियाली	-6491
▁अस्थ	-6492
▁अन्ततः	-6493
▁मेलम्	-6494
नुस्	-6495
▁लगाउनु	-6496
▁गराएर	-6497
▁म्याग्दी	-6498
▁कार्ययोजना	-6499
▁अरब	-6500
▁ख्याल	-6501
▁अपि	-6502
खेर	-6503
▁नोक्स	-6504
▁श्याम	-6505
▁एकको	-6506
▁निस्कि	-6507
▁फरा	-6508
▁प्रको	-6509
▁भर्खरै	-6510
▁राजश्व	-6511
▁सकेसम्म	-6512
▁देखिँदैन	-6513
▁बालबालिकाको	-6514
टाएर	-6515
▁खोल्न	-6516
▁नेपालीलाई	-6517
▁एकातिर	-6518
▁निकायको	-6519
▁ग्य	-6520
▁बन	-6521
▁गिरि	-6522
▁तामाङले	-6523
▁जिकिर	-6524
▁परेपछि	-6525
ह्न	-6526
▁भोग्	-6527
▁स्तरो	-6528
▁निम्त्या	-6529
्छु	-6530
▁कान्छ	-6531
ैमा	-6532
▁अर्याल	-6533
▁व्यवस्थापनमा	-6534
जीले	-6535
निकी	-6536
डीको	-6537
▁मानिसहरू	-6538
▁पक्का	-6539
▁किसानलाई	-6540
▁बिक्रीदर	-6541
▁छैन्	-6542
▁नवीकरण	-6543
st	-6544
▁किरा	-6545
▁आयोगमा	-6546
▁रोल्पा	-6547
▁दिनुभएको	-6548
▁नेप्	-6549
▁तिम्रो	-6550
ब्ब	-6551
लागी	-6552
रोग	-6553
▁सक्नेछन्	-6554
▁एच	-6555
▁नमू	-6556
▁बेलुका	-6557
▁मोडल	-6558
▁कुराले	-6559
आज	-6560
▁पावर	-6561
▁विश्वको	-6562
▁सुवेद	-6563
▁मनाउन	-6564
▁निमित्त	-6565
▁बिषयमा	-6566
▁बैंकमा	-6567
▁आदर्श	-6568
▁सुरक्षाकर्मी	-6569
▁एयरलाइन्	-6570
ारोपण	-6571
▁पट	-6572
▁इन्स	-6573
▁मात	-6574
▁अपरि	-6575
▁अन्यो	-6576
सुन	-6577
▁नर्स	-6578
सरकारी	-6579
▁नभएकाले	-6580
दित	-6581
▁लुगा	-6582
▁२०१८	-6583
▁समुदायमा	-6584
▁पार्टीभित्र	-6585
▁चिनी	-6586
११	-6587
▁कन्स	-6588
▁मिल्छ	-6589
▁समृद्धिको	-6590
▁सुशील	-6591
▁प्लेट	-6592
▁जनस्वास्थ्य	-6593
▁पात	-6594
सिद्ध	-6595
▁शर्त	-6596
▁एकताको	-6597
ण्डको	-6598
▁निषेध	-6599
▁भौगोलिक	-6600
टिभ	-6601
ामक	-6602
▁दौड	-6603
▁मदिरा	-6604
▁राष्ट्रसंघ	-6605
▁गभ	-6606
▁जाडो	-6607
▁ईश्वर	-6608
▁जानकार	-6609
▁विरोधी	-6610
▁प्रचण्डको	-6611
पछ	-6612
▁सकिँदैन	-6613
▁कौ	-6614
▁जगत	-6615
▁दिनअघि	-6616
▁बनाउँदा	-6617
▁बिज	-6618
▁पक्षका	-6619
टरमा	-6620
▁/	-6621
▁सङ्क्रमित	-6622
▁स्तरोन्न	-6623
▁शाहीले	-6624
ीता	-6625
▁शौचालय	-6626
▁मध्यम	-6627
▁प्रिमियर	-6628
क्सि	-6629
समक्ष	-6630
सर्थ	-6631
▁उद्यम	-6632
▁प्रकरणमा	-6633
▁गगन	-6634
▁गैरआवासीय	-6635
▁केजी	-6636
▁घन्टा	-6637
प्टे	-6638
न्यजन्तु	-6639
▁बढ्यो	-6640
▁प्रत्या	-6641
▁लगायतले	-6642
▁अभावमा	-6643
षक	-6644
सन्त	-6645
▁पति	-6646
▁फेरी	-6647
▁धम्की	-6648
▁पुर्व	-6649
▁सम्पर्कमा	-6650
▁बिस्तारै	-6651
▁अभिवृद्धि	-6652
▁नमिल्ने	-6653
▁एमाओवादी	-6654
▁मन्दिरमा	-6655
▁चीनमा	-6656
▁दिवसको	-6657
ञ्जि	-6658
▁आन्दोलनका	-6659
कीय	-6660
▁व्यहो	-6661
▁देखाएर	-6662
▁सद्भाव	-6663
ञ्चार	-6664
वट	-6665
चाहिँ	-6666
घात	-6667
▁ग्लोबल	-6668
▁पर्यटकको	-6669
▁कृति	-6670
पालन	-6671
औष	-6672
▁लिनुपर्ने	-6673
▁दोहोरो	-6674
▁सुन्त	-6675
▁ज्ञवाली	-6676
▁सन्दी	-6677
▁मस्तिष्	-6678
प्ती	-6679
▁सुवेदीले	-6680
▁आत्मनिर्भर	-6681
▁निषेधाज्ञा	-6682
▁दरबन्दी	-6683
▁प्रयोगमा	-6684
▁लाभा	-6685
स्टिक	-6686
▁शुरू	-6687
▁समाजवाद	-6688
प्ट	-6689
▁राजु	-6690
▁भूभाग	-6691
▁खै	-6692
▁बास	-6693
▁गइरहेको	-6694
▁बताउनुभएको	-6695
विना	-6696
▁कुव	-6697
▁मिर्ग	-6698
▁स्वभाव	-6699
▁सँ	-6700
▁उप्र	-6701
▁गाउँका	-6702
पार्	-6703
▁आजै	-6704
▁त्यहीँ	-6705
▁कूटनीतिक	-6706
ालगायत	-6707
▁प्रयत्न	-6708
▁राना	-6709
▁विषा	-6710
▁२०१७	-6711
▁अन्तरक्रिया	-6712
परित	-6713
▁गरेँ	-6714
▁तस्बिर	-6715
जुङ	-6716
पाइ	-6717
ेषण	-6718
▁महोत्त	-6719
▁समाधानका	-6720
▁पुरस्	-6721
▁बगा	-6722
▁प्रणालीको	-6723
▁सुरक्षाका	-6724
▁ज्वरो	-6725
▁पार्क	-6726
▁स्रोतको	-6727
▁राष्ट्रको	-6728
▁यसपाल	-6729
▁हानि	-6730
्नुपर्ने	-6731
खाना	-6732
▁मान्छेले	-6733
▁महामारीको	-6734
गण्डकी	-6735
▁प्रचलन	-6736
▁अमर	-6737
▁उनकी	-6738
▁एकेड	-6739
ें	-6740
▁कालि	-6741
▁जाँदै	-6742
▁ट्वी	-6743
बाजी	-6744
▁नायब	-6745
▁लेख्न	-6746
▁तालिका	-6747
▁अशोक	-6748
▁तत्कालै	-6749
▁संचार	-6750
पाटी	-6751
म्वा	-6752
▁पार्दै	-6753
▁फाइनलमा	-6754
ड्नु	-6755
न्दर्य	-6756
▁प्रस्तावित	-6757
▁बोकेको	-6758
▁चरा	-6759
▁पवि	-6760
श्री	-6761
▁अनुरुप	-6762
काई	-6763
▁उड्ड	-6764
▁प्रवर्द्धन	-6765
▁इतिहासमा	-6766
▁सहकार्यमा	-6767
▁फ्	-6768
ज्यालो	-6769
▁केन्द्रिय	-6770
▁विस्थापित	-6771
▁विद्यमान	-6772
ण्डमा	-6773
▁दिँदा	-6774
आउ	-6775
र्नर	-6776
्स	-6777
▁आश्वास	-6778
याको	-6779
▁गराउँदै	-6780
ामन्त्री	-6781
▁अनुसारको	-6782
▁राजकुमार	-6783
क्कर	-6784
▁६२	-6785
त्यस	-6786
▁टेक्	-6787
▁शक्तिको	-6788
लवस्तु	-6789
▁डरा	-6790
▁कसुर	-6791
▁रहनु	-6792
ंदैन	-6793
ar	-6794
▁कँ	-6795
▁उल्लेख्य	-6796
▁पक्षलाई	-6797
पश्चा	-6798
▁रुचि	-6799
▁ज्य	-6800
▁कागज	-6801
▁थाइ	-6802
अभि	-6803
ानको	-6804
▁कित्ता	-6805
▁अलिकति	-6806
▁हेम	-6807
▁स्वर्ग	-6808
▁तसर्थ	-6809
▁अभिलेख	-6810
▁जग्गामा	-6811
▁९५	-6812
▁म्याने	-6813
▁उठाएको	-6814
उहाँ	-6815
ख्रा	-6816
▁दिई	-6817
▁कुँवर	-6818
▁इमा	-6819
▁चेतना	-6820
▁खरिददर	-6821
▁पण्डित	-6822
▁आफूहरु	-6823
णु	-6824
▁०६	-6825
▁६३	-6826
▁छानविन	-6827
▁६६	-6828
ालीले	-6829
▁कुर्	-6830
▁२०८०	-6831
▁बेरो	-6832
▁फर्म	-6833
▁तत्कालिन	-6834
नासाथ	-6835
▁५९	-6836
न्तिक	-6837
▁फुटब	-6838
▁अस्थिर	-6839
▁स्थानीयवासी	-6840
निज	-6841
▁आस्था	-6842
▁टिममा	-6843
▁गठबन्धनको	-6844
सम्मत	-6845
▁कतिपयले	-6846
▁आकां	-6847
▁मुम्ब	-6848
ेछा	-6849
▁सहुलियत	-6850
दियो	-6851
▁गर्नुको	-6852
डाँडा	-6853
थु	-6854
चीन	-6855
▁असन्तुष्ट	-6856
्नुपर्छ	-6857
▁तट	-6858
▁किनकी	-6859
▁वरिपरि	-6860
▁रै	-6861
▁अखिल	-6862
at	-6863
गाई	-6864
▁केशव	-6865
▁पाई	-6866
▁यात्रामा	-6867
डोर	-6868
▁झर	-6869
▁रुपैयाँमा	-6870
▁गाविस	-6871
▁सक्छौं	-6872
▁विशेषता	-6873
ुरि	-6874
▁फार्म	-6875
▁सत्र	-6876
▁कुमारी	-6877
▁गरेपनि	-6878
▁प्रभु	-6879
मुक्ति	-6880
▁पुरुषको	-6881
▁खाएर	-6882
▁उका	-6883
▁साविक	-6884
▁उप्रेत	-6885
▁निक्षेप	-6886
▁बस्नु	-6887
▁गर्यौं	-6888
▁सहजै	-6889
▁सौन्दर्य	-6890
टाको	-6891
▁गोल्ड	-6892
एकै	-6893
हेरी	-6894
▁स्मृति	-6895
▁माइक्रो	-6896
▁हराएको	-6897
▁नियन्त्रणका	-6898
ण्ठ	-6899
▁दोल	-6900
▁सर्वे	-6901
▁बरि	-6902
▁दाउ	-6903
▁आमाले	-6904
▁स्कूल	-6905
▁महिनादेखि	-6906
▁स्याउ	-6907
▁जनाउँदै	-6908
थर	-6909
मिता	-6910
▁राष्ट्रियसभा	-6911
▁जोशीले	-6912
▁सर्त	-6913
▁छैनौं	-6914
न्द्रा	-6915
जनी	-6916
▁मकै	-6917
▁प्रशस्त	-6918
▁भाग्य	-6919
पर्व	-6920
सम्ममा	-6921
लोमा	-6922
▁लम	-6923
▁पाइप	-6924
▁महाकाली	-6925
▁कम्पनीमा	-6926
टिस	-6927
▁अनिल	-6928
▁लगानीको	-6929
सक्दा	-6930
▁यिनी	-6931
लास	-6932
▁डिसे	-6933
▁सदुपयोग	-6934
▁राम्ररी	-6935
अर	-6936
▁बन्दा	-6937
▁सुन्न	-6938
▁खेलाडीले	-6939
▁झण्डा	-6940
समध्ये	-6941
▁मान्छेको	-6942
लट	-6943
च्या	-6944
▁उल्लं	-6945
▁ब्राजि	-6946
▁बताउँछिन्	-6947
▁पारिएको	-6948
▁मुस्लिम	-6949
▁आप्र	-6950
▁सार्वभौ	-6951
▁आर्य	-6952
▁खेलेका	-6953
▁निकाल्न	-6954
सतमा	-6955
▁रामेछा	-6956
▁नेताहरूले	-6957
▁पेट्रोलियम	-6958
ज्जा	-6959
▁सुनिल	-6960
▁बेवास्ता	-6961
धुरा	-6962
▁परिवारमा	-6963
▁विवादमा	-6964
चेत	-6965
▁सुरुवा	-6966
▁महानगरपालिकाले	-6967
▁मनोज	-6968
८०	-6969
▁कार्यद	-6970
▁बल्ल	-6971
▁उड्डयन	-6972
▁श्रद्धा	-6973
▁गर्नुहु	-6974
धाना	-6975
▁पुर्	-6976
▁पेन	-6977
▁रुपान्तरण	-6978
वटै	-6979
ेलमा	-6980
▁चाहे	-6981
▁सधैँ	-6982
▁गर्भवती	-6983
▁औसत	-6984
▁क्लि	-6985
▁देख्दा	-6986
▁निर्भर	-6987
▁परिचित	-6988
▁तरल	-6989
▁जानुपर्ने	-6990
लम्प	-6991
▁बुझाउन	-6992
पुल	-6993
▁उत्पादित	-6994
▁सिकाइ	-6995
▁कुटपिट	-6996
नेस	-6997
पाठ	-6998
▁सुत्के	-6999
▁सागर	-7000
▁ठग	-7001
▁निगमले	-7002
▁सक्दैनन्	-7003
▁५००	-7004
▁भन	-7005
▁खाइ	-7006
▁उत्पादनको	-7007
▁खोज्दा	-7008
▁जात्रा	-7009
▁हेक्टर	-7010
▁ज्येष्ठ	-7011
▁नमूना	-7012
▁रोजगारीमा	-7013
▁राज्यका	-7014
सह	-7015
गरि	-7016
▁युक्र	-7017
▁प्रेरणा	-7018
▁शहरी	-7019
▁सापकोटाले	-7020
▁देखेको	-7021
▁उज्यालो	-7022
▁गणना	-7023
▁महारा	-7024
▁विद्रोह	-7025
गणना	-7026
▁बढे	-7027
▁गर्दैछ	-7028
तर्फको	-7029
माथिको	-7030
वालीले	-7031
औषध	-7032
▁अधिकृ	-7033
▁दिनपछि	-7034
▁रहर	-7035
श्चिमा	-7036
▁वन्यजन्तु	-7037
▁मिलेको	-7038
▁सकिनेछ	-7039
▁शिला	-7040
मर	-7041
▁उनै	-7042
▁जग्गाको	-7043
▁अनुमोदन	-7044
▁अवकाश	-7045
केका	-7046
▁जेनजी	-7047
▁दोलखा	-7048
▁खेलाडीको	-7049
▁अक्ष	-7050
▁एड	-7051
वक	-7052
▁अफ्रिका	-7053
▁वक्त	-7054
धिका	-7055
▁फराकिलो	-7056
जारी	-7057
▁निर्वाचनका	-7058
▁मान्न	-7059
विप	-7060
▁पोल	-7061
▁कमाइ	-7062
▁वर्ण	-7063
▁कँडेल	-7064
▁बिरामीलाई	-7065
▁महँगो	-7066
▁साहित्यकार	-7067
▁थिइन	-7068
▁शासक	-7069
▁महानगरले	-7070
▁काठमाडौंका	-7071
मध	-7072
▁नेतृत्वले	-7073
ड्य	-7074
▁भएकोमा	-7075
▁अप्ठ्यारो	-7076
▁हुन्थे	-7077
सेन	-7078
बाहिर	-7079
▁सदा	-7080
▁जिज्ञा	-7081
▁कुशल	-7082
लोड	-7083
▁मूर्ति	-7084
▁अन्यत्र	-7085
▁सिधै	-7086
▁दिएकी	-7087
▁सदस्यमा	-7088
▁६८	-7089
▁बसाइ	-7090
▁प्रश्नको	-7091
▁नदेख	-7092
▁अरुण	-7093
▁हल्का	-7094
▁डाँडा	-7095
▁महाधिवेशनमा	-7096
▁मैत्री	-7097
▁इंग्	-7098
▁सिलि	-7099
टारमा	-7100
▁सत्तामा	-7101
▁६७	-7102
▁रुट	-7103
▁निकास	-7104
▁विक्रम	-7105
▁ब्याटिङ	-7106
ल्ब	-7107
बमोजिम	-7108
▁मालिक	-7109
▁उहाँका	-7110
▁तिवारी	-7111
मेट	-7112
त्रो	-7113
▁पढा	-7114
▁आयोजकले	-7115
▁गंगा	-7116
▁खातामा	-7117
▁कता	-7118
▁सुवास	-7119
▁ढुङ्गा	-7120
▁सेप्टे	-7121
ओस्	-7122
▁स्पे	-7123
▁गर्नको	-7124
▁लामिछानेले	-7125
▁नदीको	-7126
▁उद्यमी	-7127
▁मातहत	-7128
चको	-7129
▁सुब्बा	-7130
ठू	-7131
जीवी	-7132
▁विरुद्धको	-7133
▁घन	-7134
▁थो	-7135
▁पेन्	-7136
▁रियल	-7137
▁आदान	-7138
▁मानिने	-7139
▁द्र	-7140
ङ्गी	-7141
▁चम्	-7142
▁९९	-7143
ब्लिक	-7144
तपा	-7145
▁गर्दछु	-7146
▁महिनासम्म	-7147
▁बाहु	-7148
▁डाय	-7149
▁बेइ	-7150
वृ	-7151
▁ओलम्प	-7152
▁किशोरी	-7153
▁खतिवडाले	-7154
वत्	-7155
▁असा	-7156
झो	-7157
▁६१	-7158
▁ज्ञवालीले	-7159
▁प्रदूषण	-7160
▁तीनवटा	-7161
▁आश्वासन	-7162
ख्	-7163
▁धनकु	-7164
▁सेल्	-7165
ब्बर	-7166
दर्शन	-7167
▁बिहानै	-7168
▁गरेन	-7169
en	-7170
▁दिप	-7171
▁आराम	-7172
▁लियो	-7173
▁अचम्म	-7174
▁कार्यदल	-7175
▁ओभर	-7176
▁लाखौं	-7177
▁बोलाएर	-7178
▁दर्शकले	-7179
▁२०३	-7180
▁क्यामे	-7181
▁अतिक्रमण	-7182
▁बिद्य	-7183
बापत	-7184
▁झगडा	-7185
▁पर्वत	-7186
▁नेपालमै	-7187
रहन्छ	-7188
▁उपमे	-7189
द्धान्तिक	-7190
▁अर्कै	-7191
▁ब्रान्ड	-7192
ारू	-7193
द्वय	-7194
▁चुनावको	-7195
▁बुँदा	-7196
▁रेष्ट	-7197
▁अन्त्यमा	-7198
▁तिब्ब	-7199
शरण	-7200
▁थपिएको	-7201
▁इले	-7202
▁विदेशबाट	-7203
५०	-7204
टिक	-7205
ेटर	-7206
▁शही	-7207
▁राजतन्त्र	-7208
म्या	-7209
▁बच्न	-7210
▁२०१६	-7211
मानी	-7212
▁दिदै	-7213
▁बू	-7214
▁प्रदर्शनमा	-7215
▁आर्जन	-7216
▁गिरीले	-7217
▁साम्रा	-7218
▁खुकु	-7219
▁खोल्	-7220
▁बेल्	-7221
▁करोडको	-7222
▁कोषमा	-7223
▁खटिएका	-7224
▁साइकल	-7225
▁विरोधमा	-7226
▁परिमार्जन	-7227
▁खरी	-7228
▁वर्	-7229
▁साग	-7230
▁२०१५	-7231
▁संकल	-7232
▁माओवादीको	-7233
▁ब्रो	-7234
▁चलाएको	-7235
काठमा	-7236
ाउँमा	-7237
▁कुनैपनि	-7238
तीले	-7239
▁करा	-7240
▁मानिएको	-7241
▁पदार्थको	-7242
▁आउँछन्	-7243
▁चाहिं	-7244
भित्रका	-7245
▁इन्ट	-7246
▁भव्य	-7247
ष्कार	-7248
▁गराउ	-7249
न्दि	-7250
ारको	-7251
▁अविश्वास	-7252
▁उच्चस्तरीय	-7253
वधि	-7254
▁नवीन	-7255
▁यसैले	-7256
▁सधै	-7257
▁न्यायिक	-7258
▁कडाइ	-7259
▁सारा	-7260
▁साझेदार	-7261
▁हजारभन्दा	-7262
▁भद्र	-7263
▁मिलन	-7264
्रिड	-7265
सभ	-7266
▁मेहन	-7267
▁उनकै	-7268
▁हेल्	-7269
ज्ज	-7270
काको	-7271
▁तर्	-7272
▁सामान्यतया	-7273
फ्ले	-7274
▁स्वाद	-7275
वारण	-7276
▁उद्योगमा	-7277
▁गाइ	-7278
▁बच्चाको	-7279
वले	-7280
▁ठप्प	-7281
▁रसु	-7282
▁भित्री	-7283
▁रोजगारीका	-7284
▁लिम्बु	-7285
▁विकृति	-7286
▁प्ल	-7287
क्व	-7288
नयन	-7289
▁दूरी	-7290
▁परिवेश	-7291
▁बिरुवा	-7292
▁लक्ष्मण	-7293
▁सम्झना	-7294
▁हरियो	-7295
▁स्थितिमा	-7296
▁नवराज	-7297
गृह	-7298
▁शुक्	-7299
▁भाडामा	-7300
▁शैलीमा	-7301
..	-7302
▁आयुक्त	-7303
▁पठन	-7304
▁घोषित	-7305
▁जनकपुरधाम	-7306
▁माधवकुमार	-7307
▁अछ	-7308
▁युट्युब	-7309
▁नच	-7310
सिएको	-7311
▁ट्रेड	-7312
हक	-7313
सिएसन	-7314
▁रहँदै	-7315
तापूर्वक	-7316
▁खोज्दै	-7317
▁बैठकको	-7318
▁कपिलवस्तु	-7319
▁कामना	-7320
▁आफूहरुले	-7321
▁रजि	-7322
▁)	-7323
▁एपी	-7324
ेरिया	-7325
▁फागु	-7326
▁पाइँदैन	-7327
▁दैलेख	-7328
केन्द्र	-7329
▁शास्त्र	-7330
▁ज्योति	-7331
▁जसमध्ये	-7332
▁त्यसअघि	-7333
▁पैदल	-7334
▁लिई	-7335
▁इन्धन	-7336
▁प्रधाना	-7337
▁सैद्धान्तिक	-7338
पछिको	-7339
▁महासंघले	-7340
▁समुदायले	-7341
संर	-7342
▁विश्वकपमा	-7343
वण	-7344
▁लडाइ	-7345
▁रोचक	-7346
सीका	-7347
▁रोजगारीको	-7348
▁रोकथाम	-7349
▁हुनै	-7350
▁कार्तिक	-7351
च्छेद	-7352
▁आयोजनाले	-7353
▁राखिएका	-7354
▁निकायमा	-7355
▁अन्तर्वार्ता	-7356
▁नेत्र	-7357
▁रामबहादुर	-7358
▁डल	-7359
साना	-7360
सत्ता	-7361
▁जैविक	-7362
▁साहले	-7363
वेयर	-7364
कस्मिक	-7365
▁पाउँछन्	-7366
वाहक	-7367
▁मिलाएर	-7368
▁नेकपाको	-7369
▁औचित	-7370
▁बढ्नु	-7371
▁बाँडफा	-7372
▁कृष्णप्रसाद	-7373
▁तारिख	-7374
▁बोहरा	-7375
▁जाजरको	-7376
▁किट	-7377
▁भलिबल	-7378
क्षि	-7379
▁जिता	-7380
▁खट	-7381
▁चिन्त	-7382
▁नेम्वा	-7383
▁थाल्छ	-7384
▁सामेल	-7385
▁अर्थतन्त्रमा	-7386
▁सदस्यहरु	-7387
▁जितेर	-7388
▁उठाएका	-7389
▁अक्टो	-7390
▁पराजु	-7391
▁सम्मको	-7392
▁अनौपचारिक	-7393
लियो	-7394
▁हस्	-7395
▁पद्धति	-7396
सबै	-7397
माको	-7398
▁देखाउँछ	-7399
▁नेपालगन्ज	-7400
▁७४	-7401
▁आफैले	-7402
▁प्रस	-7403
▁सफ्ट	-7404
▁गिर	-7405
▁फेसबु	-7406
▁अभिय	-7407
▁बहिनी	-7408
▁खोजिएको	-7409
▁अर्ध	-7410
▁शरणा	-7411
▁धमा	-7412
र्दिक	-7413
▁पर्यट	-7414
▁डिस्	-7415
▁मिले	-7416
▁नहोस्	-7417
▁बाढीले	-7418
▁गइ	-7419
न्सको	-7420
बीचमा	-7421
हरि	-7422
▁टिकटक	-7423
▁न्यौपानेले	-7424
पोर्	-7425
▁हुनेमा	-7426
▁पथ	-7427
▁आत्मा	-7428
▁मनोनयन	-7429
हिन	-7430
▁आवत	-7431
▁अपहरण	-7432
▁भट्टले	-7433
ाचार	-7434
▁एआई	-7435
▁शिविर	-7436
वियु	-7437
▁शिखर	-7438
ेलिकप्टर	-7439
▁मुल	-7440
▁अवस्थाको	-7441
▁मानवअधिकार	-7442
जेल	-7443
▁कस्ता	-7444
रन	-7445
जिन	-7446
▁रद्द	-7447
▁भएँ	-7448
▁बाबा	-7449
▁बिकास	-7450
▁उपप्रधानमन्त्री	-7451
प्रच	-7452
▁पटकपटक	-7453
▁सहमतिमा	-7454
फु	-7455
▁मधुमे	-7456
न्दार	-7457
▁लेख्ने	-7458
▁दम्प	-7459
▁भन्नुहुन्छ	-7460
ुटि	-7461
▁गुमाएका	-7462
ङ्गले	-7463
▁उम्मे	-7464
▁नहुनु	-7465
▁उपसमिति	-7466
▁नुवाकोट	-7467
▁संसद्मा	-7468
▁रेस	-7469
्र्यो	-7470
▁गोप्य	-7471
लान्	-7472
▁नसके	-7473
▁बाख्रा	-7474
ंशिक	-7475
▁चल्न	-7476
गामी	-7477
ञ्जु	-7478
र्पोर	-7479
▁बाक्	-7480
▁भेटमा	-7481
▁हार्दिक	-7482
म्बू	-7483
याउने	-7484
▁गराई	-7485
▁बत्ती	-7486
▁वक्तव्य	-7487
संगै	-7488
▁सभासद	-7489
▁अडि	-7490
▁तापक्रम	-7491
▁कार्यपालिका	-7492
▁बुढ	-7493
▁रुच	-7494
▁सुकु	-7495
▁प्रकृया	-7496
▁पाउनेछन्	-7497
▁रुपले	-7498
▁संघसंस्था	-7499
▁सर्वेक्षण	-7500
▁भानु	-7501
▁७३	-7502
▁क्रो	-7503
नाइटेड	-7504
▁औचित्य	-7505
नस	-7506
▁पोषण	-7507
▁इजराय	-7508
▁काभ्र	-7509
▁निवारण	-7510
▁सुधारका	-7511
▁शान्तिपूर्ण	-7512
▁पारी	-7513
▁किसानको	-7514
▁निर्णयमा	-7515
▁चितवनको	-7516
▁अन्ध	-7517
▁रुकुम	-7518
▁जनआ	-7519
▁पश्चात	-7520
▁मार	-7521
▁पोखरी	-7522
द्रिक	-7523
▁केटी	-7524
▁दलाल	-7525
▁नजर	-7526
▁सकिएपछि	-7527
▁वता	-7528
▁मनाङ	-7529
सीआर	-7530
▁निवेद	-7531
▁बच्चालाई	-7532
▁प्रकोप	-7533
▁आकस्मिक	-7534
▁नम्बरमा	-7535
▁हेलिकप्टर	-7536
▁काटि	-7537
▁बीपी	-7538
▁सुत्केरी	-7539
▁भवनमा	-7540
▁उम	-7541
▁दस्ताव	-7542
om	-7543
पेर	-7544
▁ध्रु	-7545
▁निराशा	-7546
▁राजनीतिको	-7547
▁मैन	-7548
जेन्ट	-7549
▁मर्	-7550
▁हाराहारीमा	-7551
▁भिटाम	-7552
▁पौडेलको	-7553
▁कठि	-7554
▁गुज	-7555
▁राउत	-7556
▁प्रतिफल	-7557
▁भण्डारण	-7558
दिनँ	-7559
▁समि	-7560
ालयमा	-7561
▁थप्	-7562
▁मोटो	-7563
▁अनुसन्धानमा	-7564
▁किस्ता	-7565
▁मान्छेलाई	-7566
▁एम्बुलेन्स	-7567
▁इलाम	-7568
च्	-7569
▁भन्नेबारे	-7570
▁सामग्र	-7571
▁महिनाभित्र	-7572
▁सुदृढ	-7573
▁प्रसंग	-7574
ाल्ने	-7575
▁सिस्टम	-7576
▁धितोपत्र	-7577
क्रान्ति	-7578
▁गर्नुका	-7579
▁देखी	-7580
▁आचारसं	-7581
▁क्षेत्रले	-7582
▁संगठित	-7583
▁ब्यब	-7584
▁कमरेड	-7585
▁विगतका	-7586
▁पुलिस	-7587
▁भेटवार्ता	-7588
▁आपसी	-7589
▁सरस्व	-7590
▁सञ्चालनका	-7591
▁एसि	-7592
सभापति	-7593
▁प्रचारप्रसार	-7594
▁एप्प	-7595
▁सिलसि	-7596
▁संसारमा	-7597
नयाँ	-7598
▁टिमको	-7599
▁चलाइ	-7600
▁बेनी	-7601
▁सानै	-7602
▁बस्दा	-7603
▁थपे	-7604
▁लाग्नु	-7605
▁पञ्चायत	-7606
▁सहयोगको	-7607
▁सालदेखि	-7608
▁सम्बन्धि	-7609
▁बैत	-7610
नेपाली	-7611
▁योग्यता	-7612
▁शिक्षामा	-7613
चमा	-7614
ौलाले	-7615
▁रूपान्तरण	-7616
▁मू	-7617
▁डेब	-7618
नुभएन	-7619
▁घुम्न	-7620
▁भूगोल	-7621
▁दवा	-7622
▁रहेकी	-7623
▁मार्ने	-7624
▁लापर	-7625
▁चैत्र	-7626
▁अग्रसर	-7627
▁बनेपछि	-7628
▁एकअर्का	-7629
▁धो	-7630
▁व्यवहारमा	-7631
साम	-7632
त्तिको	-7633
▁अनुगम	-7634
▁खत्री	-7635
वरको	-7636
▁बीबी	-7637
▁सुरेश	-7638
ङ्ख	-7639
▁देशभरका	-7640
▁पारदर्शी	-7641
कियो	-7642
▁हेड	-7643
▁नगर्नु	-7644
▁पोखराको	-7645
▁आयोजनाका	-7646
▁मूल्याङ्क	-7647
▁संस्थालाई	-7648
▁सवारीसाधन	-7649
▁पृष्ठभूमि	-7650
▁अभ	-7651
▁फला	-7652
▁सचेतक	-7653
▁कुवेत	-7654
▁उपयोगी	-7655
▁पर्नेछ	-7656
▁सम्झौतामा	-7657
रालो	-7658
▁झि	-7659
पिटल	-7660
रहेछ	-7661
▁देखाइ	-7662
सुर	-7663
न्दैन	-7664
सम्पादन	-7665
▁मर्ज	-7666
▁जेष्ठ	-7667
सेवी	-7668
र्भिक	-7669
▁भोलिपल्ट	-7670
▁सुने	-7671
▁रेमिट्या	-7672
▁एनआरएनए	-7673
वन्ध	-7674
ेन्ज	-7675
वर्तमान	-7676
▁बाहिरी	-7677
▁पाठ्यक्रम	-7678
▁राजन	-7679
▁दलहरुले	-7680
▁प्रयोजन	-7681
भाग्य	-7682
▁रुपि	-7683
▁र्या	-7684
१६	-7685
▁शीत	-7686
▁निकालेर	-7687
▁दुध	-7688
▁गतेको	-7689
▁इजलासले	-7690
▁परिक्षण	-7691
जम	-7692
▁हुम्	-7693
▁पाठक	-7694
च्छुक	-7695
▁उत्तरी	-7696
ण्ट	-7697
▁प्रचलित	-7698
▁महानि	-7699
▁निष्पक्ष	-7700
▁राप्ती	-7701
▁बर्षको	-7702
▁हड्	-7703
▁कायमै	-7704
▁हुनुको	-7705
▁दिन्छन्	-7706
▁बन्ध	-7707
▁बीचको	-7708
▁मधेशी	-7709
▁वैद्य	-7710
ुप्र	-7711
▁दिनका	-7712
▁निकाल्ने	-7713
ेग	-7714
२५	-7715
▁स्क	-7716
▁अपिल	-7717
▁केसीको	-7718
▁९८	-7719
काजी	-7720
▁परिकार	-7721
▁सांसदले	-7722
फाई	-7723
▁सकिन	-7724
▁सुन्	-7725
▁माओवादीका	-7726
दिन्छ	-7727
▁सीता	-7728
क्रामक	-7729
▁उत्सव	-7730
सेको	-7731
▁बृद्धि	-7732
▁बढाइएको	-7733
▁विभागमा	-7734
▁उद्योगको	-7735
▁७८	-7736
▁राष्ट्रपतिको	-7737
▁सिरहा	-7738
▁ऋषि	-7739
▁पाटो	-7740
▁शहीद	-7741
▁रिक्त	-7742
रहित	-7743
▁क्लव	-7744
▁ताप्ले	-7745
ौटी	-7746
▁पाउँछ	-7747
▁फिल्मले	-7748
काठमाड	-7749
▁प्रतिनिधिसभाको	-7750
फरक	-7751
▁शहरमा	-7752
▁व्यवसायमा	-7753
गरीय	-7754
▁अख्तियारले	-7755
▁दलहरू	-7756
▁खानी	-7757
▁व्यवस्थापनको	-7758
रहनु	-7759
लोजी	-7760
▁नामको	-7761
▁निवासी	-7762
▁दुब	-7763
▁ली	-7764
भावी	-7765
▁कुखुरा	-7766
▁फर्किने	-7767
▁भिटामिन	-7768
▁दस्तावेज	-7769
▁८४	-7770
▁श्रा	-7771
उनुभयो	-7772
▁पर्नेमा	-7773
▁बर्दिया	-7774
▁रोनाल्	-7775
▁व्यवस्थापनका	-7776
▁गई	-7777
▁कर्पोर	-7778
▁मन्तव्य	-7779
▁परिस्थितिमा	-7780
क्ष्मी	-7781
▁प्रेरित	-7782
▁सम्बन्धलाई	-7783
धम	-7784
▁नसकेका	-7785
▁विषयवस्तु	-7786
दत्त	-7787
▁मकवानपुर	-7788
▁नसक	-7789
भिर	-7790
▁सोलु	-7791
प्रचण्ड	-7792
▁पवित्र	-7793
▁प्रहरीमा	-7794
ँगा	-7795
चरण	-7796
▁उखु	-7797
▁युनाइटेड	-7798
▁गर्नुपर्नेमा	-7799
▁खोलामा	-7800
आउट	-7801
▁झड	-7802
▁लेन	-7803
▁सञ्चारकर्मी	-7804
▁तस्करी	-7805
▁अनुसन्धानका	-7806
▁संगठनको	-7807
स्रोत	-7808
▁विद्यालयले	-7809
▁खरीद	-7810
▁थ्री	-7811
▁द्वि	-7812
▁अध्ययनरत	-7813
▁अर्कोतिर	-7814
▁खेर	-7815
▁बीउ	-7816
▁भाषाको	-7817
टाइनमा	-7818
▁लोकतन्त्रको	-7819
ईओ	-7820
्योर	-7821
▁चाहन्छन्	-7822
▁पाटन	-7823
▁जोड्न	-7824
▁इन्जिनिय	-7825
▁कार्यलाई	-7826
▁समितिलाई	-7827
▁भाई	-7828
▁लिगमा	-7829
▁गाडीमा	-7830
▁बुझाउने	-7831
▁हमा	-7832
सभामुख	-7833
▁लाखको	-7834
▁ल्	-7835
▁ट्रया	-7836
▁नेटवर्क	-7837
▁मुलुकलाई	-7838
▁ऐनको	-7839
▁जाहेरी	-7840
▁नगरे	-7841
▁ह्वा	-7842
▁प्रत्यारोपण	-7843
उदै	-7844
ौति	-7845
▁एशिया	-7846
▁नेप्से	-7847
▁पानीमा	-7848
▁स्तरीय	-7849
्रय	-7850
▁मङ्	-7851
▁बर्खा	-7852
▁दलीय	-7853
▁प्रब	-7854
▁ओलम्पिक	-7855
▁मरि	-7856
▁पायो	-7857
बेर	-7858
▁शपथ	-7859
कुलपति	-7860
▁रेस्ट	-7861
▁कच्चा	-7862
▁जनावर	-7863
▁समर्थक	-7864
▁खेलाडीलाई	-7865
▁अन्याय	-7866
▁कार्यालयबाट	-7867
▁७१	-7868
ष्टिक	-7869
▁तीमध्ये	-7870
▁रहस्य	-7871
▁बौद्धिक	-7872
▁राख्नुपर्ने	-7873
बिया	-7874
▁रुपियाँ	-7875
▁छात्रा	-7876
▁टोलीमा	-7877
▁अध्ययनले	-7878
▁पन्छ	-7879
▁अवस्थित	-7880
▁ध्यानमा	-7881
▁सारेको	-7882
▁उल्लंघन	-7883
am	-7884
▁सलमान	-7885
▁भारतसँग	-7886
▁घुस	-7887
झै	-7888
▁झन	-7889
▁चिन	-7890
▁मानेर	-7891
▁राष्ट्रपतिले	-7892
▁धुलो	-7893
न्दी	-7894
▁२०२२	-7895
▁८२	-7896
▁आफ्	-7897
पोखरी	-7898
▁काफ्ले	-7899
▁नपाइने	-7900
▁गज	-7901
म्मद	-7902
▁हालको	-7903
▁दृढ	-7904
▁महिनापछि	-7905
केर	-7906
▁आइरहेका	-7907
▁गर्नेलाई	-7908
▁पाहु	-7909
▁पहलमा	-7910
▁प्रश्नमा	-7911
▁यिनै	-7912
▁ऐनमा	-7913
यणी	-7914
▁ताला	-7915
▁मुल्य	-7916
▁प्रशोधन	-7917
एमई	-7918
▁रणनीतिक	-7919
▁फाइल	-7920
▁भइन्	-7921
वहारिक	-7922
▁जुत्ता	-7923
बाटो	-7924
जिर	-7925
▁अनौठो	-7926
▁गोदा	-7927
देन	-7928
तारी	-7929
▁पिता	-7930
▁स्थानीयको	-7931
▁देखिएपछि	-7932
प्या	-7933
▁रेश	-7934
▁निरीक्षण	-7935
कर्मीको	-7936
▁महासंघको	-7937
▁रिहा	-7938
le	-7939
▁६९	-7940
▁पश्चिमा	-7941
कानु	-7942
▁प्रान्त	-7943
पहि	-7944
▁गरें	-7945
▁प्याकेज	-7946
▁सन्तुलन	-7947
▁गरेकोमा	-7948
▁अनियमितता	-7949
▁बालुवाटार	-7950
▁फोहर	-7951
▁माइती	-7952
▁इस्	-7953
▁स्ट्र	-7954
▁विपरित	-7955
ूर	-7956
▁नोभे	-7957
▁साटो	-7958
▁प्रोजे	-7959
▁लागेपछि	-7960
▁लम्	-7961
▁आयल	-7962
▁बिषय	-7963
▁प्रतिस्पर्धामा	-7964
▁असुर	-7965
▁डाउन	-7966
▁नियत	-7967
▁एकेडेमी	-7968
▁मेची	-7969
▁युनिभ	-7970
▁वसन्त	-7971
▁जापानी	-7972
▁मिडियामा	-7973
▁रनमा	-7974
▁घरपरिवार	-7975
▁माने	-7976
▁महानगरीय	-7977
सूची	-7978
▁खर्	-7979
▁राती	-7980
▁लेखन	-7981
ञ्जा	-7982
▁निराश	-7983
विज्ञान	-7984
▁समग्रमा	-7985
नजर	-7986
▁८८	-7987
राही	-7988
▁सभ्य	-7989
▁दुख्ने	-7990
▁महिलाहरु	-7991
न्ह	-7992
▁सयौं	-7993
▁स्याङ्	-7994
▁विष्टले	-7995
▁संज	-7996
▁पार्किङ	-7997
▁अपराधी	-7998
▁अफर	-7999
▁दैनिकमा	-8000
▁स्वभाविक	-8001
▁आखिर	-8002
▁स्वतः	-8003
▁आगलागी	-8004
▁फैला	-8005
▁निम्न	-8006
▁मागेको	-8007
बिना	-8008
▁राजधानीमा	-8009
▁तोडफो	-8010
▁सक्नु	-8011
▁अभियानको	-8012
▁क्षेत्री	-8013
▁चालू	-8014
ुअ	-8015
गं	-8016
▁रोहित	-8017
▁सक्दछ	-8018
▁लिम्बू	-8019
▁प्रचण्डलाई	-8020
▁सेन्ट	-8021
▁इन्चार्ज	-8022
▁गै	-8023
धनको	-8024
लेखा	-8025
▁आउँदो	-8026
▁बागलुङ	-8027
सय	-8028
▁युएई	-8029
▁रुपैया	-8030
▁२०१४	-8031
▁हालेर	-8032
▁हिरो	-8033
▁तीर्थ	-8034
▁उनीसँग	-8035
▁नसकेपछि	-8036
फेर	-8037
▁बाधा	-8038
विक्रम	-8039
▁मुद्दाको	-8040
▁कुरो	-8041
▁घटाउन	-8042
▁व्यवस्थाको	-8043
▁अन्यथा	-8044
▁उपन्यास	-8045
▁मध्यनजर	-8046
खल	-8047
प्रदान	-8048
र्मो	-8049
▁मुआ	-8050
▁रक्सी	-8051
▁धेरैको	-8052
▁महामारीका	-8053
एला	-8054
▁सफाइ	-8055
▁विमानस्थलको	-8056
▁चाइ	-8057
▁जोन	-8058
▁समक्ष	-8059
▁भय	-8060
▁सल्यान	-8061
▁आईपी	-8062
▁लम्ब	-8063
▁छोरीको	-8064
▁बिदेश	-8065
▁जुलाई	-8066
▁छुट्टा	-8067
▁हदसम्म	-8068
▁बसे	-8069
तर्फी	-8070
▁पछ्या	-8071
▁अरुलाई	-8072
▁पुनराव	-8073
▁पत्राचार	-8074
▁प्रकृतिको	-8075
ेन्सी	-8076
▁२०२१	-8077
▁दीपेन्द्र	-8078
▁धमाधम	-8079
▁बिरा	-8080
▁कोट	-8081
▁बिशेष	-8082
▁दार्चु	-8083
▁दोब्बर	-8084
▁बेलायती	-8085
▁नसक्नु	-8086
▁गठबन्धनका	-8087
▁कार्यक्रमहरु	-8088
▁आर्	-8089
ालिटी	-8090
▁मन्त्रिपरिषद्को	-8091
लिपि	-8092
जस्ती	-8093
▁वेला	-8094
▁ढुक्क	-8095
▁निर्देशनमा	-8096
▁विश्वविद्यालयको	-8097
▁हुदा	-8098
▁गतेबाट	-8099
▁सुनसरी	-8100
▁कहिलेकाहीँ	-8101
ंगु	-8102
▁माह	-8103
ृंखला	-8104
▁त्रास	-8105
▁शर्माको	-8106
▁रुपैयाँसम्म	-8107
▁समस्यालाई	-8108
▁राज्यमन्त्री	-8109
▁बढाएर	-8110
▁सिंगो	-8111
▁बेच्ने	-8112
▁अनुशासन	-8113
▁बल्	-8114
योर्क	-8115
▁तिनको	-8116
▁गरेनन्	-8117
▁नाघ	-8118
▁गठित	-8119
▁सुमन	-8120
▁हङकङ	-8121
▁गित	-8122
▁ब्ल	-8123
▁एक्का	-8124
▁हुँदाहुँदै	-8125
▁लड्न	-8126
▁चाडपर्व	-8127
▁दायरामा	-8128
▁बढेपछि	-8129
मोहन	-8130
▁बन्दी	-8131
▁कान्तिपुर	-8132
▁कार्यान्वयनका	-8133
फ्तार	-8134
▁नज	-8135
▁अर्जेन्	-8136
▁वस्तुको	-8137
▁अण्डा	-8138
मोर्चा	-8139
▁बाँच्न	-8140
▁चितवनमा	-8141
▁मनोरञ्जन	-8142
▁नत्र	-8143
▁एनसेल	-8144
▁लगेको	-8145
▁सिंगा	-8146
▁इम	-8147
▁नेवि	-8148
▁गभर्नर	-8149
▁कुराहरू	-8150
▁खेलबाट	-8151
▁रायमा	-8152
▁विश्वस	-8153
ठ्	-8154
िकै	-8155
▁विभाजित	-8156
▁समुदायलाई	-8157
ट्र	-8158
▁एपीएफ	-8159
▁केदार	-8160
▁वृत्त	-8161
▁शिकार	-8162
▁परिकल्पना	-8163
पास	-8164
▁भ्रमणका	-8165
दले	-8166
▁संगै	-8167
▁लडाइँ	-8168
बन	-8169
▁चुप	-8170
मशेर	-8171
▁छाड्ने	-8172
▁तुरुन्तै	-8173
▁हैसियत	-8174
▁चिन्ति	-8175
▁उपाध्यक्षमा	-8176
▁आद	-8177
▁फ्रि	-8178
▁लाइफ	-8179
▁कोषको	-8180
▁संस्थापन	-8181
▁विश्वकर्मा	-8182
▁साहित्यिक	-8183
▁संस्कृतिको	-8184
▁दबाव	-8185
▁सर्भि	-8186
कालिन	-8187
ढुंगा	-8188
▁बेहो	-8189
▁कार्यान्वयनको	-8190
जिट	-8191
▁फर्कने	-8192
केश	-8193
▁भेटिएका	-8194
▁बेड	-8195
डल	-8196
▁छात्रवृत्ति	-8197
चाई	-8198
त्तम	-8199
▁खोजे	-8200
▁भन्नुभएको	-8201
▁लघुवित्त	-8202
▁उही	-8203
▁भाइरल	-8204
▁बाहिरबाट	-8205
▁कैदी	-8206
▁सहरी	-8207
▁दिपक	-8208
▁आवासीय	-8209
चानक	-8210
चिएको	-8211
बहिनी	-8212
▁चिन्तित	-8213
ंगे	-8214
▁खग	-8215
वर्ती	-8216
▁भवनको	-8217
▁स्पष्टीकरण	-8218
▁मापन	-8219
▁निद्रा	-8220
▁प्रतिशतसम्म	-8221
छिन	-8222
टिले	-8223
निएको	-8224
▁क्लबले	-8225
▁८७	-8226
▁खाँ	-8227
▁चिना	-8228
▁अपाङ्गता	-8229
▁टोलीको	-8230
म्पा	-8231
्र्या	-8232
▁त्यसमाथि	-8233
जति	-8234
▁खोटा	-8235
▁अपनाउन	-8236
▁सोधे	-8237
▁हाउस	-8238
▁बढीको	-8239
▁अन्तरगत	-8240
▁साधारणसभा	-8241
साको	-8242
हानी	-8243
▁कुरै	-8244
कर्मीले	-8245
▁प्रस्ट	-8246
▁डोल्पा	-8247
▁गौरी	-8248
▁आंशिक	-8249
▁रोनाल्डो	-8250
▁अर्जेन्टि	-8251
▁महिनावारी	-8252
▁जंगल	-8253
▁कमाउने	-8254
▁लोभ	-8255
▁भनिने	-8256
▁तेज	-8257
नेश्वर	-8258
▁भुमिका	-8259
भावना	-8260
▁जवान	-8261
राहा	-8262
▁फुल	-8263
▁बक्स	-8264
▁शोषण	-8265
स्वर	-8266
स्फोट	-8267
त्रीले	-8268
▁अदालतका	-8269
▁प्रसिद्ध	-8270
िएर	-8271
धनी	-8272
फिल्	-8273
▁गाउँको	-8274
▁बनाउनका	-8275
▁रक्तचाप	-8276
▁शताब्दी	-8277
▁प्रदर्शनी	-8278
▁प्रधानाध्यापक	-8279
▁इमेल	-8280
▁त्यहि	-8281
बको	-8282
▁उक्	-8283
▁सहमतिको	-8284
▁१९७	-8285
▁रसुवा	-8286
▁किन्ने	-8287
▁गृहकार्य	-8288
▁माउ	-8289
▁साइट	-8290
▁निवर्तमान	-8291
▁अर्थतन्त्रको	-8292
त्यो	-8293
▁कष्ट	-8294
▁हिमालय	-8295
सेर	-8296
▁अवलम्बन	-8297
▁मुआब्जा	-8298
▁सिद्धार्थ	-8299
ुरे	-8300
▁निमा	-8301
▁एन्टि	-8302
▁माथिको	-8303
▁अर्काे	-8304
▁समाचारमा	-8305
धाई	-8306
▁चिज	-8307
▁सचेतना	-8308
▁कमला	-8309
▁अचानक	-8310
▁लगाउँदै	-8311
▁ल्याउनु	-8312
तेर	-8313
▁द्वारा	-8314
▁क्वारेन्ट	-8315
▁८३	-8316
▁नलाग्ने	-8317
प्न	-8318
▁मौद्रिक	-8319
▁जर्मनी	-8320
ठूला	-8321
टाएको	-8322
▁हितमा	-8323
▁परिचयपत्र	-8324
गाईं	-8325
▁८६	-8326
▁उसका	-8327
▁प्रजातान्त्रिक	-8328
मिर	-8329
ारेन्	-8330
▁बेच्न	-8331
ँु	-8332
लिस	-8333
▁फौज	-8334
▁कलेजमा	-8335
▁वातावरणीय	-8336
क्ताको	-8337
▁समाजलाई	-8338
तालिका	-8339
▁घोराही	-8340
▁निकाल्	-8341
▁विश्वकै	-8342
▁उपराष्ट्रपति	-8343
ंकी	-8344
िकन	-8345
▁सुन्ने	-8346
▁दोहोर्या	-8347
▁पुरै	-8348
▁अर्थमा	-8349
विपरीत	-8350
▁डिग्री	-8351
▁अभियन्ता	-8352
धमा	-8353
फ्र	-8354
२०७	-8355
▁पदका	-8356
▁परिमाण	-8357
▁फर्केर	-8358
कोभिड	-8359
▁व्रत	-8360
ताल	-8361
नियम	-8362
▁नगरि	-8363
▁इला	-8364
श्चर्य	-8365
ण्डी	-8366
त्रि	-8367
▁इन्ड	-8368
▁गाँउ	-8369
▁सोधि	-8370
बुल	-8371
▁उम्मेदवारको	-8372
▁नसकिएको	-8373
चल	-8374
▁अब्	-8375
▁जथा	-8376
▁मिलाउने	-8377
मन्त्रालय	-8378
▁सांसदहरुले	-8379
▁असहज	-8380
▁इलेक्ट	-8381
▁सावधान	-8382
राजनीतिक	-8383
▁बालक	-8384
ानले	-8385
▁सबभन्दा	-8386
▁काउन्सिल	-8387
▁छेउ	-8388
▁राख्दा	-8389
▁शरीरलाई	-8390
डका	-8391
▁राख्छ	-8392
▁गर्व	-8393
▁पश्चिमी	-8394
▁नआएको	-8395
▁युवालाई	-8396
▁चिर	-8397
▁निरु	-8398
▁प्रस्तावमा	-8399
म्भव	-8400
▁कामहरु	-8401
तीन	-8402
▁पल	-8403
▁प्रमो	-8404
▁ग्राहकले	-8405
▁खुलेर	-8406
▁जबकि	-8407
▁दसैं	-8408
▁च्यानल	-8409
▁मधुमेह	-8410
ेरिय	-8411
▁बाम	-8412
▁छोराको	-8413
▁झल	-8414
थिन्	-8415
नान्स	-8416
▁श्वास	-8417
स्त्री	-8418
▁मङ्गल	-8419
▁वैचारिक	-8420
वली	-8421
▁शनिवार	-8422
▁सक्नुहु	-8423
लाय	-8424
▁कथ	-8425
न्डा	-8426
▁भेन्	-8427
▁नारायणी	-8428
ौता	-8429
▁रायमाझ	-8430
▁नेपालकै	-8431
▁मेलम्ची	-8432
वालले	-8433
▁हेलि	-8434
▁जनचेत	-8435
▁मानन्ध	-8436
ङ्का	-8437
▁मिर्गौला	-8438
▁आति	-8439
▁चलखेल	-8440
▁व्यवसायीको	-8441
राज्य	-8442
▁दाजुभाइ	-8443
▁प्रज्ञा	-8444
▁अग्लो	-8445
▁डीएसपी	-8446
▁आश्चर्य	-8447
▁अवस्थालाई	-8448
िती	-8449
▁धादिङ	-8450
▁भेटेर	-8451
▁नुन	-8452
▁वाल	-8453
▁शोध	-8454
▁हुला	-8455
संरचना	-8456
▁लागतमा	-8457
▁साँच्चै	-8458
तेको	-8459
▁अपमान	-8460
▁निर्माणाधीन	-8461
▁विश्वस्त	-8462
▁फार	-8463
▁लड्ने	-8464
▁दिशामा	-8465
▁असं	-8466
▁पेनाल्	-8467
▁बराल	-8468
▁ड्राइ	-8469
▁चुक्ता	-8470
▁समेटेर	-8471
▁बनाउनुपर्छ	-8472
▁गैरसरकारी	-8473
जुमा	-8474
ड्स	-8475
▁घुमा	-8476
▁ब्रेक	-8477
▁क्वारेन्टाइनमा	-8478
▁सहिद	-8479
▁मानिसमा	-8480
▁सँगसँगै	-8481
▁झैं	-8482
▁सिद्ध	-8483
▁विषयको	-8484
▁नेतालाई	-8485
▁महानिरीक्षक	-8486
छन	-8487
▁ट्रक	-8488
अगा	-8489
▁दास	-8490
▁नगर्दा	-8491
▁मुना	-8492
▁सप्तरी	-8493
▁सन्तुष्ट	-8494
करणको	-8495
▁लैजा	-8496
▁उठ्ने	-8497
▁अभियुक्त	-8498
▁पुरस्कृत	-8499
▁रही	-8500
▁आर्मी	-8501
▁टेस्ट	-8502
▁साधनको	-8503
▁अध्ययनका	-8504
▁संकटमा	-8505
▁गुरुङको	-8506
▁मही	-8507
▁आफ्नी	-8508
▁देउवाको	-8509
चालित	-8510
ङ्ग्रेस	-8511
▁खोजीमा	-8512
▁खाल्	-8513
▁लाग्थ्यो	-8514
डक	-8515
▁खानपान	-8516
▁सुन्दा	-8517
▁दिइरहेका	-8518
नाक	-8519
▁विश्वविद्यालयका	-8520
चौर	-8521
इन्ट	-8522
▁बरिष्ठ	-8523
▁सन्दीप	-8524
▁पुस्तकाल	-8525
▁गर्द	-8526
लेन्द्र	-8527
▁उपकुलपति	-8528
▁जनआन्दोल	-8529
लार्इ	-8530
▁खसेको	-8531
▁९२	-8532
▁पाएँ	-8533
▁नभएसम्म	-8534
▁गम्	-8535
ङ्गे	-8536
▁फेब्र	-8537
▁कमिटीको	-8538
▁परीक्षामा	-8539
त्रै	-8540
▁हुदैन	-8541
▁परिरहेको	-8542
▁मृत्युको	-8543
▁चाँडो	-8544
▁परिसरमा	-8545
▁पुनरा	-8546
▁देखिएन	-8547
▁संलग्नता	-8548
▁हर्क	-8549
▁नाकाबन्दी	-8550
गाह	-8551
वर्ग	-8552
वासीले	-8553
▁मर्यादा	-8554
▁कञ्चनपुर	-8555
▁विद्यादेवी	-8556
▁अना	-8557
▁पराजुली	-8558
▁जिल्लाबाट	-8559
▁खाजा	-8560
म्बरमा	-8561
▁कलाकारको	-8562
▁मन्त्रालयलाई	-8563
दमा	-8564
▁उपमेयर	-8565
▁सेवाका	-8566
▁सरि	-8567
▁एजेन्डा	-8568
▁निर्मला	-8569
▁सरोज	-8570
▁अरुको	-8571
▁सार्वभौम	-8572
▁अध्यक्षको	-8573
▁प्रतिशतभन्दा	-8574
ग्ध	-8575
▁एशो	-8576
▁पर्छन्	-8577
▁दृष्टिले	-8578
दिप	-8579
सिन	-8580
▁समापन	-8581
▁अट	-8582
१७	-8583
योजित	-8584
▁भान्	-8585
▁तोडफोड	-8586
▁युरोपेली	-8587
▁बन्नु	-8588
▁गरिदिएको	-8589
▁महिनाअघि	-8590
▁नेदर	-8591
▁संयोजन	-8592
▁७९	-8593
सनले	-8594
▁हेल्थ	-8595
▁स्तरको	-8596
▁चाहिएको	-8597
मध्य	-8598
▁पल्	-8599
▁हिड	-8600
▁बुझेर	-8601
▁स्थाय	-8602
▁कानुनको	-8603
नर	-8604
▁भेद	-8605
▁सकिन्न	-8606
▁पाउनुपर्ने	-8607
▁धरा	-8608
▁वरपर	-8609
▁आशि	-8610
▁अव्य	-8611
▁अवतरण	-8612
र्दन	-8613
▁बसन्त	-8614
▁दुनियाँ	-8615
▁लाम	-8616
▁रिसो	-8617
नुपर्दा	-8618
▁चाहा	-8619
▁लम्स	-8620
▁नेपालीहरु	-8621
चारु	-8622
▁जबर	-8623
▁तपाईलाई	-8624
▁टोलीका	-8625
लय	-8626
▁९६	-8627
▁वान	-8628
नेट	-8629
▁अग्नि	-8630
▁हजारको	-8631
▁९३	-8632
▁मान्	-8633
्ट	-8634
▁बहुम	-8635
▁एकाएक	-8636
▁बित्तिकै	-8637
▁चारै	-8638
▁विवादित	-8639
सकै	-8640
▁हुनुभएको	-8641
▁जिते	-8642
▁रकमको	-8643
▁ठाउँबाट	-8644
▁सन्तुलित	-8645
▁सकेर	-8646
हना	-8647
▁मर	-8648
▁पठाएका	-8649
▁जीवनशैली	-8650
▁प्रयोगशाला	-8651
▁ताजा	-8652
▁निष्कास	-8653
▁मिच	-8654
▁मोडेल	-8655
▁कमाएको	-8656
▁पोज	-8657
निएका	-8658
राजा	-8659
▁विर	-8660
श्याम	-8661
▁मूल्याङ्कन	-8662
पारी	-8663
▁विवा	-8664
▁सरस्वती	-8665
▁मन्दिरको	-8666
▁पर्यटकलाई	-8667
▁नेपालीहरुको	-8668
▁ः	-8669
पोत	-8670
▁आउँदैन	-8671
इड	-8672
▁बोट	-8673
▁बुटव	-8674
▁लोग	-8675
▁सरा	-8676
▁राहदानी	-8677
▁एकदम	-8678
▁तिमिल्	-8679
▁आवतजा	-8680
किम	-8681
▁मेस्	-8682
स्वरुप	-8683
▁परिवर्तनका	-8684
विरोध	-8685
▁हिमालयन	-8686
▁भण्डारीको	-8687
▁रङ्ग	-8688
▁वर्षौं	-8689
▁हिरासतमा	-8690
▁बेल्ज	-8691
▁सचिवालयले	-8692
▁पुनःनिर्माण	-8693
ताप	-8694
ग्लै	-8695
▁उजा	-8696
रोप	-8697
▁जिन्दगी	-8698
▁मंसि	-8699
▁गर्नुपर्दछ	-8700
रानी	-8701
▁ज्याला	-8702
ँची	-8703
स्टार	-8704
▁आजसम्म	-8705
ाल्न	-8706
हिबार	-8707
▁१९८	-8708
लम	-8709
१४	-8710
िला	-8711
न्जेल	-8712
▁प्यारा	-8713
▁बुहारी	-8714
▁दिइरहेको	-8715
▁कार्यकालमा	-8716
▁नेताहरुलाई	-8717
सरी	-8718
▁ठूल	-8719
▁बाब	-8720
▁सम्पादक	-8721
ूरो	-8722
▁मेहनत	-8723
▁फाउन्ड	-8724
▁स्नातक	-8725
र्वेद	-8726
▁बस्तीमा	-8727
▁पीसीआर	-8728
▁अवश्य	-8729
▁काटेर	-8730
▁सहारा	-8731
▁सवालमा	-8732
▁अहिलेका	-8733
▁भैसकेको	-8734
▁छैट	-8735
▁बधाई	-8736
▁कोइरालाको	-8737
▁निर्देशित	-8738
▁हालतमा	-8739
▁रामेछाप	-8740
▁बढेका	-8741
▁राईको	-8742
▁मुद्धा	-8743
पुर्ण	-8744
▁देखेपछि	-8745
▁किनारमा	-8746
▁रवी	-8747
▁नन्द	-8748
▁दुर्व	-8749
▁आइपुग्दा	-8750
▁ट्याक्सी	-8751
▁तुलना	-8752
समी	-8753
ँदो	-8754
याधि	-8755
▁दाल	-8756
▁भुसाल	-8757
▁मोहम्मद	-8758
▁साथीहरु	-8759
तिय	-8760
▁देखाएका	-8761
▁गरौँ	-8762
▁बस्तु	-8763
▁हाल्ने	-8764
महि	-8765
▁माल्	-8766
गान	-8767
▁अस्व	-8768
▁सुशा	-8769
▁प्राइ	-8770
▁पालन	-8771
▁पेसा	-8772
▁भरपर्	-8773
▁भारतलाई	-8774
▁शाहको	-8775
▁भूकम्पले	-8776
▁२०६४	-8777
▁तिनका	-8778
▁सावित	-8779
▁घण्टामा	-8780
च्य	-8781
क्षे	-8782
▁सतर्कता	-8783
▁काठमाडौंबाट	-8784
व्यवस्था	-8785
टाइन	-8786
▁नया	-8787
▁घर्ती	-8788
▁भनेकै	-8789
▁मोदीले	-8790
▁सिनियर	-8791
▁यसबाहेक	-8792
▁निर्देशनालय	-8793
▁डिल्ली	-8794
▁वर्षभन्दा	-8795
१३	-8796
घ्र	-8797
▁मजब	-8798
▁मामि	-8799
▁दुईजना	-8800
▁विपक्षमा	-8801
▁९७	-8802
▁शरणार्थी	-8803
▁आश्रम	-8804
▁समेटिएको	-8805
▁महाअभि	-8806
▁योजनाको	-8807
▁म्याच	-8808
▁निशुल्क	-8809
▁झरेको	-8810
▁लाइनमा	-8811
▁अर्कोतर्फ	-8812
रिय	-8813
▁एभर	-8814
▁उपसभापति	-8815
डेट	-8816
▁चुनौति	-8817
▁डिसेम्बर	-8818
सम्प	-8819
▁औंल्या	-8820
खी	-8821
▁टावर	-8822
▁देउवालाई	-8823
▁केन्द्रबाट	-8824
▁तिनीहरू	-8825
निका	-8826
▁स्थलगत	-8827
धारी	-8828
▁बोलि	-8829
ष्ठा	-8830
▁तोकि	-8831
▁जीवित	-8832
▁हिन्दी	-8833
▁ब्राण्ड	-8834
▁छिर	-8835
▁कांग्रेसलाई	-8836
▁कार्यक्रमले	-8837
▁असारमा	-8838
▁दुर्गम	-8839
▁मङ्सिर	-8840
पनको	-8841
मानको	-8842
▁छेउमा	-8843
▁पसलमा	-8844
▁महतले	-8845
▁घटाउने	-8846
▁हेर्दै	-8847
▁प्रणालीलाई	-8848
▁आमालाई	-8849
▁माफी	-8850
▁सास	-8851
प्रेर	-8852
▁व्यवसायीलाई	-8853
▁नक्	-8854
▁परीक्षणका	-8855
▁व्यवस्थापक	-8856
फिया	-8857
प्रेस	-8858
▁पेरि	-8859
▁बाग्	-8860
▁टोलीलाई	-8861
▁बोर्डको	-8862
▁खर्चको	-8863
▁उमा	-8864
▁नाग	-8865
ालीको	-8866
▁मसँग	-8867
▁रावलले	-8868
▁सहकारीको	-8869
▁मस्	-8870
▁शाक्यले	-8871
▁बोर्डका	-8872
▁मन्त्रीले	-8873
▁यात	-8874
ग्रहण	-8875
▁माग्न	-8876
▁दर्शकको	-8877
▁सञ्चालनको	-8878
▁दुव	-8879
▁इमान	-8880
मगर	-8881
▁लोडसे	-8882
▁जान्छन्	-8883
सकेकी	-8884
ालीमा	-8885
▁क्याम	-8886
▁खुल्ने	-8887
▁मल्लले	-8888
▁निशा	-8889
▁फ्यान	-8890
▁बिर्स	-8891
▁क्यामेरा	-8892
▁महाधिवेशनको	-8893
एनए	-8894
▁घिसि	-8895
▁२०७०	-8896
▁छापा	-8897
▁मेट्रिक	-8898
▁सिलसिलामा	-8899
▁एजेन्ट	-8900
▁खुम्	-8901
▁क्लिक	-8902
मानमा	-8903
▁बसपार्क	-8904
ंगीतिक	-8905
▁माग्ने	-8906
▁निकायका	-8907
▁नवलपरासी	-8908
डब	-8909
▁हुनुहु	-8910
चिलो	-8911
▁बताइन्छ	-8912
ब्रे	-8913
रलाई	-8914
▁बाजु	-8915
▁रोका	-8916
द्धारा	-8917
▁त्यसमध्ये	-8918
▁महोत्सवमा	-8919
▁रोड	-8920
▁लिगको	-8921
▁इजरायल	-8922
▁जवाफदे	-8923
▁पोर्चु	-8924
▁होस	-8925
▁ढाँचा	-8926
▁भित्रै	-8927
▁चिकित्सकले	-8928
▁सेप्टेम्बर	-8929
▁कार्यकर्तालाई	-8930
▁गरिनु	-8931
▁देखाउँदै	-8932
▁किनेर	-8933
▁खाएको	-8934
▁दायरा	-8935
▁तिर्ने	-8936
▁देख्ने	-8937
▁काङ्ग्रेस	-8938
▁करार	-8939
▁सवार	-8940
वस्थित	-8941
▁सहरमा	-8942
▁अन्योल	-8943
▁मेलमिला	-8944
▁गोष्ठ	-8945
▁गाउँले	-8946
वीच	-8947
भएको	-8948
रहेकै	-8949
▁अन्र्त	-8950
हीं	-8951
सेना	-8952
▁भावी	-8953
न्मुख	-8954
▁सुनार	-8955
▁बाक्लो	-8956
▁प्रदेशले	-8957
▁प्रभा	-8958
▁प्रेमी	-8959
it	-8960
▁उर्	-8961
स्पति	-8962
▁टेवा	-8963
प्रदेश	-8964
▁संकल्प	-8965
▁नभइ	-8966
नबाट	-8967
▁खाडी	-8968
▁वकिल	-8969
▁मेलामा	-8970
▁दलहरूले	-8971
▁जाम	-8972
▁मिलियन	-8973
▁हराउँदै	-8974
▁जथाभावी	-8975
▁भुसालले	-8976
▁सांगीतिक	-8977
▁स्थायित्व	-8978
▁बालुवाटारमा	-8979
▁अछाम	-8980
▁काभ्रे	-8981
▁समयपछि	-8982
▁नेविसंघ	-8983
▁गफ	-8984
छुट्	-8985
रास्व	-8986
▁उतार	-8987
▁भदौमा	-8988
▁बजेतिर	-8989
लामी	-8990
▁सिलव	-8991
▁शाखाका	-8992
टेको	-8993
ितीय	-8994
▁नमि	-8995
▁स्वाब	-8996
▁भरिएको	-8997
▁रेग्मीले	-8998
▁यसकारण	-8999
▁भ्रमणको	-9000
▁पार्टीबाट	-9001
▁मुलुकले	-9002
▁लकडाउनको	-9003
जाँच	-9004
▁हेर्नु	-9005
▁भइसक्यो	-9006
▁संगठनले	-9007
सपा	-9008
▁शीर्षकमा	-9009
re	-9010
▁साम्राज्य	-9011
▁यकिन	-9012
बुटी	-9013
▁थियौँ	-9014
▁सबैमा	-9015
▁व्यवस्थामा	-9016
▁८१	-9017
▁घाउ	-9018
▁देवकोटा	-9019
▁संरचनामा	-9020
▁इण्ड	-9021
▁थालि	-9022
▁फोक्	-9023
▁विन्दु	-9024
▁ओपन	-9025
▁दुर्व्य	-9026
▁निष्कर्षमा	-9027
▁जनवरी	-9028
▁खोजेका	-9029
▁जवाफमा	-9030
▁कार्कीको	-9031
नायक	-9032
▁प्रे	-9033
▁पार्टन	-9034
▁महालेखा	-9035
कू	-9036
िनले	-9037
▁जसो	-9038
▁अराज	-9039
▁कारबाहीको	-9040
▁शत	-9041
प्रेषण	-9042
▁तथापि	-9043
▁प्रसा	-9044
▁पानीले	-9045
▁सेनाका	-9046
पल	-9047
▁ग्री	-9048
▁मिसा	-9049
▁प्रयोजनका	-9050
▁यम	-9051
▁यादवको	-9052
▁घोषणापत्र	-9053
▁तिर्नुपर्ने	-9054
▁थालनी	-9055
▁प्रयासमा	-9056
▁थापालाई	-9057
▁वार्तामा	-9058
ारेन्टी	-9059
▁गर्दैछन्	-9060
▁आत्मविश्वास	-9061
बेल	-9062
▁प्रतिष्ठा	-9063
पेट	-9064
नाल्ड	-9065
▁भेरी	-9066
▁हिँड्ने	-9067
याउन	-9068
▁साउथ	-9069
▁छाडेको	-9070
▁तिमीलाई	-9071
▁नहुन	-9072
▁तहलाई	-9073
▁बलात्	-9074
▁बढाउँछ	-9075
▁पदमार्ग	-9076
▁खल	-9077
▁सक्छु	-9078
▁छोरीलाई	-9079
▁उहाँहरुले	-9080
▁सिरिज	-9081
▁महासङ्घ	-9082
रक	-9083
▁पदम	-9084
▁वैशाखमा	-9085
▁भुटान	-9086
▁सम्बद्ध	-9087
▁आगमन	-9088
▁माला	-9089
▁कसलाई	-9090
▁अँ	-9091
▁उठ्न	-9092
▁ट्रेल	-9093
▁प्रतिशतको	-9094
▁गर्नुपर्नेछ	-9095
न्समा	-9096
▁झापाको	-9097
▁सुन्तला	-9098
उनी	-9099
▁छठ	-9100
▁लगाउ	-9101
क्षेपण	-9102
▁वेद	-9103
▁बदलि	-9104
▁स्थलमा	-9105
▁स्वीका	-9106
▁कार्यको	-9107
▁मन्त्रीको	-9108
स्पो	-9109
▁क्ल	-9110
▁२०८१	-9111
▁पाइयो	-9112
▁जीत	-9113
▁वेबसाइट	-9114
▁कामदारको	-9115
्याएर	-9116
▁प्रियंका	-9117
पिङ	-9118
सायनिक	-9119
▁मगरले	-9120
▁मुम्बई	-9121
▁रिसोर्ट	-9122
▁जानुपर्छ	-9123
▁८९	-9124
▁खाँदा	-9125
▁स्मार्टफोन	-9126
▁तर्जुमा	-9127
▁सङ्घर्ष	-9128
▁उठेर	-9129
▁पुलको	-9130
▁ल्याए	-9131
▁पुस्तकमा	-9132
▁अन्तर्गतको	-9133
▁कार्यकर्ताले	-9134
कप	-9135
▁शिल्	-9136
▁पृथ्व	-9137
▁ताम	-9138
थोक	-9139
▁मड	-9140
▁झोला	-9141
दिनु	-9142
▁लैज	-9143
▁ब्यवसाय	-9144
ख्यक	-9145
▁गरेकै	-9146
▁पोजेटिभ	-9147
▁सुचारु	-9148
▁आयुर्वेद	-9149
▁वामपन्थी	-9150
▁कफी	-9151
▁डेंगु	-9152
गुन	-9153
▁भरो	-9154
▁विविधता	-9155
▁व्यायाम	-9156
▁सडकखण्ड	-9157
▁!'	-9158
▁जनमोर्चा	-9159
जुद	-9160
प्स	-9161
▁कोण	-9162
▁चिन्ह	-9163
▁पदबाट	-9164
▁गरिदिन	-9165
▁वैधानिक	-9166
▁प्रक्षेपण	-9167
▁उठाइ	-9168
▁ब्यान	-9169
▁गर्दैनन्	-9170
ब्लु	-9171
▁खोलेर	-9172
▁अनेरास्व	-9173
▁विभागीय	-9174
ेन्डर	-9175
▁व्यक्तिहरु	-9176
▁उपवि	-9177
▁ठक्कर	-9178
बुद्ध	-9179
▁बिति	-9180
▁ताली	-9181
▁गम्भिर	-9182
▁बेर	-9183
क्षकको	-9184
▁पिसाब	-9185
▁सार्थ	-9186
▁बिन्दु	-9187
▁कीर्तिमान	-9188
▁गाडीको	-9189
काठमाडौं	-9190
▁उद्योगले	-9191
▁नोक्सानी	-9192
काएको	-9193
▁क्यास	-9194
▁टुक्रा	-9195
▁इमान्दार	-9196
ऊँ	-9197
ग्ग	-9198
छुट्टै	-9199
▁महसुल	-9200
▁रिजाल	-9201
▁भनिएका	-9202
▁घनश्याम	-9203
▁स्तरोन्नति	-9204
▁घटनास्थल	-9205
१८	-9206
▁निकायलाई	-9207
र्तामो	-9208
▁बताउने	-9209
▁खानेपानीको	-9210
▁प्रमाणीकरण	-9211
▁एकसाथ	-9212
▁पार्छ	-9213
▁विस्फोट	-9214
▁१९६	-9215
स्तरको	-9216
▁पोख्र	-9217
▁बढीमा	-9218
▁जता	-9219
▁नचाह	-9220
▁उपसचिव	-9221
▁उदार	-9222
▁सुधा	-9223
▁स्तन	-9224
▁चार्ज	-9225
▁ल्याब	-9226
▁स्पेन	-9227
▁प्रमुखको	-9228
पर्क	-9229
▁समन्वयमा	-9230
ीन	-9231
ुग	-9232
र्छ	-9233
▁मुखमा	-9234
▁बुझेको	-9235
▁चापा	-9236
▁दिनमै	-9237
▁लिँदै	-9238
▁याताया	-9239
▁बोलाएको	-9240
▁अमेरिकाका	-9241
▁उन्मुक्ति	-9242
▁विरुद्धमा	-9243
ल्ली	-9244
▁पालामा	-9245
▁पटकको	-9246
▁९४	-9247
र्सले	-9248
▁मतगणना	-9249
▁विगतको	-9250
▁स्टोर	-9251
▁नह	-9252
▁घेरा	-9253
▁आँखामा	-9254
▁प्रदायक	-9255
▁अभियोगमा	-9256
▁संचालनमा	-9257
▁अमृत	-9258
▁झलनाथ	-9259
भेट	-9260
▁प्रतिशतमा	-9261
डेल्	-9262
याले	-9263
▁संशोधनको	-9264
टरको	-9265
नेता	-9266
▁तालि	-9267
▁उत्खन	-9268
▁घे	-9269
▁बोकेका	-9270
▁दाम	-9271
▁व्यवस्थापिका	-9272
अन	-9273
दिएका	-9274
▁भारु	-9275
दश	-9276
साथै	-9277
▁असमान	-9278
▁सम्ममा	-9279
▁कार्यसम्पादन	-9280
अघ	-9281
हाङ	-9282
▁हनु	-9283
▁सुनेर	-9284
▁भईरहेको	-9285
▁शिक्षकको	-9286
▁मेरी	-9287
▁लिभर	-9288
▁महादेव	-9289
▁डोनाल्ड	-9290
ोमा	-9291
▁बाह्र	-9292
▁फेब्रुअ	-9293
▁रेमिट्यान्स	-9294
्रैमा	-9295
▁अधिकारीलाई	-9296
▁दमन	-9297
▁फाउण्ड	-9298
▁समानता	-9299
▁हेरफेर	-9300
▁रहेकोमा	-9301
▁घट्दै	-9302
▁सोच्न	-9303
बित्तिकै	-9304
▁नामावली	-9305
र्ख	-9306
▁छोरो	-9307
▁श्रेष्ठलाई	-9308
डले	-9309
हार्य	-9310
▁अनुभ	-9311
▁पीडितलाई	-9312
▁बिग	-9313
▁गच्छ	-9314
▁दरमा	-9315
▁पाएर	-9316
▁आपसमा	-9317
▁कालोपत्रे	-9318
▁अत्याधुनिक	-9319
आईजी	-9320
▁प्रोट	-9321
▁भइसकेपछि	-9322
▁महंगो	-9323
▁हुनेको	-9324
जंग	-9325
▁तिहाइ	-9326
▁घटनाले	-9327
▁भ्रष्ट	-9328
▁युवाको	-9329
▁प्रथा	-9330
▁दण्ड	-9331
▁उपत्यकाका	-9332
लान	-9333
▁सुख्	-9334
▁निश्च	-9335
▁अदालतबाट	-9336
▁द्	-9337
▁आरोपित	-9338
▁भूमिगत	-9339
▁अभियानका	-9340
न्च	-9341
राखेको	-9342
▁टिमका	-9343
▁हटाएर	-9344
▁समूहलाई	-9345
▁सेक	-9346
▁गिराव	-9347
▁चिकित्सकको	-9348
▁महानगरपालिकाका	-9349
▁आइसकेको	-9350
▁सांसदको	-9351
▁बेलायतमा	-9352
▁गर्नुपरेको	-9353
▁उठाएर	-9354
▁खाँचो	-9355
▁९१	-9356
▁चोर	-9357
▁दायाँ	-9358
▁उमेरका	-9359
▁आन्दोलनलाई	-9360
▁शेखर	-9361
▁जिज्ञासा	-9362
▁सुनुवाई	-9363
ेडि	-9364
▁भनिए	-9365
▁ब्रह्	-9366
▁क्याम्पसमा	-9367
▁चुरोट	-9368
▁सिमित	-9369
▁उपाध्याय	-9370
▁पाँचौं	-9371
▁मसान्तसम्म	-9372
जुक	-9373
ृङ्ख	-9374
▁१५०	-9375
▁दिमाग	-9376
▁सभाका	-9377
सरकारले	-9378
▁सुरुवाती	-9379
▁गर्नसक्ने	-9380
▁सुरक्षामा	-9381
पुले	-9382
▁मृग	-9383
▁झाले	-9384
▁लेखेर	-9385
▁स्वरूप	-9386
▁समस्याका	-9387
▁हुँदैनन्	-9388
▁टाँ	-9389
र्कमा	-9390
▁जनचेतना	-9391
▁लाखभन्दा	-9392
▁सफ्टवेयर	-9393
▁बोली	-9394
▁उपमहा	-9395
▁राजनि	-9396
▁रेलमार्ग	-9397
▁होईन	-9398
▁सबैका	-9399
▁सुस्त	-9400
▁विक्री	-9401
▁सास्ती	-9402
▁निलम्बन	-9403
▁सुधारको	-9404
झैं	-9405
▁बादल	-9406
▁दूतावासले	-9407
▁असाध्य	-9408
▁गराउँछ	-9409
▁तुलनात्मक	-9410
ल्टी	-9411
▁तपाइ	-9412
▁विनाश	-9413
▁नल	-9414
कुनै	-9415
िकृत	-9416
▁किरात	-9417
▁नर्सि	-9418
▁जन्मिएका	-9419
▁ललितपुरको	-9420
▁राष्ट्रियता	-9421
▁कठोर	-9422
▁ब्याट	-9423
▁धनकुटा	-9424
▁नगरप्रमुख	-9425
▁पुग्नु	-9426
▁फोनमा	-9427
▁काउन्सि	-9428
▁गर्नुपर्यो	-9429
▁व्यवस्थालाई	-9430
▁विजे	-9431
षित	-9432
ेसि	-9433
▁टुट	-9434
▁सना	-9435
▁कठिनाइ	-9436
▁जापानमा	-9437
▁प्रक्रियालाई	-9438
▁फागुनमा	-9439
आत	-9440
▁पोशा	-9441
▁लैजानु	-9442
▁सूच	-9443
▁टिभी	-9444
▁राशि	-9445
▁ब्यक्त	-9446
▁लिनुपर्छ	-9447
▁समाजसेवी	-9448
▁व्यावहारिक	-9449
गंगा	-9450
▁रौतहट	-9451
सामु	-9452
▁बाला	-9453
▁घटनाका	-9454
▁नहर	-9455
▁गरिमा	-9456
▁सर्वसम्मत	-9457
स्प	-9458
▁लगिएको	-9459
▁एकैपटक	-9460
▁पूर्णता	-9461
मिल	-9462
रक्षा	-9463
▁रूपले	-9464
▁इन्स्योर	-9465
▁शिलान्यास	-9466
कोप्टर	-9467
▁कलेजो	-9468
▁निकासी	-9469
ेता	-9470
क्षमा	-9471
▁स्को	-9472
▁रहेकोले	-9473
डु	-9474
▁२०७१	-9475
▁सत्ताको	-9476
ic	-9477
▁चार्	-9478
▁वर्गीकरण	-9479
▁अपरिहार्य	-9480
▁सेमिफाइनलमा	-9481
हाल्छ	-9482
▁नआउने	-9483
▁कैयौं	-9484
सङ्ख्या	-9485
छी	-9486
▁नसु	-9487
▁सङ्गठ	-9488
ईन्	-9489
यत्त	-9490
ञ्जली	-9491
▁ठूलै	-9492
▁क्लबका	-9493
जेट	-9494
▁करको	-9495
मू	-9496
▁मजबुत	-9497
पत्रिका	-9498
▁स्थानको	-9499
▁आचारसंहिता	-9500
▁रेस्टुरेन्ट	-9501
▁नगरा	-9502
▁यूएई	-9503
श्मा	-9504
▁सम्झि	-9505
▁अभियानलाई	-9506
▁अनुसन्धानको	-9507
कुवा	-9508
▁नबि	-9509
▁हौँ	-9510
▁एभरे	-9511
▁पढेर	-9512
सिनाले	-9513
▁एसोसिएसन	-9514
▁प्रस्थान	-9515
▁बदर	-9516
▁सता	-9517
▁उमेश	-9518
▁प्रतिकूल	-9519
ट्टि	-9520
र्जित	-9521
▁स्कुलमा	-9522
▁अनलाइनखबरलाई	-9523
वधिक	-9524
लाइनमा	-9525
र्सा	-9526
▁ठाँ	-9527
शीलता	-9528
▁गिरफ्तार	-9529
▁तुला	-9530
▁अरुले	-9531
▁बिरोध	-9532
▁सार्क	-9533
▁पूर्णरुपमा	-9534
▁बिष्ट	-9535
▁वार्ड	-9536
▁बङ्ग	-9537
भेन्ट	-9538
▁चढेर	-9539
▁दोहोरि	-9540
▁३००	-9541
▁विधामा	-9542
▁बालकृष्ण	-9543
▁असहमति	-9544
▁वातावरणमा	-9545
▁गिरिजा	-9546
▁बोलेको	-9547
▁महानगरको	-9548
▁कमै	-9549
▁सकिएन	-9550
▁वञ्चित	-9551
▁पृथ्वीनारायण	-9552
▁झाँ	-9553
▁टेलिफोन	-9554
घाखा	-9555
▁नरो	-9556
▁सक्नुपर्छ	-9557
पाले	-9558
▁सुख्खा	-9559
▁जन्मदिन	-9560
▁हेर्नुहोस्	-9561
▁बोलको	-9562
विवाह	-9563
▁जीवनका	-9564
▁सफलताको	-9565
्नुहोस्	-9566
▁जुम्ला	-9567
▁घटनालाई	-9568
▁सम्झौताको	-9569
▁दिलाउन	-9570
▁निस्कने	-9571
▁हेलिकोप्टर	-9572
▁खासमा	-9573
▁पक्की	-9574
बाल	-9575
▁यहीँ	-9576
▁लागिरहेको	-9577
ियन्स	-9578
▁लिन्छ	-9579
▁गठबन्धनले	-9580
▁नाक	-9581
पर्धा	-9582
▁थारू	-9583
▁सुचना	-9584
▁दिँदैन	-9585
▁बोलाइएको	-9586
▁संरक्षणमा	-9587
▁भाँडा	-9588
▁पंक्ति	-9589
▁धेरैलाई	-9590
▁हुँदो	-9591
▁भेग	-9592
▁एल्ब	-9593
▁बढाउनु	-9594
▁लोकसेवा	-9595
▁भनेकी	-9596
▁गहि	-9597
▁कोसिस	-9598
▁भेन्टिले	-9599
▁रोय	-9600
्रष्टा	-9601
▁उदेश्य	-9602
▁फैस	-9603
▁साइबर	-9604
▁वर्गको	-9605
▁एमालेबाट	-9606
्यौ	-9607
थोकी	-9608
ललाई	-9609
▁एसएसपी	-9610
▁पर्खाल	-9611
▁पक्षबाट	-9612
▁विश्लेषक	-9613
▁कार्यतालिका	-9614
▁त्रैमा	-9615
▁महाशाखाले	-9616
क्समा	-9617
कानुनी	-9618
▁जनसङ्ख्या	-9619
▁पदको	-9620
▁एमालेलाई	-9621
▁जमिनमा	-9622
▁जुटाउन	-9623
▁मिहिने	-9624
▁रंगशाला	-9625
▁सामग्रीको	-9626
▁छर	-9627
कलमा	-9628
▁तीज	-9629
न्सले	-9630
▁केरा	-9631
▁सेती	-9632
▁बिश्व	-9633
▁न्यायको	-9634
▁काँग्रेसका	-9635
कान्त	-9636
▁निर्णयको	-9637
धेरै	-9638
▁घरदै	-9639
▁चैतमा	-9640
▁डडेल्	-9641
▁पाएनन्	-9642
धक	-9643
▁चितवनका	-9644
▁गोक	-9645
▁घरका	-9646
▁सङ्क	-9647
▁पलायन	-9648
▁कोरियाली	-9649
▁उपस्थितिमा	-9650
▁दिल	-9651
वाटको	-9652
▁भागब	-9653
▁याम	-9654
▁मालपोत	-9655
▁गठबन्धनमा	-9656
▁न्यायपालिका	-9657
र्था	-9658
▁शोक	-9659
जग्गा	-9660
कामा	-9661
▁दूर	-9662
म्र	-9663
▁कसको	-9664
▁कर्जाको	-9665
▁व्यवहारिक	-9666
▁थन्	-9667
▁बताउनुहुन्छ	-9668
टप	-9669
▁तिरेर	-9670
▁काट्ने	-9671
▁पन्तले	-9672
▁संचालक	-9673
▁स्वास्थ्यको	-9674
हाई	-9675
▁र्य	-9676
▁कृषिमा	-9677
▁भरपर्दो	-9678
▁वायुसेवा	-9679
▁रेष्टुरेन्ट	-9680
रूद्ध	-9681
▁घट्ने	-9682
▁बेरोजगार	-9683
▁स्वायत्त	-9684
▁जाय	-9685
▁थुनामा	-9686
पीको	-9687
र्मी	-9688
▁कालापानी	-9689
▁दुरी	-9690
र्चुअल	-9691
▁ठकु	-9692
ेश्रो	-9693
▁नजाने	-9694
▁त्रुटि	-9695
▁स्वयम्	-9696
▁गुठी	-9697
▁दाँत	-9698
▁कमाउन	-9699
▁भेष	-9700
▁हाफमा	-9701
▁सिटौला	-9702
▁घरा	-9703
▁आफनो	-9704
▁यज्ञ	-9705
▁कक्षामा	-9706
▁अन्तिममा	-9707
▁चलचित्रका	-9708
▁परीक्षणको	-9709
न्दो	-9710
▁आठौं	-9711
▁एसएल	-9712
▁चन्दा	-9713
▁कर्मचारीहरु	-9714
▁२००७	-9715
▁पासपोर्ट	-9716
योजक	-9717
किङ्ग	-9718
चौलिया	-9719
▁दिनभर	-9720
कुटी	-9721
केही	-9722
▁हिसा	-9723
▁प्याले	-9724
▁गेम	-9725
▁सपथ	-9726
▁जहिले	-9727
▁अत्याधिक	-9728
▁परियोजनाको	-9729
स्टो	-9730
▁छक्का	-9731
▁ध्वस्त	-9732
▁बिद्या	-9733
▁साउनमा	-9734
▁प्लास्टिक	-9735
▁भ्रष्टाचारको	-9736
▁झन्झ	-9737
▁गुमाएको	-9738
रथ	-9739
▁दया	-9740
▁चौधरीको	-9741
▁सिफारिसमा	-9742
मोल	-9743
▁फर्किए	-9744
▁उपसभामुख	-9745
▁छापि	-9746
▁माननीय	-9747
▁अक्टोबर	-9748
▁सुग	-9749
▁लगाई	-9750
▁माहोल	-9751
▁स्वास्थ्यका	-9752
▁अजय	-9753
ारामा	-9754
जिल्ला	-9755
▁पम्प	-9756
▁एक्लो	-9757
▁चीनका	-9758
▁आफूसँग	-9759
▁हुनुका	-9760
▁मानिसहरुले	-9761
▁ट्वि	-9762
▁खुलासा	-9763
▁तिनलाई	-9764
▁मौसममा	-9765
▁घटनाक्रम	-9766
▁विद्रोही	-9767
ज्व	-9768
लिप	-9769
▁चौका	-9770
स्टे	-9771
ारीले	-9772
▁तापनि	-9773
▁संविधानसभाको	-9774
▁रस	-9775
न्दर्भिक	-9776
▁उल्लेखित	-9777
▁नीतिमा	-9778
▁उनीहरुका	-9779
▁सम्मेलनको	-9780
▁सिक्न	-9781
निर्वाचित	-9782
▁भावनात्मक	-9783
▁प्रयो	-9784
▁दुवैको	-9785
▁अफिस	-9786
▁कहीँ	-9787
▁स्टक	-9788
▁नजिकको	-9789
▁आइपुगेको	-9790
▁फिल्मलाई	-9791
▁आपत	-9792
▁देख्	-9793
▁बताउँछ	-9794
▁काठमाडा	-9795
▁आएन	-9796
▁वार	-9797
▁उठेका	-9798
▁उल्टो	-9799
▁अनिश्चित	-9800
ंगिक	-9801
▁महत	-9802
▁धोका	-9803
▁नबना	-9804
▁राज्यमा	-9805
▁तातोपानी	-9806
▁डेभल	-9807
▁सातौं	-9808
ुण	-9809
ुलीले	-9810
▁महाशाखाका	-9811
पोषण	-9812
रोस्	-9813
▁कटु	-9814
▁धाम	-9815
▁डोजर	-9816
▁अबस्था	-9817
▁तेश्रो	-9818
▁युनिभर्सि	-9819
▁प्रतिनिधिसभामा	-9820
▁नजा	-9821
▁सयभन्दा	-9822
्यौँ	-9823
▁गरिदिने	-9824
दोष	-9825
▁पहिरोले	-9826
▁फुर्	-9827
▁चीनबाट	-9828
▁युवाहरु	-9829
▁महानगरपालिकाको	-9830
ञ्जी	-9831
▁यात्र	-9832
▁छलफलका	-9833
▁किसिमले	-9834
ेश्वरी	-9835
प्राप्त	-9836
▁नजिकैको	-9837
▁रुसी	-9838
▁इटहरी	-9839
▁निगमको	-9840
▁अर्घाखा	-9841
▁रवीन्द्र	-9842
▁प्रभावशाली	-9843
▁थाह	-9844
▁सुशी	-9845
▁संयोग	-9846
कर्ताको	-9847
▁विश्वविद्यालयमा	-9848
▁मनोविज्ञान	-9849
▁जुलु	-9850
▁रोशन	-9851
▁जबरजस्ती	-9852
▁सदस्यलाई	-9853
▁आजका	-9854
▁करोडौं	-9855
▁इन्डो	-9856
▁दशकमा	-9857
▁भेदभाव	-9858
▁उल्टै	-9859
▁शंकास्पद	-9860
▁त्योभन्दा	-9861
▁बेलुकी	-9862
▁वीरगन्ज	-9863
▁पिउने	-9864
▁आफैंमा	-9865
▁सेवालाई	-9866
▁राख्नुपर्छ	-9867
▁डोज	-9868
घाटमा	-9869
▁द्रुत	-9870
▁स्वास्थ	-9871
▁आइसोलेसन	-9872
▁चुरे	-9873
▁बढ्दा	-9874
▁कालिका	-9875
▁कार्यवाहक	-9876
▁अला	-9877
▁अप्रिल	-9878
▁चित्रण	-9879
▁प्यानल	-9880
▁आप्रवासी	-9881
▁पर्दै	-9882
▁उद्दार	-9883
▁भोग्नु	-9884
▁जेलमा	-9885
▁टिमलाई	-9886
▁सूचीकृत	-9887
जिअ	-9888
सेक	-9889
खाने	-9890
▁सीसी	-9891
▁नपाएर	-9892
▁सिकार	-9893
▁खटिएको	-9894
▁कांग्रेसमा	-9895
राति	-9896
▁वंश	-9897
पहिले	-9898
▁दूरस	-9899
▁नसकि	-9900
▁प्राण	-9901
▁गिरावट	-9902
किश	-9903
▁झडप	-9904
▁छाडि	-9905
खाले	-9906
▁शार	-9907
▁खाले	-9908
▁फिचर	-9909
▁हिंड	-9910
▁नेताका	-9911
▁मुटुको	-9912
▁साक्षर	-9913
▁अनुहारमा	-9914
▁कृष्णबहादुर	-9915
▁रजत	-9916
▁छुट्टाछुट्टै	-9917
निको	-9918
▁शुक्रवार	-9919
निर	-9920
▁उचाइमा	-9921
▁खोज्नु	-9922
▁वर्ल्ड	-9923
▁मंसिरमा	-9924
▁खेले	-9925
▁जान्न	-9926
▁नीतिको	-9927
▁क्यानडा	-9928
▁जलस्रोत	-9929
▁इन्जिनियरिङ	-9930
▁०४	-9931
▁अरे	-9932
तपाईं	-9933
▁कुलमान	-9934
▁गोकर्ण	-9935
माइ	-9936
▁बलिङ	-9937
▁चिह्न	-9938
▁एमालेमा	-9939
र्सन	-9940
▁आजदेखि	-9941
▁गर्नुस्	-9942
विको	-9943
सिलो	-9944
▁हर्ष	-9945
▁फर्किन	-9946
▁पित	-9947
▁पुर्ण	-9948
▁l	-9949
हारा	-9950
▁२०१३	-9951
भाड	-9952
मतो	-9953
▁भाष	-9954
▁भोजन	-9955
▁जापानको	-9956
कारक	-9957
तीर्ण	-9958
▁प्लेटफर्म	-9959
▁प्रतिष्ठानका	-9960
com	-9961
ँटा	-9962
▁जरू	-9963
▁बझा	-9964
▁जङ्ग	-9965
▁कथामा	-9966
▁उन्मुख	-9967
▁क्षमतामा	-9968
क्रि	-9969
▁अङ्ग	-9970
▁पसिना	-9971
जरी	-9972
नुका	-9973
▁डिफ	-9974
▁बचाउ	-9975
▁सेक्स	-9976
▁पैसाको	-9977
▁बुढाथोकी	-9978
▁ग्यारेन्टी	-9979
ग्न	-9980
▁होमि	-9981
▁प्राज्ञ	-9982
▁दूरसञ्चार	-9983
▁कोटा	-9984
▁फिफा	-9985
▁गरेसँगै	-9986
▁भट्टराईको	-9987
▁कोहल	-9988
▁फारम	-9989
▁प्रजन	-9990
▁हाम्रै	-9991
▁सक्रियता	-9992
सेवक	-9993
▁डलरको	-9994
▁ठाउँको	-9995
▁यात्राको	-9996
▁t	-9997
खुट्	-9998
▁केबल	-9999
▁नवौं	-10000
▁निधि	-10001
सम्पर्क	-10002
▁दुवैले	-10003
▁अर्काको	-10004
▁हप्तामा	-10005
▁विधेयकको	-10006
▁प्रस्तुती	-10007
सान	-10008
मूल्य	-10009
म्वर	-10010
▁सर्वोच्चले	-10011
यिक	-10012
ेजमा	-10013
▁लोप	-10014
▁आँसु	-10015
▁जबर्ज	-10016
▁पढाउने	-10017
▁दुर्व्यवहार	-10018
ुङ	-10019
भिल	-10020
▁घरधु	-10021
▁नायव	-10022
▁खोपको	-10023
▁तपाइँको	-10024
▁संगठनका	-10025
▁उत्रिएका	-10026
▁नबो	-10027
▁कोशि	-10028
▁हमला	-10029
▁बरालले	-10030
▁मता	-10031
▁बुझाएका	-10032
▁ब्यापार	-10033
▁तुलसीपुर	-10034
विचार	-10035
▁निर्म	-10036
▁दैनिकी	-10037
▁वडाका	-10038
▁मुस्किल	-10039
▁संसद्को	-10040
▁आइसोलेसनमा	-10041
▁बेग्लै	-10042
ड्यन्त्र	-10043
▁असाध्यै	-10044
▁प्रोजेक्ट	-10045
▁मामिलामा	-10046
▁रङ	-10047
▁चुहा	-10048
▁रोजाइ	-10049
▁आँखाको	-10050
▁ढङ्गले	-10051
▁पब्लिक	-10052
▁आक्रामक	-10053
ारीमा	-10054
▁बोनस	-10055
▁सेलि	-10056
▁२०२३	-10057
६३	-10058
▁जमी	-10059
▁पाइला	-10060
▁फर्कन	-10061
▁लिएपछि	-10062
▁धान्न	-10063
▁नेवार	-10064
▁जटिलता	-10065
▁जेठमा	-10066
▁खोलाको	-10067
▁चिन्तन	-10068
▁समुद्र	-10069
▁बिहिबार	-10070
वश	-10071
स्मा	-10072
▁मेह	-10073
स्कृति	-10074
▁पक्षधर	-10075
▁जनार्दन	-10076
▁सावधानी	-10077
▁उसै	-10078
▁गुम	-10079
▁क्ला	-10080
▁उजागर	-10081
▁कोषले	-10082
▁भगवान्	-10083
▁गर्दछौं	-10084
▁मङ्गलबार	-10085
▁बुझेका	-10086
▁क्वारेन्टाइन	-10087
▁देशै	-10088
▁नियाम	-10089
▁शेर्पाले	-10090
पुछ	-10091
▁नसकेर	-10092
▁फोक्सो	-10093
▁छोरालाई	-10094
▁त्यसैको	-10095
▁एयरपोर्ट	-10096
▁असम्भव	-10097
▁डिएसपी	-10098
▁वामदेव	-10099
▁झुण्ड	-10100
▁मध्या	-10101
▁शाल	-10102
▁प्लान्ट	-10103
पाती	-10104
▁अनुवाद	-10105
▁बताउदै	-10106
▁प्रशारण	-10107
▁मझ	-10108
▁आवमा	-10109
▁तरलता	-10110
▁क्षेत्रफलमा	-10111
पाठन	-10112
▁मणि	-10113
र्सको	-10114
▁एसियन	-10115
▁गच्छदार	-10116
▁निवासमा	-10117
▁बट	-10118
▁गहुँ	-10119
▁गान्ध	-10120
▁चाहियो	-10121
▁प्राचीन	-10122
▁देवेन्द्र	-10123
लीका	-10124
▁फेस्टि	-10125
▁रिजालले	-10126
▁भुवन	-10127
▁प्रजिअ	-10128
▁उपलब्धी	-10129
रोधा	-10130
पुस्त	-10131
▁मानिसहरुको	-10132
▁खोलि	-10133
▁डेटा	-10134
▁बोक्ने	-10135
▁आवतजावत	-10136
▁क्लिनिक	-10137
▁सुनिश्चितता	-10138
▁आँट	-10139
▁झार	-10140
▁हिम्म	-10141
क्षिप्त	-10142
▁आत्मसा	-10143
▁स्थाना	-10144
उनले	-10145
▁घुम	-10146
▁नबढ	-10147
र्पित	-10148
यात्री	-10149
▁तैपनि	-10150
▁भएनन्	-10151
▁फाइनान्स	-10152
▁रासायनिक	-10153
ेनी	-10154
परेका	-10155
▁मिना	-10156
▁यसपालि	-10157
▁अनुबन्ध	-10158
बोट	-10159
▁उति	-10160
ख्यात	-10161
स्वरूप	-10162
▁करिडोर	-10163
▁बुधवार	-10164
▁चारवटा	-10165
▁सुकुम्बा	-10166
ेकै	-10167
▁ढल	-10168
▁फेल	-10169
▁आदानप्रदान	-10170
दिभ	-10171
▁औषध	-10172
▁रुस	-10173
▁दललाई	-10174
▁दुखाइ	-10175
▁म्यानपावर	-10176
▁विदेशमन्त्री	-10177
धनमा	-10178
लिखेल	-10179
सीलाई	-10180
▁पुजा	-10181
▁असोजमा	-10182
साल	-10183
▁बाँदर	-10184
▁परमेश्व	-10185
▁बैंकहरुले	-10186
क्ष्म	-10187
▁हमाल	-10188
▁यातना	-10189
▁पाउँदैन	-10190
▁भर्चुअल	-10191
▁षड्यन्त्र	-10192
▁चम	-10193
▁गुगल	-10194
▁व्याज	-10195
प्रतिशत	-10196
▁अनुपात	-10197
▁खर्चमा	-10198
▁सङ्गीत	-10199
▁कुराकानीमा	-10200
भरा	-10201
▁ऋणको	-10202
▁उहाँहरु	-10203
▁चलचित्रले	-10204
वको	-10205
बीले	-10206
्याङ	-10207
▁तवर	-10208
▁सदस्यका	-10209
सियल	-10210
▁निश्	-10211
जू	-10212
लाइट	-10213
▁आवको	-10214
र्मु	-10215
▁अब्बल	-10216
▁जरूरी	-10217
▁नेशनल	-10218
▁परिभाषा	-10219
▁पूर्णिमा	-10220
▁पेनाल्टी	-10221
▁प्रकृतिका	-10222
पदा	-10223
अगाडि	-10224
▁विनिमय	-10225
▁गर्छिन्	-10226
▁निर्मित	-10227
▁बानियाँ	-10228
▁सहयोगका	-10229
सीयू	-10230
▁छाड्न	-10231
विर	-10232
▁०५	-10233
▁प्लस	-10234
भारम्भ	-10235
▁शत्रु	-10236
▁औषधिको	-10237
▁पीडितको	-10238
▁हाल्न	-10239
पुरा	-10240
▁काट्न	-10241
▁युनिट	-10242
▁सक्यो	-10243
ion	-10244
▁महशु	-10245
▁मुगु	-10246
▁अपांग	-10247
▁उनीमाथि	-10248
घोष	-10249
विदेश	-10250
▁इजा	-10251
▁२०६३	-10252
▁टर्की	-10253
▁नेताहरूको	-10254
▁असुरक्षित	-10255
▁डरले	-10256
न्तब्य	-10257
▁यसपछि	-10258
▁अप्ठेरो	-10259
▁लगानीका	-10260
▁कोरोनाका	-10261
▁फर्किएको	-10262
म्बी	-10263
▁आचरण	-10264
▁गार्ड	-10265
▁विद्यार्थीहरु	-10266
▁मारमा	-10267
▁सम्मि	-10268
▁नाता	-10269
▁सुक्	-10270
▁मनोबल	-10271
▁कोइ	-10272
▁तोक्ने	-10273
▁व्यक्तिहरू	-10274
▁मच्च	-10275
प्ताहिक	-10276
▁नाकामा	-10277
मीको	-10278
▁रघु	-10279
▁बन्दर	-10280
▁आसपासका	-10281
▁मेगावाटको	-10282
म्ने	-10283
▁पुर्न	-10284
▁समर्पित	-10285
▁समस्याले	-10286
▁अधिकारीहरुले	-10287
▁अडियो	-10288
▁दिंदै	-10289
▁सोसाइ	-10290
▁कामले	-10291
▁हिँड्न	-10292
▁शुद्धीकरण	-10293
▁शर	-10294
कोशी	-10295
यामा	-10296
▁घाँस	-10297
▁दशरथ	-10298
▁सभ्यता	-10299
▁उपनिर्वा	-10300
▁गजल	-10301
▁देखेका	-10302
▁सम्बन्धको	-10303
▁दशैँ	-10304
▁संरक्षणका	-10305
▁कं	-10306
वाले	-10307
▁गोठ	-10308
▁घाँटी	-10309
▁प्रोड	-10310
▁उनीहरूका	-10311
▁रामप्रसाद	-10312
▁सहन	-10313
▁नामबाट	-10314
▁ओसार	-10315
▁सुरज	-10316
▁धर्मा	-10317
▁न्युन	-10318
▁उल्लेखनीय	-10319
ुरा	-10320
सकिएको	-10321
▁एकदिन	-10322
▁पराजुलीले	-10323
▁ओटा	-10324
▁पिक	-10325
▁वचन	-10326
▁उकालो	-10327
▁छायाँ	-10328
▁हौसला	-10329
▁यद्यपी	-10330
▁बेलायतको	-10331
यहाँ	-10332
▁नानी	-10333
▁गुमाएर	-10334
▁तराईका	-10335
▁अध्यक्षता	-10336
▁कार्यक्षेत्र	-10337
ड्र	-10338
भरका	-10339
सरकार	-10340
▁सीईओ	-10341
▁पढ्दा	-10342
▁महतोले	-10343
▁समस्याहरु	-10344
ुश	-10345
▁कोर	-10346
▁बहाल	-10347
कारिता	-10348
▁पोर्ट	-10349
▁थलो	-10350
▁राखिने	-10351
▁शब्दमा	-10352
▁सार्ने	-10353
▁शिविरमा	-10354
▁पुनरावलोकन	-10355
▁सबल	-10356
▁गीता	-10357
▁अद्या	-10358
▁थपलिया	-10359
▁मेलमिलाप	-10360
ईले	-10361
बरमा	-10362
ल्नु	-10363
▁बचा	-10364
ेक्षित	-10365
▁गर्भा	-10366
▁गरिसकेपछि	-10367
et	-10368
ामै	-10369
▁तमु	-10370
▁मेघ	-10371
▁आरोही	-10372
▁निष्कासन	-10373
यमान	-10374
▁सजग	-10375
▁अनमोल	-10376
▁ट्र्या	-10377
▁खत्रीले	-10378
▁महाअभियोग	-10379
▁छिन	-10380
सर्जन	-10381
▁छुवा	-10382
▁ठेगा	-10383
▁सूचनाको	-10384
मुलक	-10385
▁पत्या	-10386
▁हुनुभयो	-10387
▁नफ	-10388
विरोधी	-10389
पीए	-10390
▁लौ	-10391
▁सरह	-10392
▁हाे	-10393
▁सन्ध	-10394
▁अक्षर	-10395
क्सको	-10396
▁घोडा	-10397
▁जानकी	-10398
▁होटेल	-10399
▁बनाइने	-10400
▁सङ्गठन	-10401
▁कालीगण्डकी	-10402
▁अपडेट	-10403
▁हुनेगरी	-10404
▁कोरियामा	-10405
▁पूर्वमन्त्री	-10406
▁परेन	-10407
▁भेरिय	-10408
▁महिलामा	-10409
▁ओखल	-10410
न्जा	-10411
▁रोपा	-10412
▁एकमात्र	-10413
यका	-10414
▁मिड	-10415
आफ्ना	-10416
▁तिमीले	-10417
il	-10418
त्स	-10419
▁साहु	-10420
▁उन्नत	-10421
▁नर्सिङ	-10422
▁गर्नाले	-10423
▁नोभेम्बर	-10424
ियल	-10425
▁कोश	-10426
▁रुपा	-10427
▁निक्कै	-10428
▁सुत्ने	-10429
नुपर्दैन	-10430
▁संस्कृत	-10431
▁निर्णयले	-10432
▁पितृ	-10433
▁बाजा	-10434
▁ट्रफी	-10435
रह्यो	-10436
विराज	-10437
▁कारखाना	-10438
▁रंगशालामा	-10439
▁ड्रा	-10440
▁वर्षकी	-10441
▁पहिल्यै	-10442
▁एसिड	-10443
▁वर्षाको	-10444
बस	-10445
▁भक्तजन	-10446
▁अध्ययनमा	-10447
▁ओग	-10448
▁ओझा	-10449
▁गाँजा	-10450
त्साहित	-10451
▁सिमाना	-10452
▁लगत	-10453
त्विक	-10454
▁दिइयो	-10455
▁सर्भिस	-10456
▁सुनेको	-10457
▁दर्शकलाई	-10458
▁हैसियतमा	-10459
▁बोले	-10460
▁भर्न	-10461
▁अधिकृतको	-10462
▁उदाहरणका	-10463
▁दुर्भाग्य	-10464
▁स्थानान्तरण	-10465
▁श्रोत	-10466
▁पदयात्रा	-10467
▁साप्ताहिक	-10468
▁पालो	-10469
हमा	-10470
▁नक	-10471
न्डो	-10472
▁गरिनुपर्ने	-10473
▁टस	-10474
न्टल	-10475
▁ठुला	-10476
▁सिधा	-10477
▁इञ्जि	-10478
▁युवाले	-10479
▁अध्ययनको	-10480
▁युरोपियन	-10481
▁गैरकानुनी	-10482
न्दर	-10483
▁राजि	-10484
▁जर्मन	-10485
▁डेब्यु	-10486
▁त्यसयता	-10487
▁नपाउँदा	-10488
▁संक्रमणबाट	-10489
सभामा	-10490
▁घातक	-10491
▁लण्ड	-10492
▁हानी	-10493
▁फेर्न	-10494
▁स्याङ्जा	-10495
▁प्रदेशसभामा	-10496
▁नउ	-10497
▁भंग	-10498
▁मिलि	-10499
▁उम्मेद्वार	-10500
▁सोसल	-10501
▁थप्ने	-10502
▁बेचेर	-10503
सां	-10504
खेती	-10505
▁बिगत	-10506
▁मतलब	-10507
▁खुकुलो	-10508
त्तो	-10509
▁सबैजसो	-10510
▁सूचक	-10511
▁अनुशा	-10512
▁मन्त्रालयबाट	-10513
छे	-10514
▁आफूहरुको	-10515
बुबा	-10516
▁बेलाबेला	-10517
▁अधिकारीहरु	-10518
▁सचिवमा	-10519
▁ग्राहकलाई	-10520
▁खतर	-10521
▁उठाउँदै	-10522
ेजस्तो	-10523
▁आत्ति	-10524
▁युद्धमा	-10525
▁पहे	-10526
▁आहार	-10527
▁हेरचाह	-10528
▁पद्	-10529
▁गुफा	-10530
▁विद्	-10531
▁भेगमा	-10532
▁योगेश	-10533
▁लिपुले	-10534
न्यायाधि	-10535
▁झोल	-10536
▁सेल	-10537
▁कारक	-10538
▁गुरुयोजना	-10539
संख्यक	-10540
▁पठनपाठन	-10541
▁आइपुगेका	-10542
▁उत्तीर्ण	-10543
एउ	-10544
वरमा	-10545
▁चुस्त	-10546
▁जागरण	-10547
▁भरोसा	-10548
▁प्राप्ति	-10549
es	-10550
▁भात	-10551
▁दाना	-10552
▁एक्सन	-10553
▁गतिविधिमा	-10554
▁अस्पताललाई	-10555
ूप	-10556
ुर्ण	-10557
▁तिर्	-10558
▁लागेन	-10559
▁रेडक्र	-10560
ंै	-10561
एसम्म	-10562
▁उदयपुर	-10563
▁पर्यटनको	-10564
▁भविष्यको	-10565
▁चुनौतीपूर्ण	-10566
पुरी	-10567
▁गैं	-10568
▁रोगी	-10569
▁सांग	-10570
शो	-10571
▁आना	-10572
▁पुसमा	-10573
▁बितरण	-10574
▁सोधपुछ	-10575
▁घटनाबारे	-10576
▁कस्	-10577
▁नौलो	-10578
इसकेको	-10579
▁बढाएका	-10580
▁गराउनुपर्ने	-10581
▁बजा	-10582
▁रेशम	-10583
▁कोरोनाभाइ	-10584
मामा	-10585
▁मेक	-10586
▁२०२४	-10587
▁सोलुखु	-10588
▁मुस्ताङ	-10589
▁दही	-10590
▁इच्छुक	-10591
▁लाग्दै	-10592
▁परिषद्को	-10593
▁बिद्यालय	-10594
▁साँस्कृतिक	-10595
ed	-10596
▁अनुभवी	-10597
साङ	-10598
कबाट	-10599
▁थाइल्याण्ड	-10600
च्ची	-10601
▁धुलिखेल	-10602
▁चोकमा	-10603
▁नेग	-10604
▁भैर	-10605
▁जीवनलाई	-10606
खमा	-10607
होरा	-10608
▁सहाय	-10609
▁सुखी	-10610
▁उम्मेदवारले	-10611
अनुरुप	-10612
▁खुल्न	-10613
जहा	-10614
▁बोध	-10615
द्वन्द	-10616
▁तिनले	-10617
पश्चात्	-10618
▁त्यसबारे	-10619
▁बागलु	-10620
ुप्रसाद	-10621
▁अधिकारका	-10622
▁प्रदर्शनकारी	-10623
ष्णा	-10624
लगायतले	-10625
▁भएता	-10626
▁मुहान	-10627
दायित्व	-10628
▁फ्रेन्	-10629
▁पुगिसकेको	-10630
मिन	-10631
▁एलि	-10632
▁बाले	-10633
▁आयोगलाई	-10634
▁वनस्पति	-10635
▁राजविराज	-10636
टिन	-10637
▁काट्	-10638
▁कार्यदलले	-10639
▁आवि	-10640
त्रिम	-10641
ाधिकार	-10642
▁छुवाछ	-10643
▁पाहुना	-10644
▁लेखनाथ	-10645
▁बाहेकका	-10646
▁ताइ	-10647
▁डिपो	-10648
▁सक्दो	-10649
▁लगाउँदा	-10650
▁बार्सिलोना	-10651
▁स्वरमा	-10652
▁टप	-10653
▁जडी	-10654
▁जोगा	-10655
▁बाल्य	-10656
▁दक्षिणी	-10657
▁व्यक्तिका	-10658
▁क्रान्तिको	-10659
हेर	-10660
▁अहम	-10661
▁गुग	-10662
▁पारस	-10663
ङ्ग्रे	-10664
▁पस्	-10665
▁पुगेकी	-10666
▁घिसिङले	-10667
▁बहुदलीय	-10668
▁ज्ञापनपत्र	-10669
▁फस	-10670
▁दिएन	-10671
▁नियमाव	-10672
▁मतपत्र	-10673
▁मुनाफा	-10674
▁सिक्ने	-10675
▁फुटबलको	-10676
▁वृद्धिदर	-10677
▁अध्यक्षले	-10678
्रोन	-10679
▁सञ्जय	-10680
▁सम्हा	-10681
▁कलेजका	-10682
▁खतरनाक	-10683
▁भिम	-10684
▁आगजनी	-10685
▁च्याउ	-10686
▁कीर्तिपुर	-10687
ण्य	-10688
▁२०१२	-10689
▁प्रतीक	-10690
▁ब्युरो	-10691
▁साफ	-10692
▁भाद्र	-10693
▁बाहिरका	-10694
सेज	-10695
▁मिथि	-10696
▁नगरको	-10697
▁अवधिको	-10698
▁राजधानीको	-10699
▁कार्यालयलाई	-10700
भोलि	-10701
▁अनसन	-10702
▁मिलाइ	-10703
▁शब्दको	-10704
▁उद्योगलाई	-10705
▁समाजवादीका	-10706
▁जिति	-10707
▁ब्याक	-10708
▁बजेटले	-10709
▁लिभरपुल	-10710
▁ओझ	-10711
▁हुनुपर्दछ	-10712
गीत	-10713
▁पचा	-10714
▁नरेश	-10715
▁इजाजत	-10716
▁न्यानो	-10717
▁सरसफाई	-10718
▁हिम्मत	-10719
▁नेकपाले	-10720
वामा	-10721
▁विल	-10722
न्वित	-10723
▁शीतल	-10724
▁गुड	-10725
▁तहबाट	-10726
▁पाँचौ	-10727
▁गुमाउने	-10728
▁विघट	-10729
▁बेचबि	-10730
▁नदेखिएको	-10731
▁महर्जनले	-10732
▁घले	-10733
▁भएकाे	-10734
▁प्रिन्	-10735
▁जोर	-10736
▁सकिए	-10737
▁टेक्नो	-10738
▁माथिका	-10739
▁पहिलेको	-10740
▁बनिरहेको	-10741
ैर्य	-10742
▁कने	-10743
▁छैटौं	-10744
दण्ड	-10745
▁बाउ	-10746
▁दिनहुँ	-10747
▁दिन्छु	-10748
पनमा	-10749
हरुख	-10750
▁हिट	-10751
▁राहु	-10752
▁तेह्र	-10753
▁प्रशासनको	-10754
▁भया	-10755
▁मिन	-10756
▁गुरा	-10757
▁पूर्वानु	-10758
▁शुभारम्भ	-10759
४०	-10760
ब्रो	-10761
बारीमा	-10762
▁पोलिट	-10763
▁शुक्ल	-10764
▁स्वरो	-10765
▁गर्भपत	-10766
▁राउतले	-10767
▁कोरियाको	-10768
लोभ	-10769
हाली	-10770
▁झल्	-10771
▁वकाल	-10772
▁जोडेको	-10773
▁बैठकबाट	-10774
णमा	-10775
▁कदर	-10776
▁पवन	-10777
▁झ्याल	-10778
▁नामले	-10779
▁मार्न	-10780
▁विराटनगरमा	-10781
▁ओर्	-10782
वासभा	-10783
▁फाल्	-10784
▁साँघ	-10785
पञ्च	-10786
▁बाइड	-10787
▁सत्तापक्ष	-10788
शंकर	-10789
▁अनन्त	-10790
वु	-10791
▁शरि	-10792
▁हाई	-10793
▁मिलाइएको	-10794
▁सक्नुहुनेछ	-10795
▁कटान	-10796
▁२०११	-10797
▁मण्डल	-10798
▁दुर्लभ	-10799
▁महोत्तरी	-10800
▁स्थानबाट	-10801
▁विध	-10802
▁कैलाश	-10803
▁स्टेट	-10804
▁दिइन्छ	-10805
▁रथ	-10806
▁ग्रन्थ	-10807
▁म्यारा	-10808
▁लाभांश	-10809
▁सुनुवार	-10810
▁गर्नुअघि	-10811
▁लोडसेडिङ	-10812
ङ्गिक	-10813
▁नाति	-10814
▁देखाइएको	-10815
▁बसिरहेका	-10816
▁उपत्यकाको	-10817
▁नारायणकाजी	-10818
▁फौजदारी	-10819
▁सेमिफाइनल	-10820
रामीले	-10821
▁स्नातको	-10822
▁हेरिएको	-10823
इमा	-10824
पक्व	-10825
▁आकांक्षा	-10826
▁सम्भाव्यता	-10827
▁घृ	-10828
▁वो	-10829
▁अभावका	-10830
टाई	-10831
▁?"	-10832
ल्दा	-10833
याममा	-10834
▁देशकै	-10835
▁दिवसका	-10836
▁मोरङको	-10837
डिओ	-10838
▁डेलि	-10839
▁तथ्या	-10840
▁बैतडी	-10841
▁माता	-10842
तामाथि	-10843
▁सबस्ट	-10844
कर्ताले	-10845
▁आफैँले	-10846
सिम	-10847
▁सोचे	-10848
▁p	-10849
आफ्नै	-10850
ञ्चोक	-10851
▁धनगढ	-10852
▁खेल्दा	-10853
▁पुग्दैन	-10854
▁पत्रपत्रिका	-10855
▁भानुभक्त	-10856
▁व्यक्तिमा	-10857
बाबा	-10858
▁चाउ	-10859
खुवासभा	-10860
▁कत्तिको	-10861
म्बो	-10862
बलमा	-10863
▁उब्	-10864
▁विषयगत	-10865
▁संभावना	-10866
▁सम्पुर्ण	-10867
▁सदस्यहरुले	-10868
▁खस्	-10869
▁चौर	-10870
▁साइन	-10871
र्जनको	-10872
▁बैंकबाट	-10873
▁प्रतिवादी	-10874
▁स्टु	-10875
▁अञ्चल	-10876
संविधान	-10877
▁टुङ्गो	-10878
▁धर्मको	-10879
▁समाधानको	-10880
खान	-10881
▁कमिसन	-10882
▁अभावले	-10883
▁मोर्चाले	-10884
▁अव्यवस्थित	-10885
▁जनरल	-10886
▁भूमिमा	-10887
▁सिंहको	-10888
▁सिंगापुर	-10889
▁स्थापनाको	-10890
डम्ब	-10891
प्रो	-10892
▁सीआई	-10893
▁फुटबलमा	-10894
▁यस्तोमा	-10895
▁तँ	-10896
▁घटेर	-10897
▁बोलेका	-10898
▁विषादी	-10899
▁अवस्थाका	-10900
▁तिनीहरूले	-10901
▁पुनर्स्थापना	-10902
आएको	-10903
किएर	-10904
▁युथ	-10905
▁हेल	-10906
▁हटाइ	-10907
▁च्याम्पियन्स	-10908
▁बड	-10909
▁बोक्	-10910
▁जाजरकोट	-10911
▁लेखि	-10912
▁एकपछि	-10913
▁माल्दिभ	-10914
▁नखु	-10915
▁पेटमा	-10916
▁दाहालको	-10917
▁जुटेको	-10918
▁हुनुपर्नेमा	-10919
▁विश्वविद्यालयले	-10920
▁खसी	-10921
▁निश	-10922
▁युवक	-10923
▁महाप्र	-10924
▁हनुमान	-10925
▁मिश्रले	-10926
बोध	-10927
गिरि	-10928
▁स्कट	-10929
वारि	-10930
त्कृष्ट	-10931
▁इन्डिया	-10932
▁काठमाडौँमा	-10933
त्मिक	-10934
▁बैङ्	-10935
▁सूर्	-10936
▁महत्वका	-10937
▁अर्थतन्त्रलाई	-10938
एमएस	-10939
सबाट	-10940
▁चेकजाँच	-10941
▁क्यान्सरको	-10942
▁४००	-10943
▁पढाई	-10944
▁बहानामा	-10945
▁फेसन	-10946
▁फुर्सद	-10947
वैज्ञानिक	-10948
▁उत्तरदायित्व	-10949
४५	-10950
▁अठ	-10951
▁युर	-10952
ेसनको	-10953
▁राधा	-10954
▁पाकिस्तानी	-10955
ूँ	-10956
धारमा	-10957
▁पाठे	-10958
▁बन्दुक	-10959
▁लागुऔषध	-10960
▁संरचनाको	-10961
▁इको	-10962
ठान	-10963
माई	-10964
▁झुट	-10965
▁मिटरको	-10966
▁हिमपात	-10967
भाई	-10968
ज्जत	-10969
▁सिग्	-10970
▁बजारी	-10971
▁पोखराका	-10972
▁यि	-10973
म्भु	-10974
▁चल्यो	-10975
▁बालेन	-10976
जुट	-10977
बादी	-10978
ल्पमा	-10979
▁बिघा	-10980
▁विकट	-10981
▁बिचार	-10982
▁मानसिकता	-10983
▁निभ	-10984
▁चल्छ	-10985
▁जोगि	-10986
▁दिपा	-10987
▁फ्लो	-10988
▁उभिएर	-10989
▁लिँदा	-10990
▁निर्णयलाई	-10991
▁बस्नुपर्ने	-10992
▁स्वे	-10993
▁चलचित्रलाई	-10994
▁टोक	-10995
▁नदिई	-10996
▁वर्णन	-10997
भास	-10998
▁असम	-10999
▁दीपा	-11000
▁धर्ना	-11001
▁पौडेललाई	-11002
कुन	-11003
ारीको	-11004
▁केभी	-11005
वेला	-11006
▁रारा	-11007
डिरहेका	-11008
▁देशबाट	-11009
▁क्रिकेटमा	-11010
▁किनार	-11011
▁सारिएको	-11012
▁आन्दोलनकारी	-11013
▁कार्यकर्ताको	-11014
▁भन्थे	-11015
▁यादवलाई	-11016
▁छाउ	-11017
▁बायो	-11018
▁तेक्वा	-11019
▁२०१०	-11020
▁मधेसमा	-11021
चाँ	-11022
▁इरा	-11023
▁भर्ने	-11024
▁सौर्य	-11025
▁छाडेका	-11026
▁देख्नु	-11027
▁सेनामा	-11028
▁इतिहासको	-11029
▁आउनुभएको	-11030
▁पूर्वअध्यक्ष	-11031
▁तमा	-11032
▁हुर्का	-11033
▁स्रष्टा	-11034
विद	-11035
शास्त्री	-11036
▁कृत्रिम	-11037
▁मजा	-11038
▁ब्यूरो	-11039
▁संसारका	-11040
▁नागरिकका	-11041
▁राज्यलाई	-11042
जगढ	-11043
▁रुघा	-11044
▁चलेका	-11045
▁वकालत	-11046
▁नजिकबाट	-11047
▁उम्	-11048
पछिका	-11049
▁संसारको	-11050
▁पर्यावरण	-11051
▁मानिसहरूले	-11052
▁बढाउनुपर्ने	-11053
▁सर्वसाधारणको	-11054
em	-11055
▁हर्मो	-11056
▁आयातमा	-11057
▁राजाको	-11058
▁प्रविधिमा	-11059
पीड	-11060
▁चहल	-11061
▁एमबी	-11062
▁पाएन	-11063
लेश्वर	-11064
्राचार्य	-11065
▁नेपालसँग	-11066
▁सोलुखुम्बु	-11067
ठे	-11068
▁लख	-11069
▁फाई	-11070
▁खानाको	-11071
▁गुम्बा	-11072
▁आचार्यको	-11073
▁ब्याट्री	-11074
▁वास्तविकता	-11075
▁अन्स	-11076
▁बर्षमा	-11077
▁मोदीको	-11078
▁शरीरका	-11079
▁चलायमान	-11080
▁संगीतकार	-11081
▁हानिकारक	-11082
दिव	-11083
निन	-11084
▁नियोग	-11085
▁हस्पिटल	-11086
▁पूर्वानुमान	-11087
शमशेर	-11088
▁स्वाभि	-11089
▁विवाहको	-11090
▁नाकाबन्द	-11091
ेसनमा	-11092
▁जुवा	-11093
▁बाँधि	-11094
▁महान्	-11095
लगायतको	-11096
▁जनशक्तिको	-11097
▁खत	-11098
जलाई	-11099
▁छरि	-11100
▁२०८२	-11101
▁नेगेटिभ	-11102
▁रविन्द्र	-11103
▁प्रगतिशील	-11104
▁श्रीकृष्ण	-11105
▁विद्यालयलाई	-11106
▁चीनसँग	-11107
▁वर्षयता	-11108
▁अद्यावधिक	-11109
भण्ड	-11110
राका	-11111
▁आँग	-11112
सक्नु	-11113
▁गर्छौ	-11114
▁रोकेर	-11115
▁टेलिभि	-11116
▁कहाँबाट	-11117
▁पुस्ताले	-11118
क्सिन	-11119
▁इकाइ	-11120
▁मौला	-11121
▁साथीहरू	-11122
▁शिक्षकले	-11123
राध	-11124
अनुसारको	-11125
▁विचारमा	-11126
▁मोर्चाका	-11127
▁पहिलेदेखि	-11128
▁कलम	-11129
▁होली	-11130
पश्चात	-11131
▁उप्रेती	-11132
नेश	-11133
▁उत्प्रेर	-11134
▁समस्याबाट	-11135
▁क्षेत्रीले	-11136
▁जनजीवन	-11137
▁पठाउनु	-11138
▁सुशीला	-11139
▁रचनात्मक	-11140
▁पुस्तकालय	-11141
शय	-11142
▁अड	-11143
▁कुश	-11144
▁सदन	-11145
▁दुबई	-11146
सामाजिक	-11147
योग्रा	-11148
▁घण्टाको	-11149
भयो	-11150
▁गोरु	-11151
▁आरक्षण	-11152
म्न	-11153
टरफाइ	-11154
▁सङ्कट	-11155
▁प्रर्द	-11156
▁जोगाउने	-11157
▁बिरुद्ध	-11158
▁सान्दर्भिक	-11159
▁प्रधानमन्त्रीका	-11160
मानव	-11161
▁अखण्ड	-11162
▁इजलासमा	-11163
▁प्रेममा	-11164
ूले	-11165
▁सव	-11166
▁रेट	-11167
▁डेमो	-11168
▁मुलुकी	-11169
▁संघीयताको	-11170
▁उद्देश्यका	-11171
▁झे	-11172
▁भित्र्याउने	-11173
ंशी	-11174
ड्को	-11175
च्छे	-11176
ञ्जना	-11177
वाहिक	-11178
बमा	-11179
याएको	-11180
पमेन्ट	-11181
स्थानीय	-11182
▁आतिथ्य	-11183
▁द्विपक्षीय	-11184
▁आपरा	-11185
▁गन्ध	-11186
▁लाइभ	-11187
▁प्रवि	-11188
▁मञ्चमा	-11189
▁स्तम्भ	-11190
▁युद्धको	-11191
▁सङ्ग्रह	-11192
▁नेपालीहरुले	-11193
▁रसा	-11194
▁दसैँ	-11195
▁छोड्न	-11196
▁रातको	-11197
▁हाजिर	-11198
▁बिराटनगर	-11199
कित	-11200
▁अल्ट	-11201
▁बैङ्क	-11202
▁काउन्टर	-11203
▁प्रयोगले	-11204
तीका	-11205
र्माले	-11206
▁समयका	-11207
▁अध्यापन	-11208
▁फर्केका	-11209
▁अस्थिरता	-11210
▁बृ	-11211
▁एकजुट	-11212
▁रुपमै	-11213
▁प्रवासी	-11214
▁पल्ट	-11215
▁चाहन्छौं	-11216
बीको	-11217
▁गहन	-11218
▁२०४६	-11219
▁सिन्धुली	-11220
▁मूल्यवृद्धि	-11221
न्ना	-11222
▁अर्पण	-11223
फेस	-11224
▁गर्छन	-11225
▁खड्काको	-11226
▁ल्याउँछ	-11227
▁न्यायालय	-11228
▁मिडियाले	-11229
▁राष्ट्रका	-11230
एपनि	-11231
▁धैर्य	-11232
▁बनाइएका	-11233
▁आक्रोशित	-11234
▁बन्दरगाह	-11235
▁सचिवालयका	-11236
▁उपर	-11237
▁क्व	-11238
▁गरिन	-11239
▁बतायो	-11240
▁टेलिकम	-11241
▁मार्क्स	-11242
▁ग्राहकको	-11243
▁विवेकशील	-11244
▁महोत्सवको	-11245
▁संस्करणको	-11246
हेल	-11247
राजले	-11248
▁आध्या	-11249
▁नहोला	-11250
▁पर्वको	-11251
▁सबैतिर	-11252
▁मिलेमतो	-11253
▁बराबरीमा	-11254
क्र्या	-11255
▁बास्को	-11256
र्टमेन्ट	-11257
▁खेल्नेछ	-11258
▁तयारीका	-11259
▁दर्जनौं	-11260
▁दमक	-11261
▁निकालिएको	-11262
▁विस्तारको	-11263
इट	-11264
थरी	-11265
▁ल्हो	-11266
▁पेरिस	-11267
▁साँचो	-11268
▁दिदीबहिनी	-11269
▁परीक्षणमा	-11270
▁तप	-11271
पाँच	-11272
▁डोटी	-11273
▁ठेगाना	-11274
▁सम्मिलित	-11275
▁सार्थक	-11276
▁भित्रिएको	-11277
▁सदै	-11278
▁यससँगै	-11279
▁प्रेमको	-11280
▁म्यानेजर	-11281
जात्रा	-11282
▁बुझ्नु	-11283
▁लेखकले	-11284
▁तीव्रता	-11285
▁गरिरहँदा	-11286
▁पुर्याउँछ	-11287
कति	-11288
बिच	-11289
त्वको	-11290
पार्टी	-11291
▁बिहार	-11292
▁सक्नेछ	-11293
▁डाउनलोड	-11294
ro	-11295
▁भन्छु	-11296
▁बढाउँदै	-11297
ल्छ	-11298
▁मम	-11299
ष्मा	-11300
▁उपन्या	-11301
▁सम्वाद	-11302
▁अश्	-11303
▁दुग्ध	-11304
▁साहित्यको	-11305
ेडी	-11306
▁सूत्र	-11307
▁उत्खनन	-11308
▁राणाले	-11309
▁आपराधिक	-11310
▁घरजग्गा	-11311
▁खुले	-11312
▁सर्ने	-11313
▁साथसाथै	-11314
▁प्रतिष्ठानले	-11315
▁टेकु	-11316
▁रोक्का	-11317
▁प्रतिष्ठानको	-11318
ब्ल	-11319
▁जुध	-11320
▁संस्थाहरु	-11321
▁सिप	-11322
▁दोहोरी	-11323
▁स्नातकोत्तर	-11324
जब	-11325
पहा	-11326
मञ्च	-11327
▁जतिबेला	-11328
गाड	-11329
सूचीमा	-11330
▁पढ्दै	-11331
▁उपभोग्य	-11332
▁मिहिनेत	-11333
सरो	-11334
▁लभ	-11335
▁बनेकी	-11336
▁महशुस	-11337
▁प्रदेशलाई	-11338
उँथे	-11339
▁असुल	-11340
▁गजुर	-11341
▁हास्य	-11342
▁प्रवन्ध	-11343
▁गरिरहेकी	-11344
▁आन्दोलनले	-11345
▁।)	-11346
ज्दा	-11347
भरिका	-11348
▁अष्ट	-11349
▁आयाम	-11350
ँदैनन्	-11351
▁महीना	-11352
▁प्रलोभ	-11353
▁खुवाउने	-11354
▁म्यानेज	-11355
▁भेरियन्ट	-11356
▁देखिन्थ्यो	-11357
यदि	-11358
क्रेट	-11359
▁ठोक्	-11360
नान्तर	-11361
▁शालिक	-11362
▁बिर्सि	-11363
▁भित्रको	-11364
▁साथीभाइ	-11365
▁सामुहिक	-11366
▁घिसिङ	-11367
▁उद्धृत	-11368
▁तीनजना	-11369
▁संज्ञा	-11370
▁बुझ्	-11371
ठाउँमा	-11372
छिन्द्र	-11373
▁प्रमोद	-11374
▁संरक्षक	-11375
देल	-11376
िँदै	-11377
▁पञ्जा	-11378
▁अध्यागमन	-11379
▁सर्वसाधारणलाई	-11380
त्रीको	-11381
▁जातको	-11382
▁बर्षा	-11383
▁वर्गका	-11384
▁बाहिरको	-11385
▁स्पेस	-11386
वंश	-11387
▁आर्ट	-11388
▁काण्ड	-11389
▁केहीबेर	-11390
▁बलिउ	-11391
शान्ति	-11392
▁हुर्क	-11393
▁प्रसाईं	-11394
फत	-11395
टोल	-11396
डाले	-11397
क्र्स	-11398
▁धामी	-11399
▁सदनमा	-11400
डिरहेको	-11401
▁चन्द्रा	-11402
▁डाक्टरले	-11403
▁सचिवालयमा	-11404
▁महिलाहरुको	-11405
▁प्रतिस्थापन	-11406
य्या	-11407
▁छाता	-11408
▁आइफोन	-11409
▁प्रतिष्ठित	-11410
च्युट	-11411
▁नवनि	-11412
▁निष्ठा	-11413
पेश	-11414
ीति	-11415
अमेर	-11416
▁नुह	-11417
▁दवाव	-11418
▁अनुमतिपत्र	-11419
रहन	-11420
▁धू	-11421
▁ठ्या	-11422
▁भोली	-11423
व्यवसाय	-11424
▁तराईमा	-11425
▁पुग्छन्	-11426
▁महाराजग	-11427
▁कैलालीको	-11428
▁रुम	-11429
▁२०६८	-11430
▁पर्नु	-11431
▁खेतमा	-11432
▁माघमा	-11433
▁सुम्प	-11434
▁सोच्ने	-11435
▁इन्टरनेशनल	-11436
▁प्रतिवेदनले	-11437
जेन	-11438
र्डिङ	-11439
सञ्चार	-11440
▁यतिखेर	-11441
▁बैंकलाई	-11442
▁कल्	-11443
लकण्ठ	-11444
▁रोकेको	-11445
▁फिल्मका	-11446
▁पोखरेलको	-11447
मिना	-11448
▁खुद	-11449
▁जर्	-11450
पहिरो	-11451
क्यौता	-11452
▁ज्यादै	-11453
▁निकासा	-11454
▁लिमिटेडले	-11455
▁प्रदेशसभाको	-11456
▁झै	-11457
चोटि	-11458
▁बित्	-11459
▁२०६२	-11460
▁बर्से	-11461
▁विचाराधीन	-11462
▁कांग्रेसबाट	-11463
मौ	-11464
इन्स	-11465
देशीय	-11466
▁आक्रमणमा	-11467
▁पुरुषले	-11468
७५	-11469
एचओ	-11470
▁नेतृत्वलाई	-11471
दरमा	-11472
▁ट्रि	-11473
▁बापत	-11474
▁मिसन	-11475
▁श्रृ	-11476
▁गौरवको	-11477
▁निकालि	-11478
▁बाबजुद	-11479
▁आकांक्षी	-11480
▁सदस्यहरुको	-11481
नुसार	-11482
▁ओमान	-11483
▁लन्ड	-11484
▁सुखद	-11485
▁तालिब	-11486
▁शीर्षक	-11487
पीआर	-11488
▁अस्त	-11489
▁पारा	-11490
सम्पन्न	-11491
▁गीतकार	-11492
▁अन्तरले	-11493
ंगोल	-11494
पालो	-11495
▁जंगलमा	-11496
▁निमार्ण	-11497
▁सम्मका	-11498
▁सिकाउने	-11499
▁दिल्लीमा	-11500
समु	-11501
मोचन	-11502
▁निर्दोष	-11503
▁खगेन्द्र	-11504
▁प्रोत्साहित	-11505
▁क्यु	-11506
▁हावी	-11507
▁आफन्तले	-11508
▁आले	-11509
▁एसएलसी	-11510
▁स्टेशन	-11511
▁राजमार्गको	-11512
▁हँु	-11513
ियाको	-11514
▁खड्ग	-11515
▁टेष्ट	-11516
▁सेटमा	-11517
▁निम्तो	-11518
▁पेन्सन	-11519
▁अनेरास्ववियु	-11520
ेडिट	-11521
▁बुक	-11522
▁भगवती	-11523
▁लामखुट्	-11524
ोषित	-11525
▁रोगबाट	-11526
▁भूत	-11527
▁हैर	-11528
▁सस्था	-11529
▁लागूऔषध	-11530
▁बिर	-11531
▁मज्जा	-11532
▁अफिसमा	-11533
भुत	-11534
▁बुटवलमा	-11535
▁भित्र्याउन	-11536
२१	-11537
▁नामा	-11538
▁विमल	-11539
लक्ष्मी	-11540
▁केहीले	-11541
▁चौतारी	-11542
▁एथ	-11543
दफा	-11544
▁बडा	-11545
कुण्ड	-11546
▁देखे	-11547
▁तेलको	-11548
▁धन्दा	-11549
▁पुग्नेछ	-11550
▁सकिरहेको	-11551
▁गढ	-11552
्याएको	-11553
▁अंकले	-11554
▁यन्त्र	-11555
▁ट्रम्पको	-11556
▁मुद्दालाई	-11557
▁ल्याउनुपर्ने	-11558
बाहक	-11559
▁थोक	-11560
▁युगमा	-11561
▁कलेजले	-11562
ँध	-11563
वेल	-11564
▁चर्	-11565
▁रगतको	-11566
रहनुभएको	-11567
▁प्रशान्त	-11568
▁व्यक्तिहरुको	-11569
▁नसो	-11570
▁लेक	-11571
▁टाइम	-11572
▁हाते	-11573
नागरिक	-11574
▁यसवर्ष	-11575
७७	-11576
हाको	-11577
▁पिडित	-11578
▁मारेको	-11579
▁पाप	-11580
▁सुह	-11581
▁जसबाट	-11582
▁सिजनमा	-11583
▁विकल्पमा	-11584
▁च्याम्पियनसि	-11585
वह	-11586
▁भावुक	-11587
▁सम्भवतः	-11588
▁अधिकारकर्मी	-11589
दह	-11590
▁वकि	-11591
▁हजारौँ	-11592
▁कारोवार	-11593
▁गोलको	-11594
▁स्वतन्त्रताको	-11595
▁टंक	-11596
▁औजार	-11597
▁ल्यापट	-11598
पहल	-11599
▁पच	-11600
देखी	-11601
▁रनले	-11602
पथ्र्यो	-11603
▁सीमामा	-11604
▁टाउकोमा	-11605
▁सांसदहरु	-11606
▁प्	-11607
▁उपज	-11608
क्ष्य	-11609
▁जायज	-11610
▁नपुग्	-11611
▁विष्ण	-11612
▁मनाइने	-11613
▁मनोनित	-11614
▁हुनबाट	-11615
▁महिलाका	-11616
▁समृद्धिका	-11617
शू	-11618
घाती	-11619
▁२००८	-11620
▁बग्ने	-11621
▁अनुकुल	-11622
क्षामन्त्री	-11623
▁ओछ	-11624
निने	-11625
▁आशिष	-11626
▁भुइँ	-11627
▁स्टल	-11628
▁केटाके	-11629
स्थितिमा	-11630
▁सिड्	-11631
▁दिनेछ	-11632
८१	-11633
पाका	-11634
ct	-11635
▁धक	-11636
▁आदेशमा	-11637
▁शुरुमा	-11638
ंच	-11639
लाईन	-11640
कोटमा	-11641
▁गणित	-11642
निकीकरण	-11643
▁गराउँदा	-11644
▁दैनिकले	-11645
▁पशुपतिनाथ	-11646
▁अन्तरराष्ट्रिय	-11647
सूचक	-11648
▁गरीब	-11649
▁पढाउन	-11650
▁श्रमिकको	-11651
प्रे	-11652
▁झिक	-11653
्वाइस	-11654
र्षिको	-11655
▁गरेरै	-11656
▁संघमा	-11657
▁आएकाले	-11658
▁फेब्रुअरी	-11659
▁सङ्ख्यामा	-11660
▁व्यवस्थाले	-11661
▁सम्पत्तिको	-11662
▁उम्मेदवारलाई	-11663
▁व्यवसायीहरुले	-11664
▁थपिएका	-11665
▁मारिएका	-11666
▁उत्पादनका	-11667
गाँ	-11668
झैँ	-11669
पिड	-11670
जेको	-11671
भरको	-11672
ीमाथि	-11673
▁छनोटमा	-11674
▁शुरुवात	-11675
दास	-11676
▁लय	-11677
क्ला	-11678
▁प्राथमिकताका	-11679
▁गोला	-11680
▁जबकी	-11681
▁हुन्छु	-11682
▁पीडितले	-11683
नुपर्थ्यो	-11684
टिको	-11685
निमा	-11686
्रित	-11687
▁बटु	-11688
ेलियन	-11689
▁बुढी	-11690
▁मिठो	-11691
▁मनसुन	-11692
द्री	-11693
▁साई	-11694
▁केयर	-11695
▁मर्ने	-11696
▁महन्थ	-11697
▁गर्नमा	-11698
▁गरियोस्	-11699
▁स्वरोजगार	-11700
▁वीरेन्द्रनगर	-11701
▁आधु	-11702
▁वेस्ट	-11703
▁टीकापुर	-11704
▁कलाकारले	-11705
▁माई	-11706
▁जिवन	-11707
▁यहाँबाट	-11708
▁कोरियाले	-11709
▁विश्वकपको	-11710
तय	-11711
▁आईसीसी	-11712
▁अविश्वासको	-11713
भेन्	-11714
प्रेम	-11715
▁समर्थनमा	-11716
▁उपभोक्ताले	-11717
▁बाद	-11718
▁अनशन	-11719
▁तीब्र	-11720
▁नाराका	-11721
▁दलहरुको	-11722
▁भक्तपुरको	-11723
▁तिनीहरूलाई	-11724
जीलाई	-11725
लमाथि	-11726
▁चेल्	-11727
▁नियामक	-11728
▁लैंगिक	-11729
▁पुर्याइ	-11730
▁बहिष्कार	-11731
▁सहकारीले	-11732
▁बाहिरिएको	-11733
पीले	-11734
▁अँध्य	-11735
▁निजगढ	-11736
▁सर्वसाधारणले	-11737
पाटन	-11738
▁गिरोह	-11739
▁भोजपुर	-11740
▁पालिकामा	-11741
▁जबर्जस्ती	-11742
▁जिम्मेवारीमा	-11743
दीमा	-11744
▁पाठकले	-11745
▁सोमवार	-11746
▁उपाध्यायले	-11747
▁विद्यार्थीहरुले	-11748
is	-11749
▁हरित	-11750
▁अर्बको	-11751
▁काँधमा	-11752
▁स्थिरता	-11753
▁मतदाताले	-11754
वाङ	-11755
आरआई	-11756
▁गार्	-11757
▁अनुदानमा	-11758
▁पुस्तालाई	-11759
▁कम्पनीहरुले	-11760
पछी	-11761
यस्तो	-11762
▁साह्रै	-11763
▁मातहतका	-11764
▁उपमहासचिव	-11765
▁परीक्षाको	-11766
▁चाहनुहुन्छ	-11767
▁तिहाई	-11768
▁हातले	-11769
▁आशावादी	-11770
▁सेन्टरमा	-11771
णले	-11772
किपर	-11773
▁बाथ	-11774
▁भाँ	-11775
▁रूख	-11776
▁बलिदान	-11777
मरण	-11778
▁फास्ट	-11779
▁सिभिल	-11780
▁निगमका	-11781
▁न्युजि	-11782
▁ऐनले	-11783
▁ढुंग	-11784
▁खर्चि	-11785
▁धरौटी	-11786
▁मर्का	-11787
▁अविजित	-11788
▁खण्डको	-11789
▁सुन्दरी	-11790
▁शतप्रतिशत	-11791
घरको	-11792
ङ्कर	-11793
हाल्ने	-11794
▁ठाउ	-11795
▁बलर	-11796
▁सर्प	-11797
▁होस्ट	-11798
▁गुप्ता	-11799
▁डरलाग्दो	-11800
▁महिलाहरू	-11801
▁कारागारमा	-11802
चीको	-11803
▁मड्रिड	-11804
▁निष्क्रिय	-11805
फोट	-11806
▁चीज	-11807
व्र्य	-11808
▁साम्य	-11809
▁राख्छन्	-11810
▁राजनीतिज्ञ	-11811
▁वाचन	-11812
▁ध्रुव	-11813
▁नागरिकताको	-11814
२३	-11815
▁डट	-11816
दुरी	-11817
गर्दै	-11818
निकरण	-11819
▁जबसम्म	-11820
▁एभरेष्ट	-11821
▁प्रतिरोध	-11822
▁बिर्तामो	-11823
▁पत्रकारको	-11824
बोल	-11825
▁अलम	-11826
वासमा	-11827
▁उनमा	-11828
▁दलमा	-11829
▁मनको	-11830
▁विष्	-11831
▁किनबे	-11832
▁दृष्टिकोणले	-11833
डबडी	-11834
ब्रि	-11835
सिटी	-11836
कोटको	-11837
ात्मक	-11838
▁पाचन	-11839
▁वक्ता	-11840
सामान्य	-11841
▁शाखाले	-11842
▁कपुर	-11843
▁वर्क	-11844
▁प्रदिप	-11845
▁समयअघि	-11846
▁लाय	-11847
्नुभयो	-11848
▁धक्का	-11849
▁ट्रयाक	-11850
▁स्वीकार्य	-11851
▁काठमाण्डौं	-11852
क्सले	-11853
डम्बना	-11854
▁स्मार	-11855
▁कक्षमा	-11856
▁चुहावट	-11857
▁मंगलवार	-11858
२२	-11859
तान	-11860
▁केस	-11861
▁लापरबाही	-11862
▁ल्याउँदा	-11863
▁सर्वोच्चको	-11864
▁मानिसहरुलाई	-11865
सहर	-11866
▁असन्त	-11867
▁ल्याई	-11868
▁साहित्यमा	-11869
अफ	-11870
सन्ध	-11871
▁अहि	-11872
▁कोषका	-11873
▁निरंक	-11874
▁उत्तरा	-11875
▁शासकीय	-11876
▁अपेक्षित	-11877
िण	-11878
▁बेथ	-11879
▁हुन्छौं	-11880
नुपर्नेमा	-11881
▁बनिसकेको	-11882
इस	-11883
रासस	-11884
बिधान	-11885
▁तीनवटै	-11886
▁दाब	-11887
▁करणी	-11888
▁ताकि	-11889
▁दाङको	-11890
प्रश्वास	-11891
▁बज्राचार्य	-11892
▁तौ	-11893
विश्व	-11894
पुर्जा	-11895
▁प्रतिष्	-11896
▁सेनालाई	-11897
सोम	-11898
स्कु	-11899
ल्याक	-11900
▁नापी	-11901
▁ब्लक	-11902
▁परमेश्वर	-11903
▁मुलुकबाट	-11904
▁आध्यात्मिक	-11905
▁प्रक्रियाको	-11906
▁ब्यु	-11907
▁भेडा	-11908
▁तिब्र	-11909
▁सुटिङ	-11910
▁जिन्दग	-11911
▁जुटेका	-11912
▁अवस्थाबारे	-11913
▁कार्यक	-11914
▁दिएनन्	-11915
▁योसँगै	-11916
▁शरद	-11917
काण्ड	-11918
▁नलिने	-11919
▁न्युज	-11920
▁बिरामीले	-11921
▁गाउने	-11922
उनुभएको	-11923
▁कलेजको	-11924
▁बर्खास्त	-11925
▁अख्तियारको	-11926
▁मीन	-11927
▁नपाएका	-11928
▁कार्यभार	-11929
▁सदस्यहरू	-11930
▁त्यसबाहेक	-11931
▁विस्तारका	-11932
७६	-11933
राउने	-11934
▁छोड्ने	-11935
▁नारायणगढ	-11936
▁सभामुखले	-11937
हाय	-11938
निकट	-11939
▁ज्वा	-11940
▁इन्स्टा	-11941
▁बाणिज्य	-11942
पर्य	-11943
▁मित	-11944
▁कोहि	-11945
▁बसमा	-11946
▁मातह	-11947
▁सुस्ता	-11948
▁नाकाबाट	-11949
▁अधिकारीका	-11950
▁साथीहरुले	-11951
न्टी	-11952
पाको	-11953
वेणी	-11954
्रास	-11955
▁ओलीसँग	-11956
▁अभियानले	-11957
▁आयोजनालाई	-11958
▁अस्पतालबाट	-11959
▁मनोवैज्ञानिक	-11960
ट्रिक	-11961
▁निबन्ध	-11962
▁निर्या	-11963
▁कन्सर्ट	-11964
▁कमिटीमा	-11965
▁रहनेछन्	-11966
▁भैं	-11967
▁मिथ	-11968
▁किमी	-11969
▁२०२५	-11970
▁पाएकी	-11971
▁उत्थान	-11972
वाकां	-11973
▁चाहेका	-11974
▁महानगरका	-11975
▁मान्छेहरु	-11976
षेक	-11977
साइड	-11978
स्वी	-11979
▁तला	-11980
▁दिमागमा	-11981
▁खेलाडीहरु	-11982
▁विपद	-11983
▁पाइलट	-11984
▁फैलाउने	-11985
▁उहाँहरुको	-11986
▁रक्तदान	-11987
र्धन	-11988
▁हलि	-11989
▁१९५	-11990
▁उपधारा	-11991
▁साक्षी	-11992
▁हिँडेको	-11993
▁बेल्जियम	-11994
▁कर्णालीमा	-11995
▁उपभोक्तालाई	-11996
▁फस्ट	-11997
▁आफूहरू	-11998
▁झापाका	-11999
▁थाल्ने	-12000
्रमा	-12001
▁बोझ	-12002
म्पिया	-12003
▁उपदफा	-12004
▁हिँड्	-12005
्नुभएको	-12006
चनमा	-12007
▁सातै	-12008
▁पठाएर	-12009
▁कानुनले	-12010
अर्थ	-12011
थाने	-12012
▁एन्टी	-12013
▁बक्यौता	-12014
▁कास्कीका	-12015
पाट	-12016
ब्रा	-12017
▁शैले	-12018
▁आदिको	-12019
▁चलाएर	-12020
▁वडाको	-12021
▁संसदले	-12022
▁कमिटीका	-12023
▁बिचौलिया	-12024
▁शिक्षकलाई	-12025
किय	-12026
ट्य	-12027
जारा	-12028
ेसनले	-12029
▁ओरालो	-12030
▁पाइन्	-12031
▁गरेकाे	-12032
▁साताको	-12033
▁युक्रेन	-12034
▁विश्वसनीय	-12035
▁हाइड्रोपावर	-12036
▁शिक्षाका	-12037
▁पाठ्यपुस्त	-12038
▁निरुत्साहित	-12039
▁खानले	-12040
ष्टी	-12041
▁गैँ	-12042
रीलाई	-12043
बाली	-12044
▁वैठ	-12045
▁दाता	-12046
▁नपर्	-12047
▁लिङ्	-12048
▁छिमेक	-12049
ुपमा	-12050
▁आईत	-12051
▁सप्	-12052
▁बृहत्	-12053
▁भिडन्त	-12054
▁भन्दैमा	-12055
▁विस्तारमा	-12056
▁वल्	-12057
▁कतिले	-12058
▁लडाकु	-12059
▁कमिटीले	-12060
▁बुद्धको	-12061
▁बोलपत्र	-12062
क्षामा	-12063
▁तिब्बत	-12064
▁भित्रका	-12065
▁पर्यटकले	-12066
▁सुकुम्बासी	-12067
जीमा	-12068
हुने	-12069
▁भण्डार	-12070
▁भुकम्प	-12071
▁समीकरण	-12072
▁प्रबन्धक	-12073
पै	-12074
▁एपि	-12075
▁सदैव	-12076
प्रेमी	-12077
▁नगरेका	-12078
▁क्रेडिट	-12079
्राम	-12080
▁शान	-12081
▁आफैमा	-12082
▁टेकेर	-12083
▁संहिता	-12084
▁एक्कासी	-12085
▁समूहबाट	-12086
बिक	-12087
▁मेयरमा	-12088
▁पुँजीगत	-12089
▁अफगानिस्तान	-12090
कस	-12091
चलन	-12092
र्नी	-12093
▁उतै	-12094
▁गएँ	-12095
▁रोगका	-12096
▁सार्न	-12097
▁रिसर्च	-12098
▁ब्राजिल	-12099
▁स्वस्थ्य	-12100
▁जनसंख्याको	-12101
▁नेदरल्याण्ड	-12102
▁बोत	-12103
▁चन्दले	-12104
▁हिंसात्मक	-12105
▁तम	-12106
हराइ	-12107
▁विम	-12108
▁छोडि	-12109
▁ठमेल	-12110
▁सेक्य	-12111
▁आईसीयू	-12112
▁ट्राभल	-12113
्थे	-12114
वापत	-12115
▁अम्ब	-12116
▁आमन्त्र	-12117
▁जोखिमपूर्ण	-12118
ट्ने	-12119
▁अदुवा	-12120
▁प्रतिरक्षा	-12121
न्छी	-12122
▁सुगर	-12123
▁भत्का	-12124
▁गराइने	-12125
▁डेभलपमेन्ट	-12126
हेको	-12127
▁डिल	-12128
▁एकछिन	-12129
▁प्राणी	-12130
▁नपाएपछि	-12131
▁एकताबद्ध	-12132
▁प्रधानले	-12133
▁राप्रपाका	-12134
ाउदै	-12135
▁चौला	-12136
▁मास्	-12137
▁जानेछ	-12138
▁सिन्ड	-12139
▁हड्डी	-12140
▁प्रतिवाद	-12141
▁महिलाहरुले	-12142
▁खण्डन	-12143
▁खेलका	-12144
▁अलावा	-12145
▁जातिको	-12146
▁रजिष्ट्र	-12147
▁हामीकहाँ	-12148
▁मैत्रीपूर्ण	-12149
ेटमा	-12150
▁आँच	-12151
निटाइ	-12152
▁तरुण	-12153
▁निकायबाट	-12154
▁पाउँदैनन्	-12155
▁उपभोक्ताको	-12156
▁परियोजनामा	-12157
▁गायन	-12158
▁फड्को	-12159
▁सच्या	-12160
▁आइतवार	-12161
▁कोहलपुर	-12162
▁ताप्लेजुङ	-12163
▁श्रीमतीको	-12164
श्मी	-12165
पट्टि	-12166
▁क्वि	-12167
बजारमा	-12168
▁जस्ताको	-12169
▁हुनुअघि	-12170
७९	-12171
मिङ	-12172
भियत	-12173
▁लगन	-12174
▁ग्रह	-12175
▁जीवन्त	-12176
महामन्त्री	-12177
▁उस	-12178
▁बर्त	-12179
▁पूँजीगत	-12180
▁वर्षाका	-12181
▁राष्ट्रवादी	-12182
तत्व	-12183
▁बहुमुखी	-12184
▁ठ्याक्कै	-12185
▁मोबाइलमा	-12186
▁न्युयोर्क	-12187
जीपी	-12188
▁टेबल	-12189
क्सिको	-12190
▁निरुप	-12191
▁स्टुडियो	-12192
▁अभिभावकले	-12193
▁जिप	-12194
▁छोड्	-12195
▁ताना	-12196
▁मलेसियामा	-12197
तारो	-12198
▁लुका	-12199
▁खोटाङ	-12200
▁सभाले	-12201
▁नीतिले	-12202
▁मागेका	-12203
▁दार्चुला	-12204
▁काज	-12205
▁फर्काउन	-12206
▁बानेश्वर	-12207
▁मुक्तिनाथ	-12208
▁तेक्वान्दो	-12209
▁निर्मल	-12210
▁धके	-12211
▁समाजिक	-12212
▁योजनाका	-12213
▁पुस्ताका	-12214
▁पुस्ताको	-12215
पहिलो	-12216
▁मनसाय	-12217
▁जोडिने	-12218
▁सूचनामा	-12219
▁यात्रुलाई	-12220
▁गरु	-12221
▁श्व	-12222
डेन्ट	-12223
▁ब्लग	-12224
▁बिचमा	-12225
▁कतारमा	-12226
▁आफूमाथि	-12227
▁आम्दानीको	-12228
ad	-12229
ँडो	-12230
▁गुरू	-12231
▁टोपी	-12232
रात्मक	-12233
▁आईपीओ	-12234
▁दबाबमा	-12235
▁देशव्यापी	-12236
▁गिरिजाप्रसाद	-12237
ेसो	-12238
पीएल	-12239
▁पचास	-12240
▁पाखा	-12241
▁क्रसर	-12242
▁गरिँदै	-12243
▁मितिमा	-12244
▁रोपाइँ	-12245
▁महासमिति	-12246
▁सगरमाथाको	-12247
▁युए	-12248
▁छँदै	-12249
▁डेरा	-12250
▁अगाडिको	-12251
▁उचा	-12252
▁२५०	-12253
▁उग्र	-12254
▁शोभा	-12255
▁सोझै	-12256
▁पछिको	-12257
▁दशकदेखि	-12258
गाइ	-12259
▁रामा	-12260
▁लिंक	-12261
▁हिँडेका	-12262
▁ताप्लेजु	-12263
र्षिकोत्सव	-12264
▁कारोबारमा	-12265
▁पूर्वाधारको	-12266
▁खाका	-12267
▁पहिरन	-12268
▁बजेको	-12269
नेपालमा	-12270
▁बस्छन्	-12271
▁मिथिला	-12272
▁लामाको	-12273
▁स्पोर्	-12274
▁जवाफदेही	-12275
▁अन्तरिक्ष	-12276
▁काँग्रेसले	-12277
?'	-12278
▁दाग	-12279
गाउँमा	-12280
▁यसर्थ	-12281
स्थानमा	-12282
▁वैवाहिक	-12283
▁प्रमुखले	-12284
▁जनप्रतिनिधिले	-12285
▁वाई	-12286
▁आसन्न	-12287
▁जतिसुकै	-12288
▁बोलाउने	-12289
▁प्रयोगकर्ताले	-12290
०००	-12291
▁सान	-12292
▁जोहो	-12293
▁शम्भु	-12294
▁रोमाञ्च	-12295
▁च्याम्पियनसिप	-12296
फले	-12297
दिशा	-12298
▁इनि	-12299
▁नखो	-12300
▁कथित	-12301
▁सिटमा	-12302
▁गाउँमै	-12303
▁रिप	-12304
▁हितका	-12305
नेपालको	-12306
▁जनआन्दोलन	-12307
▁लाभान्वित	-12308
▁मानिसहरूलाई	-12309
गुरु	-12310
प्रयोग	-12311
▁अग्रज	-12312
▁गुप्त	-12313
▁निक्षे	-12314
▁रैथाने	-12315
▁नगरिएको	-12316
एउटा	-12317
्र्य	-12318
▁पोजि	-12319
ढुङ्गा	-12320
हाल्यो	-12321
▁गीतले	-12322
▁तिमल्	-12323
▁गर्भपतन	-12324
▁लिपुलेक	-12325
▁विहीबार	-12326
▁प्रतियोगिताका	-12327
▁अगस्ट	-12328
▁खरेलले	-12329
▁गरिदिए	-12330
▁चहलपहल	-12331
▁महराले	-12332
▁विकेटले	-12333
▁गाँउपालिका	-12334
▁वय	-12335
ौलाको	-12336
▁गाउन	-12337
▁उभ्या	-12338
▁बाँस्को	-12339
▁नेपालीमा	-12340
▁प्रदेशबाट	-12341
▁समया	-12342
▁आरम्भ	-12343
▁गोर्ख	-12344
▁नम्वर	-12345
▁विराट	-12346
▁निस्कन	-12347
▁नपुगेको	-12348
▁यात्रुको	-12349
▁बखत	-12350
शालाको	-12351
▁अगावै	-12352
▁जातका	-12353
▁एमालेसँग	-12354
▁सक्दैनौं	-12355
▁प्लाष्टिक	-12356
▁महान्यायाधि	-12357
▁रित्	-12358
▁बद्री	-12359
▁कार्कीलाई	-12360
▁गर्नुभन्दा	-12361
▁''	-12362
टिक्स	-12363
▁मुहार	-12364
▁बेरोजग	-12365
▁प्रिमियम	-12366
▁मोर्चाको	-12367
▁सभापतिमा	-12368
▁दाह	-12369
करणमा	-12370
▁लाखौँ	-12371
▁कार्यलय	-12372
▁त्यसक्रममा	-12373
▁चढा	-12374
म्यान	-12375
श्वरी	-12376
िकाको	-12377
▁जर्ज	-12378
▁जीर्ण	-12379
▁साँघुरो	-12380
▁प्रतिद्वन्द	-12381
▁लगानीकर्ताले	-12382
ूत	-12383
▁आब	-12384
त्पाद	-12385
दर्शी	-12386
▁छाती	-12387
विकोपा	-12388
▁फाइबर	-12389
हरुमध्ये	-12390
▁लकडाउनका	-12391
▁इलेक्ट्रो	-12392
▁डिस्चार्ज	-12393
▁भड्	-12394
▁राव	-12395
▁वनमा	-12396
▁सुबि	-12397
▁अर्डर	-12398
▁पकाउने	-12399
▁सचिवको	-12400
▁प्रेमिका	-12401
▁पत्रकारलाई	-12402
णको	-12403
दिक	-12404
▁शायद	-12405
▁संका	-12406
▁धरहरा	-12407
▁पहिचानको	-12408
न्यु	-12409
▁इन्भे	-12410
▁कुँवरले	-12411
▁दुव्र्य	-12412
▁बोर्डमा	-12413
▁मिनेटको	-12414
▁भित्रिने	-12415
ढि	-12416
जाति	-12417
पसार	-12418
▁ईन्	-12419
▁नपु	-12420
▁घृणा	-12421
▁साइड	-12422
▁खोजेर	-12423
▁घट्यो	-12424
▁कार्यक्रमहरू	-12425
▁सकु	-12426
▁१२०	-12427
▁ग्रेड	-12428
▁घरदैलो	-12429
▁मागलाई	-12430
▁अन्र्तगत	-12431
▁व्यापारमा	-12432
▁चल्दै	-12433
▁दिलाए	-12434
▁च्याले	-12435
▁संविधानसभामा	-12436
्यारि	-12437
▁वाचा	-12438
▁सुनिता	-12439
▁अस्वस्थ	-12440
▁संसदबाट	-12441
▁म्यू	-12442
▁जुलुस	-12443
▁अमेरिकन	-12444
▁लैङ्गिक	-12445
▁अँध्यारो	-12446
टाइएको	-12447
दिवसीय	-12448
▁सङ्घका	-12449
▁इन्टरनेसनल	-12450
उद्	-12451
▁खेलि	-12452
▁स्नान	-12453
▁राजनीतिलाई	-12454
ूको	-12455
▁बसी	-12456
बजारी	-12457
▁पढेको	-12458
▁संघिय	-12459
▁विवादका	-12460
▁लिम्पिया	-12461
▁महेन्द्रनगर	-12462
▁कोड	-12463
▁देखाए	-12464
▁तामाङको	-12465
▁सांसदलाई	-12466
▁गरिनुपर्छ	-12467
▁म्याग्दीको	-12468
▁बृहत	-12469
▁सरिता	-12470
▁खानामा	-12471
▁रानाले	-12472
▁गणतन्त्रको	-12473
दोहो	-12474
▁देवता	-12475
▁म्याराथ	-12476
▁अध्यक्षका	-12477
▁हुनुभन्दा	-12478
▁ब्यवस्थापन	-12479
▁नपरोस्	-12480
▁हत्याको	-12481
▁त्यत्तिकै	-12482
▁अली	-12483
▁दर्जा	-12484
▁यथावत	-12485
▁खोलेको	-12486
▁सकिन्थ्यो	-12487
▁मस	-12488
▁एएफ	-12489
▁निरौला	-12490
स्दै	-12491
▁गुठ	-12492
▁भएछ	-12493
▁शिर्ष	-12494
▁झापामा	-12495
▁स्त्री	-12496
▁नेम्वाङ	-12497
▁प्रतिष्ठानमा	-12498
गिरी	-12499
मधुर	-12500
सुरु	-12501
▁कट्	-12502
▁०७४	-12503
▁बेरु	-12504
▁वहाँ	-12505
▁पत्रिकामा	-12506
सम्यान	-12507
▁गठनको	-12508
▁पोशाक	-12509
▁ढंगबाट	-12510
▁सोचेको	-12511
▁कक्षाको	-12512
▁इंग्ल्याण्ड	-12513
डेरी	-12514
▁मृतकका	-12515
▁दिलाएका	-12516
▁युवाहरुको	-12517
▁आईसी	-12518
▁हामि	-12519
▁गोकुल	-12520
▁मञ्जु	-12521
▁समसाम	-12522
▁क्लबको	-12523
▁जान्ने	-12524
▁भेट्ने	-12525
▁हेरेको	-12526
▁योजनाहरु	-12527
▁व्यवसायको	-12528
▁इन्स्टाग्राम	-12529
सागर	-12530
▁शारदा	-12531
▁गीतलाई	-12532
▁नोक्सान	-12533
▁पाण्डेको	-12534
▁भनिरहेका	-12535
पाठी	-12536
▁झरना	-12537
▁झैँ	-12538
▁किनबेच	-12539
▁भुटानी	-12540
ँै	-12541
नीका	-12542
लाउन	-12543
लिटर	-12544
नीलाई	-12545
▁क्रस	-12546
▁चार्ट	-12547
▁संबिधान	-12548
▁सेके	-12549
▁चेम्बर	-12550
▁सघाउने	-12551
▁खबरदारी	-12552
खोकी	-12553
▁सल्	-12554
▁निलम्ब	-12555
▁सृष्टि	-12556
▁चौतर्फी	-12557
▁अधिग्रहण	-12558
▁जफत	-12559
▁जिम	-12560
▁हुनुमा	-12561
▁सुनाइन्	-12562
▁प्रतिनिधिले	-12563
टेक	-12564
ड्डी	-12565
स्ले	-12566
▁स्टे	-12567
▁मोवाइ	-12568
▁सप्ता	-12569
▁बर्सेनि	-12570
ष्टर	-12571
▁हट्	-12572
विज्ञ	-12573
▁धानको	-12574
▁छोराछो	-12575
▁सातामा	-12576
▁गर्नेगरी	-12577
▁मर्यादित	-12578
▁मस्तिष्क	-12579
▁नवनिर्वाचित	-12580
▁म्यानेजमेन्ट	-12581
▁एकताका	-12582
▁कानुनमा	-12583
▁प्याक	-12584
▁सौराहा	-12585
▁स्कुटर	-12586
▁विकासलाई	-12587
कीले	-12588
स्का	-12589
▁दस्त	-12590
▁धारण	-12591
▁किनेको	-12592
▁दक्षता	-12593
▁निमन्त्र	-12594
▁कर्मचारीहरुको	-12595
७८	-12596
बाह	-12597
▁दय	-12598
ङ्कन	-12599
बायो	-12600
▁सारेका	-12601
▁जन्मिएको	-12602
▁लापरवाही	-12603
▁नविन	-12604
▁अस्वा	-12605
▁निरंकुश	-12606
▁पुनःस्थापना	-12607
▁खेम	-12608
▁जुनियर	-12609
▁सहमतिका	-12610
▁घिमिरेको	-12611
▁दिइसकेको	-12612
ङ्गको	-12613
▁बस्य	-12614
व्यस्त	-12615
▁दौरान	-12616
▁उभिएको	-12617
▁तहसम्म	-12618
▁सच्याउन	-12619
▁प्रालिले	-12620
▁स्मार्टफो	-12621
▁पाकिस्तानको	-12622
हट	-12623
▁s	-12624
डिने	-12625
▁ठाडो	-12626
▁स्कोर	-12627
▁हुम्ला	-12628
▁चाहन्थे	-12629
▁बढेसँगै	-12630
▁वितरणमा	-12631
▁तत्कालका	-12632
▁भ्याक्सिन	-12633
तित	-12634
▁अब्द	-12635
▁नमान्ने	-12636
▁भिन्नता	-12637
▁चौधरीलाई	-12638
▁अनुसन्धानबाट	-12639
चेको	-12640
टिङमा	-12641
▁पुनर्ग	-12642
▁संस्थाबाट	-12643
▁मौसमी	-12644
▁खरिदमा	-12645
▁वास्ता	-12646
▁रायमाझी	-12647
▁एप्	-12648
▁डकु	-12649
धिकृत	-12650
कोरोना	-12651
▁राप्रपाले	-12652
▁वेबसाइटमा	-12653
▁नियन्त्रणको	-12654
▁सित	-12655
फोर्ड	-12656
▁अंकमा	-12657
▁बचाउने	-12658
▁सुनाएको	-12659
▁विमानस्थलबाट	-12660
▁मद	-12661
धिन	-12662
बले	-12663
लाङ	-12664
▁पन	-12665
▁उपलव्	-12666
▁चाइना	-12667
▁संकटको	-12668
▁भाज	-12669
▁ढाका	-12670
▁सेवनले	-12671
▁हुनसक्	-12672
▁आधुनिकीकरण	-12673
▁आल	-12674
ाउनमा	-12675
▁रुची	-12676
▁पुनस्	-12677
▁बदनाम	-12678
▁अरूलाई	-12679
▁स्टार्ट	-12680
▁आविष्कार	-12681
▁बाहिरिने	-12682
गठ	-12683
त्ताको	-12684
▁बन्धक	-12685
▁ल्यायो	-12686
▁स्क्रि	-12687
▁श्रृंखला	-12688
▁प्रस्तावलाई	-12689
दैछ	-12690
जनले	-12691
▁डिजेल	-12692
▁बलिउडमा	-12693
▁परिषद्का	-12694
▁बाँडफाँट	-12695
▁उहाँहरूले	-12696
▁रुपन्देहीको	-12697
▁अधिकारीहरूले	-12698
इराख	-12699
▁अन्व	-12700
▁हत्य	-12701
▁महाधिवेशनबाट	-12702
▁मेन	-12703
होरेको	-12704
▁कर्मा	-12705
▁गरोस्	-12706
▁दशैंको	-12707
▁मनमोहन	-12708
▁समातेर	-12709
▁बहुमतको	-12710
लार	-12711
▁सुझ	-12712
▁परित	-12713
▁मेडल	-12714
▁इन्दि	-12715
जरल्याण्ड	-12716
▁माओवादीलाई	-12717
▁मन्	-12718
▁तिलो	-12719
▁गतिलो	-12720
▁युवाहरुलाई	-12721
▁प्रतिव्यक्ति	-12722
मन्द	-12723
▁थप्न	-12724
▁२०६९	-12725
▁यत्रो	-12726
▁रुद्र	-12727
▁सुमधुर	-12728
▁सोभियत	-12729
▁घोषणापत्रमा	-12730
६०	-12731
▁c	-12732
कवि	-12733
म्मर	-12734
वंशी	-12735
▁हल्	-12736
परिषद्	-12737
र्मिला	-12738
▁वाग्मती	-12739
▁रहनुभएका	-12740
चढा	-12741
टेन	-12742
ुवाँ	-12743
▁मतले	-12744
▁अघिल्ला	-12745
▁पदमुक्त	-12746
▁कार्यशैली	-12747
▁पारदर्शिता	-12748
▁व्यापारीले	-12749
पीएस	-12750
बन्धक	-12751
▁चालि	-12752
▁संयोज	-12753
▁पार्टनर	-12754
▁कुटनीतिक	-12755
▁पालिकाले	-12756
▁शर्मालाई	-12757
▁मीठो	-12758
▁चिनिने	-12759
▁समर्पण	-12760
▁प्रार्थ	-12761
▁पूर्वराजा	-12762
नेसिया	-12763
हरुबीच	-12764
▁बुकिङ	-12765
तर्फबाट	-12766
▁लोग्ने	-12767
▁अधिवेशनमा	-12768
▁अङ्क	-12769
▁जनाउने	-12770
▁कानूनको	-12771
▁क्षतिको	-12772
▁बिद्यार्थी	-12773
ञ्चा	-12774
वाहित	-12775
▁मानेको	-12776
हरूमध्ये	-12777
▁मेक्सिको	-12778
▁समसामयिक	-12779
▁संक्षिप्त	-12780
योस्	-12781
▁रुकु	-12782
▁विवादको	-12783
▁सहकारीका	-12784
▁हुनुपर्यो	-12785
निकल	-12786
▁अमा	-12787
विन्दु	-12788
▁कसुरमा	-12789
▁हिसावले	-12790
▁सांसदहरूले	-12791
▁निमो	-12792
▁भेलामा	-12793
▁निकाल्दै	-12794
▁इन्स्योरेन्स	-12795
भागमा	-12796
▁मेरै	-12797
▁सर्ट	-12798
▁भयावह	-12799
त्यसैले	-12800
▁ओझेलमा	-12801
▁मिसाएर	-12802
क्टेरिया	-12803
▁मान्दैन	-12804
▁बिजुलीको	-12805
▁सातादेखि	-12806
▁काठमाडौँको	-12807
▁वृह	-12808
▁विषयले	-12809
▁गर्नेको	-12810
▁भृ	-12811
▁पुत	-12812
▁बडी	-12813
▁बोग	-12814
अघिका	-12815
▁वितर	-12816
शिक्षा	-12817
▁न्यूज	-12818
▁माक्र्स	-12819
▁गर्नेहरु	-12820
▁नेताहरूलाई	-12821
▁प्रक्रियाबाट	-12822
छौँ	-12823
▁अं	-12824
लिने	-12825
ेजको	-12826
▁खल्	-12827
▁मुट	-12828
▁माथी	-12829
▁बहराइ	-12830
▁माटोको	-12831
▁तेह्रथु	-12832
▁धर्मावल	-12833
▁खेलेर	-12834
▁नपरेको	-12835
▁एन्ड्रो	-12836
▁कम्पनीसँग	-12837
▁शुल्	-12838
▁सहजता	-12839
▁सुपरि	-12840
वस्थामा	-12841
▁गौतमको	-12842
▁बालबच्चा	-12843
▁तिनीहरूको	-12844
२४	-12845
ढेलो	-12846
▁डटक	-12847
▁भ्याट	-12848
▁क्लबमा	-12849
▁आफूहरूले	-12850
▁विश्वकर्माले	-12851
णिक	-12852
ाउन्ड	-12853
▁टोकियो	-12854
▁क्रिकेटको	-12855
▁बालिकालाई	-12856
▁व्यवस्थाका	-12857
▁हुलाकी	-12858
ालगायतका	-12859
▁क्यामरा	-12860
▁बुझिएको	-12861
▁अस्वाभाविक	-12862
▁दुर्घटनाको	-12863
▁मामा	-12864
▁खुद्रा	-12865
▁घरघरमा	-12866
▁जनवादी	-12867
▁कँडेलले	-12868
▁घरभित्र	-12869
▁जडीबुटी	-12870
▁परिश्रम	-12871
▁सर्वोत्कृष्ट	-12872
उँदो	-12873
चुनाव	-12874
▁बिगा	-12875
ृङ्खला	-12876
▁पुरुषो	-12877
▁विधिको	-12878
▁म्यानचे	-12879
▁अनलाइनमा	-12880
▁रामेश्वर	-12881
▁लोकमार्ग	-12882
ent	-12883
▁एडि	-12884
लिखित	-12885
दास्पद	-12886
▁चढ्ने	-12887
सियन	-12888
▁पाइन	-12889
▁म्याग	-12890
▁गर्नेमा	-12891
▁थाल्छन्	-12892
▁सेकेन्ड	-12893
▁सम्बन्धन	-12894
▁गरिन्थ्यो	-12895
नाश	-12896
▁कद	-12897
नीयता	-12898
▁प्रतिक	-12899
▁फिलिपि	-12900
▁पुस्तकको	-12901
▁खर	-12902
भाषित	-12903
▁सावि	-12904
▁गैंडा	-12905
▁प्रदु	-12906
▁उभिएका	-12907
▁झाँक्र	-12908
▁उपविजेता	-12909
▁एकदिवसीय	-12910
▁झुक	-12911
गोपाल	-12912
न्छौं	-12913
▁विजु	-12914
र्सानी	-12915
▁कोर्स	-12916
▁पुर्याएर	-12917
▁देखिएकाले	-12918
▁विचारधारा	-12919
▁शिक्षालाई	-12920
▁सहभागितामा	-12921
किशोर	-12922
▁बिल्	-12923
▁छाएको	-12924
▁ग्रामिण	-12925
▁योगदानको	-12926
▁क्वारेन्टिनमा	-12927
यरको	-12928
▁घडी	-12929
रियामा	-12930
▁वेष्ट	-12931
कालदेखि	-12932
▁दलहरूको	-12933
▁क्यासिनो	-12934
▁महामारीले	-12935
▁इकाई	-12936
▁सान्	-12937
▁सिफारिश	-12938
▁बालिकाको	-12939
▁दिपेन्द्र	-12940
▁देवकोटाले	-12941
▁वापत	-12942
▁बजारका	-12943
▁परेकाले	-12944
▁मार्गमा	-12945
▁टेलिकमले	-12946
▁वार्ताको	-12947
▁सुनसरीको	-12948
▁कार्यसूची	-12949
टिने	-12950
▁धित	-12951
▁बजेर	-12952
▁प्रोटिन	-12953
▁डडेल्धुरा	-12954
एछ	-12955
कथा	-12956
रियल	-12957
▁कोलम्ब	-12958
▁निरुपण	-12959
▁महत्वको	-12960
▁लोह	-12961
करणका	-12962
▁बुझि	-12963
▁हालत	-12964
▁एल्बम	-12965
▁गर्दथे	-12966
▁उत्तरदायी	-12967
▁स्थानीयवासीले	-12968
▁जोडिन	-12969
▁प्यान	-12970
▁बाँच्ने	-12971
▁प्रख्यात	-12972
▁जस्तोसुकै	-12973
▁पिछ	-12974
राधना	-12975
▁विपिन	-12976
▁स्ववियु	-12977
▁त्यसतर्फ	-12978
▁संखुवासभा	-12979
▁छाड्	-12980
▁ओसारपसार	-12981
▁समितिबाट	-12982
▁मानबहादुर	-12983
अव	-12984
▁किशो	-12985
▁गएकी	-12986
▁प्रजनन	-12987
▁बेरुजु	-12988
▁ठाकुरले	-12989
▁युट्युबमा	-12990
मह	-12991
बोर्ड	-12992
▁कट्ट	-12993
▁ग्रि	-12994
नीतिमा	-12995
्याक्ट	-12996
पेको	-12997
▁फलो	-12998
▁वैध	-12999
▁कोदो	-13000
▁खेप्	-13001
▁बाँझो	-13002
▁इन्स्टि	-13003
▁शिक्षित	-13004
▁अनुपस्थित	-13005
दशी	-13006
यसी	-13007
सेस	-13008
हिद	-13009
▁कोले	-13010
▁आर्यन	-13011
▁हुनका	-13012
▁ह्वाइ	-13013
▁हालेको	-13014
▁दोषीलाई	-13015
▁केटाकेटी	-13016
▁संस्थाहरुले	-13017
▁धर्	-13018
▁लाज	-13019
सिस्ट	-13020
▁बोरा	-13021
▁तोकेर	-13022
▁बुझाई	-13023
▁रिपोर्	-13024
▁हिजोको	-13025
▁तिलोत्त	-13026
▁कोरोनाबाट	-13027
प्रद	-13028
प्ला	-13029
▁खुल	-13030
▁मिठा	-13031
▁डेनमा	-13032
▁विघटनको	-13033
▁रामकृष्ण	-13034
र्वा	-13035
▁अमे	-13036
▁कयौं	-13037
▁च्याट	-13038
सेनापति	-13039
▁मैनाली	-13040
▁सामन्त	-13041
▁घटनापछि	-13042
▁त्रिवेणी	-13043
▁नाराबाजी	-13044
▁कामदारलाई	-13045
▁सफ	-13046
▁बेहु	-13047
▁२००९	-13048
▁चितुवा	-13049
▁मृतकको	-13050
▁सुनाउँछन्	-13051
बरको	-13052
▁हिना	-13053
▁सामसु	-13054
▁टेन्डर	-13055
▁ट्यांक	-13056
निरपेक्ष	-13057
▁परिपक्व	-13058
▁उपप्रधान	-13059
▁संस्करणमा	-13060
▁बासिन्दाले	-13061
पत्	-13062
कालको	-13063
▁गोरख	-13064
▁ठाउँका	-13065
▁दूरीमा	-13066
▁राईलाई	-13067
▁बेचबिखन	-13068
▁स्याहार	-13069
▁खटिने	-13070
▁लमजुङ	-13071
▁सुर्य	-13072
▁लिइन्छ	-13073
▁बजारबाट	-13074
▁परिक्रमा	-13075
▁कलाकारहरु	-13076
▁वना	-13077
▁माग्दै	-13078
▁निश्कर्ष	-13079
▁जनसम्पर्क	-13080
अलि	-13081
त्ने	-13082
▁र्फ	-13083
▁तिलक	-13084
▁बाइक	-13085
▁सम्पति	-13086
▁यात्रुले	-13087
▁लिम्पियाधुरा	-13088
लैया	-13089
्याग	-13090
▁कलि	-13091
▁सोहि	-13092
▁कान्छा	-13093
▁राजाले	-13094
▁बैठकपछि	-13095
▁हत्यामा	-13096
▁आयोजनाबाट	-13097
▁प्रणालीबाट	-13098
चनले	-13099
चौकी	-13100
▁सिन्	-13101
▁च्यान	-13102
▁प्रतिश	-13103
▁तालिममा	-13104
▁दुवैलाई	-13105
▁लगाएपछि	-13106
▁मन्थ	-13107
ुरुस्त	-13108
▁सोधेको	-13109
उनको	-13110
थियो	-13111
▁उमेद	-13112
▁छँदा	-13113
▁चक्रपथ	-13114
▁डकुमेन्ट	-13115
▁आन्दोलनरत	-13116
▁कात्तिकमा	-13117
ूर्त	-13118
▁भियत	-13119
▁लिंग	-13120
▁परेकी	-13121
▁साबुन	-13122
ुको	-13123
▁जबरा	-13124
▁सतहमा	-13125
▁गतवर्ष	-13126
▁ढुंगाना	-13127
▁भाइरसका	-13128
▁लेखिएका	-13129
▁पुनर्संरचना	-13130
▁कर्मचारीहरुले	-13131
उँछु	-13132
सिने	-13133
▁भनेँ	-13134
▁लेखे	-13135
स्तिका	-13136
▁परदेश	-13137
▁हाँसो	-13138
▁अघिदेखि	-13139
▁यसबीचमा	-13140
▁गन्तव्यमा	-13141
▁संरक्षणको	-13142
घार	-13143
जाउ	-13144
एमसी	-13145
▁चढ्न	-13146
▁टहरा	-13147
▁मुछि	-13148
▁सँधै	-13149
▁२०२६	-13150
▁गुनासा	-13151
▁रहँदैन	-13152
▁सिद्धि	-13153
▁कार्यदिशा	-13154
▁इन्जिन	-13155
▁सहितका	-13156
▁गुमाउनु	-13157
▁देखाउनु	-13158
▁पाउनुपर्छ	-13159
▁छुट्याइएको	-13160
संगीत	-13161
▁अल्झ	-13162
रिक्षक	-13163
▁डढेलो	-13164
▁चलाएका	-13165
▁बिष्णु	-13166
▁जितेन्द्र	-13167
▁प्रदर्शनको	-13168
▁राजमार्गमा	-13169
द्वारी	-13170
▁अन्तमा	-13171
▁समेतको	-13172
▁धरौ	-13173
▁महिने	-13174
▁समयसीमा	-13175
▁विश्वप्रकाश	-13176
▁जिन	-13177
▁गहना	-13178
▁कसैसँग	-13179
▁राजिनामा	-13180
इको	-13181
तिले	-13182
पाली	-13183
ाइमा	-13184
▁अभिषेक	-13185
▁कुर्सी	-13186
▁छलफलको	-13187
▁ज्ञानको	-13188
▁सम्झनामा	-13189
▁मग	-13190
शनमा	-13191
ेन्सन	-13192
▁भनें	-13193
▁नल्या	-13194
▁मूलतः	-13195
▁यत्ति	-13196
▁वल्र्ड	-13197
▁भनौं	-13198
▁शहरको	-13199
▁अनुरूप	-13200
▁हप्ताको	-13201
▁मतदाताको	-13202
▁पदाधिकारीले	-13203
▁ढल्	-13204
लिएका	-13205
▁ओपनर	-13206
▁दिनलाई	-13207
▁हत्यारा	-13208
▁पत्रकारले	-13209
र्गे	-13210
▁अलै	-13211
▁डाँग	-13212
▁गर्नेछौं	-13213
ध्व	-13214
▁भयौं	-13215
▁लाइट	-13216
▁अविरल	-13217
▁सोचमा	-13218
▁फर्काउने	-13219
▁हरायो	-13220
▁अवसरको	-13221
▁उपस्थिती	-13222
▁यसबारेमा	-13223
▁यातायातको	-13224
बहु	-13225
▁ग्	-13226
र्वाद	-13227
▁ख्या	-13228
▁विस्	-13229
▁पहुँचमा	-13230
ग्लिन	-13231
ियममा	-13232
▁मांस	-13233
▁खेलकुदमा	-13234
▁राजसंस्था	-13235
▁सुरुङमार्ग	-13236
▁ढोर	-13237
▁नित	-13238
▁मुकु	-13239
▁सिंचाइ	-13240
▁स्वकीय	-13241
▁विश्राम	-13242
▁सहकर्मी	-13243
▁क्षमताका	-13244
▁परिषद्ले	-13245
▁क्लो	-13246
▁प्रसू	-13247
▁फैलिन	-13248
▁छोराले	-13249
▁नपुग्ने	-13250
▁सक्थ्यो	-13251
▁निरपेक्ष	-13252
▁मनले	-13253
▁कामहरू	-13254
▁परिषदको	-13255
▁चलिरहेका	-13256
▁सहकारीमा	-13257
▁पुनरावेदन	-13258
▁प्रत्याभूति	-13259
▁अष्ट्रेलियामा	-13260
▁छर्	-13261
स्केट	-13262
▁छापेको	-13263
▁अभ्यासमा	-13264
▁आफूहरुलाई	-13265
▁वार्षिकोत्सव	-13266
▁लक	-13267
ेश्य	-13268
▁घटाएर	-13269
▁मरेको	-13270
▁बाँधेर	-13271
▁स्मारक	-13272
▁एशियाली	-13273
ोस	-13274
चनको	-13275
▁डिन	-13276
▁वाह	-13277
नमाथि	-13278
वासीको	-13279
▁परिर्व	-13280
▁सबैजना	-13281
▁प्रसङ्ग	-13282
▁लाखसम्म	-13283
▁बैंकिङ्ग	-13284
▁बनाइरहेको	-13285
▁विवादास्पद	-13286
तारि	-13287
▁आयक	-13288
▁एमसी	-13289
▁तरंग	-13290
▁साबित	-13291
▁केन्द्रलाई	-13292
▁रुपैयाँभन्दा	-13293
▁बिक्र	-13294
▁बञ्चित	-13295
▁अर्कातिर	-13296
▁आक्रमणको	-13297
▁निकालेका	-13298
▁सेक्युरि	-13299
ब्ध	-13300
▁भान	-13301
▁१९४	-13302
न्ध्र	-13303
▁इजलास	-13304
▁सार्ब	-13305
▁मिल्यो	-13306
▁यात्री	-13307
▁यार्सा	-13308
▁वित्तिकै	-13309
▁परिवारसँग	-13310
▁जाल	-13311
▁फर्नि	-13312
▁सुनिन्छ	-13313
▁कार्यन्व	-13314
किट	-13315
न्तरले	-13316
▁पढ्नु	-13317
▁सोध्ने	-13318
▁होमस्टे	-13319
▁श्रद्धाञ्जली	-13320
र्गा	-13321
▁समक	-13322
विकास	-13323
▁नरहने	-13324
▁बहाना	-13325
▁बायाँ	-13326
▁स्ट्या	-13327
▁सिलिन्डर	-13328
▁अन्तरवार्ता	-13329
▁रज	-13330
एसँगै	-13331
मानले	-13332
▁विषेश	-13333
▁अयोग्य	-13334
▁जोशीको	-13335
▁पुराता	-13336
▁समेट्ने	-13337
जहाज	-13338
नेपछि	-13339
▁छुटेका	-13340
▁विरुवा	-13341
▁सुबिधा	-13342
▁रोकिएका	-13343
▁हिंसाको	-13344
▁अनुसन्धानले	-13345
टरी	-13346
▁बहाव	-13347
▁डान्स	-13348
▁हमालले	-13349
▁उद्योगका	-13350
▁तद	-13351
▁रमण	-13352
▁हवाइ	-13353
▁निष्काश	-13354
▁पार्वती	-13355
▁वर्षेनी	-13356
▁स्पोर्ट	-13357
▁खोजिरहेका	-13358
▁स्वामित्वमा	-13359
▁व्यक्तिहरुलाई	-13360
▁आङ	-13361
्वाल	-13362
▁आयर	-13363
▁बिउ	-13364
▁सघन	-13365
ञ्जित	-13366
▁गरिसक्	-13367
▁छोडेको	-13368
▁कन्स्ट्र	-13369
▁त्यतिखेर	-13370
▁मन्त्रिपरिषदको	-13371
इङ	-13372
▁क्यू	-13373
▁अनुचित	-13374
▁र्याली	-13375
▁किलोमिटरको	-13376
गंज	-13377
टिश	-13378
बाङ	-13379
▁थर	-13380
थ्यौं	-13381
हुनेछ	-13382
▁माडी	-13383
▁सयौँ	-13384
दिन्छु	-13385
▁बिहानको	-13386
▁संचालित	-13387
▁विश्वासमा	-13388
▁नख	-13389
▁पड्	-13390
▁जनही	-13391
▁कमेडी	-13392
▁व्यवसायीहरु	-13393
▁रक्षामन्त्री	-13394
▁सेभ	-13395
▁उत्पीड	-13396
▁छालाको	-13397
▁सुनाउँदै	-13398
▁अप्रत्यक्ष	-13399
▁क्षय	-13400
▁भ्रा	-13401
हामीलाई	-13402
▁पन्तको	-13403
▁मोरङका	-13404
▁सुदृढी	-13405
▁अधिनायक	-13406
▁काभ्रेप	-13407
▁कोरियोग्रा	-13408
▁प्रशिक्षणमा	-13409
ग्य	-13410
तारा	-13411
▁फाल	-13412
▁बेन्	-13413
▁अनुपा	-13414
▁रसायन	-13415
▁दशैंमा	-13416
चालक	-13417
▁अस्प	-13418
▁डिभाइ	-13419
▁सर्भे	-13420
▁गीतहरु	-13421
▁जिब्रो	-13422
▁लाइनको	-13423
▁सक्दिन	-13424
णविक	-13425
▁नम्र	-13426
▁बदला	-13427
▁बदली	-13428
▁बनेपा	-13429
▁भनियो	-13430
▁तिर्नु	-13431
▁कन्सल्ट	-13432
▁दाबेदार	-13433
▁मान्छन्	-13434
▁तिवारीले	-13435
▁स्ने	-13436
▁बनाउँ	-13437
▁गएराति	-13438
▁गाविसमा	-13439
कोही	-13440
▁जरा	-13441
▁कमाई	-13442
▁शुभे	-13443
▁पार्ट	-13444
▁सेन्सर	-13445
▁बुझिन्छ	-13446
▁जसअनुसार	-13447
▁उत्पादनलाई	-13448
वाज	-13449
▁होटलको	-13450
▁कालोबजारी	-13451
▁ब्लड	-13452
▁मूख्य	-13453
धिकारको	-13454
▁कमेन्ट	-13455
▁क्यारे	-13456
▁ब्याट्	-13457
यसले	-13458
▁आएमा	-13459
▁मलको	-13460
▁श्रेण	-13461
▁बिजनेस	-13462
▁सुक्खा	-13463
▁हावाहु	-13464
▁प्रजातिका	-13465
▁विद्यार्थीका	-13466
▁शुक्रबारदेखि	-13467
ततै	-13468
रिका	-13469
ेजले	-13470
हरूबीच	-13471
▁इभेन्ट	-13472
▁दुईपटक	-13473
▁बेथिति	-13474
▁वृद्धा	-13475
▁कूटनीति	-13476
▁पुनस्र्था	-13477
▁घटनास्थलमा	-13478
▁किनारा	-13479
▁चुनावका	-13480
▁अधिकृतले	-13481
▁नेम्वाङले	-13482
▁सिंहदरबारमा	-13483
▁प्राधिकरणलाई	-13484
▁आकलन	-13485
▁माझी	-13486
▁बगाएको	-13487
▁दिलाउने	-13488
▁टेक्नोलोजी	-13489
▁प्रतिद्वन्द्वी	-13490
छाड	-13491
▁चट	-13492
भिडियो	-13493
▁आँकलन	-13494
▁परेमा	-13495
▁स्तरका	-13496
▁लघुवित्	-13497
▁विजेताले	-13498
▁तालाबन्दी	-13499
▁मोटरसाइकलमा	-13500
▁सदस्यहरुलाई	-13501
▁नजिकका	-13502
▁पूर्ति	-13503
▁सोच्नु	-13504
▁ल्यापटप	-13505
▁वितरणको	-13506
▁देखिन्थे	-13507
▁अन्तर्गतका	-13508
हस	-13509
▁बाझ	-13510
दृश्य	-13511
र्सका	-13512
▁जर्न	-13513
▁ज्यू	-13514
▁भन्द	-13515
▁साहस	-13516
▁अर्गा	-13517
▁व्यास	-13518
▁कोरियन	-13519
▁दिइनेछ	-13520
▁जनतासँग	-13521
▁ओखलढुंगा	-13522
▁जीप	-13523
▁भोल	-13524
मारको	-13525
मुख्य	-13526
▁२०४८	-13527
▁बृद्ध	-13528
▁पार्नु	-13529
▁सुनसान	-13530
▁बनाएपछि	-13531
▁गुरुङलाई	-13532
▁लामिछानेको	-13533
▁वर्षौंदेखि	-13534
ep	-13535
▁एसई	-13536
▁मनी	-13537
▁दिवा	-13538
▁परमा	-13539
र्निया	-13540
▁स्टाफ	-13541
▁अग्रणी	-13542
▁अग्रवाल	-13543
▁परिभाषित	-13544
डाम	-13545
▁शय्या	-13546
▁सोध्न	-13547
▁उपचाररत	-13548
▁हिमालको	-13549
▁संग्रहालय	-13550
▁इँटा	-13551
▁चेपा	-13552
▁भिजन	-13553
▁गोलभे	-13554
▁गएकाले	-13555
▁युनिभर्सिटी	-13556
छौ	-13557
सीन	-13558
▁तिव्र	-13559
▁चिल्लो	-13560
▁सहभागीता	-13561
▁स्वचालित	-13562
▁अस्तव्यस्त	-13563
तम्	-13564
▁जडि	-13565
ज्ञात	-13566
तान्त	-13567
▁अचेल	-13568
कासहित	-13569
▁रगतमा	-13570
▁पेशागत	-13571
थल	-13572
हुँदैन	-13573
▁वस्ती	-13574
▁ताइवान	-13575
▁सिध्या	-13576
▁सीमान्त	-13577
▁संघर्षको	-13578
▁पुरुषोत्तम	-13579
पं	-13580
पुत	-13581
▁अक	-13582
श्रा	-13583
▁असुली	-13584
▁मौज्दा	-13585
▁वर्षमान	-13586
▁ह्वात्तै	-13587
▁गाउपालिका	-13588
▁अर्घाखाँची	-13589
▁मानिसहरूको	-13590
सियम	-13591
▁डेड	-13592
▁दुखा	-13593
▁सिके	-13594
द्र्धन	-13595
▁प्याज	-13596
▁मझौला	-13597
▁हेटौँ	-13598
▁खनालको	-13599
▁प्राज्ञिक	-13600
▁नेपालीहरुलाई	-13601
▁श्वासप्रश्वास	-13602
र्जि	-13603
▁एउटी	-13604
सकेकाले	-13605
▁कर्णालीका	-13606
▁घण्टासम्म	-13607
▁श्रेष्ठका	-13608
सरह	-13609
मिलो	-13610
विगत	-13611
जिम्मे	-13612
▁दुःखी	-13613
▁स्वाधीन	-13614
▁पदाधिकारीको	-13615
पाथ	-13616
्रक	-13617
न्टन	-13618
निष्ठ	-13619
▁गोल्	-13620
▁फेरब	-13621
▁मनिष	-13622
▁बस्यो	-13623
▁हटेको	-13624
▁त्रिपाठ	-13625
▁कार्यहरु	-13626
▁रुघाखोकी	-13627
▁अल्पसंख्यक	-13628
खर्क	-13629
▁मरा	-13630
▁दाउरा	-13631
▁प्रमुखमा	-13632
▁निमन्त्रणा	-13633
स्पर	-13634
▁नरम	-13635
▁सिंग	-13636
▁आणविक	-13637
कांग्रेस	-13638
▁नराख्ने	-13639
▁परित्याग	-13640
▁असंवैधानिक	-13641
ोदर	-13642
▁सवा	-13643
▁चट्या	-13644
▁क्यालि	-13645
▁जताततै	-13646
▁बाहुल्य	-13647
▁क्यापिटल	-13648
बेद	-13649
▁रुपैं	-13650
▁परिसंघ	-13651
▁फेर्ने	-13652
▁सभालाई	-13653
▁ह्वाइट	-13654
▁भक्तपुरमा	-13655
बाई	-13656
मीका	-13657
▁जगे	-13658
▁भजन	-13659
▁आइएमई	-13660
▁आकाशमा	-13661
▁केसीलाई	-13662
▁प्रकारले	-13663
▁सन्तोषजनक	-13664
as	-13665
ियु	-13666
▁पछी	-13667
▁लगि	-13668
▁नाताले	-13669
▁बन्नेछ	-13670
▁हिजोआज	-13671
▁जन्मेको	-13672
▁परिसूचक	-13673
▁फर्किएर	-13674
नेल	-13675
▁टाढ	-13676
स्तान	-13677
▁आभार	-13678
▁ब्वाइ	-13679
▁भेटिए	-13680
▁वृक्ष	-13681
▁आवागमन	-13682
▁वित्ति	-13683
टरले	-13684
▁उसो	-13685
ाउँदो	-13686
▁गुला	-13687
▁२०६५	-13688
▁आईएमई	-13689
▁सन्दि	-13690
▁देशहरुमा	-13691
▁थेग	-13692
▁बच्च	-13693
▁मुनि	-13694
▁राखेप	-13695
लाञ्चोक	-13696
▁बेलैमा	-13697
▁लोकप्रियता	-13698
प्राइ	-13699
▁पर्थ	-13700
▁साकार	-13701
▁घरायसी	-13702
▁तटबन्ध	-13703
▁कालखण्ड	-13704
▁चोलेन्द्र	-13705
▁सोन	-13706
▁आँखाले	-13707
▁लेख्दै	-13708
▁महिनामै	-13709
▁खोजिरहेको	-13710
▁श्रीमतीलाई	-13711
ैंचा	-13712
▁सुव	-13713
▁पिउन	-13714
▁जिताउन	-13715
▁सिङ्गो	-13716
▁इन्दिरा	-13717
▁विच्छेद	-13718
▁छुट्याएको	-13719
▁सन्तुष्टि	-13720
३५	-13721
ुतो	-13722
जिकल	-13723
ारिक	-13724
▁यदी	-13725
▁शतक	-13726
▁इटहर	-13727
▁कन्या	-13728
▁अभिमुख	-13729
▁पैसाले	-13730
▁हातबाट	-13731
बहादुरले	-13732
▁अपनाउने	-13733
▁सर्वदलीय	-13734
▁प्रधानसेनापति	-13735
▁काका	-13736
▁आसपास	-13737
▁त्यहीं	-13738
▁बास्तो	-13739
▁विद्यु	-13740
▁सिलवाल	-13741
▁हेमन्त	-13742
▁ज्योतिष	-13743
▁धर्मनिरपेक्ष	-13744
ol	-13745
खेरि	-13746
▁खाए	-13747
▁प्य	-13748
▁पाँचथर	-13749
▁गणेशमान	-13750
▁ट्याक्टर	-13751
▁रोमाञ्चक	-13752
▁टक	-13753
▁हड	-13754
▁जागर	-13755
▁दिसा	-13756
▁ढिलाई	-13757
▁थिइनँ	-13758
▁हेरौं	-13759
▁बनाइयो	-13760
▁खुट्टामा	-13761
▁समुन्द्र	-13762
▁बाहुन	-13763
▁भवानी	-13764
▁विमोचन	-13765
▁विचारको	-13766
▁हरियाली	-13767
शिर	-13768
ुरोग	-13769
▁तान	-13770
▁मेमो	-13771
▁लायक	-13772
वेक्षण	-13773
▁अनलाईन	-13774
▁पहाडमा	-13775
▁रमाउने	-13776
▁लम्बाइ	-13777
▁सङ्केत	-13778
▁लालबाबु	-13779
▁केर	-13780
▁रसिया	-13781
रहन्छन्	-13782
▁मास्टर	-13783
▁रहन्छन्	-13784
▁गर्दैछौं	-13785
▁पुर्याएका	-13786
▁प्रकाशमान	-13787
▁बालबालिकामा	-13788
जामा	-13789
▁अँग	-13790
▁पनी	-13791
▁अपुग	-13792
▁आँधी	-13793
▁कोणबाट	-13794
▁जान्छु	-13795
▁श्रेणी	-13796
▁क्षतिग्रस्त	-13797
▁निर्वाचनलाई	-13798
▁एटी	-13799
णात्मक	-13800
▁त्यता	-13801
▁मर्जर	-13802
▁सन्तानको	-13803
▁काठमाडाैं	-13804
▁कुराकानीको	-13805
र्ते	-13806
▁नाइट	-13807
▁सुलभ	-13808
▁लम्साल	-13809
▁विषयका	-13810
▁सुरुआत	-13811
▁बङ्गलादेश	-13812
्द	-13813
मिस	-13814
्रल	-13815
बिधि	-13816
▁अशक्त	-13817
▁आपूर्	-13818
▁मुख्यसचिव	-13819
▁स्थापनाका	-13820
ामा	-13821
ारात	-13822
▁कार्यका	-13823
▁प्रतिदिन	-13824
▁गोरखापत्र	-13825
▁न्यूयोर्क	-13826
नास	-13827
▁आशय	-13828
▁डबल	-13829
▁विन	-13830
िकाले	-13831
▁तस्कर	-13832
▁दाङका	-13833
▁मिल्न	-13834
▁देशबीच	-13835
▁शाखाको	-13836
▁गरिरहनु	-13837
▁परिमाणमा	-13838
▁सकिरहेका	-13839
▁भूकम्पपीडित	-13840
▁।।	-13841
न्ते	-13842
वृद्धा	-13843
सुन्दर	-13844
▁स्याट	-13845
▁एन्फाले	-13846
▁वित्तिय	-13847
चिब	-13848
▁नर्व	-13849
▁एप्पल	-13850
▁दौडमा	-13851
▁समाजवादको	-13852
धर्म	-13853
▁तम्	-13854
▁बोसो	-13855
▁माध्या	-13856
▁स्टेसन	-13857
▁गोदावरी	-13858
▁देशभित्र	-13859
▁महत्वाकां	-13860
▁रास्वपाले	-13861
▁प्रयोगशालामा	-13862
▁घिउ	-13863
▁प्वा	-13864
▁लडेर	-13865
▁इज्जत	-13866
▁तत्पर	-13867
▁बताउन	-13868
▁सम्प्र	-13869
▁समुद्री	-13870
▁बाँडफाँड	-13871
▁महाराजगञ्ज	-13872
▁अंकित	-13873
▁ट्रेलर	-13874
▁मोक्ता	-13875
▁राउण्ड	-13876
▁अघिसम्म	-13877
▁डुबानमा	-13878
▁समस्याहरू	-13879
ञ्छ	-13880
▁तिल	-13881
▁ठकुरी	-13882
▁शक्तिले	-13883
▁अर्थपूर्ण	-13884
▁सर्वोच्चमा	-13885
▁कर्मचारीहरुलाई	-13886
तिमी	-13887
प्रथम	-13888
▁१९९०	-13889
▁पुत्र	-13890
▁गतिशील	-13891
▁साक्षा	-13892
▁समिक्षा	-13893
▁रामकुमार	-13894
▁व्यवसायलाई	-13895
ून्	-13896
लालाई	-13897
▁उत्ते	-13898
▁नेसनल	-13899
▁साहसिक	-13900
▁धरौटीमा	-13901
८२	-13902
कानू	-13903
क्टो	-13904
विशेष	-13905
वहादुर	-13906
▁खुलेका	-13907
ालक्ष्मी	-13908
▁आफैंलाई	-13909
बर्	-13910
▁प्यु	-13911
▁बार्षिक	-13912
▁मानन्धर	-13913
▁संसारभर	-13914
▁काफ्लेले	-13915
▁कारवाहीको	-13916
▁मन्त्रीलाई	-13917
हले	-13918
▁उठान	-13919
देश्यीय	-13920
▁आश्रित	-13921
▁पक्षसँग	-13922
▁मनपर्ने	-13923
▁बालबालिकाले	-13924
भिङ	-13925
ष्म	-13926
डिएका	-13927
अनुरूप	-13928
▁अर्की	-13929
▁गैँडा	-13930
▁कर्पोरेट	-13931
▁स्वर्गीय	-13932
▁विद्यार्थीहरुको	-13933
▁उहा	-13934
▁अत्त	-13935
▁लगेका	-13936
▁वाग्ले	-13937
▁इमानदार	-13938
सिएका	-13939
▁मुल्या	-13940
▁पाँचवटा	-13941
▁विकासले	-13942
▁तथ्यांकले	-13943
▁कार्यसमितिको	-13944
▁संक्रमणकालीन	-13945
▁अनुसन्धानकर्ता	-13946
▁नपर	-13947
टाएका	-13948
▁थाहै	-13949
▁आवधिक	-13950
▁निकाले	-13951
▁पारिएका	-13952
▁भागबण्डा	-13953
एक्स	-13954
▁अहं	-13955
▁भाट	-13956
▁सुल्	-13957
▁करिअर	-13958
▁रामशरण	-13959
▁साथीको	-13960
▁सूक्ष्म	-13961
▁परिव	-13962
▁घुँडा	-13963
▁चर्का	-13964
▁भोगेको	-13965
▁हस्पिट	-13966
▁रातारात	-13967
▁राजदूतावास	-13968
▁ढाड	-13969
▁जमीन	-13970
▁व्यब	-13971
▁रहेनछ	-13972
▁विषयक	-13973
▁बस्नेतको	-13974
▁बढ्नुपर्ने	-13975
केजी	-13976
▁गाड	-13977
गत्तै	-13978
▁जनवाद	-13979
▁होल्ड	-13980
▁परमेश्वरको	-13981
▁फोक	-13982
▁बडो	-13983
▁छिटै	-13984
▁अपनाएर	-13985
▁फेरिएको	-13986
▁उनीहरुमा	-13987
इओ	-13988
जियो	-13989
माधव	-13990
परिषद	-13991
वेदना	-13992
सिफिक	-13993
▁बर्ग	-13994
▁कोर्ट	-13995
▁बोलाउन	-13996
▁सिर्जन	-13997
▁बताउछन्	-13998
▁महाप्रबन्धक	-13999
पसमा	-14000
डिखेल	-14001
मानित	-14002
▁मुसा	-14003
▁ग्रीन	-14004
▁समाजसेवा	-14005
▁प्रस्तावको	-14006
▁व्यक्तिहरूको	-14007
२६	-14008
देउ	-14009
▁दशौं	-14010
▁पिसि	-14011
▁आउनेछ	-14012
▁आकारको	-14013
▁हुनेले	-14014
▁पोर्चुग	-14015
▁काँग्रेसको	-14016
चिन्त	-14017
▁संभव	-14018
▁सोझो	-14019
▁सम्झा	-14020
▁न्युरो	-14021
▁माउन्ट	-14022
▁अपराधको	-14023
▁अपराह्न	-14024
▁आफन्तको	-14025
▁पश्चात्	-14026
▁पुलिसले	-14027
▁खुर्सानी	-14028
▁पर्वतारो	-14029
हिजो	-14030
▁वाट	-14031
▁रिया	-14032
▁अराजक	-14033
▁अरूको	-14034
▁टुङ्ग	-14035
▁डाइरे	-14036
▁उपल्लो	-14037
▁बन्देज	-14038
▁बोहराले	-14039
उदा	-14040
▁टुर	-14041
▁आडमा	-14042
▁बाधक	-14043
▁सानु	-14044
▁बिक्रे	-14045
▁मालिका	-14046
▁डेनमार्क	-14047
▁प्रतिनिधिमण्ड	-14048
▁रातमा	-14049
▁वैदिक	-14050
▁सुदुर	-14051
▁चलाउनु	-14052
▁बाजुरा	-14053
▁द्वितीय	-14054
कार्यकर्ता	-14055
▁प्रणालीले	-14056
▁पढे	-14057
▁झोलु	-14058
▁सातदो	-14059
▁घटनाहरु	-14060
▁प्रशासक	-14061
▁रेडक्रस	-14062
▁अभिभावकको	-14063
▁काठमाडौंले	-14064
▁ब्याक्टेरिया	-14065
मरी	-14066
रुम	-14067
आइजी	-14068
टाका	-14069
▁तात्	-14070
▁मतको	-14071
▁ग्रिन	-14072
▁कान्छी	-14073
▁बुझ्दै	-14074
▁मधेसको	-14075
▁वर्षमै	-14076
▁आन्दोलित	-14077
▁बढिरहेका	-14078
▁तथ्यांकअनुसार	-14079
▁धुन	-14080
▁पिच	-14081
▁पठाए	-14082
▁दाङमा	-14083
▁तिरेको	-14084
ेय	-14085
खुसी	-14086
▁सीडी	-14087
▁टोलमा	-14088
▁मतभेद	-14089
▁गोष्ठी	-14090
▁लाग्दो	-14091
▁हटाइएको	-14092
▁बालविवाह	-14093
फुट	-14094
्वल	-14095
▁अत	-14096
राली	-14097
मतीले	-14098
▁धौला	-14099
▁पढेका	-14100
▁अनुदानको	-14101
▁भूकम्पको	-14102
▁सहकार्यको	-14103
बीमा	-14104
▁उजु	-14105
▁पुष	-14106
▁लमजु	-14107
हरुमाथि	-14108
▁चीनलाई	-14109
▁स्क्रिन	-14110
पाई	-14111
▁रोटी	-14112
▁सभापतिको	-14113
र्र	-14114
▁मागेर	-14115
▁अनेकौं	-14116
▁शाखामा	-14117
▁हुन्छन	-14118
▁प्रार्थना	-14119
ङ्दी	-14120
▁मत्	-14121
▁बेचि	-14122
▁खुकुरी	-14123
▁बाराको	-14124
▁भनाइमा	-14125
▁राजभण्ड	-14126
▁युवाहरुले	-14127
▁काभ्रेपलाञ्चोक	-14128
▁मठ	-14129
वर्क	-14130
▁ज्वाला	-14131
▁पोस्टर	-14132
▁अङ्ग्रे	-14133
▁मिडफिल्	-14134
▁अर्गानिक	-14135
▁उत्पीडित	-14136
▁पुरुषलाई	-14137
▁सञ्जालको	-14138
▁साक्षरता	-14139
दुत	-14140
▁आजबाट	-14141
▁डंगोल	-14142
▁संजाल	-14143
▁भृकुटी	-14144
▁कतिसम्म	-14145
▁निर्विरोध	-14146
धो	-14147
▁सट	-14148
लीलाई	-14149
आर्थिक	-14150
▁फोनको	-14151
▁मिसाइ	-14152
बुवा	-14153
▁सिटि	-14154
सम्मान	-14155
▁थियाे	-14156
▁बढ्नेछ	-14157
▁शाहरुख	-14158
▁पशुपन्छी	-14159
▁अनियन्त्र	-14160
▁जिल्लालाई	-14161
▁सार्बजनिक	-14162
सिसी	-14163
▁नोक	-14164
▁तवरले	-14165
▁सेवास	-14166
▁पर्दामा	-14167
▁स्वदेशमै	-14168
▁गरिएन	-14169
▁प्रताप	-14170
▁मान्दै	-14171
▁अपराधमा	-14172
▁प्रतिनिधी	-14173
▁पूर्णबहादुर	-14174
गर्	-14175
द्दी	-14176
▁खोल	-14177
▁महाभि	-14178
परीक्षण	-14179
▁चारजना	-14180
▁पशुपालन	-14181
▁सम्वोधन	-14182
▁हजारसम्म	-14183
भरमा	-14184
▁अमित	-14185
▁ट्यु	-14186
▁भूमिहीन	-14187
▁म्यूजिक	-14188
प्च	-14189
फोर	-14190
▁रित	-14191
दथ्यो	-14192
▁विनय	-14193
गायतका	-14194
▁लायन्स	-14195
▁हेक्का	-14196
▁प्रजाति	-14197
▁करोडभन्दा	-14198
ैपर्छ	-14199
▁मर्न	-14200
▁स्टाइ	-14201
▁परिपत्र	-14202
▁षड	-14203
▁दर्	-14204
▁उदघाटन	-14205
▁पुजारी	-14206
▁मधेशमा	-14207
▁विधिबाट	-14208
▁केन्द्रीत	-14209
▁फर्किएपछि	-14210
▁विश्वभरका	-14211
▁महत्वपुर्ण	-14212
▁रुपन्देहीका	-14213
गै	-14214
बैंक	-14215
लिएर	-14216
क्यान	-14217
▁पछाडी	-14218
▁युवाहरू	-14219
▁व्याप्त	-14220
▁बसिरहेको	-14221
▁हैसियतले	-14222
▁कञ्चनपुरको	-14223
▁क्षेत्राधिकार	-14224
ौडा	-14225
त्ते	-14226
बर्ष	-14227
▁ताज	-14228
अनलाइन	-14229
▁कार्ट	-14230
▁नजरमा	-14231
▁जित्दै	-14232
▁चिनिन्छ	-14233
▁पूर्वतय	-14234
▁कोइरालालाई	-14235
▁मन्त्रिपरिषद्ले	-14236
शुराम	-14237
▁एकलौटी	-14238
▁मूल्यको	-14239
▁प्रयोगको	-14240
▁यहाँसम्म	-14241
▁महिलाहरुलाई	-14242
नक	-14243
प्पल	-14244
पहाडी	-14245
▁बाँस	-14246
▁बताएपछि	-14247
▁जीविकोपा	-14248
डोल	-14249
▁घोर	-14250
▁पुछ	-14251
▁बूढ	-14252
▁माद	-14253
▁झन्झट	-14254
▁हालका	-14255
▁अज्ञात	-14256
▁युक्रे	-14257
▁अन्वेषण	-14258
▁गोलकिपर	-14259
▁तालिमको	-14260
▁रक्षाका	-14261
▁उप्रेतीले	-14262
▁समानान्तर	-14263
▁भेन्टिलेटर	-14264
ुमा	-14265
चोकमा	-14266
▁उठ्छ	-14267
▁रोगले	-14268
▁संग्र	-14269
▁माछापु	-14270
▁रोकियो	-14271
▁राखेपछि	-14272
▁सरोकारवा	-14273
▁सुशासनको	-14274
▁हजारदेखि	-14275
माओ	-14276
▁धम	-14277
▁अयो	-14278
▁सकस	-14279
▁जाँग	-14280
▁तोक्	-14281
▁वीपी	-14282
पक्षका	-14283
▁अलग्ग	-14284
▁मार्ट	-14285
▁हराउन	-14286
▁पश्चिममा	-14287
▁सप्तरीको	-14288
स्रा	-14289
▁शिर	-14290
▁दातृ	-14291
▁भैरव	-14292
▁रिमा	-14293
▁स्टेड	-14294
▁खर्चेर	-14295
▁बैदेशिक	-14296
▁समयावधि	-14297
▁पाठ्यपुस्तक	-14298
कलको	-14299
बीएस	-14300
▁ललि	-14301
▁महिन	-14302
▁अल्पम	-14303
▁ग्याले	-14304
▁धरानमा	-14305
▁एयरलाइन्स	-14306
▁कर्णालीको	-14307
▁अनियन्त्रित	-14308
खिक	-14309
िकर	-14310
▁११०	-14311
लालले	-14312
ङ्ग्रा	-14313
सुब्बा	-14314
▁फूलको	-14315
▁सोलार	-14316
▁खुसीको	-14317
▁पुर्खा	-14318
▁ब्राह्	-14319
▁मनाउँदै	-14320
▁बसा	-14321
▁एनआरए	-14322
▁लिङ्ग	-14323
▁कार्बन	-14324
▁अनुगमनका	-14325
▁बितिसक्दा	-14326
▁लाभग्राही	-14327
▁नाला	-14328
▁वनको	-14329
▁२०६६	-14330
▁बजारलाई	-14331
▁कार्यपत्र	-14332
▁नवनियुक्त	-14333
▁उहाँहरुलाई	-14334
वास्त	-14335
▁एन्ज	-14336
▁खप्त	-14337
▁रक्स	-14338
▁बढावा	-14339
▁विमला	-14340
▁हलिउड	-14341
▁ज्यादा	-14342
▁बहुउद्	-14343
▁अतः	-14344
▁मोट	-14345
पुरुष	-14346
▁अर्ग	-14347
▁भर्ती	-14348
▁आजभोलि	-14349
▁जमिनको	-14350
▁मजदुरी	-14351
▁उहाँहरू	-14352
▁तथ्याङ्	-14353
▁पुरुषमा	-14354
▁अवस्थाले	-14355
▁थाइल्यान्ड	-14356
▁क्वारेन्टिन	-14357
▁ब्याट्सम्यान	-14358
▁खरा	-14359
ग्रेस	-14360
▁खानको	-14361
▁कृषिको	-14362
▁तान्ने	-14363
▁ब्रोकर	-14364
▁सिकेको	-14365
कृती	-14366
▁टापु	-14367
विद्या	-14368
▁चलाउँदै	-14369
▁युवतीको	-14370
▁कम्पनीहरु	-14371
▁सुर्खेतमा	-14372
शाही	-14373
▁दोहन	-14374
▁धरात	-14375
▁हेरे	-14376
पिच्छे	-14377
▁गिट्टी	-14378
▁चुपचाप	-14379
▁संगीतमा	-14380
▁नेतृत्वका	-14381
▁एकाउ	-14382
▁खुलाउन	-14383
▁गरीएको	-14384
▁शैलीको	-14385
▁नपाउँदै	-14386
▁मुटुरोग	-14387
▁नेपालीका	-14388
▁च्यालेन्ज	-14389
▁भण्डारीलाई	-14390
▁स्थानीयलाई	-14391
एनआर	-14392
▁नछो	-14393
▁एकले	-14394
▁गाइड	-14395
▁मधेसका	-14396
▁अर्कालाई	-14397
▁सुविधाको	-14398
▁संक्रमणका	-14399
▁पूर्णरूपमा	-14400
▁संविधानलाई	-14401
ब्जी	-14402
तर्फका	-14403
▁अवतार	-14404
▁गाउँग	-14405
▁नोबेल	-14406
क्ष्यमा	-14407
▁भ्रातृ	-14408
▁राखियो	-14409
▁सम्झेर	-14410
▁कम्प्ले	-14411
▁तोकिएका	-14412
▁भनेजस्तो	-14413
▁सम्बन्धका	-14414
▁सफलतापूर्वक	-14415
म्व	-14416
▁लखन	-14417
▁नबिल	-14418
▁फेवात	-14419
▁बदल्न	-14420
▁अग्रिम	-14421
▁जित्यो	-14422
▁नहुँदै	-14423
▁बाँकेको	-14424
▁इन्टरनेटको	-14425
▁क्रियाकलापमा	-14426
क्टि	-14427
ज्यो	-14428
सायी	-14429
िएपछि	-14430
▁ड्यु	-14431
स्ट्रो	-14432
▁पर्साका	-14433
▁पण्डितले	-14434
▁अठोट	-14435
▁अन्दा	-14436
▁सरेको	-14437
ञ्चार्ज	-14438
▁वर्गीय	-14439
▁श्राद्ध	-14440
▁कथावस्तु	-14441
▁पृथ्वीको	-14442
▁कल्याणकारी	-14443
लासी	-14444
▁मनु	-14445
▁संसो	-14446
▁त्यसभन्दा	-14447
▁पन्थ	-14448
▁सोचि	-14449
▁बेस्ट	-14450
▁खानेकु	-14451
▁ढकालको	-14452
▁देवराज	-14453
▁पानीका	-14454
▁स्ट्राइ	-14455
▁परिवेशमा	-14456
▁इंग्ल्यान्ड	-14457
ढोका	-14458
थिको	-14459
शांक	-14460
▁वास	-14461
संगको	-14462
▁मोती	-14463
▁भइरहँदा	-14464
▁प्याराग्	-14465
▁रिपोर्टमा	-14466
▁ललितपुरमा	-14467
ज्या	-14468
▁एअर	-14469
▁करु	-14470
नेश्व	-14471
ानीको	-14472
▁डाइभ	-14473
भिट्टा	-14474
▁जोगिन	-14475
▁भिजिट	-14476
▁ओछ्यान	-14477
▁पटक्कै	-14478
▁नैतिकता	-14479
▁बिहानैदेखि	-14480
प्रश	-14481
्छौं	-14482
▁फाँ	-14483
▁मेरु	-14484
▁मल्टि	-14485
▁व्यक्तिहरुले	-14486
ेरे	-14487
▁नलिई	-14488
▁भ्यू	-14489
▁सुनी	-14490
▁ह्रास	-14491
▁गाउँबाट	-14492
▁विपत्ति	-14493
▁प्रवाहमा	-14494
▁रिपब्लिक	-14495
▁तिलोत्तमा	-14496
▁सीमावर्ती	-14497
▁प्रतिष्पर्धा	-14498
ठनिक	-14499
▁किच	-14500
▁केरु	-14501
▁संकु	-14502
▁भीमदत्त	-14503
▁लक्ष्यका	-14504
▁संरक्षित	-14505
▁बेरोजगारी	-14506
▁संस्थाहरुको	-14507
र्के	-14508
सङ्ग	-14509
▁कपिल	-14510
▁पुडा	-14511
▁लहान	-14512
▁सकेमा	-14513
▁सेवाबाट	-14514
▁वृद्धिको	-14515
▁अधिवेशनको	-14516
▁भूकम्पपछि	-14517
बना	-14518
▁येश	-14519
▁पौने	-14520
▁बहसमा	-14521
▁सकिनँ	-14522
▁खाल्डो	-14523
▁डेब्यू	-14524
▁पाउँदै	-14525
▁सुनेपछि	-14526
▁कोटेश्वर	-14527
▁हेर्नुस्	-14528
दूत	-14529
▁घट्न	-14530
▁भेने	-14531
▁मेडि	-14532
▁कामकार	-14533
▁त्रैमासिक	-14534
▁गर्दागर्दै	-14535
एन्	-14536
्ठा	-14537
▁डिस	-14538
▁भागेर	-14539
▁सहमती	-14540
▁जानेको	-14541
▁देखिनु	-14542
▁प्रसूति	-14543
बर्ग	-14544
▁थेरा	-14545
स्तरका	-14546
▁जाहेर	-14547
▁पाँचथ	-14548
▁सडकका	-14549
▁गन्तब्य	-14550
▁माथिबाट	-14551
▁सभामुखको	-14552
▁वडाअध्यक्ष	-14553
२८	-14554
▁पेय	-14555
▁स्मृ	-14556
▁बुलेट	-14557
▁वाध्य	-14558
▁छनोटको	-14559
▁असन्तुल	-14560
▁क्लबलाई	-14561
▁मार्फत्	-14562
▁यातायातका	-14563
▁कहिलेकाहीं	-14564
▁वृद्धवृद्धा	-14565
बढ	-14566
बस्त	-14567
यज्ञ	-14568
सम्ब	-14569
▁उषा	-14570
▁सोको	-14571
कानूनी	-14572
▁झर्ने	-14573
▁सर्जक	-14574
▁स्थानका	-14575
▁लगाउनुपर्ने	-14576
el	-14577
▁आयआ	-14578
▁गदै	-14579
▁फुड	-14580
▁मेश	-14581
▁उत्ख	-14582
▁खोले	-14583
थोकीले	-14584
▁उत्सु	-14585
▁क्याले	-14586
▁फाल्ने	-14587
▁मोवाइल	-14588
▁सकेनौं	-14589
▁इन्डियन	-14590
▁त्रिपुर	-14591
▁भन्नाले	-14592
▁पाकिस्तानले	-14593
ac	-14594
ियौं	-14595
▁सयको	-14596
▁ओलीका	-14597
▁वयस्क	-14598
▁डीआईजी	-14599
▁अंकसहित	-14600
▁जन्मेका	-14601
▁परिपाटी	-14602
▁लाग्नेछ	-14603
▁डाक्टरको	-14604
▁दिनहरुमा	-14605
▁भाइरसबाट	-14606
▁षडयन्त्र	-14607
▁निस्किएको	-14608
▁मतदातालाई	-14609
कने	-14610
डिज	-14611
जाले	-14612
▁पाट	-14613
राजको	-14614
▁अक्षय	-14615
▁युनिय	-14616
▁नाघेको	-14617
▁उतारचढा	-14618
▁आपतकालीन	-14619
▁हिनामिना	-14620
▁सम्प्रेषण	-14621
▁जाव	-14622
▁टीम	-14623
वादले	-14624
▁हराएर	-14625
▁पुर्वा	-14626
▁बिक्रि	-14627
▁सकिदैन	-14628
▁सुरुदेखि	-14629
▁कन्स्ट्रक्सन	-14630
▁वढ	-14631
▁कभर	-14632
मलामा	-14633
लोचना	-14634
हीवार	-14635
▁बिगो	-14636
▁भएदेखि	-14637
▁उपेक्षा	-14638
▁दिन्छौं	-14639
▁विवरणमा	-14640
▁देखिंदैन	-14641
▁महाभियोग	-14642
▁शास्त्रीय	-14643
नुभो	-14644
आमाको	-14645
ेशनमा	-14646
▁युके	-14647
▁अरूले	-14648
▁समेटि	-14649
▁सुरुमै	-14650
▁लिन्छन्	-14651
▁कास्कीको	-14652
खरमा	-14653
▁२००६	-14654
▁छँदैछ	-14655
▁कुनामा	-14656
▁भेलाले	-14657
▁विषयहरु	-14658
▁अधिकारलाई	-14659
ir	-14660
पढ	-14661
▁ऋतु	-14662
कालका	-14663
लाखेल	-14664
▁पराजय	-14665
▁अपनाउनु	-14666
▁अफ्रिकी	-14667
▁गर्नेछु	-14668
▁घाई	-14669
▁कानमा	-14670
▁धुवाँ	-14671
▁पुण्य	-14672
साहित्य	-14673
▁केन्दि	-14674
▁पेशामा	-14675
▁सहयोगले	-14676
▁जनाभन्दा	-14677
▁साँच्चिकै	-14678
राउ	-14679
लोको	-14680
▁मौरी	-14681
▁शृंखला	-14682
▁सप्ताह	-14683
▁साथीले	-14684
▁परिचालित	-14685
▁राष्ट्रपतिलाई	-14686
मस	-14687
▁एको	-14688
▁तलव	-14689
▁भरी	-14690
▁याे	-14691
▁दत्त	-14692
दिन्छन्	-14693
▁मेट्रो	-14694
▁पुर्याउनु	-14695
▁पुरातात्विक	-14696
▁कर्मचारीतन्त्र	-14697
षिर्क	-14698
मन्दिर	-14699
▁कालमा	-14700
▁टेण्डर	-14701
▁अपन	-14702
▁आश्	-14703
▁चट्ट	-14704
विधिका	-14705
▁सल्ला	-14706
▁जोड्दा	-14707
▁भेटिन्छन्	-14708
पिन	-14709
लाख	-14710
▁चना	-14711
▁पौड	-14712
त्थान	-14713
▁गुजारा	-14714
▁भ्वाइस	-14715
रोधात्मक	-14716
▁सन्चालन	-14717
▁योजनालाई	-14718
▁गर्नैपर्छ	-14719
▁क्षेत्रभित्र	-14720
म्पो	-14721
▁वताए	-14722
▁मौखिक	-14723
▁सपोर्ट	-14724
▁जुटाउने	-14725
▁एन्ड्रोइड	-14726
▁ठेकेदारले	-14727
▁टू	-14728
▁इजि	-14729
▁निख	-14730
▁नाम्	-14731
▁त्यहा	-14732
▁बेहोस	-14733
▁असहयोग	-14734
▁त्रसित	-14735
▁बालकको	-14736
▁लेख्नु	-14737
७४	-14738
▁लास	-14739
विराम	-14740
▁चेली	-14741
▁क्षमा	-14742
▁नामका	-14743
▁प्रोटो	-14744
▁बेइजिङ	-14745
▁शरीरले	-14746
▁न्यायका	-14747
▁पहिरोमा	-14748
▁ठि	-14749
▁अकाउ	-14750
▁जम्म	-14751
▁इटाली	-14752
▁परमाण	-14753
हरूमाथि	-14754
▁एक्स्पो	-14755
▁निमोनिया	-14756
▁रोकथामका	-14757
कर्ण	-14758
▁जगमा	-14759
▁बोक्न	-14760
▁सोचेर	-14761
▁आराधना	-14762
▁बुँदामा	-14763
▁पञ्चायती	-14764
▁प्रभावमा	-14765
▁बगै	-14766
▁एजुक	-14767
▁लिला	-14768
दाताले	-14769
▁अनिता	-14770
▁बाँचि	-14771
▁भक्ति	-14772
▁कन्ट्रोल	-14773
▁गर्नुहोला	-14774
रिस	-14775
ानका	-14776
▁आँप	-14777
▁नउठ	-14778
▁पालिकाको	-14779
ष्टिय	-14780
हुन्न	-14781
▁बसेकी	-14782
▁समेट्न	-14783
▁छोराछोरीलाई	-14784
▁दिउ	-14785
▁खोकी	-14786
▁डिप्र	-14787
▁अराजकता	-14788
▁गइरहेका	-14789
▁धनगढीमा	-14790
▁भेटिन्छ	-14791
▁मांसपेश	-14792
▁अनुपातमा	-14793
▁स्वदेशमा	-14794
▁बुद्धिजीवी	-14795
▁प्रभावकारिता	-14796
▁राष्ट्रियताको	-14797
▁मुख्यमन्त्रीको	-14798
▁बीस	-14799
▁सीधै	-14800
▁छोरीले	-14801
▁मध्यपूर्व	-14802
अलग	-14803
▁भैँ	-14804
▁एकमु	-14805
▁सुगम	-14806
▁जंगली	-14807
▁गुण्डा	-14808
▁पुडासै	-14809
▁प्रतिको	-14810
▁ब्यान्ड	-14811
▁यसअघिका	-14812
▁लिइरहेका	-14813
▁अक्सिजनको	-14814
▁महालक्ष्मी	-14815
लेस	-14816
▁देखाउ	-14817
▁जनगणना	-14818
▁इजरायली	-14819
▁अनुमानित	-14820
▁देशहरूमा	-14821
▁सिटौलाले	-14822
घण्	-14823
थिका	-14824
रोगी	-14825
▁लिपि	-14826
▁भाषिक	-14827
▁योद्धा	-14828
▁निकायसँग	-14829
▁विडम्बना	-14830
▁मस्यौदामा	-14831
▁वक्तव्यमा	-14832
▁नेवा	-14833
▁गाईको	-14834
▁सक्थे	-14835
▁सुदर्शन	-14836
▁स्पेनिस	-14837
▁मकवानपुरको	-14838
▁थपेर	-14839
▁अगष्ट	-14840
▁मुकेश	-14841
▁दस्तुर	-14842
▁पटकसम्म	-14843
▁मौज्दात	-14844
▁संसारकै	-14845
पृ	-14846
ंशा	-14847
ौलो	-14848
▁नलग	-14849
▁बिन	-14850
ञ्चाल	-14851
▁अपार	-14852
▁कोमल	-14853
▁जलेर	-14854
▁मोति	-14855
▁लीला	-14856
▁स्वत	-14857
▁अग्ला	-14858
▁सबैसँग	-14859
▁सुन्दरता	-14860
▁निर्णयबाट	-14861
▁भूकम्पबाट	-14862
▁भ्रष्टाचारी	-14863
ंग्य	-14864
लेन्स	-14865
▁खालि	-14866
▁दृष्य	-14867
▁बुबाको	-14868
▁जनकपुरमा	-14869
▁मधेसवादी	-14870
▁श्रीमानको	-14871
▁कोरोनाभाइरस	-14872
थली	-14873
▁मेरि	-14874
▁पातलो	-14875
▁लिनका	-14876
▁खरिदका	-14877
▁गोल्डेन	-14878
▁वर्षाले	-14879
▁जीवा	-14880
ेन्सको	-14881
▁खिच्न	-14882
▁तुल्या	-14883
▁धुर्मु	-14884
▁पोख्रेल	-14885
▁सातदोबाटो	-14886
▁गृहमन्त्रालय	-14887
▁राष्ट्रसंघको	-14888
▁बग्	-14889
▁वाक	-14890
▁लडेका	-14891
▁बुढाले	-14892
▁यसतर्फ	-14893
▁शाहलाई	-14894
▁नितान्त	-14895
▁बाँकेका	-14896
▁लुम्बिनीमा	-14897
▁आँशु	-14898
▁मसला	-14899
विरूद्ध	-14900
▁नीतिलाई	-14901
▁संगठनमा	-14902
▁सोसाइटी	-14903
▁इश	-14904
ब्याक	-14905
▁सच्च	-14906
▁राजीव	-14907
▁खुवाउन	-14908
▁सरकारकै	-14909
▁आउनुपर्ने	-14910
▁नेपालीहरू	-14911
▁लगानीकर्तालाई	-14912
ोप	-14913
टेल	-14914
▁आइस	-14915
▁पीएस	-14916
▁भातृ	-14917
▁आवश्य	-14918
▁चिनजान	-14919
▁हटाएको	-14920
▁बाँड्ने	-14921
▁कागजपत्र	-14922
▁बहिस्कार	-14923
▁आइतबारदेखि	-14924
▁साझेदारीमा	-14925
कार्ड	-14926
▁फायर	-14927
र्तिमा	-14928
▁महाभारत	-14929
▁परियारले	-14930
▁उत्साहजनक	-14931
▁पृष्ठभूमिमा	-14932
साँ	-14933
भत्ता	-14934
▁कमजो	-14935
▁निति	-14936
▁रुचा	-14937
▁पाल्न	-14938
▁अपांगता	-14939
▁त्यसैमा	-14940
▁गजेन्द्र	-14941
ail	-14942
िनँ	-14943
ुङ्गा	-14944
▁मागे	-14945
▁उल्लङ्	-14946
▁बच्चाले	-14947
▁हिउँदमा	-14948
▁मिडियाको	-14949
▁सानैदेखि	-14950
▁फ्रान्सेली	-14951
▁नार	-14952
▁नगरौं	-14953
▁पूजाआ	-14954
बन्दीको	-14955
▁जोड्दै	-14956
▁साधनमा	-14957
▁असमानता	-14958
▁आन्द्रा	-14959
▁छुवाछुत	-14960
▁मातृभाषा	-14961
▁म्यानमार	-14962
▁वाग्लेले	-14963
एक्	-14964
फको	-14965
▁उडा	-14966
▁एफएम	-14967
▁एक्सच	-14968
▁तालीम	-14969
▁फेरबदल	-14970
▁बिताउने	-14971
▁फाइदाजनक	-14972
ूष	-14973
२९	-14974
▁छाक	-14975
कल्या	-14976
ाउण्ड	-14977
▁विकि	-14978
▁शासनको	-14979
▁श्रावण	-14980
▁इन्धनको	-14981
▁शक्तिलाई	-14982
▁सम्हालेका	-14983
▁हव	-14984
समुदाय	-14985
▁ब्रह्मा	-14986
▁म्यासेज	-14987
पारि	-14988
ेलाई	-14989
▁अपी	-14990
एसिया	-14991
▁रिसा	-14992
▁रेल्	-14993
▁होल्	-14994
▁छैनौँ	-14995
▁वाक्य	-14996
डाँडामा	-14997
▁कमाण्ड	-14998
▁तबसम्म	-14999
▁अरेबिया	-15000
[...]
