<pad>	0
<unk>	0
<s>	0
</s>	0
<0x00>	0
<0x01>	0
<0x02>	0
<0x03>	0
<0x04>	0
<0x05>	0
<0x06>	0
<0x07>	0
<0x08>	0
<0x09>	0
<0x0A>	0
<0x0B>	0
<0x0C>	0
<0x0D>	0
<0x0E>	0
<0x0F>	0
<0x10>	0
<0x11>	0
<0x12>	0
<0x13>	0
<0x14>	0
<0x15>	0
<0x16>	0
<0x17>	0
<0x18>	0
<0x19>	0
<0x1A>	0
<0x1B>	0
<0x1C>	0
<0x1D>	0
<0x1E>	0
<0x1F>	0
<0x20>	0
<0x21>	0
<0x22>	0
<0x23>	0
<0x24>	0
<0x25>	0
<0x26>	0
<0x27>	0
<0x28>	0
<0x29>	0
<0x2A>	0
<0x2B>	0
<0x2C>	0
<0x2D>	0
<0x2E>	0
<0x2F>	0
<0x30>	0
<0x31>	0
<0x32>	0
<0x33>	0
<0x34>	0
<0x35>	0
<0x36>	0
<0x37>	0
<0x38>	0
<0x39>	0
<0x3A>	0
<0x3B>	0
<0x3C>	0
<0x3D>	0
<0x3E>	0
<0x3F>	0
<0x40>	0
<0x41>	0
<0x42>	0
<0x43>	0
<0x44>	0
<0x45>	0
<0x46>	0
<0x47>	0
<0x48>	0
<0x49>	0
<0x4A>	0
<0x4B>	0
<0x4C>	0
<0x4D>	0
<0x4E>	0
<0x4F>	0
<0x50>	0
<0x51>	0
<0x52>	0
<0x53>	0
<0x54>	0
<0x55>	0
<0x56>	0
<0x57>	0
<0x58>	0
<0x59>	0
<0x5A>	0
<0x5B>	0
<0x5C>	0
<0x5D>	0
<0x5E>	0
<0x5F>	0
<0x60>	0
<0x61>	0
<0x62>	0
<0x63>	0
<0x64>	0
<0x65>	0
<0x66>	0
<0x67>	0
<0x68>	0
<0x69>	0
<0x6A>	0
<0x6B>	0
<0x6C>	0
<0x6D>	0
<0x6E>	0
<0x6F>	0
<0x70>	0
<0x71>	0
<0x72>	0
<0x73>	0
<0x74>	0
<0x75>	0
<0x76>	0
<0x77>	0
<0x78>	0
<0x79>	0
<0x7A>	0
<0x7B>	0
<0x7C>	0
<0x7D>	0
<0x7E>	0
<0x7F>	0
<0x80>	0
<0x81>	0
<0x82>	0
<0x83>	0
<0x84>	0
<0x85>	0
<0x86>	0
<0x87>	0
<0x88>	0
<0x89>	0
<0x8A>	0
<0x8B>	0
<0x8C>	0
<0x8D>	0
<0x8E>	0
<0x8F>	0
<0x90>	0
<0x91>	0
<0x92>	0
<0x93>	0
<0x94>	0
<0x95>	0
<0x96>	0
<0x97>	0
<0x98>	0
<0x99>	0
<0x9A>	0
<0x9B>	0
<0x9C>	0
<0x9D>	0
<0x9E>	0
<0x9F>	0
<0xA0>	0
<0xA1>	0
<0xA2>	0
<0xA3>	0
<0xA4>	0
<0xA5>	0
<0xA6>	0
<0xA7>	0
<0xA8>	0
<0xA9>	0
<0xAA>	0
<0xAB>	0
<0xAC>	0
<0xAD>	0
<0xAE>	0
<0xAF>	0
<0xB0>	0
<0xB1>	0
<0xB2>	0
<0xB3>	0
<0xB4>	0
<0xB5>	0
<0xB6>	0
<0xB7>	0
<0xB8>	0
<0xB9>	0
<0xBA>	0
<0xBB>	0
<0xBC>	0
<0xBD>	0
<0xBE>	0
<0xBF>	0
<0xC0>	0
<0xC1>	0
<0xC2>	0
<0xC3>	0
<0xC4>	0
<0xC5>	0
<0xC6>	0
<0xC7>	0
<0xC8>	0
<0xC9>	0
<0xCA>	0
<0xCB>	0
<0xCC>	0
<0xCD>	0
<0xCE>	0
<0xCF>	0
<0xD0>	0
<0xD1>	0
<0xD2>	0
<0xD3>	0
<0xD4>	0
<0xD5>	0
<0xD6>	0
<0xD7>	0
<0xD8>	0
<0xD9>	0
<0xDA>	0
<0xDB>	0
<0xDC>	0
<0xDD>	0
<0xDE>	0
<0xDF>	0
<0xE0>	0
<0xE1>	0
<0xE2>	0
<0xE3>	0
<0xE4>	0
<0xE5>	0
<0xE6>	0
<0xE7>	0
<0xE8>	0
<0xE9>	0
<0xEA>	0
<0xEB>	0
<0xEC>	0
<0xED>	0
<0xEE>	0
<0xEF>	0
<0xF0>	0
<0xF1>	0
<0xF2>	0
<0xF3>	0
<0xF4>	0
<0xF5>	0
<0xF6>	0
<0xF7>	0
<0xF8>	0
<0xF9>	0
<0xFA>	0
<0xFB>	0
<0xFC>	0
<0xFD>	0
<0xFE>	0
<0xFF>	0
▁क	-0
▁स	-1
▁ह	-2
▁म	-3
▁प	-4
ें	-5
▁है	-6
ने	-7
▁ब	-8
▁के	-9
ार	-10
▁ज	-11
्र	-12
या	-13
▁द	-14
▁ल	-15
▁अ	-16
▁में	-17
▁व	-18
▁र	-19
ों	-20
▁की	-21
▁आ	-22
▁न	-23
▁को	-24
ता	-25
▁कर	-26
र्	-27
▁से	-28
▁कि	-29
▁इ	-30
▁उ	-31
▁त	-32
ना	-33
▁ग	-34
▁का	-35
▁भ	-36
▁औ	-37
▁और	-38
ान	-39
िक	-40
्य	-41
▁पर	-42
ाल	-43
▁ए	-44
▁च	-45
▁इस	-46
▁ने	-47
▁हैं	-48
▁हो	-49
स्	-50
िल	-51
ही	-52
▁प्र	-53
▁श	-54
▁य	-55
क्	-56
ते	-57
▁थ	-58
िए	-59
ड़	-60
हा	-61
▁जा	-62
ित	-63
▁भी	-64
के	-65
▁ख	-66
▁फ	-67
िया	-68
▁सा	-69
िय	-70
ती	-71
वा	-72
से	-73
▁एक	-74
ंग	-75
▁बा	-76
हीं	-77
▁उन	-78
िन	-79
▁स्	-80
री	-81
▁लिए	-82
ला	-83
ले	-84
▁दे	-85
▁अप	-86
रा	-87
▁वि	-88
▁नहीं	-89
नी	-90
्या	-91
▁आप	-92
▁रा	-93
त्र	-94
गा	-95
ति	-96
सी	-97
▁ट	-98
कर	-99
▁सम	-100
▁ले	-101
ोग	-102
ाम	-103
▁सं	-104
▁ही	-105
्म	-106
का	-107
िस	-108
ेश	-109
▁मु	-110
▁तो	-111
ारी	-112
▁हु	-113
▁ड	-114
▁था	-115
▁रह	-116
्ट	-117
▁किया	-118
▁2	-119
्व	-120
▁1	-121
▁सक	-122
▁यह	-123
्ह	-124
▁करने	-125
की	-126
ली	-127
ुर	-128
क्ष	-129
ंद	-130
ाय	-131
▁पह	-132
▁कहा	-133
▁साथ	-134
ां	-135
▁गया	-136
▁नि	-137
▁कु	-138
सा	-139
▁हम	-140
कार	-141
▁या	-142
▁उन्ह	-143
▁उस	-144
रे	-145
ियों	-146
▁कार	-147
ैं	-148
कि	-149
▁घ	-150
ल्	-151
ाह	-152
▁जो	-153
मा	-154
▁पा	-155
▁अन	-156
त्	-157
▁वाल	-158
▁बाद	-159
स्ट	-160
▁अपने	-161
▁(	-162
िला	-163
▁सु	-164
▁रहे	-165
▁पू	-166
▁लोग	-167
िर	-168
ढ़	-169
▁थी	-170
गी	-171
भी	-172
दी	-173
िव	-174
दा	-175
भा	-176
▁अध	-177
ुल	-178
▁ध	-179
गे	-180
्रे	-181
▁तक	-182
्री	-183
▁छ	-184
ंड	-185
▁दो	-186
▁दिया	-187
▁राज	-188
को	-189
ारा	-190
▁सी	-191
च्	-192
▁सि	-193
ाइ	-194
▁20	-195
▁ऐ	-196
▁'	-197
टी	-198
▁मिल	-199
ंत्र	-200
▁चु	-201
जी	-202
में	-203
▁मे	-204
▁मा	-205
▁बी	-206
▁भार	-207
पी	-208
किन	-209
▁सर	-210
ओं	-211
▁हुए	-212
गर	-213
▁रहा	-214
ोंने	-215
रो	-216
तर	-217
▁बना	-218
▁जिस	-219
▁जी	-220
▁बार	-221
▁थे	-222
▁बता	-223
ंच	-224
प्	-225
▁लेकिन	-226
▁मह	-227
▁कुछ	-228
देश	-229
ेट	-230
▁-	-231
▁उन्होंने	-232
िश	-233
खा	-234
▁जब	-235
▁गई	-236
▁कम	-237
ोज	-238
▁चाह	-239
ानी	-240
▁बात	-241
द्	-242
▁वह	-243
वी	-244
टर	-245
▁इन	-246
ौर	-247
▁रही	-248
▁तर	-249
ेल	-250
पा	-251
▁भा	-252
▁सब	-253
जा	-254
वि	-255
▁लगा	-256
▁पहले	-257
ार्	-258
▁ला	-259
ूर	-260
▁अधिक	-261
▁अब	-262
ष्ट	-263
शन	-264
▁जाए	-265
▁करते	-266
स्थ	-267
नों	-268
▁वे	-269
▁बह	-270
▁इसके	-271
▁दी	-272
▁कोई	-273
्स	-274
िंग	-275
ड़ा	-276
बर	-277
बा	-278
ैसे	-279
स्त	-280
ड़ी	-281
▁उप	-282
▁किसी	-283
र्ट	-284
▁लोगों	-285
▁मैं	-286
▁सरकार	-287
▁ये	-288
ास	-289
▁करें	-290
▁अपनी	-291
▁होने	-292
▁सकते	-293
मी	-294
▁दिन	-295
▁रू	-296
्ष	-297
▁अनु	-298
▁बे	-299
ये	-300
हां	-301
▁गए	-302
▁स्थ	-303
्यों	-304
▁समय	-305
▁जान	-306
▁मो	-307
ंध	-308
▁कह	-309
न्	-310
▁वाले	-311
▁पी	-312
्ल	-313
ेंद	-314
▁सकता	-315
▁ऑ	-316
ुत	-317
▁टी	-318
▁साल	-319
▁बढ़	-320
क्र	-321
▁भारत	-322
ड़े	-323
▁आपको	-324
ंत्री	-325
▁देख	-326
▁तरह	-327
मान	-328
▁सो	-329
▁मौ	-330
ज़	-331
▁कई	-332
▁बि	-333
वार	-334
ंट	-335
▁काम	-336
्यू	-337
▁3	-338
▁देश	-339
▁करना	-340
ोट	-341
00	-342
▁वर्	-343
▁रु	-344
िट	-345
▁जाता	-346
ार्ट	-347
ोल	-348
ूस	-349
▁उनके	-350
▁रख	-351
ंप	-352
▁रूप	-353
▁माम	-354
कों	-355
▁ओ	-356
म्म	-357
▁उन्हें	-358
▁हि	-359
वे	-360
च्च	-361
▁लेकर	-362
▁व्य	-363
धान	-364
▁द्व	-365
▁पुल	-366
▁निर्	-367
हर	-368
बी	-369
▁स्ट	-370
▁बहुत	-371
▁क्या	-372
▁विश	-373
▁शुर	-374
च्छ	-375
िप	-376
▁लग	-377
ीन	-378
▁दिल	-379
क्षा	-380
▁फिर	-381
▁पुलिस	-382
क्स	-383
▁आज	-384
▁मै	-385
ोक	-386
▁"	-387
▁जन	-388
▁होता	-389
जे	-390
जन	-391
्त	-392
क्त	-393
▁लि	-394
ूल	-395
योग	-396
वन	-397
▁होगा	-398
▁दु	-399
▁हुआ	-400
ाई	-401
▁सभी	-402
▁अं	-403
▁प्रति	-404
द्ध	-405
▁हुई	-406
▁फिल	-407
▁हर	-408
▁द्वारा	-409
चार	-410
▁उत्	-411
▁नाम	-412
ंह	-413
ीड	-414
▁हाल	-415
चा	-416
नाव	-417
्रेस	-418
▁गु	-419
▁विक	-420
कारी	-421
▁इं	-422
ारे	-423
▁5	-424
▁202	-425
▁बताया	-426
▁वो	-427
र्व	-428
िका	-429
▁बै	-430
▁दि	-431
▁ना	-432
स्ता	-433
▁चाहिए	-434
▁जर	-435
▁अगर	-436
▁कार्य	-437
▁सबसे	-438
▁क्यों	-439
▁खु	-440
डी	-441
▁रुप	-442
▁दौर	-443
वर	-444
▁खिला	-445
▁पि	-446
्यादा	-447
▁साम	-448
क्ट	-449
बंध	-450
▁यू	-451
वाल	-452
्ली	-453
in	-454
र्म	-455
र्स	-456
▁बन	-457
▁क्ष	-458
ोड़	-459
एं	-460
ोन	-461
▁चल	-462
▁फिल्म	-463
िवार	-464
सान	-465
फी	-466
▁ऐसे	-467
▁मुख	-468
मंत्री	-469
र्थ	-470
▁4	-471
▁दूस	-472
▁वा	-473
▁सिंह	-474
दि	-475
▁।	-476
▁पहु	-477
ष्	-478
▁पास	-479
▁मान	-480
धार	-481
▁पार्ट	-482
ूर्	-483
▁जु	-484
▁घर	-485
▁दर्	-486
एस	-487
▁शाम	-488
▁अच्छ	-489
▁बीच	-490
ंस	-491
एम	-492
तीय	-493
▁दौरान	-494
▁ज्यादा	-495
ाने	-496
ोर	-497
▁पै	-498
▁उनकी	-499
▁जाने	-500
मे	-501
▁बु	-502
ेंद्र	-503
क्ति	-504
▁कै	-505
जर	-506
▁आई	-507
भाव	-508
▁चुनाव	-509
▁करता	-510
पर	-511
यर	-512
▁दिल्ली	-513
▁ग्र	-514
▁प्रा	-515
▁कारण	-516
▁उसके	-517
श्	-518
झे	-519
सर	-520
▁शुरू	-521
हत	-522
दार	-523
▁पहुंच	-524
त्म	-525
▁होती	-526
▁दोनों	-527
▁लिया	-528
▁टीम	-529
▁नी	-530
▁आपके	-531
सार	-532
ब्	-533
▁वाली	-534
आई	-535
an	-536
▁मामले	-537
▁जि	-538
▁ठ	-539
▁उसे	-540
▁मुख्य	-541
▁फै	-542
ृत	-543
▁सह	-544
▁जिन	-545
ंबर	-546
दे	-547
▁बारे	-548
▁राज्य	-549
▁अपना	-550
▁शिक	-551
ोर्ट	-552
▁ता	-553
▁पार्टी	-554
▁बच्च	-555
▁हा	-556
▁कंप	-557
▁201	-558
▁बद	-559
▁पु	-560
▁क्र	-561
मार	-562
जू	-563
▁निक	-564
ेंगे	-565
शी	-566
ून	-567
▁कांग	-568
धी	-569
▁सू	-570
िज	-571
▁सकती	-572
ेत्र	-573
▁आरो	-574
▁वहीं	-575
▁भारतीय	-576
▁अव	-577
ंक	-578
▁शामिल	-579
िम	-580
▁कांग्रेस	-581
▁झ	-582
ियो	-583
ar	-584
▁जैसे	-585
▁प्रद	-586
▁अन्य	-587
▁ऐसा	-588
ियां	-589
▁S	-590
जार	-591
▁रुपये	-592
▁समा	-593
▁हू	-594
लों	-595
▁अभ	-596
र्ड	-597
ेज	-598
▁खिलाफ	-599
▁गां	-600
▁क्षेत्र	-601
▁इसे	-602
▁महिला	-603
्रा	-604
▁शु	-605
▁कॉ	-606
▁अल	-607
▁मुझे	-608
▁आय	-609
प्त	-610
्ञ	-611
▁6	-612
er	-613
▁रो	-614
पुर	-615
लिए	-616
्रीय	-617
ोजना	-618
्ड	-619
▁क्योंकि	-620
▁नेता	-621
▁देने	-622
▁ई	-623
▁यहां	-624
▁काफी	-625
ंत	-626
ध्य	-627
ूम	-628
▁खा	-629
▁स्वा	-630
िति	-631
वल	-632
▁किए	-633
▁प्रदेश	-634
ियम	-635
on	-636
सभा	-637
▁इससे	-638
क्रम	-639
▁बो	-640
▁जाएगा	-641
ंब	-642
▁यु	-643
▁अग	-644
ुम	-645
टा	-646
▁स्व	-647
▁ट्र	-648
था	-649
टना	-650
्न	-651
ैन	-652
लो	-653
▁तै	-654
हार	-655
▁मन	-656
णा	-657
▁जानकारी	-658
▁जारी	-659
▁पिछ	-660
▁वर्ष	-661
्ते	-662
ेड	-663
▁दें	-664
▁अनुसार	-665
▁10	-666
▁राष्ट	-667
ेशन	-668
▁इसलिए	-669
▁उठ	-670
म्मी	-671
▁बैठ	-672
ताब	-673
वाद	-674
▁सामने	-675
▁सुर	-676
ोष	-677
▁पूरी	-678
▁जाती	-679
धा	-680
▁मद	-681
▁A	-682
▁समझ	-683
▁गो	-684
▁होगी	-685
at	-686
निया	-687
▁ली	-688
स्प	-689
ाली	-690
▁स्क	-691
▁इंड	-692
ायर	-693
मु	-694
▁छा	-695
ांकि	-696
▁जीवन	-697
▁मार्	-698
ेंट	-699
▁19	-700
▁आगे	-701
▁बल्	-702
▁C	-703
▁मोदी	-704
▁तीन	-705
▁मैच	-706
▁हों	-707
▁आरोप	-708
▁याद	-709
रण	-710
स्था	-711
▁इसी	-712
▁हालांकि	-713
वाई	-714
चित	-715
▁अला	-716
प्र	-717
▁योजना	-718
त्रा	-719
▁7	-720
म्मीद	-721
▁टे	-722
▁उम्मीद	-723
▁दा	-724
▁डॉ	-725
वं	-726
फ़	-727
जपा	-728
वास	-729
▁आए	-730
▁ज़	-731
▁परि	-732
▁शा	-733
शि	-734
▁इसमें	-735
▁पड़	-736
▁तब	-737
▁ओर	-738
▁वै	-739
▁होते	-740
es	-741
▁जग	-742
▁परिवार	-743
▁अलावा	-744
तिक	-745
्ला	-746
इट	-747
▁संबंध	-748
ुक	-749
▁P	-750
▁जिसमें	-751
▁लाख	-752
म्	-753
▁अभी	-754
दन	-755
मेंट	-756
क्टर	-757
▁मांग	-758
▁एस	-759
ेष	-760
▁करोड़	-761
▁भाजपा	-762
▁रिप	-763
लय	-764
इन	-765
ीस	-766
▁कप	-767
▁आने	-768
श्य	-769
ची	-770
कर्	-771
▁8	-772
▁पद	-773
▁व्यक्ति	-774
▁उनका	-775
▁बेह	-776
▁चे	-777
▁तैय	-778
▁दर	-779
▁मदद	-780
▁मीड	-781
▁दिखा	-782
ुरु	-783
▁एवं	-784
ूत	-785
मत	-786
ेगा	-787
▁सुन	-788
▁पिछले	-789
स्तान	-790
▁जांच	-791
▁ऊ	-792
▁लोक	-793
▁इत	-794
▁मीडिया	-795
ज्ञ	-796
चना	-797
▁योग	-798
▁सफ	-799
।"	-800
धिक	-801
▁बॉ	-802
▁कंपनी	-803
▁अस	-804
▁भर	-805
▁चौ	-806
▁कभी	-807
▁पूर्व	-808
▁पढ़	-809
▁मेरे	-810
▁स्प	-811
▁कैसे	-812
त्व	-813
▁हमारे	-814
▁इसका	-815
तार	-816
▁जै	-817
▁अलग	-818
▁मैंने	-819
▁मत	-820
▁ची	-821
▁हूं	-822
▁मंत्री	-823
जूद	-824
▁रिपोर्ट	-825
ंगे	-826
al	-827
र्क	-828
▁बैं	-829
▁बनाने	-830
र्फ	-831
▁वीड	-832
ियर	-833
▁बड़ी	-834
वान	-835
▁व्या	-836
शा	-837
▁पता	-838
▁प्रधान	-839
चे	-840
▁अध्य	-841
▁12	-842
▁श्री	-843
▁डि	-844
▁ऑफ	-845
्यान	-846
जह	-847
▁जरूर	-848
▁दर्ज	-849
▁जीत	-850
▁किसान	-851
▁वीडियो	-852
माल	-853
▁मही	-854
▁उपयोग	-855
गत	-856
▁लड़	-857
▁परी	-858
ताओं	-859
or	-860
▁उसकी	-861
▁पत्र	-862
▁कुमार	-863
ोध	-864
▁खेल	-865
▁पानी	-866
▁बाहर	-867
▁दिए	-868
▁रन	-869
▁आधार	-870
प्ता	-871
▁राशि	-872
▁करती	-873
▁अधिकार	-874
▁महा	-875
▁शिक्ष	-876
▁घटना	-877
दान	-878
िये	-879
▁M	-880
▁जाते	-881
▁यदि	-882
▁केंद्र	-883
▁प्रे	-884
आर	-885
पूर्	-886
▁मुताब	-887
▁मुख्यमंत्री	-888
▁जबकि	-889
▁मुताबिक	-890
वेश	-891
▁नई	-892
▁विशेष	-893
▁वजह	-894
▁वाला	-895
▁जहां	-896
द्य	-897
ूरी	-898
▁तुम	-899
▁पां	-900
▁चला	-901
▁B	-902
ल्प	-903
ूट	-904
▁प्रो	-905
▁गिर	-906
▁संग	-907
भाग	-908
▁मज	-909
ाइन	-910
ियन	-911
en	-912
ैंड	-913
▁सीट	-914
▁हाथ	-915
▁लाभ	-916
▁मिला	-917
▁करी	-918
▁आर	-919
▁कान	-920
▁विध	-921
▁तथा	-922
ष्ठ	-923
▁करके	-924
▁सवाल	-925
▁व्यव	-926
स्क	-927
▁9	-928
ुआ	-929
पूर्ण	-930
▁दूसरे	-931
▁गा	-932
िटी	-933
▁नए	-934
▁इला	-935
▁जगह	-936
▁फैस	-937
▁केवल	-938
जों	-939
स्या	-940
ंदर	-941
▁ब्र	-942
▁ध्यान	-943
करण	-944
वरी	-945
▁खुद	-946
▁आव	-947
सल	-948
▁देते	-949
▁आया	-950
िता	-951
ेंस	-952
रिक	-953
▁पूछ	-954
▁स्थिति	-955
▁विश्व	-956
▁आम	-957
▁डाल	-958
ख्या	-959
▁आद	-960
▁दुनिया	-961
शल	-962
▁कोर्ट	-963
▁हे	-964
▁आपकी	-965
▁अम	-966
▁R	-967
▁पे	-968
तों	-969
▁चार	-970
▁सिर्फ	-971
▁प्रत	-972
▁एन	-973
▁पो	-974
▁पूरा	-975
▁,	-976
माण	-977
▁पाकि	-978
▁राम	-979
▁बड़े	-980
▁हिंद	-981
it	-982
▁लॉ	-983
▁उत्तर	-984
▁राजनी	-985
▁प्रधानमंत्री	-986
▁दिनों	-987
▁अच्छा	-988
▁तहत	-989
▁प्रश	-990
्ले	-991
▁तैयार	-992
तन	-993
▁खरी	-994
पन	-995
द्र	-996
▁जिसके	-997
▁अमे	-998
ल्ड	-999
▁नौ	-1000
▁कोरो	-1001
▁प्रभाव	-1002
▁I	-1003
▁नजर	-1004
▁हमें	-1005
▁सद	-1006
हम	-1007
▁बंद	-1008
ाइल	-1009
ार्थ	-1010
▁लिखा	-1011
▁हिस्	-1012
▁समस्या	-1013
▁जिससे	-1014
क्षण	-1015
▁इस्ते	-1016
।'	-1017
▁इस्तेमाल	-1018
▁रे	-1019
▁शे	-1020
र्शन	-1021
्यालय	-1022
▁15	-1023
▁चाहते	-1024
▁होना	-1025
▁डी	-1026
फ्त	-1027
भव	-1028
▁खे	-1029
▁उसने	-1030
▁कोरोना	-1031
जेपी	-1032
नि	-1033
▁बड़ा	-1034
▁प्राप्त	-1035
पाल	-1036
▁कोश	-1037
▁न्या	-1038
ंगा	-1039
यी	-1040
▁ट्रे	-1041
▁लेने	-1042
ीर	-1043
▁डे	-1044
▁ऐसी	-1045
▁करेंगे	-1046
▁ढ	-1047
▁आस	-1048
▁वहां	-1049
▁तरी	-1050
▁अध्यक्ष	-1051
श्यक	-1052
ॉल	-1053
▁विधान	-1054
▁एक्स	-1055
िले	-1056
▁जाना	-1057
▁ब्ल	-1058
▁परीक्षा	-1059
ंगल	-1060
▁पं	-1061
▁रहने	-1062
▁विकास	-1063
बाद	-1064
▁तौर	-1065
▁करा	-1066
णी	-1067
▁महीने	-1068
▁खान	-1069
हित	-1070
▁बीजेपी	-1071
.'	-1072
▁बस	-1073
▁दूर	-1074
▁छात्र	-1075
▁छोड़	-1076
▁सुरक्षा	-1077
▁बैंक	-1078
र्च	-1079
डे	-1080
▁पहली	-1081
ic	-1082
िस्ट	-1083
▁शर्	-1084
▁जवा	-1085
▁करीब	-1086
▁कुल	-1087
▁तरफ	-1088
▁बढ़ा	-1089
▁समाज	-1090
▁उठा	-1091
▁आवश्यक	-1092
शत	-1093
ायक	-1094
हन	-1095
▁कोशिश	-1096
▁पत्	-1097
▁पाकिस्तान	-1098
ग्र	-1099
▁मेरी	-1100
▁मौत	-1101
यान	-1102
20	-1103
िकेट	-1104
▁T	-1105
▁बाल	-1106
▁लगे	-1107
▁इसकी	-1108
मुख	-1109
▁बिना	-1110
▁वेब	-1111
एल	-1112
स्थ्य	-1113
▁लिख	-1114
▁सेवा	-1115
▁व्याप	-1116
▁पांच	-1117
राज	-1118
यन	-1119
▁कौ	-1120
ुक्त	-1121
ैल	-1122
▁धन	-1123
▁घोष	-1124
▁कृ	-1125
▁संख्या	-1126
▁पार	-1127
ासन	-1128
▁विरो	-1129
▁फोन	-1130
टे	-1131
▁थीं	-1132
त्या	-1133
▁महत्व	-1134
▁कहना	-1135
▁शुरुआ	-1136
राब	-1137
▁जल्	-1138
बह	-1139
▁फ़	-1140
▁प्रदर्शन	-1141
ीक	-1142
▁वायर	-1143
▁स्वास्थ्य	-1144
▁विधानसभा	-1145
▁राह	-1146
ब्ध	-1147
▁कहते	-1148
▁गेंद	-1149
ध्यम	-1150
▁प्रकार	-1151
▁गांव	-1152
▁अधिकारी	-1153
भग	-1154
▁विभाग	-1155
हरा	-1156
▁कीमत	-1157
▁जाएगी	-1158
ीट	-1159
डा	-1160
▁गांधी	-1161
स्थान	-1162
▁बच्चों	-1163
तम	-1164
ताल	-1165
▁देखने	-1166
▁देखा	-1167
▁आदि	-1168
▁वाप	-1169
जय	-1170
दों	-1171
लाइन	-1172
▁11	-1173
▁भाग	-1174
000	-1175
▁उपल	-1176
▁बल्कि	-1177
काल	-1178
र्ष	-1179
▁शरी	-1180
चान	-1181
▁उम्मीदवार	-1182
▁ते	-1183
▁सही	-1184
▁यादव	-1185
▁पेश	-1186
▁माल	-1187
▁D	-1188
▁भाव	-1189
▁लगता	-1190
▁रात	-1191
▁खबर	-1192
▁उसका	-1193
▁सच	-1194
▁मिली	-1195
▁:	-1196
▁न्यू	-1197
▁उपलब्ध	-1198
▁करे	-1199
▁H	-1200
▁कल	-1201
▁जवाब	-1202
▁राष्ट्र	-1203
▁शिव	-1204
त्ता	-1205
ायत	-1206
▁मंत्र	-1207
▁एम	-1208
तु	-1209
क्शन	-1210
▁सदस	-1211
st	-1212
लब	-1213
हाँ	-1214
▁पूरे	-1215
रों	-1216
▁सफल	-1217
▁होंगे	-1218
र्चा	-1219
▁ख़	-1220
▁मौजूद	-1221
दारी	-1222
▁विचार	-1223
▁कर्म	-1224
▁अच्छी	-1225
ुट	-1226
▁लगभग	-1227
उन	-1228
▁शादी	-1229
▁अद	-1230
▁स्कूल	-1231
▁इंटर	-1232
▁हजार	-1233
▁बनाए	-1234
▁आयोज	-1235
श्म	-1236
न्न	-1237
वेदन	-1238
▁मिले	-1239
बल	-1240
▁क्ल	-1241
▁चि	-1242
▁बिल	-1243
बार	-1244
le	-1245
▁स्तर	-1246
▁बदल	-1247
▁मजब	-1248
▁मार	-1249
▁रोक	-1250
▁ट्व	-1251
ंज	-1252
▁N	-1253
▁सौ	-1254
▁बज	-1255
▁खास	-1256
▁मां	-1257
राम	-1258
▁गै	-1259
्टी	-1260
ालय	-1261
▁दिख	-1262
▁यही	-1263
▁पोस्ट	-1264
▁जनता	-1265
▁सोशल	-1266
▁कार्यक्रम	-1267
िफ	-1268
▁नंबर	-1269
▁गल	-1270
ुन	-1271
▁लगातार	-1272
▁दल	-1273
▁माध्यम	-1274
▁शरीर	-1275
▁लगाया	-1276
▁इंडिया	-1277
▁कित	-1278
▁स्थान	-1279
▁दूसरी	-1280
्हें	-1281
▁अस्प	-1282
▁बचा	-1283
▁मंद	-1284
▁टेस्ट	-1285
▁थो	-1286
षण	-1287
ॉप	-1288
▁चुके	-1289
▁जिसे	-1290
▁राष्ट्रीय	-1291
▁निय	-1292
▁अर	-1293
संद	-1294
▁प्रतिशत	-1295
▁पर्	-1296
▁लाइ	-1297
▁रखने	-1298
ूब	-1299
▁अफ	-1300
षा	-1301
▁बयान	-1302
दम	-1303
▁स्म	-1304
▁क्रिकेट	-1305
साइट	-1306
मारी	-1307
▁शहर	-1308
▁सके	-1309
▁आपका	-1310
▁मूल	-1311
▁लें	-1312
▁डा	-1313
▁सुबह	-1314
पति	-1315
▁नियम	-1316
▁परेश	-1317
▁फीस	-1318
▁शिक्षा	-1319
ीय	-1320
▁नव	-1321
▁संप	-1322
▁जरूरत	-1323
ion	-1324
▁प्रमुख	-1325
▁समर्थ	-1326
धि	-1327
ेंड	-1328
▁माना	-1329
▁पीछ	-1330
लाई	-1331
ंदा	-1332
ल्स	-1333
▁ठीक	-1334
▁रखा	-1335
▁रोज	-1336
▁नर	-1337
श्व	-1338
िश्	-1339
त्मक	-1340
▁उम	-1341
▁चा	-1342
▁.	-1343
स्वी	-1344
▁गं	-1345
▁अंतर	-1346
▁निकाल	-1347
▁वित	-1348
▁खरीद	-1349
▁कार्ड	-1350
▁G	-1351
वाह	-1352
▁सांस	-1353
am	-1354
िन्न	-1355
di	-1356
▁सर्	-1357
▁शर्मा	-1358
▁सम्म	-1359
चर	-1360
▁प्रया	-1361
्रीम	-1362
▁भूम	-1363
▁निर्देश	-1364
▁किस	-1365
▁लगी	-1366
▁पसंद	-1367
बे	-1368
▁जे	-1369
▁बिहार	-1370
▁घंट	-1371
▁वेबसाइट	-1372
क्रिया	-1373
▁बच	-1374
▁बजे	-1375
▁मिलने	-1376
रीज	-1377
सम	-1378
▁सोच	-1379
कान	-1380
▁ऑन	-1381
▁चुकी	-1382
ांत	-1383
▁बाजार	-1384
▁आख	-1385
▁बच्चे	-1386
श्च	-1387
-1	-1388
िकल	-1389
टक	-1390
▁देता	-1391
ष्य	-1392
▁निवेश	-1393
▁200	-1394
ेशा	-1395
▁शो	-1396
▁गुरु	-1397
▁बेहतर	-1398
र्न	-1399
्ज	-1400
नाथ	-1401
▁मिन	-1402
ड़ों	-1403
▁लाल	-1404
िड	-1405
▁मंदिर	-1406
▁विदेश	-1407
▁छोट	-1408
▁गिरफ्त	-1409
▁राहुल	-1410
▁ग्राम	-1411
▁बनाया	-1412
ात	-1413
▁यात्रा	-1414
▁मुद्	-1415
om	-1416
▁पिता	-1417
▁विरोध	-1418
▁शुरुआत	-1419
▁सामान	-1420
अल	-1421
▁चुन	-1422
▁ड्र	-1423
भर	-1424
▁चर्चा	-1425
▁फैसला	-1426
विधा	-1427
▁अधिकारियों	-1428
काश	-1429
ूप	-1430
▁18	-1431
▁नोट	-1432
▁अंत	-1433
▁आदेश	-1434
▁धर्म	-1435
▁सरकारी	-1436
▁14	-1437
▁सर्व	-1438
▁महत्वपूर्ण	-1439
▁जिला	-1440
▁विप	-1441
एन	-1442
▁जल	-1443
▁पीछे	-1444
▁प्रदान	-1445
▁प्ले	-1446
मो	-1447
▁जरूरी	-1448
▁तेज	-1449
▁बोल	-1450
▁हमारी	-1451
▁फाय	-1452
▁प्य	-1453
▁वर	-1454
▁वृ	-1455
ंख	-1456
▁दोस्त	-1457
यू	-1458
▁जिले	-1459
▁प्रक्रिया	-1460
▁हाई	-1461
▁रिक	-1462
▁निर्माण	-1463
मिक	-1464
▁अभि	-1465
सिक	-1466
▁उच्च	-1467
▁शाह	-1468
▁ऊपर	-1469
▁श्र	-1470
▁बेट	-1471
▁कमी	-1472
द्धि	-1473
▁रुपए	-1474
मता	-1475
जरा	-1476
▁स्थित	-1477
▁देना	-1478
▁F	-1479
▁कानून	-1480
ंबई	-1481
▁बैठक	-1482
▁कार्र	-1483
▁हास	-1484
दाय	-1485
लाह	-1486
फा	-1487
▁अस्पताल	-1488
िन्	-1489
त्री	-1490
▁विभ	-1491
ैक	-1492
▁शेयर	-1493
▁जन्म	-1494
▁पाए	-1495
▁एक्ट	-1496
▁मामला	-1497
▁निकल	-1498
करी	-1499
ंद्र	-1500
क्सी	-1501
▁विकेट	-1502
त्ति	-1503
▁भग	-1504
ंका	-1505
▁संघ	-1506
▁E	-1507
▁हमेशा	-1508
▁प्रयास	-1509
गल	-1510
▁25	-1511
re	-1512
▁कार्रवाई	-1513
▁जानते	-1514
तरा	-1515
ियल	-1516
▁हत्या	-1517
▁मेरा	-1518
्यो	-1519
▁बने	-1520
▁रहते	-1521
▁फर	-1522
▁बिज	-1523
▁आवेदन	-1524
ित्र	-1525
▁उत्पा	-1526
▁बदला	-1527
लर	-1528
▁अदाल	-1529
▁किसानों	-1530
▁इतना	-1531
ॉर्म	-1532
▁पेट	-1533
▁अप्र	-1534
ad	-1535
र्ती	-1536
ing	-1537
▁हासिल	-1538
भीर	-1539
▁पक्ष	-1540
▁यानी	-1541
▁महिलाओं	-1542
▁संगठ	-1543
▁भाई	-1544
▁सुविधा	-1545
▁अख	-1546
क्षित	-1547
▁सेवन	-1548
▁30	-1549
किल	-1550
▁अहम	-1551
▁हिस्सा	-1552
द्यालय	-1553
▁वापस	-1554
एफ	-1555
वादी	-1556
बंधन	-1557
▁कौन	-1558
धिकार	-1559
र्थिक	-1560
▁मुंबई	-1561
ार्म	-1562
▁संभाव	-1563
कु	-1564
▁पाल	-1565
▁एज	-1566
मन	-1567
▁13	-1568
▁पूर्	-1569
▁अंदर	-1570
▁विभिन्न	-1571
▁बेहद	-1572
▁अर्	-1573
▁संक्रम	-1574
▁चलते	-1575
रिका	-1576
्रोल	-1577
▁वक्त	-1578
▁आइ	-1579
▁आत	-1580
▁गर्	-1581
लि	-1582
▁रि	-1583
▁गयी	-1584
▁L	-1585
▁|	-1586
▁कमा	-1587
▁वन	-1588
िली	-1589
▁चुका	-1590
▁मार्च	-1591
▁बल्ले	-1592
▁आर्थिक	-1593
्क	-1594
▁व्यापार	-1595
▁भु	-1596
▁हमने	-1597
▁तरीके	-1598
ड़क	-1599
झा	-1600
▁मि	-1601
लिया	-1602
▁ऑनलाइन	-1603
▁कहीं	-1604
▁दावा	-1605
प्प	-1606
▁युवा	-1607
▁जमा	-1608
▁गंभीर	-1609
▁साब	-1610
▁लक्ष	-1611
▁शी	-1612
▁भे	-1613
किंग	-1614
▁अर्थ	-1615
ेक	-1616
▁अति	-1617
▁मध्य	-1618
तंत्र	-1619
▁रंग	-1620
म्मे	-1621
▁अमेरिका	-1622
▁वालों	-1623
गार	-1624
▁साफ	-1625
▁16	-1626
▁ताकि	-1627
तान	-1628
▁पैसे	-1629
▁एड	-1630
गू	-1631
▁जून	-1632
▁नीचे	-1633
▁आता	-1634
▁तीस	-1635
▁पीएम	-1636
बाजी	-1637
▁आत्म	-1638
▁केंद	-1639
▁पंजा	-1640
ाप	-1641
त्य	-1642
▁अदालत	-1643
▁फ्र	-1644
▁K	-1645
▁राजनीतिक	-1646
▁महारा	-1647
र्जी	-1648
ंसा	-1649
is	-1650
▁व्यवस्था	-1651
हाय	-1652
▁जय	-1653
▁टाइ	-1654
▁तेल	-1655
▁बोर्ड	-1656
▁दिव	-1657
▁लो	-1658
▁केंद्रीय	-1659
▁देव	-1660
कट	-1661
▁हूँ	-1662
▁दू	-1663
िक्स	-1664
▁वोट	-1665
ांस	-1666
▁नागर	-1667
▁प्यार	-1668
▁शिकायत	-1669
▁सप	-1670
ज्ञान	-1671
▁तम	-1672
▁नया	-1673
▁गठ	-1674
▁लोकसभा	-1675
लेज	-1676
▁पक	-1677
ृति	-1678
▁विकल्प	-1679
▁मंगल	-1680
),	-1681
▁चीन	-1682
▁सुप	-1683
▁रेल	-1684
▁मिनट	-1685
▁मना	-1686
▁पड़ा	-1687
कल	-1688
▁डाय	-1689
▁पहचान	-1690
▁माह	-1691
नेट	-1692
णाम	-1693
▁उसी	-1694
▁मिश	-1695
▁प्ल	-1696
लू	-1697
ाला	-1698
▁समु	-1699
as	-1700
▁50	-1701
गढ़	-1702
▁जल्द	-1703
▁सेना	-1704
स्तव	-1705
▁सीमा	-1706
▁डिज	-1707
तियों	-1708
▁घोषणा	-1709
वासी	-1710
▁आयोग	-1711
▁नेताओं	-1712
▁पुर	-1713
ंटी	-1714
▁जैसी	-1715
▁लौ	-1716
▁देखते	-1717
▁उम्र	-1718
▁लगाने	-1719
तिहा	-1720
▁2022	-1721
▁टै	-1722
▁पत्नी	-1723
ch	-1724
▁उससे	-1725
काब	-1726
क़	-1727
▁गति	-1728
▁तय	-1729
िरा	-1730
▁न्याया	-1731
▁दिखाई	-1732
▁मॉ	-1733
▁सदस्य	-1734
▁शुक्र	-1735
▁शुभ	-1736
▁घंटे	-1737
▁नागरिक	-1738
▁W	-1739
▁नुक	-1740
▁कदम	-1741
▁24	-1742
मति	-1743
ro	-1744
▁लेख	-1745
जिक	-1746
▁पड़े	-1747
▁समर्थन	-1748
▁मिलेगा	-1749
व्य	-1750
श्मीर	-1751
▁लिये	-1752
बाइल	-1753
▁विधायक	-1754
ग्री	-1755
र्श	-1756
▁खूब	-1757
ूह	-1758
▁देशों	-1759
▁मजबूत	-1760
खंड	-1761
धे	-1762
▁पंजाब	-1763
ष्ण	-1764
मीन	-1765
डल	-1766
et	-1767
▁दौ	-1768
ोस	-1769
▁रहता	-1770
▁सूचना	-1771
▁सित	-1772
▁जनवरी	-1773
ॉक	-1774
▁अच्छे	-1775
टन	-1776
,000	-1777
बाज	-1778
ॉर्ड	-1779
▁मी	-1780
▁परिणाम	-1781
▁मामलों	-1782
हरी	-1783
तक	-1784
▁सहाय	-1785
▁मंत्रालय	-1786
ur	-1787
▁गिरफ्तार	-1788
▁जुड़े	-1789
बू	-1790
▁सहित	-1791
▁विष	-1792
▁सुप्रीम	-1793
▁नुकसान	-1794
केट	-1795
▁बदलाव	-1796
▁खत्म	-1797
▁रहेगा	-1798
▁बर	-1799
▁तस्वी	-1800
▁प्रशासन	-1801
▁उनसे	-1802
▁टिक	-1803
ुड	-1804
शु	-1805
सत	-1806
▁साबित	-1807
▁नरेंद्र	-1808
▁वाह	-1809
ृह	-1810
पे	-1811
ay	-1812
फे	-1813
▁रिश	-1814
ियान	-1815
उट	-1816
▁लागू	-1817
▁जिम्मे	-1818
▁देर	-1819
िशा	-1820
अप	-1821
▁विवाद	-1822
▁जेल	-1823
▁मोबाइल	-1824
▁स्वी	-1825
▁संय	-1826
द्योग	-1827
ॉन	-1828
▁करेगा	-1829
▁संबंधित	-1830
वीं	-1831
इड	-1832
▁बुध	-1833
साथ	-1834
▁मई	-1835
ांति	-1836
▁ती	-1837
▁धो	-1838
ंभ	-1839
▁छो	-1840
▁भगवान	-1841
रल	-1842
▁सम्मान	-1843
▁0	-1844
▁एल	-1845
ूं	-1846
▁गलत	-1847
वें	-1848
▁सोम	-1849
▁यूपी	-1850
▁17	-1851
▁बंग	-1852
▁प्रभावित	-1853
▁करवा	-1854
▁खाने	-1855
▁अंग	-1856
▁ट्वीट	-1857
▁परिव	-1858
▁मुकाब	-1859
▁सहयोग	-1860
▁अवसर	-1861
ष्ट्र	-1862
▁रव	-1863
▁रण	-1864
▁सें	-1865
फोन	-1866
▁भर्ती	-1867
▁दिस	-1868
इस	-1869
▁स्मार्ट	-1870
▁पंच	-1871
असल	-1872
▁नही	-1873
▁मोह	-1874
▁आवश्यकता	-1875
▁जाएंगे	-1876
चिका	-1877
यों	-1878
चीत	-1879
ंगी	-1880
▁उत	-1881
▁छात्रों	-1882
▁खो	-1883
▁अगले	-1884
▁राजनीति	-1885
▁स्थाप	-1886
ेंसी	-1887
▁लेते	-1888
हाल	-1889
▁s	-1890
▁प्रेम	-1891
▁बातचीत	-1892
▁सामना	-1893
▁कट	-1894
साय	-1895
▁फी	-1896
ॉय	-1897
▁अप्रैल	-1898
▁डॉक्टर	-1899
▁पट	-1900
▁पहला	-1901
▁बनी	-1902
ंता	-1903
▁अगस्त	-1904
▁दरअसल	-1905
▁ग्रह	-1906
▁नौकरी	-1907
un	-1908
▁दृ	-1909
▁मिलता	-1910
▁हार	-1911
▁गुजरा	-1912
▁O	-1913
▁भेज	-1914
उंट	-1915
▁पत्रकार	-1916
▁याचिका	-1917
▁होकर	-1918
▁p	-1919
▁नगर	-1920
▁राय	-1921
▁राजस्थान	-1922
▁संभावना	-1923
ष्टि	-1924
▁आते	-1925
▁सीएम	-1926
ठी	-1927
▁कप्ता	-1928
▁छोटे	-1929
il	-1930
▁एक्सप	-1931
▁कंट	-1932
▁खुश	-1933
▁तुल	-1934
▁असर	-1935
▁बनने	-1936
▁भू	-1937
▁वही	-1938
▁फीसदी	-1939
चाल	-1940
ोरी	-1941
सि	-1942
▁मुश्	-1943
▁आग	-1944
▁गण	-1945
ंडी	-1946
सूस	-1947
▁शाय	-1948
▁राज्यों	-1949
विष्य	-1950
दर	-1951
▁जरिए	-1952
▁आंक	-1953
el	-1954
▁अपरा	-1955
▁सीरीज	-1956
▁कंपन	-1957
ॉट	-1958
धन	-1959
▁सांसद	-1960
न्द्र	-1961
▁स्पष्ट	-1962
ायल	-1963
▁सफलता	-1964
▁विपक्ष	-1965
▁भविष्य	-1966
ोजन	-1967
कर्ता	-1968
▁सारे	-1969
▁भूमिका	-1970
▁कहानी	-1971
▁दुर्	-1972
▁साह	-1973
शनल	-1974
मर	-1975
▁जुलाई	-1976
ent	-1977
विड	-1978
▁पूजा	-1979
▁सलाह	-1980
▁रहती	-1981
▁युव	-1982
खी	-1983
▁शब्	-1984
▁पैदा	-1985
▁उद	-1986
▁आदमी	-1987
▁जित	-1988
सों	-1989
▁बाव	-1990
▁आयोजित	-1991
▁मृत	-1992
▁2020	-1993
▁उद्	-1994
▁सै	-1995
▁क्लिक	-1996
ार्ड	-1997
▁वास्तव	-1998
ूड	-1999
▁गौर	-2000
.5	-2001
▁लंब	-2002
▁पति	-2003
▁तेजी	-2004
▁निर्ण	-2005
▁सामान्य	-2006
▁हमला	-2007
ार्ज	-2008
▁यून	-2009
▁पुरा	-2010
ग्	-2011
हरे	-2012
▁महसूस	-2013
▁उल्	-2014
▁आती	-2015
▁मुश्किल	-2016
▁शान	-2017
▁रै	-2018
▁परेशान	-2019
नेस	-2020
▁आरोपी	-2021
▁दर्द	-2022
▁जैसा	-2023
सद	-2024
▁सिद्ध	-2025
▁चरण	-2026
्रो	-2027
ड़ने	-2028
▁लॉन्	-2029
ड़ियों	-2030
▁वी	-2031
▁दिसंबर	-2032
िरी	-2033
तिम	-2034
चन	-2035
▁पाया	-2036
▁!	-2037
वुड	-2038
▁ऋ	-2039
नीय	-2040
▁U	-2041
ंदी	-2042
िष्ठ	-2043
▁2019	-2044
▁दबा	-2045
ाना	-2046
▁V	-2047
▁चिक	-2048
लिम	-2049
पु	-2050
▁जिसका	-2051
▁सोमवार	-2052
▁मौके	-2053
▁देती	-2054
▁एयर	-2055
▁रखें	-2056
क्षि	-2057
▁ति	-2058
▁गुजरात	-2059
र्य	-2060
▁न्याय	-2061
▁सुधार	-2062
▁धी	-2063
▁मगर	-2064
▁मतलब	-2065
▁प्रकाश	-2066
▁भाषा	-2067
्रीन	-2068
षि	-2069
ुओं	-2070
ूबर	-2071
▁बावजूद	-2072
▁राष्ट्रपति	-2073
▁तला	-2074
▁डेट	-2075
▁ज्ञ	-2076
▁भारी	-2077
▁सात	-2078
▁तस्वीर	-2079
क्ता	-2080
▁आन	-2081
ोलन	-2082
ृत्व	-2083
▁आवा	-2084
▁बाइ	-2085
▁ट्रेन	-2086
▁आईपी	-2087
▁फे	-2088
▁पश्च	-2089
▁व्यक्त	-2090
▁?	-2091
मित	-2092
▁जाये	-2093
▁In	-2094
▁गे	-2095
▁वरिष्ठ	-2096
तृत्व	-2097
▁खराब	-2098
सन	-2099
प्ताह	-2100
▁सूर्	-2101
▁पारी	-2102
ct	-2103
ौती	-2104
▁फरवरी	-2105
▁कथ	-2106
जरी	-2107
ण्ड	-2108
्होंने	-2109
ंदगी	-2110
▁21	-2111
▁सामा	-2112
▁पड़ता	-2113
ानीय	-2114
▁शायद	-2115
▁संक्रमण	-2116
ra	-2117
▁माता	-2118
▁पूछा	-2119
▁रोग	-2120
▁विस्त	-2121
▁2021	-2122
▁आसान	-2123
▁इले	-2124
ol	-2125
▁आतंक	-2126
▁चले	-2127
▁100	-2128
us	-2129
▁t	-2130
▁ओवर	-2131
▁आंद	-2132
▁अंतिम	-2133
▁सामाजिक	-2134
पास	-2135
क्सर	-2136
▁तारी	-2137
▁खर्च	-2138
▁सुना	-2139
ed	-2140
िद	-2141
▁एंड	-2142
्यु	-2143
▁सार	-2144
▁पहुंचे	-2145
स्ताव	-2146
लीवुड	-2147
▁प्रयोग	-2148
▁स्थानीय	-2149
कत	-2150
वरण	-2151
स्ती	-2152
फर	-2153
▁अनुभव	-2154
▁इलाज	-2155
र्तन	-2156
कृत	-2157
टल	-2158
▁कैम	-2159
▁नेतृत्व	-2160
▁कैं	-2161
चल	-2162
ब्ल	-2163
▁पर्या	-2164
▁प्रस्ताव	-2165
▁पैसा	-2166
▁टीवी	-2167
▁वर्ग	-2168
▁पीड़	-2169
▁प्रत्य	-2170
उंड	-2171
▁मश	-2172
▁गये	-2173
99	-2174
▁समिति	-2175
▁इंग	-2176
स्थित	-2177
टने	-2178
▁टि	-2179
▁खिलाड़ी	-2180
िश्चित	-2181
▁आपने	-2182
स्ट्रे	-2183
▁संगठन	-2184
▁मुला	-2185
रीब	-2186
्वास	-2187
ंघ	-2188
्रम	-2189
▁महाराष्ट्र	-2190
अलग	-2191
▁चाहता	-2192
ेत	-2193
ेन	-2194
धर	-2195
▁मौका	-2196
▁c	-2197
▁कला	-2198
▁छह	-2199
▁त्र	-2200
▁प्रवेश	-2201
▁आयु	-2202
सू	-2203
▁रिज	-2204
▁सम्	-2205
▁प्रव	-2206
▁सड़क	-2207
▁''	-2208
pp	-2209
▁यहाँ	-2210
▁रज	-2211
स्त्र	-2212
▁ग्राह	-2213
▁वायरल	-2214
विद्यालय	-2215
▁चीज	-2216
िटल	-2217
ांड	-2218
▁निजी	-2219
▁सत्ता	-2220
▁शुक्रवार	-2221
▁रिकॉर्ड	-2222
▁मात्रा	-2223
्यता	-2224
धिकारिक	-2225
▁निर्णय	-2226
▁लेना	-2227
▁बंगाल	-2228
क्टूबर	-2229
▁मंगलवार	-2230
▁गुण	-2231
लोड	-2232
स्ट्रेलिया	-2233
id	-2234
ंतर	-2235
▁जाकर	-2236
▁फैसले	-2237
▁हिंदू	-2238
▁उसमें	-2239
ोद	-2240
▁बताते	-2241
ज़ा	-2242
ानि	-2243
▁भावना	-2244
तिहास	-2245
▁आधिकारिक	-2246
▁अक्सर	-2247
दीप	-2248
स्टम	-2249
▁अक्टूबर	-2250
▁जमीन	-2251
▁चिंता	-2252
▁पूर्ण	-2253
▁आसानी	-2254
▁प्लान	-2255
ष्ट्रीय	-2256
▁सूर्य	-2257
▁दक्षि	-2258
▁दवा	-2259
▁बेटी	-2260
तमान	-2261
▁संत	-2262
▁अभियान	-2263
▁हल्	-2264
फल	-2265
ोह	-2266
▁हिंदी	-2267
▁लॉन्च	-2268
▁मू	-2269
▁वायरस	-2270
▁इतिहास	-2271
स्लिम	-2272
▁सितंबर	-2273
▁सिर	-2274
▁विश्वास	-2275
▁सप्ताह	-2276
ीत	-2277
रिया	-2278
िक्ष	-2279
▁शानदार	-2280
ूरत	-2281
ील	-2282
ot	-2283
▁समूह	-2284
▁अनुमति	-2285
थि	-2286
▁गृह	-2287
▁2024	-2288
लेट	-2289
▁क्षमता	-2290
▁इंग्ल	-2291
▁लंबे	-2292
रु	-2293
कर्ताओं	-2294
▁22	-2295
▁पाठ	-2296
▁नियंत्र	-2297
▁समुदाय	-2298
▁in	-2299
▁रखते	-2300
▁आंदोलन	-2301
यं	-2302
▁कराने	-2303
▁बेटे	-2304
▁बुधवार	-2305
▁अका	-2306
▁करनी	-2307
ेद	-2308
▁किलो	-2309
▁दिशा	-2310
▁नवंबर	-2311
▁फोट	-2312
▁वैसे	-2313
▁लगाए	-2314
▁विषय	-2315
र्ग	-2316
▁शि	-2317
▁बीते	-2318
ेंज	-2319
▁2023	-2320
गतान	-2321
▁मं	-2322
▁शन	-2323
▁दूसरा	-2324
तरी	-2325
ul	-2326
og	-2327
▁अपराध	-2328
रेट	-2329
▁रिली	-2330
▁ज़र	-2331
▁पहुंचा	-2332
स्कार	-2333
▁तुर	-2334
▁रविवार	-2335
▁कथित	-2336
▁कश्मीर	-2337
▁वृद्धि	-2338
▁बॉलीवुड	-2339
▁बढ़ाने	-2340
▁कब	-2341
▁इंत	-2342
ित्व	-2343
▁भुगतान	-2344
बीआई	-2345
▁अंक	-2346
▁वर्तमान	-2347
मक	-2348
रिक्त	-2349
▁क्षेत्रों	-2350
िनि	-2351
▁एफ	-2352
▁सचिव	-2353
▁समेत	-2354
▁साइ	-2355
▁थोड़ा	-2356
▁श्रे	-2357
▁शनिवार	-2358
▁माइ	-2359
▁तकनी	-2360
▁जता	-2361
▁भीतर	-2362
▁रखना	-2363
शील	-2364
ैनिक	-2365
▁कराया	-2366
▁अतिरिक्त	-2367
ाइट	-2368
▁कप्तान	-2369
धानी	-2370
▁हरिया	-2371
▁इनमें	-2372
ीण	-2373
▁2025	-2374
▁सुपर	-2375
▁फाइन	-2376
▁खोल	-2377
▁निभा	-2378
▁शक्ति	-2379
▁तभी	-2380
खन	-2381
▁प्री	-2382
ag	-2383
▁चंद्र	-2384
द्रा	-2385
▁डाउन	-2386
▁चुना	-2387
▁यूजर	-2388
▁इतनी	-2389
▁स्मार्टफोन	-2390
▁मुस्लिम	-2391
▁मिलती	-2392
▁चिकित	-2393
▁सुरक्षित	-2394
▁m	-2395
ज़र	-2396
▁बेच	-2397
मैं	-2398
▁दुकान	-2399
ठा	-2400
▁चैन	-2401
▁बिजली	-2402
▁विश्वविद्यालय	-2403
▁रेलवे	-2404
▁तुम्ह	-2405
▁हमारा	-2406
▁दिला	-2407
कम	-2408
▁संके	-2409
▁कर्	-2410
▁डर	-2411
ौल	-2412
भार	-2413
र्जा	-2414
राह	-2415
▁सूची	-2416
▁तुलना	-2417
▁देकर	-2418
▁दोस्तों	-2419
▁सुनिश्चित	-2420
ुप	-2421
▁हिंसा	-2422
साद	-2423
भाल	-2424
▁मल	-2425
ूक	-2426
▁योगी	-2427
▁स्वीकार	-2428
▁कोविड	-2429
▁सिस्टम	-2430
दु	-2431
ut	-2432
▁मर	-2433
▁तत्	-2434
▁जिसकी	-2435
पू	-2436
ट्ट	-2437
ha	-2438
▁लड़की	-2439
जु	-2440
▁ऑस्ट्रेलिया	-2441
▁रिश्ते	-2442
▁फ्ल	-2443
▁ग्रामीण	-2444
▁मेड	-2445
▁प्रतिक	-2446
वेद	-2447
▁40	-2448
▁खाना	-2449
▁सुनवाई	-2450
▁J	-2451
▁तुरंत	-2452
हली	-2453
▁बजट	-2454
रान	-2455
▁अमेरिक	-2456
▁संस्था	-2457
ल्ट	-2458
▁जाय	-2459
▁कॉलेज	-2460
▁बल	-2461
▁अभिने	-2462
्वर	-2463
▁नेट	-2464
▁b	-2465
▁जोर	-2466
▁आठ	-2467
▁चयन	-2468
▁इंस्ट	-2469
पक	-2470
्रेट	-2471
न्द	-2472
▁पल	-2473
▁धारा	-2474
▁हमले	-2475
ाब	-2476
मिट	-2477
hi	-2478
चारियों	-2479
▁इंडियन	-2480
▁बाइक	-2481
वत	-2482
▁उपाय	-2483
▁बातें	-2484
▁लं	-2485
▁करियर	-2486
▁केस	-2487
▁आखिर	-2488
▁मौसम	-2489
▁तनाव	-2490
▁आउट	-2491
▁करेगी	-2492
▁सीटों	-2493
▁लड़ा	-2494
▁23	-2495
नर	-2496
ड्ड	-2497
ैया	-2498
▁ट्रेड	-2499
▁कंपनियों	-2500
▁सिल	-2501
्ती	-2502
▁क्व	-2503
एच	-2504
▁उम्मीदवारों	-2505
▁इलेक्ट	-2506
▁कठ	-2507
म्मू	-2508
▁रक्षा	-2509
▁कृषि	-2510
फ्ट	-2511
▁रहें	-2512
▁उनको	-2513
..	-2514
ुरुष	-2515
▁1.	-2516
and	-2517
▁गिरा	-2518
▁टिकट	-2519
▁विरा	-2520
▁प्लेट	-2521
▁संस्थान	-2522
▁जल्दी	-2523
▁दश	-2524
▁पाने	-2525
ैट	-2526
नल	-2527
▁आश	-2528
▁चाल	-2529
▁बिक	-2530
▁ठा	-2531
▁26	-2532
▁स्वयं	-2533
ूर्ति	-2534
स्ते	-2535
▁इंग्लैंड	-2536
▁बीमारी	-2537
▁f	-2538
▁दक्षिण	-2539
▁देंगे	-2540
गम	-2541
▁सूत्र	-2542
▁विदेशी	-2543
विध	-2544
श्न	-2545
▁न्यायालय	-2546
▁चाहे	-2547
▁फिल्मों	-2548
▁संयुक्त	-2549
▁फायदे	-2550
▁शांति	-2551
▁संभव	-2552
▁सारी	-2553
▁लक्ष्य	-2554
▁शीर्ष	-2555
▁बारिश	-2556
▁हटा	-2557
▁कर्मचारियों	-2558
ंव	-2559
▁जम्मू	-2560
▁लोन	-2561
▁माँ	-2562
▁सुख	-2563
▁स्वतंत्र	-2564
▁खाते	-2565
▁पुरुष	-2566
▁मैदान	-2567
▁समान	-2568
खे	-2569
म्प	-2570
▁दोष	-2571
▁धीरे	-2572
▁हरियाणा	-2573
्रिक	-2574
वट	-2575
-2	-2576
▁कपूर	-2577
्रेड	-2578
▁बर्	-2579
▁राहत	-2580
▁सजा	-2581
▁संचाल	-2582
जल	-2583
न्या	-2584
केश	-2585
ation	-2586
▁तैयारी	-2587
▁नीति	-2588
नो	-2589
मीटर	-2590
▁क़	-2591
ित्य	-2592
▁पालन	-2593
▁कोहली	-2594
▁सार्व	-2595
सित	-2596
▁कारो	-2597
▁संपर्क	-2598
▁मार्ग	-2599
िटर	-2600
दर्	-2601
▁जाति	-2602
▁छोटी	-2603
em	-2604
▁आंख	-2605
ल्क	-2606
▁जिन्हें	-2607
▁विन	-2608
▁खुला	-2609
▁संब	-2610
ियाँ	-2611
▁सहायता	-2612
▁वर्षों	-2613
▁पश्चिम	-2614
▁इलाके	-2615
▁संसद	-2616
स्टर	-2617
ूनी	-2618
▁आनंद	-2619
▁फा	-2620
▁अश	-2621
▁इच्छ	-2622
▁फॉ	-2623
▁ऑफिस	-2624
▁जिन्होंने	-2625
▁फायदा	-2626
▁रेड	-2627
▁प्राइ	-2628
▁रिलीज	-2629
▁28	-2630
▁रोहित	-2631
▁आयोजन	-2632
▁लिस्ट	-2633
ैर	-2634
जनिक	-2635
▁अमेरिकी	-2636
▁देखकर	-2637
▁मिलेगी	-2638
▁बनाकर	-2639
▁फिलहाल	-2640
रीन	-2641
ir	-2642
▁उद्देश	-2643
▁वर्ल्ड	-2644
▁मुद्दे	-2645
▁मुह	-2646
ंकर	-2647
▁शराब	-2648
▁कवि	-2649
▁स्थापित	-2650
▁बाकी	-2651
▁पुन	-2652
गु	-2653
▁कंट्रोल	-2654
▁हिन्	-2655
ंडल	-2656
्रिया	-2657
▁रहेंगे	-2658
50	-2659
थमिक	-2660
▁सल	-2661
▁जस्ट	-2662
▁दूध	-2663
▁फल	-2664
तीश	-2665
▁भोजन	-2666
▁निर्धार	-2667
▁कही	-2668
कात	-2669
▁भ्र	-2670
सं	-2671
सेना	-2672
▁27	-2673
▁चेहरे	-2674
▁अक्ष	-2675
ामा	-2676
▁आइए	-2677
▁चाहती	-2678
▁किये	-2679
▁प्राथमिक	-2680
▁आईपीएल	-2681
▁बैठे	-2682
▁गुरुवार	-2683
▁वित्त	-2684
▁सार्वजनिक	-2685
▁युद्ध	-2686
म्मद	-2687
▁जुड़ी	-2688
▁प्रत्येक	-2689
ow	-2690
▁मार्केट	-2691
▁इंजन	-2692
▁खड़े	-2693
▁जिनमें	-2694
▁घु	-2695
ac	-2696
▁लखन	-2697
▁वजन	-2698
त्त	-2699
▁खुल	-2700
▁सालों	-2701
राष्ट्रीय	-2702
-19	-2703
देव	-2704
▁घा	-2705
▁बनाई	-2706
▁तु	-2707
▁तमाम	-2708
▁ज्यो	-2709
▁कमज	-2710
▁कार्यालय	-2711
▁मरी	-2712
▁समी	-2713
▁कितना	-2714
▁घोषित	-2715
▁अकाउंट	-2716
▁विजय	-2717
▁पॉ	-2718
ार्क	-2719
▁बीमार	-2720
वाही	-2721
har	-2722
▁गाय	-2723
टो	-2724
▁अली	-2725
▁जाएं	-2726
बि	-2727
▁सेट	-2728
उस	-2729
▁2018	-2730
प्स	-2731
▁संकेत	-2732
द्द	-2733
▁लै	-2734
नु	-2735
▁विस्तार	-2736
टाने	-2737
▁समाप्त	-2738
▁अवधि	-2739
लैंड	-2740
▁उनमें	-2741
▁सदस्यों	-2742
▁मानसिक	-2743
ेप	-2744
▁शै	-2745
एँ	-2746
▁व्	-2747
कर्ष	-2748
▁उद्योग	-2749
ाहरण	-2750
▁एक्सप्रेस	-2751
▁डेटा	-2752
▁आखिरी	-2753
▁बुला	-2754
▁पीड़ित	-2755
▁31	-2756
▁टिप्प	-2757
एक	-2758
▁मुकाबले	-2759
▁2017	-2760
▁गैर	-2761
▁चुनौती	-2762
वधान	-2763
▁हल	-2764
विधान	-2765
▁रिट	-2766
▁परेशानी	-2767
▁मूल्य	-2768
▁लखनऊ	-2769
▁जिंदगी	-2770
क्षक	-2771
▁ज्योति	-2772
▁टाइम	-2773
30	-2774
ंडा	-2775
▁थाना	-2776
नियर	-2777
ियार	-2778
▁अखिल	-2779
▁नार	-2780
▁एक्ट्रेस	-2781
▁प्रतिक्रिया	-2782
▁पृ	-2783
सीसी	-2784
फ्र	-2785
▁कॉल	-2786
▁प्रचार	-2787
शिया	-2788
▁अमित	-2789
जरीवाल	-2790
▁जस्टिस	-2791
▁बढ़ने	-2792
▁पौ	-2793
ेंशन	-2794
ov	-2795
▁फोटो	-2796
र्प	-2797
शिप	-2798
▁नारा	-2799
▁गौ	-2800
षद	-2801
▁मुझ	-2802
▁इनके	-2803
▁तीसरे	-2804
दूर	-2805
▁असम	-2806
▁तोड़	-2807
▁खोज	-2808
जूदा	-2809
▁संजय	-2810
▁गठबंधन	-2811
▁उत्तरा	-2812
▁साध	-2813
▁मुद्रा	-2814
टरी	-2815
▁केजरीवाल	-2816
▁संकट	-2817
▁खिलाड़ियों	-2818
▁परिवर्तन	-2819
▁प्रसाद	-2820
▁टा	-2821
ग्रह	-2822
ंकी	-2823
▁ज्ञान	-2824
▁प्रतिनि	-2825
▁चली	-2826
iv	-2827
▁प्रण	-2828
▁संघर्ष	-2829
वस्था	-2830
▁साझा	-2831
ँच	-2832
▁स्टेशन	-2833
गो	-2834
ैंप	-2835
▁विद्य	-2836
▁उदाहरण	-2837
स्व	-2838
▁नती	-2839
चानक	-2840
▁हरा	-2841
िकेशन	-2842
्याज	-2843
▁मिलकर	-2844
▁संर	-2845
▁हिस्से	-2846
▁त्व	-2847
▁डाउनलोड	-2848
▁होनी	-2849
▁ऊर्जा	-2850
▁पहन	-2851
कोर	-2852
त्ती	-2853
▁घरे	-2854
▁बिग	-2855
▁देवी	-2856
▁ज़्यादा	-2857
चारी	-2858
▁गरीब	-2859
▁मुलाकात	-2860
▁मौजूदा	-2861
ियत	-2862
ोधित	-2863
▁मॉडल	-2864
▁पुराने	-2865
▁अचानक	-2866
▁दस	-2867
▁पदों	-2868
▁भीड़	-2869
▁फॉर्म	-2870
▁जोड़	-2871
▁तत्काल	-2872
▁व्यवसाय	-2873
▁बालों	-2874
▁मेडिकल	-2875
▁लंड	-2876
▁छूट	-2877
▁रखी	-2878
जीत	-2879
▁निशा	-2880
▁उद्देश्य	-2881
▁बांग	-2882
▁गेम	-2883
ायी	-2884
लेख	-2885
▁दबाव	-2886
ार्मिक	-2887
▁h	-2888
ग्राम	-2889
्कुल	-2890
▁सीख	-2891
▁दस्ता	-2892
▁अय	-2893
▁हथ	-2894
▁धार्मिक	-2895
▁वाहन	-2896
▁मैने	-2897
िक्र	-2898
▁रहना	-2899
▁इतने	-2900
▁प्रभ	-2901
▁खड़ा	-2902
▁इंटरनेट	-2903
ोप	-2904
▁199	-2905
▁गर्म	-2906
▁प्रिय	-2907
▁त्वचा	-2908
▁Re	-2909
दू	-2910
indi	-2911
▁चढ़	-2912
▁दम	-2913
▁मस	-2914
▁रोकने	-2915
▁पीठ	-2916
▁वनडे	-2917
▁पहल	-2918
▁शब्द	-2919
ess	-2920
▁भेजा	-2921
▁डॉलर	-2922
▁विशेषज्ञ	-2923
▁पकड़	-2924
▁बिल्कुल	-2925
ियोजना	-2926
▁एजेंसी	-2927
वै	-2928
▁रेट	-2929
▁रणनी	-2930
▁कड़ी	-2931
िनी	-2932
▁भरो	-2933
▁पढ़ाई	-2934
थी	-2935
▁वकी	-2936
▁ब्रे	-2937
▁इन्हें	-2938
▁संपत्ति	-2939
▁हेल्	-2940
▁अपील	-2941
हान	-2942
▁स्क्रीन	-2943
▁परियोजना	-2944
▁आधारित	-2945
▁थोड़ी	-2946
▁मस्	-2947
▁मानव	-2948
▁सलमान	-2949
▁घरेलू	-2950
▁जम	-2951
▁दर्श	-2952
प्शन	-2953
▁किताब	-2954
खर	-2955
ew	-2956
जिए	-2957
▁अनुर	-2958
▁/	-2959
काम	-2960
▁महामारी	-2961
सु	-2962
▁किन	-2963
▁रोड	-2964
▁लाने	-2965
्टर	-2966
▁मेहन	-2967
▁छुट	-2968
▁मरीजों	-2969
▁बांग्ला	-2970
डर	-2971
ab	-2972
▁डिजिटल	-2973
▁पेट्रोल	-2974
▁(1	-2975
▁निर्धारित	-2976
▁राजा	-2977
▁ऐप	-2978
कारा	-2979
▁कोल	-2980
▁लॉक	-2981
▁रजिस्ट	-2982
▁क्ला	-2983
▁जिम्मेदारी	-2984
ig	-2985
▁विराट	-2986
▁प्रेर	-2987
▁संविधान	-2988
▁रहेगी	-2989
श्चित	-2990
▁एंटी	-2991
▁अंग्रे	-2992
रेज	-2993
▁हॉ	-2994
▁प्रमाण	-2995
▁दस्तावे	-2996
्तीय	-2997
▁तलाश	-2998
▁किलोमीटर	-2999
ौन	-3000
▁काल	-3001
▁देगा	-3002
▁घायल	-3003
दिन	-3004
▁बेहत	-3005
▁चोट	-3006
▁सत	-3007
कोर्ट	-3008
▁विकसित	-3009
▁चलता	-3010
▁सीधे	-3011
घा	-3012
▁आसपास	-3013
यल	-3014
न्ना	-3015
▁खरीदने	-3016
▁बजाय	-3017
वाला	-3018
▁सत्र	-3019
▁तारीख	-3020
▁प्रश्न	-3021
▁देखें	-3022
जब	-3023
▁री	-3024
▁सिक	-3025
▁29	-3026
चर्स	-3027
जनक	-3028
▁शव	-3029
▁कब्	-3030
▁2.	-3031
▁निर	-3032
धरी	-3033
▁कैमरा	-3034
▁नो	-3035
▁स्टार	-3036
▁चार्ज	-3037
▁मोहम्मद	-3038
▁बॉडी	-3039
▁तरीका	-3040
▁चैनल	-3041
▁सपा	-3042
▁वित्तीय	-3043
ाइड	-3044
▁खतरा	-3045
▁कारोबार	-3046
▁ब्लड	-3047
▁अंतरराष्ट्रीय	-3048
▁o	-3049
▁निश्चित	-3050
▁दिवस	-3051
▁बल्लेबाज	-3052
्रत	-3053
▁दोप	-3054
▁निशाना	-3055
▁गईं	-3056
इज	-3057
▁अके	-3058
▁हिस	-3059
▁देखना	-3060
▁संस्क	-3061
▁अग्र	-3062
▁राजधानी	-3063
प्रिय	-3064
यक	-3065
सलमान	-3066
▁वाय	-3067
▁दलों	-3068
▁प्रती	-3069
मेल	-3070
▁प्रबंधन	-3071
प्ले	-3072
ैंस	-3073
▁ट्विटर	-3074
▁आध	-3075
द्व	-3076
▁टॉप	-3077
▁धार	-3078
▁इंतजार	-3079
▁आवाज	-3080
▁भूल	-3081
▁मंच	-3082
▁कहां	-3083
▁झू	-3084
ोधन	-3085
▁प्रार	-3086
बो	-3087
▁लगती	-3088
चु	-3089
विंद	-3090
▁मैचों	-3091
▁शनि	-3092
▁चेक	-3093
त्कार	-3094
▁पटेल	-3095
▁हाथों	-3096
ज्ञा	-3097
▁चौधरी	-3098
▁ग्रुप	-3099
▁आदित्य	-3100
▁बांग्लादेश	-3101
ुण	-3102
▁लिंक	-3103
▁1,	-3104
▁सुनी	-3105
ॉग	-3106
▁फाइनल	-3107
▁बनाना	-3108
्राम	-3109
▁आजा	-3110
तः	-3111
▁कक्षा	-3112
▁चूत	-3113
▁हाईकोर्ट	-3114
▁सामग्री	-3115
▁उत्पादन	-3116
रद	-3117
लान	-3118
▁नीतीश	-3119
▁डिस्	-3120
▁विट	-3121
▁बेहतरीन	-3122
जित	-3123
प्ति	-3124
▁पावर	-3125
ामिन	-3126
▁आराम	-3127
▁कमजोर	-3128
वर्	-3129
▁नियमित	-3130
▁मेहनत	-3131
▁आलो	-3132
फॉर्म	-3133
▁उत्पाद	-3134
▁संदेश	-3135
▁किर	-3136
▁अध्ययन	-3137
▁कितनी	-3138
▁मतदान	-3139
▁बू	-3140
▁सकें	-3141
▁कोच	-3142
्रिय	-3143
▁हफ	-3144
तलब	-3145
्मी	-3146
डेट	-3147
▁रोजगार	-3148
ानों	-3149
शे	-3150
▁उचित	-3151
▁बाबा	-3152
▁स्पी	-3153
▁महान	-3154
▁सीजन	-3155
िवर्स	-3156
▁इन्	-3157
▁फ्री	-3158
▁प्रतिबंध	-3159
▁फूल	-3160
▁सेहत	-3161
od	-3162
▁लाइन	-3163
▁पूछता	-3164
▁भूमि	-3165
डाउन	-3166
▁पढ़ें	-3167
▁हवा	-3168
▁धर	-3169
▁शासन	-3170
▁गैस	-3171
▁तिथि	-3172
▁60	-3173
▁नियंत्रण	-3174
▁प्रशिक्ष	-3175
▁व्यवहार	-3176
▁गोली	-3177
ेंडर	-3178
ेक्ट	-3179
नाक	-3180
▁सक्रिय	-3181
▁कहने	-3182
▁इंसान	-3183
व्यू	-3184
▁लाइफ	-3185
स्म	-3186
▁टॉ	-3187
▁समाचार	-3188
▁वॉ	-3189
▁भले	-3190
▁तत्व	-3191
▁जात	-3192
▁नोटिस	-3193
▁कर्मचारी	-3194
▁निप	-3195
▁कितने	-3196
▁हाद	-3197
▁बिजनेस	-3198
im	-3199
▁स्वामी	-3200
स्ट्री	-3201
▁ड्राइ	-3202
▁युवक	-3203
जाम	-3204
▁रस	-3205
▁रवि	-3206
▁संश	-3207
▁निवासी	-3208
पान	-3209
um	-3210
▁सूत्रों	-3211
दिक	-3212
ूषण	-3213
▁बोला	-3214
व्यवस्था	-3215
▁वेर	-3216
▁प्रेस	-3217
▁सच्च	-3218
▁2026	-3219
▁खी	-3220
ोषण	-3221
▁अरब	-3222
▁तीनों	-3223
▁लड़ाई	-3224
▁सभा	-3225
▁यूज	-3226
▁मुसलमान	-3227
est	-3228
▁दोपहर	-3229
देन	-3230
▁नदी	-3231
▁जीबी	-3232
▁मालिक	-3233
्यूटर	-3234
▁वार्	-3235
▁करो	-3236
▁रोम	-3237
मंद	-3238
द्दी	-3239
▁समस्याओं	-3240
▁खाली	-3241
▁दलित	-3242
्वा	-3243
▁चीनी	-3244
▁समझौ	-3245
थे	-3246
▁डिजाइन	-3247
देशक	-3248
नाटक	-3249
▁w	-3250
ट्स	-3251
▁हिसाब	-3252
▁जवान	-3253
▁बातों	-3254
पूर	-3255
▁गौरतलब	-3256
र्डर	-3257
▁युवाओं	-3258
ष्टा	-3259
गन	-3260
▁मेह	-3261
com	-3262
▁किश	-3263
क्कर	-3264
▁स्कोर	-3265
.1	-3266
▁प्रवक्ता	-3267
▁मिट	-3268
▁समाधान	-3269
os	-3270
▁हफ्ते	-3271
िशन	-3272
▁टिप्पणी	-3273
▁निष्	-3274
▁स्टो	-3275
ांक	-3276
▁जिसने	-3277
▁पर्याप्त	-3278
▁इस्ती	-3279
▁मानना	-3280
▁d	-3281
▁चीजों	-3282
कर्म	-3283
▁पोर्ट	-3284
िनियम	-3285
ज़ार	-3286
▁लक्षण	-3287
▁पाई	-3288
▁नियमों	-3289
▁साथी	-3290
▁मनु	-3291
शान	-3292
▁बें	-3293
▁प्रस्त	-3294
▁डिग्री	-3295
मेश	-3296
▁2014	-3297
▁आँ	-3298
▁बहन	-3299
▁सॉ	-3300
ल्ल	-3301
▁बढ़ती	-3302
दाता	-3303
▁शख	-3304
राव	-3305
▁k	-3306
▁उतार	-3307
ाले	-3308
▁लोकप्रिय	-3309
▁गोल	-3310
▁अफ्री	-3311
एंगे	-3312
▁वर्षीय	-3313
▁जिम्मेदार	-3314
श्वर	-3315
▁पड़ेगा	-3316
▁चुनावों	-3317
चक	-3318
▁कर्नाटक	-3319
▁इच्छा	-3320
▁प्रोड	-3321
्प	-3322
िलों	-3323
▁अंतर्	-3324
▁मुक	-3325
▁विटामिन	-3326
han	-3327
धिकारी	-3328
त्रियों	-3329
क्षम	-3330
▁मित्र	-3331
▁अखिलेश	-3332
▁खुशी	-3333
▁रॉय	-3334
▁टूट	-3335
टका	-3336
▁चलने	-3337
▁पहुंची	-3338
▁चिकित्	-3339
ोत्	-3340
▁आकर	-3341
▁मनी	-3342
▁खि	-3343
▁टैक्स	-3344
▁प्रभा	-3345
▁उल्लेख	-3346
▁ज्यादातर	-3347
▁ग्राहकों	-3348
▁फंड	-3349
▁उतर	-3350
▁तू	-3351
▁गतिविध	-3352
ter	-3353
▁दिखाया	-3354
▁गू	-3355
▁उत्तराखंड	-3356
▁शौ	-3357
▁तमिल	-3358
▁व्रत	-3359
▁नेशनल	-3360
यह	-3361
▁उसको	-3362
▁सीबीआई	-3363
▁बहा	-3364
▁बोली	-3365
माने	-3366
▁दाम	-3367
▁एच	-3368
▁अवै	-3369
ज्ञानिक	-3370
▁गाड़ी	-3371
▁एक्टर	-3372
▁लड़क	-3373
वां	-3374
▁खेलने	-3375
▁डो	-3376
▁मध	-3377
शाली	-3378
.2	-3379
▁विमान	-3380
▁इंद	-3381
▁वकील	-3382
▁कने	-3383
▁हालत	-3384
▁पड़ी	-3385
▁तैना	-3386
▁अथ	-3387
पिता	-3388
▁परिषद	-3389
▁आरोपियों	-3390
सेस	-3391
▁लौट	-3392
वाले	-3393
▁गणेश	-3394
▁होटल	-3395
▁एका	-3396
▁स्कू	-3397
▁कमरे	-3398
▁नै	-3399
ठे	-3400
▁निगम	-3401
▁इंटरव्यू	-3402
▁कैंसर	-3403
बाल	-3404
▁मिलते	-3405
▁बिक्री	-3406
▁कपड़े	-3407
▁सख	-3408
▁जिनके	-3409
्यास	-3410
▁ऐलान	-3411
▁वापसी	-3412
▁अधिनियम	-3413
ारोह	-3414
▁वार	-3415
ढ़ी	-3416
ate	-3417
▁संबंधी	-3418
▁अनुमान	-3419
▁सक्षम	-3420
▁पंड	-3421
▁रास्ते	-3422
आप	-3423
▁होम	-3424
▁किरदार	-3425
▁विद्यालय	-3426
▁ट्रै	-3427
▁मजदूर	-3428
▁चुनावी	-3429
▁नज़र	-3430
कृति	-3431
▁विवाह	-3432
त्तीस	-3433
."	-3434
▁कृष्ण	-3435
ब्र	-3436
▁समारोह	-3437
धीश	-3438
▁आर्ट	-3439
ारात्मक	-3440
▁उठाया	-3441
▁भरपूर	-3442
▁प्ला	-3443
▁छि	-3444
▁ग्ल	-3445
ियोग	-3446
▁निर्मा	-3447
▁श्रद्ध	-3448
हित्य	-3449
डु	-3450
co	-3451
।''	-3452
यम	-3453
▁कमाई	-3454
ायण	-3455
वर्क	-3456
ेस	-3457
▁उपकरण	-3458
▁परिस	-3459
▁अने	-3460
नतम	-3461
▁डिप	-3462
▁ब्रिट	-3463
th	-3464
▁सुंदर	-3465
पोर्ट	-3466
▁पूछताछ	-3467
▁अह	-3468
▁बल्लेबाजी	-3469
▁कार्यों	-3470
▁l	-3471
▁जू	-3472
▁सेक	-3473
▁अवैध	-3474
▁धम	-3475
▁ओपन	-3476
▁बचाने	-3477
▁अपडेट	-3478
▁35	-3479
▁हालात	-3480
▁सोने	-3481
▁मृत्यु	-3482
▁आकर्ष	-3483
▁मुंह	-3484
▁फीचर्स	-3485
बादी	-3486
नाम	-3487
▁उल	-3488
▁बैटरी	-3489
▁स्किन	-3490
ग्न	-3491
▁लगने	-3492
▁अंदा	-3493
पूर्व	-3494
ak	-3495
▁ट्रांस	-3496
कृ	-3497
ंदे	-3498
▁जुड़ा	-3499
▁लु	-3500
▁माहौल	-3501
▁पैर	-3502
▁शोध	-3503
▁शख्स	-3504
▁बचाव	-3505
▁बोले	-3506
स्थिति	-3507
▁रिजल्ट	-3508
▁एसिड	-3509
▁पंचायत	-3510
▁चिकित्सा	-3511
ूंगा	-3512
▁दाख	-3513
▁संवाद	-3514
▁सिने	-3515
▁शुल्क	-3516
बारा	-3517
▁जीव	-3518
▁शिकार	-3519
▁हित	-3520
कू	-3521
he	-3522
▁फैंस	-3523
▁कार्यकर्ताओं	-3524
बद्ध	-3525
▁एशिया	-3526
ॉम	-3527
▁स्ट्र	-3528
ce	-3529
पत्र	-3530
▁फैला	-3531
▁शुरुआती	-3532
▁आवास	-3533
चि	-3534
▁सेंटर	-3535
्वी	-3536
त्तीसगढ़	-3537
▁व्यक्तिगत	-3538
▁सकारात्मक	-3539
▁आलोचना	-3540
▁मिलाकर	-3541
▁सारा	-3542
▁इस्ला	-3543
▁योगदान	-3544
लिंग	-3545
िंट	-3546
ment	-3547
्याण	-3548
▁बढ़ावा	-3549
माग	-3550
▁St	-3551
▁साइट	-3552
▁कहती	-3553
▁मंजू	-3554
▁चाय	-3555
कुमार	-3556
िएंट	-3557
ंजन	-3558
▁चर	-3559
▁जातकों	-3560
▁भरोसा	-3561
▁साहित्य	-3562
स्ट्र	-3563
▁पढ़ने	-3564
▁मिश्रा	-3565
जिद	-3566
▁पंजी	-3567
▁खूबस	-3568
▁केरल	-3569
▁ममता	-3570
ेर	-3571
▁जहाँ	-3572
▁पुरानी	-3573
▁सत्य	-3574
▁समझा	-3575
▁2016	-3576
िकी	-3577
▁आये	-3578
▁गुस्	-3579
▁गाँ	-3580
▁शूट	-3581
▁मिस	-3582
▁लगाई	-3583
▁सन	-3584
▁198	-3585
▁पहुंचने	-3586
▁रखे	-3587
वरूप	-3588
दरा	-3589
▁परीक्षण	-3590
▁प्रणाली	-3591
▁मुद्दों	-3592
▁पुष्टि	-3593
▁इनकी	-3594
▁गुप्ता	-3595
.4	-3596
▁नाराज	-3597
▁बुरा	-3598
▁कैप	-3599
िटीज	-3600
दियों	-3601
बीर	-3602
▁रद्द	-3603
ंजी	-3604
ल्ला	-3605
▁अन्	-3606
▁सर्वे	-3607
ंतु	-3608
ुरा	-3609
▁सीटें	-3610
हल	-3611
ज़ी	-3612
▁भरा	-3613
▁छत्तीसगढ़	-3614
कारों	-3615
ताव	-3616
▁खेले	-3617
ष्टाचार	-3618
थर	-3619
▁नम	-3620
▁कॉन्	-3621
▁आना	-3622
▁लीग	-3623
मानत	-3624
▁यूनिवर्स	-3625
जो	-3626
ांश	-3627
▁वैश्व	-3628
▁फाइ	-3629
up	-3630
▁समीक्षा	-3631
बत	-3632
▁जिलों	-3633
▁छोड़कर	-3634
▁इलाकों	-3635
▁पटना	-3636
▁अत्य	-3637
▁घूम	-3638
ज्ज	-3639
एसपी	-3640
▁पदार्थ	-3641
▁जागर	-3642
▁रक्त	-3643
▁दुख	-3644
▁दूरी	-3645
▁रोल	-3646
▁खुलासा	-3647
्रेशन	-3648
सव	-3649
संग	-3650
▁थाने	-3651
क्का	-3652
▁ब्याज	-3653
▁निर्भर	-3654
▁वास्तविक	-3655
▁विधाय	-3656
▁चैंप	-3657
▁उपचार	-3658
▁पॉल	-3659
▁अंड	-3660
▁कानूनी	-3661
▁दायर	-3662
▁निरा	-3663
▁मान्यता	-3664
▁लॉकडाउन	-3665
▁उड़	-3666
ंदन	-3667
▁ट्रंप	-3668
टीन	-3669
▁जोख	-3670
▁न्यायाधीश	-3671
▁अट	-3672
नगर	-3673
▁हथियार	-3674
▁अफ्रीका	-3675
▁फिट	-3676
वीर	-3677
▁जॉ	-3678
▁इसको	-3679
ूँ	-3680
▁जाह	-3681
कुर	-3682
▁निम	-3683
▁ताकत	-3684
▁हिरा	-3685
▁वस्त	-3686
▁अर्थव्यवस्था	-3687
▁पर्य	-3688
▁वैक्सी	-3689
▁क्रम	-3690
▁विपक्षी	-3691
वासियों	-3692
ri	-3693
स्तानी	-3694
मैन	-3695
▁लंबी	-3696
▁वेतन	-3697
▁मुक्त	-3698
▁हां	-3699
▁पुस्त	-3700
▁डायरे	-3701
▁विल	-3702
ध्यक्ष	-3703
▁काट	-3704
▁मरीज	-3705
▁विरोधी	-3706
▁छोटा	-3707
',	-3708
▁घरों	-3709
▁जीतने	-3710
▁हिरासत	-3711
▁जितना	-3712
▁जोखिम	-3713
म्ब	-3714
ारिज	-3715
ार्थियों	-3716
▁आगा	-3717
▁खेला	-3718
▁कराई	-3719
▁खाता	-3720
av	-3721
▁गाने	-3722
▁विज्ञान	-3723
▁रास्ता	-3724
न्तु	-3725
▁ऑफर	-3726
▁जिक्र	-3727
▁स्वागत	-3728
▁वैश्विक	-3729
कल्प	-3730
▁कले	-3731
▁80	-3732
▁आंकड़ों	-3733
▁सुझा	-3734
▁रचना	-3735
▁प्रावधान	-3736
▁जायेगा	-3737
ार्थी	-3738
▁कल्याण	-3739
▁गिरावट	-3740
▁प्रतिनिध	-3741
▁सफाई	-3742
▁पुरस्कार	-3743
थम	-3744
.7	-3745
क्के	-3746
▁अब्	-3747
ard	-3748
लंका	-3749
▁योजनाओं	-3750
▁रिस	-3751
▁शिक्षक	-3752
▁रिल	-3753
▁लागत	-3754
▁लगते	-3755
▁सिनेमा	-3756
▁शतक	-3757
▁पेंशन	-3758
एमसी	-3759
सप	-3760
▁मशीन	-3761
▁of	-3762
▁दिमाग	-3763
▁टू	-3764
▁महिलाएं	-3765
▁स्वस्थ	-3766
▁गंगा	-3767
▁शुगर	-3768
one	-3769
▁पीने	-3770
▁बढ़कर	-3771
ers	-3772
कीय	-3773
▁स्ना	-3774
▁संबोधित	-3775
फ्	-3776
छा	-3777
▁बताने	-3778
▁दरवा	-3779
▁ऊंच	-3780
▁कविता	-3781
▁जमकर	-3782
्यूट	-3783
▁जला	-3784
▁सीमित	-3785
उथ	-3786
▁ट्रेडिंग	-3787
आईआर	-3788
▁फुट	-3789
▁मुझसे	-3790
वेयर	-3791
▁प्रस्तुत	-3792
▁फें	-3793
▁भो	-3794
▁यूजर्स	-3795
ub	-3796
▁इनकार	-3797
्वे	-3798
▁मंजूरी	-3799
▁व्यापक	-3800
▁झार	-3801
▁कार्यकर्ता	-3802
वत्ता	-3803
▁अनेक	-3804
▁स्वतंत्रता	-3805
▁सैनिक	-3806
-20	-3807
▁हेतु	-3808
ंधे	-3809
▁संक्रमित	-3810
▁फो	-3811
▁आर्	-3812
तौर	-3813
▁अंब	-3814
▁संस्कृति	-3815
▁श्रीलंका	-3816
िफिकेशन	-3817
▁कंप्यूटर	-3818
िमा	-3819
णे	-3820
▁गुला	-3821
▁नेटवर्क	-3822
काता	-3823
▁आएगा	-3824
▁प्रता	-3825
eb	-3826
▁v	-3827
▁इंडस्ट्री	-3828
▁दशक	-3829
▁ताप	-3830
▁फ़िल	-3831
▁भ्रष्टाचार	-3832
पन्न	-3833
▁टेक्	-3834
▁प्रत्या	-3835
तें	-3836
▁मारे	-3837
▁महीनों	-3838
▁संभाल	-3839
बंदी	-3840
▁आतंकवाद	-3841
▁नागरिकों	-3842
▁उल्ल	-3843
▁वर्मा	-3844
▁बनर्जी	-3845
▁घट	-3846
▁चीजें	-3847
▁Hindi	-3848
▁प्रीम	-3849
▁बदलने	-3850
▁विधायकों	-3851
▁एक्	-3852
ine	-3853
▁ऑटो	-3854
▁बहु	-3855
▁जानने	-3856
▁नींद	-3857
▁पाते	-3858
▁ज्योतिष	-3859
▁वहाँ	-3860
▁बढ़ते	-3861
हे	-3862
▁गुणवत्ता	-3863
▁स्कूलों	-3864
▁इंजी	-3865
ाये	-3866
▁गर	-3867
िको	-3868
▁रूस	-3869
▁गहरा	-3870
▁अंतर्गत	-3871
▁डिट	-3872
▁शारी	-3873
▁स्टेट	-3874
▁प्रसार	-3875
▁शहरों	-3876
▁राजी	-3877
▁खुले	-3878
केशन	-3879
ोग्राम	-3880
बारी	-3881
▁नवी	-3882
▁मेगा	-3883
▁आबादी	-3884
▁विश्ले	-3885
वाने	-3886
म्बर	-3887
दूस	-3888
▁रणनीति	-3889
▁जमानत	-3890
.3	-3891
दय	-3892
▁गुजर	-3893
▁यूरो	-3894
▁कमेंट	-3895
▁पुत्र	-3896
ुनिक	-3897
षेक	-3898
धीरे	-3899
▁अभिनेता	-3900
▁70	-3901
चार्य	-3902
▁आंखों	-3903
▁उल्लंघ	-3904
▁37	-3905
▁भवन	-3906
▁(2	-3907
.6	-3908
▁तथ	-3909
▁खारिज	-3910
▁न्यूज	-3911
▁राज्यसभा	-3912
्डी	-3913
▁बहस	-3914
▁सहायक	-3915
▁32	-3916
्यूब	-3917
खों	-3918
▁शारीरिक	-3919
▁साहब	-3920
▁पाएंगे	-3921
▁प्लेटफॉर्म	-3922
▁अफग	-3923
▁प्रकाशित	-3924
▁दान	-3925
नेशनल	-3926
▁चोरी	-3927
दाताओं	-3928
ap	-3929
▁किंग	-3930
▁भाषण	-3931
▁मजा	-3932
जिट	-3933
▁मानते	-3934
पो	-3935
▁मनो	-3936
▁प्रोज	-3937
▁वैज्ञानिक	-3938
बाजों	-3939
▁कोलकाता	-3940
▁हाउस	-3941
▁बजा	-3942
▁इलेक्ट्रिक	-3943
क्रो	-3944
दाबाद	-3945
▁ठाकुर	-3946
▁प्रतिष्ठ	-3947
▁दौरे	-3948
▁रेखा	-3949
ंटर	-3950
▁कहता	-3951
.8	-3952
▁एप	-3953
▁संगीत	-3954
▁गुर	-3955
▁जताई	-3956
▁इजा	-3957
वाय	-3958
▁अमर	-3959
▁तकनीक	-3960
इंट	-3961
▁रखता	-3962
▁लव	-3963
▁सपोर्ट	-3964
▁यूनिवर्सिटी	-3965
▁टूर्	-3966
▁आदित्यनाथ	-3967
▁इंच	-3968
▁साउथ	-3969
▁अजय	-3970
▁दर्शकों	-3971
िक्सल	-3972
दराबाद	-3973
▁बढ़ो	-3974
▁नक	-3975
▁योग्य	-3976
▁उल्लंघन	-3977
▁सुझाव	-3978
िक्क	-3979
▁प्रशिक्षण	-3980
▁अरविंद	-3981
नामेंट	-3982
वती	-3983
▁मीटर	-3984
▁ब्रा	-3985
▁अनिवार	-3986
वेट	-3987
▁स्थापना	-3988
दारों	-3989
▁मुकाबला	-3990
▁अशोक	-3991
▁वीर	-3992
▁मालूम	-3993
▁दूसरों	-3994
▁सड़	-3995
▁ग़	-3996
▁इंजीनियर	-3997
▁बरा	-3998
▁शब्दों	-3999
▁नाग	-4000
▁तैनात	-4001
▁अनुरोध	-4002
▁मुफ्त	-4003
▁लोगो	-4004
रोज	-4005
▁दाय	-4006
▁डायब	-4007
▁निर्वा	-4008
▁टूर्नामेंट	-4009
▁सैन	-4010
▁लाखों	-4011
र्या	-4012
▁उपा	-4013
▁सेल	-4014
▁समाजवादी	-4015
▁छात्रा	-4016
▁जनरल	-4017
मतौर	-4018
कूल	-4019
ेंट्स	-4020
न्स	-4021
▁लगाकर	-4022
निक	-4023
▁दिलच	-4024
▁वेस्ट	-4025
▁दोबारा	-4026
सेट	-4027
▁अल्	-4028
गज	-4029
▁लिमिट	-4030
▁दृष्टि	-4031
▁बढ़ोतरी	-4032
कृतिक	-4033
▁गेंदबाज	-4034
पट	-4035
▁आतंकी	-4036
▁ग्राहक	-4037
िग	-4038
▁सपना	-4039
▁उत्सा	-4040
▁आशी	-4041
गंज	-4042
▁गतिविधियों	-4043
▁शह	-4044
▁गी	-4045
▁झारखंड	-4046
▁गर्मी	-4047
▁चलाने	-4048
ंख्य	-4049
▁हैदराबाद	-4050
▁पहा	-4051
▁हटाने	-4052
दो	-4053
हि	-4054
नाडु	-4055
▁पेज	-4056
▁दर्शन	-4057
▁लेता	-4058
▁a	-4059
▁टीका	-4060
▁हेड	-4061
▁तृ	-4062
ैक्ट	-4063
▁ब्लॉग	-4064
▁सेवाओं	-4065
oc	-4066
▁बंध	-4067
▁उठाने	-4068
र्ण	-4069
▁दीप	-4070
▁पार्	-4071
▁चम्म	-4072
▁ख़ु	-4073
▁90	-4074
ोध्या	-4075
▁खून	-4076
▁ग्रे	-4077
पुरी	-4078
वाना	-4079
▁बिता	-4080
दूसरे	-4081
▁समझने	-4082
▁मुद्दा	-4083
▁आमतौर	-4084
▁चम्मच	-4085
art	-4086
यात	-4087
▁वैक्सीन	-4088
ist	-4089
▁ग्रहण	-4090
▁बीमा	-4091
▁जाहिर	-4092
▁फूड	-4093
▁राव	-4094
राग	-4095
▁शिवसेना	-4096
िप्ट	-4097
▁साव	-4098
िवारी	-4099
▁परिसर	-4100
▁होंगी	-4101
▁शास्त्र	-4102
▁संगठनों	-4103
▁औसत	-4104
▁क्रेड	-4105
▁परिवारों	-4106
▁शांत	-4107
▁फायदेमंद	-4108
▁मजबूर	-4109
▁खींच	-4110
▁गिल	-4111
▁मुकद	-4112
▁उपस्थित	-4113
▁लोकतंत्र	-4114
▁किरा	-4115
▁हवाई	-4116
▁सकेंगे	-4117
िना	-4118
▁पात्र	-4119
▁सेक्टर	-4120
▁एनडी	-4121
▁संसा	-4122
ांच	-4123
▁अधिकांश	-4124
▁फैल	-4125
ैंक	-4126
▁निदेशक	-4127
▁प्रसि	-4128
▁तिवारी	-4129
dia	-4130
▁खाद्य	-4131
▁किस्	-4132
hat	-4133
▁)	-4134
▁कामया	-4135
▁धमकी	-4136
न्नई	-4137
▁लीटर	-4138
▁स्टोरेज	-4139
▁वायु	-4140
▁आल	-4141
▁इम	-4142
▁चित्र	-4143
▁प्रोजेक्ट	-4144
▁डाइट	-4145
ंपरा	-4146
▁अहमद	-4147
▁तमिलनाडु	-4148
▁इश	-4149
▁मस्जिद	-4150
पाद	-4151
▁आरोपों	-4152
लाल	-4153
▁टेली	-4154
▁इस्तीफा	-4155
▁Go	-4156
▁दिक्क	-4157
▁बचने	-4158
▁गूगल	-4159
▁प्रदूषण	-4160
जीव	-4161
▁लाइव	-4162
जीलैंड	-4163
ानिस्तान	-4164
्रेन	-4165
.0	-4166
▁गलती	-4167
▁सिया	-4168
▁अनुकूल	-4169
▁प्रभारी	-4170
▁कठिन	-4171
▁2015	-4172
▁अनिल	-4173
ूनों	-4174
▁बनाते	-4175
▁गेंदबाजी	-4176
▁पेपर	-4177
▁अकेले	-4178
ly	-4179
▁नज	-4180
घटना	-4181
▁अनिवार्य	-4182
▁पव	-4183
▁45	-4184
▁अयोध्या	-4185
र्द	-4186
ेलन	-4187
▁मनुष्य	-4188
▁36	-4189
बान	-4190
▁मात्र	-4191
▁बॉक्स	-4192
▁पांडे	-4193
पथ	-4194
▁धोनी	-4195
▁पृथ	-4196
दर्भ	-4197
▁इंस्टा	-4198
बु	-4199
▁नियुक्त	-4200
▁आशा	-4201
▁प्राकृतिक	-4202
▁बच्चन	-4203
त्रि	-4204
▁सेक्स	-4205
▁लेन	-4206
▁मिश्र	-4207
▁चक्र	-4208
एससी	-4209
▁डिवा	-4210
ुलर	-4211
▁परंपरा	-4212
हूर	-4213
▁फीसद	-4214
ेड़	-4215
▁व्हा	-4216
गति	-4217
▁चेन्नई	-4218
▁डायबिटीज	-4219
▁गीत	-4220
दायिक	-4221
▁विभा	-4222
रुख	-4223
▁अभिषेक	-4224
▁जैन	-4225
▁500	-4226
▁स्पेश	-4227
▁श्रेणी	-4228
▁देखी	-4229
▁चैंपियन	-4230
▁प्रतियोग	-4231
▁इंटरनेशनल	-4232
▁कमे	-4233
if	-4234
ांसी	-4235
▁लगाते	-4236
ढ़े	-4237
▁अल्प	-4238
▁रैली	-4239
ीप	-4240
▁उन्	-4241
▁काउ	-4242
▁न्यूजीलैंड	-4243
ult	-4244
युक्त	-4245
▁न्यूनतम	-4246
▁बुरी	-4247
▁स्थल	-4248
▁आरक्षण	-4249
हीन	-4250
हत्या	-4251
िश्वास	-4252
▁घटनाओं	-4253
▁प्रभावी	-4254
▁स्टेड	-4255
▁हार्	-4256
कश्मीर	-4257
▁ठहरा	-4258
▁इनका	-4259
सीबी	-4260
▁रहीं	-4261
▁अक्षय	-4262
▁तकनीकी	-4263
▁बैंकों	-4264
िजनों	-4265
▁खतर	-4266
▁चारों	-4267
▁ईरान	-4268
▁लेखक	-4269
ok	-4270
दास	-4271
▁कर्ज	-4272
▁कमेटी	-4273
त्मा	-4274
▁लुक	-4275
▁लेंगे	-4276
▁गठन	-4277
▁स्टेडियम	-4278
▁वाहनों	-4279
▁कू	-4280
ps	-4281
▁मशहूर	-4282
▁खड़ी	-4283
▁ऑल	-4284
ाफ	-4285
▁197	-4286
शियों	-4287
गण	-4288
▁पशु	-4289
ज्ञापन	-4290
धारण	-4291
▁कौशल	-4292
▁हेल्थ	-4293
▁इका	-4294
▁एग	-4295
▁यात्रियों	-4296
गरानी	-4297
,5	-4298
ियंस	-4299
▁शाहरुख	-4300
ुति	-4301
तावनी	-4302
▁बदले	-4303
▁मनाया	-4304
▁हस्त	-4305
▁New	-4306
फ्रेंस	-4307
▁डाला	-4308
▁अथवा	-4309
aj	-4310
्मा	-4311
▁लड़ने	-4312
▁अध्या	-4313
स्कर	-4314
▁रुक	-4315
▁गिरफ्तारी	-4316
▁परिजनों	-4317
वो	-4318
▁अपमान	-4319
,4	-4320
▁पर्व	-4321
▁चीज़	-4322
▁चेतावनी	-4323
▁तुम्हें	-4324
▁निगरानी	-4325
▁हरी	-4326
ोई	-4327
▁स्टी	-4328
टिल	-4329
▁कपिल	-4330
▁पर्स	-4331
▁अंग्रेजी	-4332
प्ल	-4333
pe	-4334
▁सैम	-4335
ढ़ा	-4336
▁स्टेप	-4337
ोड	-4338
▁प्रियंका	-4339
सास	-4340
▁एफआईआर	-4341
▁नवा	-4342
▁ऑप्शन	-4343
▁एंट	-4344
▁जंग	-4345
▁नौकर	-4346
▁सोचा	-4347
▁क्रेडिट	-4348
▁शास	-4349
▁विधे	-4350
मल	-4351
10	-4352
▁आकार	-4353
▁App	-4354
▁निर्माता	-4355
▁पत्रकारों	-4356
▁उपभ	-4357
▁काले	-4358
भारत	-4359
वाली	-4360
ब्ल्यू	-4361
▁बच्चा	-4362
कुल	-4363
बिल	-4364
द्दीन	-4365
▁हजारों	-4366
▁विज्ञापन	-4367
इंग	-4368
▁महास	-4369
▁आह	-4370
▁ब्लैक	-4371
▁अधिकतम	-4372
▁दुर्घटना	-4373
▁बाग	-4374
▁पर्यावरण	-4375
्मण	-4376
पक्ष	-4377
▁तस्वीरें	-4378
▁कार्यवाही	-4379
▁इमर	-4380
विंग	-4381
▁कैसी	-4382
▁दीपक	-4383
▁सड़कों	-4384
▁लिहा	-4385
▁खूबसूरत	-4386
ारों	-4387
भूम	-4388
▁जज	-4389
▁हैंड	-4390
▁इंस्टाग्राम	-4391
नै	-4392
▁रुख	-4393
▁खेली	-4394
▁लड़कियों	-4395
▁मीट	-4396
▁अफगानिस्तान	-4397
▁स्टूड	-4398
▁बराम	-4399
▁अभिन	-4400
▁सम्मेलन	-4401
tt	-4402
▁हादसे	-4403
▁तंत्र	-4404
▁उठाए	-4405
▁स्थानों	-4406
▁सचिन	-4407
ोने	-4408
एसएस	-4409
▁स्पेशल	-4410
तल	-4411
▁संशोधन	-4412
दल	-4413
▁दावे	-4414
▁माने	-4415
▁देगी	-4416
▁विधि	-4417
▁मण	-4418
क्ल	-4419
▁झा	-4420
▁बताई	-4421
▁जानी	-4422
र्ज	-4423
▁सोन	-4424
▁हद	-4425
)।	-4426
ice	-4427
▁असली	-4428
▁संतुल	-4429
▁जगहों	-4430
▁ढंग	-4431
▁अज	-4432
परेशन	-4433
▁दोषी	-4434
▁सां	-4435
▁बांध	-4436
▁मकान	-4437
▁स्कूटर	-4438
▁सख्त	-4439
▁घोट	-4440
न्ध	-4441
मेट	-4442
▁बॉस	-4443
▁रोजाना	-4444
▁भि	-4445
ोलॉ	-4446
▁तापमान	-4447
▁दाखिल	-4448
▁ब्रांड	-4449
▁खत	-4450
▁रियल	-4451
▁निकालने	-4452
▁बैक	-4453
▁परिस्थित	-4454
पित	-4455
▁प्रथम	-4456
▁आधुनिक	-4457
▁अना	-4458
कीम	-4459
ogle	-4460
रत	-4461
▁उत्पन्न	-4462
▁फिल्में	-4463
▁महज	-4464
▁बीमारियों	-4465
पेट	-4466
कीन	-4467
▁आजादी	-4468
बीसी	-4469
▁सपने	-4470
▁सरल	-4471
▁यश	-4472
▁जिनकी	-4473
▁जबरद	-4474
एसटी	-4475
▁सुल	-4476
▁हनु	-4477
ेक्षा	-4478
▁पाकिस्तानी	-4479
▁ब्लॉक	-4480
▁खेती	-4481
▁संदर्भ	-4482
▁खासकर	-4483
म्मत	-4484
▁तर्क	-4485
▁चौहान	-4486
▁बीज	-4487
▁यौन	-4488
िफ्ट	-4489
करे	-4490
▁प्रसिद्ध	-4491
▁सदन	-4492
▁मोटर	-4493
▁किशोर	-4494
▁सुनील	-4495
▁आपूर्ति	-4496
साइ	-4497
▁सर्विस	-4498
▁तारीफ	-4499
▁अखबार	-4500
ant	-4501
ction	-4502
▁जीता	-4503
▁संचालन	-4504
िएशन	-4505
▁लिमिटेड	-4506
्यवाद	-4507
▁एग्ज	-4508
स्वा	-4509
▁खंड	-4510
▁बढ़ता	-4511
साई	-4512
ृत्ति	-4513
▁भाभी	-4514
िताभ	-4515
▁अस्थ	-4516
▁फ्रंट	-4517
▁राज्यपाल	-4518
▁विवरण	-4519
lo	-4520
िष्ट	-4521
नेश	-4522
▁बला	-4523
▁लक्ष्मी	-4524
ंगाई	-4525
▁दाल	-4526
▁स्टोर	-4527
▁पार्टनर	-4528
▁राजीव	-4529
▁कथा	-4530
▁दैनिक	-4531
निर्	-4532
▁माय	-4533
▁लाया	-4534
▁हिमा	-4535
स्तर	-4536
▁बराबर	-4537
▁प्रगति	-4538
▁मिशन	-4539
▁साज	-4540
?'	-4541
▁हृ	-4542
यां	-4543
▁स्रो	-4544
ex	-4545
▁तुम्हारे	-4546
▁भक्त	-4547
▁स्पीड	-4548
▁Pro	-4549
▁इंट	-4550
▁सांप	-4551
▁निकलने	-4552
▁शूटिंग	-4553
▁डिवाइस	-4554
▁बरामद	-4555
▁विवे	-4556
▁सौं	-4557
▁लालू	-4558
▁तिल	-4559
▁सेंसर	-4560
दाई	-4561
▁प्रारंभ	-4562
▁ज़ि	-4563
सीपी	-4564
▁तीसरी	-4565
▁दिग्	-4566
फोट	-4567
▁सहमति	-4568
▁रैम	-4569
ity	-4570
▁बध	-4571
▁शर्म	-4572
▁व्याव	-4573
▁असल	-4574
▁अफसर	-4575
घर	-4576
▁अक	-4577
▁कोड	-4578
▁सफर	-4579
▁व्यक्तियों	-4580
▁अमी	-4581
ष्णु	-4582
▁भरी	-4583
कर्मियों	-4584
▁प्राप्ति	-4585
▁वेरिएंट	-4586
▁पेड़	-4587
▁भरे	-4588
▁आगामी	-4589
▁बनाम	-4590
▁मिथ	-4591
▁अग्रवाल	-4592
▁आशंका	-4593
▁गले	-4594
▁चू	-4595
▁अगली	-4596
टीआई	-4597
▁गोर	-4598
▁सुश	-4599
▁छोड़ने	-4600
▁फ़िल्म	-4601
धारा	-4602
▁आपत्ति	-4603
▁कार्यकाल	-4604
▁गाँव	-4605
▁कंग	-4606
▁ऋण	-4607
▁अश्व	-4608
▁उतना	-4609
▁निम्न	-4610
जात	-4611
▁राशन	-4612
▁स्थिर	-4613
ूर्त	-4614
▁बेटा	-4615
▁ब्रेक	-4616
▁विशाल	-4617
ंडे	-4618
▁निधन	-4619
▁जिनका	-4620
▁पंडित	-4621
▁अमिताभ	-4622
स्य	-4623
▁पहुँच	-4624
▁कां	-4625
▁हनुमान	-4626
प्रदेश	-4627
▁सीधा	-4628
शाला	-4629
▁संभावित	-4630
▁चुप	-4631
और	-4632
▁जागरूक	-4633
▁n	-4634
▁आपसे	-4635
▁केन्द्र	-4636
▁जानें	-4637
भूमि	-4638
▁सका	-4639
▁रिसर्च	-4640
▁सब्	-4641
-3	-4642
ep	-4643
जान	-4644
▁विधेयक	-4645
▁प्रेरित	-4646
गाह	-4647
देह	-4648
न्ट	-4649
▁काला	-4650
▁An	-4651
संख्य	-4652
▁बाय	-4653
तिहासिक	-4654
▁कं	-4655
▁आएंगे	-4656
पं	-4657
पद	-4658
▁इसीलिए	-4659
▁33	-4660
▁i	-4661
▁सबूत	-4662
▁पोल	-4663
op	-4664
▁चिकित्स	-4665
दायक	-4666
▁समर्प	-4667
▁संबंधों	-4668
▁संरक्षण	-4669
गरी	-4670
▁गोचर	-4671
SC	-4672
▁छु	-4673
▁दास	-4674
▁प्रोटीन	-4675
12	-4676
▁फसल	-4677
▁आत्महत्या	-4678
बिनेट	-4679
▁उत्पादों	-4680
▁भाग्य	-4681
▁हार्दिक	-4682
सेंस	-4683
फ़ी	-4684
▁मांगी	-4685
▁जुड़	-4686
▁दौरा	-4687
▁मनोज	-4688
▁सिलस	-4689
▁बेस्ट	-4690
कभी	-4691
ुक्ति	-4692
▁प्रबंध	-4693
▁कस	-4694
▁राकेश	-4695
▁गुना	-4696
▁हस्ता	-4697
▁देखभाल	-4698
▁विश्लेषण	-4699
▁दिये	-4700
▁सौंप	-4701
पात	-4702
▁माया	-4703
▁फार्म	-4704
▁बचपन	-4705
▁पृथ्वी	-4706
▁नामक	-4707
▁जियो	-4708
▁सिव	-4709
ff	-4710
फिया	-4711
▁गोल्ड	-4712
रक	-4713
वानी	-4714
,2	-4715
▁इरा	-4716
▁उधर	-4717
▁लंबा	-4718
▁लेवल	-4719
वरों	-4720
भाग्य	-4721
▁प्रताप	-4722
क्की	-4723
▁ज़रूरत	-4724
▁हिस्सों	-4725
▁करार	-4726
▁चेहरा	-4727
▁मुसलमानों	-4728
▁पेशे	-4729
रोध	-4730
▁सिटी	-4731
▁दस्तावेज	-4732
▁बनाता	-4733
▁कार्	-4734
स्कृत	-4735
▁टाटा	-4736
▁मुस्क	-4737
▁सवार	-4738
िमी	-4739
▁तह	-4740
पिक्सल	-4741
माना	-4742
ब्लिक	-4743
▁34	-4744
वर्ड	-4745
▁बच्ची	-4746
▁मैन	-4747
19	-4748
▁कारणों	-4749
▁हक	-4750
गेट	-4751
▁टुक	-4752
▁बुलाया	-4753
▁पत	-4754
वेदनशील	-4755
▁स्टॉक	-4756
▁सहयोगी	-4757
▁मिट्टी	-4758
्यूल	-4759
▁छवि	-4760
▁आजकल	-4761
▁हैरान	-4762
▁बेरोज	-4763
▁कमल	-4764
▁डालकर	-4765
▁ऑड	-4766
▁मुकेश	-4767
ंखला	-4768
ast	-4769
▁ब्रह	-4770
▁कैबिनेट	-4771
.9	-4772
▁एसोस	-4773
▁काली	-4774
▁कुर्	-4775
▁प्रकृति	-4776
▁मास	-4777
▁विचारों	-4778
त्सा	-4779
▁मेट	-4780
▁ऑक्सी	-4781
▁वादा	-4782
ail	-4783
▁पाता	-4784
फार	-4785
ुरी	-4786
▁मोहन	-4787
दर्शन	-4788
▁बुनिया	-4789
पत	-4790
▁साजिश	-4791
▁महंगाई	-4792
▁रिया	-4793
▁सफेद	-4794
▁पड़ती	-4795
▁राजेश	-4796
▁ध्व	-4797
▁सेंट	-4798
▁हिमाचल	-4799
▁दां	-4800
▁निरी	-4801
षिक	-4802
▁शिक्षकों	-4803
,7	-4804
ब्यू	-4805
सो	-4806
▁Pr	-4807
▁धोखा	-4808
ंडली	-4809
▁निकाला	-4810
▁प्रत्याशी	-4811
▁एसपी	-4812
श्रे	-4813
?"	-4814
िश्ता	-4815
▁सॉफ्ट	-4816
▁चमक	-4817
▁अर्ध	-4818
पीट	-4819
▁पवार	-4820
▁अर्ज	-4821
डनी	-4822
▁देखे	-4823
▁बताए	-4824
▁सश	-4825
हारी	-4826
▁संग्र	-4827
▁सैन्य	-4828
▁सुनने	-4829
आउट	-4830
▁75	-4831
स्करण	-4832
▁जीते	-4833
▁दृष्ट	-4834
▁धन्यवाद	-4835
ल्पना	-4836
▁शही	-4837
▁श्रृ	-4838
प्ली	-4839
▁यूट	-4840
▁उपभो	-4841
▁आदर्श	-4842
▁पाचन	-4843
▁म्यू	-4844
▁इलेक्ट्र	-4845
▁चै	-4846
▁बधाई	-4847
▁लगाना	-4848
▁लिखे	-4849
ग्ध	-4850
▁स्वच्छ	-4851
▁बलात्कार	-4852
▁खतरनाक	-4853
▁नमक	-4854
▁यूर	-4855
▁विद	-4856
▁हृदय	-4857
▁ऑपरेशन	-4858
▁वर्क	-4859
▁ट्रॉ	-4860
▁बाढ़	-4861
टीवी	-4862
ru	-4863
▁आयुक्त	-4864
विश्वास	-4865
▁चतु	-4866
▁ऐतिहासिक	-4867
▁बजकर	-4868
▁साझे	-4869
ेबल	-4870
▁पाउ	-4871
▁बेचने	-4872
िसी	-4873
▁चौथे	-4874
▁लिखी	-4875
▁एक्सपर्ट	-4876
▁रजिस्ट्रेशन	-4877
,6	-4878
्तों	-4879
रानी	-4880
▁माइलेज	-4881
▁सीसी	-4882
▁गौतम	-4883
▁टो	-4884
सीय	-4885
▁इजरा	-4886
▁पड़ने	-4887
क्षी	-4888
▁महत्	-4889
▁रिश्ता	-4890
▁बेस	-4891
▁निल	-4892
▁अभ्यास	-4893
बन	-4894
चारिक	-4895
▁पिछली	-4896
▁रिपोर्ट्स	-4897
▁हंस	-4898
▁कैसा	-4899
▁बनता	-4900
▁लड़के	-4901
▁स्कीम	-4902
▁नियुक्ति	-4903
क्षर	-4904
▁प्राइवेट	-4905
▁हाइ	-4906
▁बेंगल	-4907
▁पुस्तक	-4908
ेंगी	-4909
▁अभिनेत्री	-4910
▁पायल	-4911
▁प्रोत्सा	-4912
▁क्लास	-4913
सिंह	-4914
,"	-4915
ध्या	-4916
▁सुनकर	-4917
▁इधर	-4918
▁गेंदों	-4919
▁मक	-4920
चिव	-4921
िलास	-4922
▁लेती	-4923
ia	-4924
▁रूम	-4925
्यूटी	-4926
▁मेगापिक्सल	-4927
ड्डा	-4928
▁भागी	-4929
▁पार्क	-4930
,3	-4931
▁डांस	-4932
▁खबरों	-4933
▁बहुम	-4934
▁डिस्प्ले	-4935
,8	-4936
▁लहर	-4937
▁रेंज	-4938
▁कन्या	-4939
▁संचालित	-4940
स्टिक	-4941
▁खबरें	-4942
▁बांट	-4943
▁आंकड़े	-4944
▁जयपुर	-4945
▁रोमां	-4946
▁नारायण	-4947
▁बुल	-4948
क्षेप	-4949
डिया	-4950
श्त	-4951
▁जरुर	-4952
▁निर्वाचन	-4953
▁नियंत्रित	-4954
▁48	-4955
▁Res	-4956
▁प्रोडक्ट	-4957
▁आएगी	-4958
▁लगेगा	-4959
▁कच्च	-4960
▁विशिष्ट	-4961
भाष	-4962
▁जोड़ा	-4963
▁फर्जी	-4964
रीत	-4965
▁रॉ	-4966
्योर	-4967
▁कलर	-4968
▁g	-4969
▁Google	-4970
▁भावनाओं	-4971
▁अभ्य	-4972
▁फायर	-4973
▁लूट	-4974
▁गह	-4975
▁कोर्स	-4976
▁विस्तृत	-4977
▁त्या	-4978
िकोण	-4979
पूर्वक	-4980
श्रेष्ठ	-4981
▁सिफार	-4982
▁उद्ध	-4983
▁मारने	-4984
▁नकारा	-4985
▁एक्टिव	-4986
ाइम	-4987
▁सर्वा	-4988
▁ईमान	-4989
ंद्रा	-4990
र्ख	-4991
▁झु	-4992
▁पाठ्य	-4993
▁महाराज	-4994
▁बनकर	-4995
▁मिलियन	-4996
▁सिफारिश	-4997
▁दौड़	-4998
त्ते	-4999
▁एक्शन	-5000
▁मैसे	-5001
र्त	-5002
▁फेंक	-5003
▁पढ़ा	-5004
▁आयुर्	-5005
ोकर	-5006
▁सबको	-5007
कां	-5008
एक्स	-5009
▁प्रस	-5010
▁मिलेंगे	-5011
खार	-5012
▁सम्ब	-5013
▁अड	-5014
▁जाओ	-5015
▁मधु	-5016
▁लगाएं	-5017
▁चीफ	-5018
ॉर्ट	-5019
▁बोलने	-5020
▁सला	-5021
▁दिलचस्प	-5022
▁खतरे	-5023
▁किनारे	-5024
▁सोना	-5025
दगी	-5026
▁लिव	-5027
▁स्पिन	-5028
मती	-5029
▁ईमेल	-5030
▁विपरीत	-5031
▁पहुंचाने	-5032
ya	-5033
▁भोपाल	-5034
▁प्रमो	-5035
▁भौ	-5036
▁सिन्	-5037
▁रानी	-5038
▁कन	-5039
▁अधी	-5040
▁बौ	-5041
▁संस्कार	-5042
▁कीमतों	-5043
कुछ	-5044
▁नु	-5045
▁सरकारों	-5046
▁भरने	-5047
ोलॉजी	-5048
▁दिखाने	-5049
▁चावल	-5050
▁अध्यक्षता	-5051
▁2013	-5052
▁केंद्रित	-5053
▁अंजाम	-5054
▁एकदम	-5055
घु	-5056
▁आग्रह	-5057
▁ताल	-5058
▁संभ	-5059
▁शपथ	-5060
▁लाइसेंस	-5061
ोटे	-5062
▁बसपा	-5063
▁सब्स	-5064
▁डायरेक्टर	-5065
स्त्री	-5066
▁सर्वो	-5067
▁संस्थानों	-5068
▁भट्ट	-5069
▁छू	-5070
र्में	-5071
हो	-5072
▁जोड़ी	-5073
▁सुनाई	-5074
end	-5075
्रमण	-5076
▁नारे	-5077
बॉल	-5078
▁परा	-5079
▁माफी	-5080
▁आकाश	-5081
धानिक	-5082
▁and	-5083
▁प्रतिभा	-5084
▁प्रोग्राम	-5085
मूल	-5086
▁जहा	-5087
▁नेहर	-5088
▁संकल्प	-5089
▁ठाकरे	-5090
▁डु	-5091
क्या	-5092
ार्थना	-5093
▁पूछे	-5094
▁सिखा	-5095
मात्र	-5096
11	-5097
▁ओल	-5098
वारी	-5099
▁बढ़े	-5100
▁टीमों	-5101
▁मैसेज	-5102
ानु	-5103
▁जंगल	-5104
▁निपटने	-5105
▁कंपनियां	-5106
▁पृष्ठ	-5107
▁बट	-5108
▁आंकड़ा	-5109
▁टेक्न	-5110
▁गुस्सा	-5111
▁तथ्य	-5112
our	-5113
▁नतीजे	-5114
रेन	-5115
▁196	-5116
▁दोहरा	-5117
▁सुविधाओं	-5118
गांव	-5119
▁बैठा	-5120
ort	-5121
▁गार	-5122
▁मज़	-5123
इयों	-5124
▁डालें	-5125
▁सबके	-5126
▁गांवों	-5127
▁रकम	-5128
कर्मी	-5129
▁ख्या	-5130
▁रिजर्व	-5131
▁फॉलो	-5132
फान	-5133
▁व्ही	-5134
▁नेपाल	-5135
▁ब्रिटेन	-5136
▁मंडल	-5137
▁प्रतीक	-5138
▁बाधा	-5139
▁हिंदु	-5140
▁घंटों	-5141
▁परिवहन	-5142
याल	-5143
▁गेट	-5144
▁मचा	-5145
▁निकले	-5146
▁निच	-5147
▁पत्थर	-5148
▁सवालों	-5149
▁प्रार्थना	-5150
▁जरिये	-5151
▁खोलने	-5152
शाह	-5153
▁डालने	-5154
▁सम्मानित	-5155
▁प्रौ	-5156
▁हाला	-5157
▁सर्वश्रेष्ठ	-5158
▁चम	-5159
काने	-5160
▁अधिकतर	-5161
▁ढूं	-5162
▁ढां	-5163
▁मंज	-5164
▁ताजा	-5165
▁दिग्गज	-5166
▁सिंध	-5167
▁सैक	-5168
तो	-5169
ob	-5170
ide	-5171
▁जितनी	-5172
▁यानि	-5173
▁जानना	-5174
▁पाउडर	-5175
▁आर्टिकल	-5176
▁पीड़िता	-5177
▁बेल	-5178
,9	-5179
▁जबरदस्त	-5180
▁कमाल	-5181
▁अमृत	-5182
▁स्टाइल	-5183
▁अनुसू	-5184
पल	-5185
▁संवेदनशील	-5186
▁समृ	-5187
▁मास्क	-5188
ज़न	-5189
▁re	-5190
्रीत	-5191
ies	-5192
▁पथ	-5193
▁सौर	-5194
▁क्लब	-5195
▁पोष	-5196
▁भोज	-5197
▁एकाद	-5198
ai	-5199
▁देरी	-5200
▁फुल	-5201
▁परिस्थितियों	-5202
▁गैंग	-5203
▁धा	-5204
▁डॉक्टरों	-5205
▁मेक	-5206
▁तीसरा	-5207
फेसर	-5208
▁पोर्टल	-5209
ht	-5210
▁सुर्ख	-5211
▁आधा	-5212
नन	-5213
▁नकारात्मक	-5214
hone	-5215
जुर्ग	-5216
▁क्यू	-5217
▁पूंजी	-5218
षभ	-5219
▁करण	-5220
▁निश	-5221
वीय	-5222
▁स्पेस	-5223
▁महासचिव	-5224
▁सोनिया	-5225
▁अजी	-5226
▁डीजल	-5227
▁कानूनों	-5228
ड्र	-5229
▁बुनियादी	-5230
मराह	-5231
▁रिहा	-5232
▁ग्रीन	-5233
ंसक	-5234
▁विजे	-5235
▁आदिवासी	-5236
▁एंट्री	-5237
▁चिप	-5238
▁पैमाने	-5239
ूंकि	-5240
श्चर्य	-5241
▁लापर	-5242
दीय	-5243
40	-5244
स्थल	-5245
▁मुक्ति	-5246
▁हिन्दू	-5247
▁अपेक्षा	-5248
▁टक	-5249
▁अंडर	-5250
▁अंबानी	-5251
▁पंजीकरण	-5252
ank	-5253
▁निलंब	-5254
ite	-5255
▁दीवार	-5256
▁पुरुषों	-5257
▁यूनिट	-5258
▁2012	-5259
▁सहारा	-5260
त्न	-5261
▁क्ली	-5262
▁लम्	-5263
िवारिक	-5264
▁छक्के	-5265
▁जानता	-5266
▁दिक्कत	-5267
▁पंत	-5268
▁सिन्हा	-5269
मुझे	-5270
▁मनोर	-5271
▁कुंभ	-5272
▁मैनेज	-5273
▁अवश्य	-5274
▁ऑक्सीजन	-5275
शनी	-5276
▁द्र	-5277
▁दुरु	-5278
▁कल्पना	-5279
▁पारित	-5280
▁जाया	-5281
ड़न	-5282
▁फं	-5283
▁व्यापारी	-5284
▁स्वाद	-5285
''	-5286
▁कम्प	-5287
▁वितरण	-5288
▁अग्न	-5289
▁स्त्री	-5290
▁संचार	-5291
▁बिंद	-5292
▁मनीष	-5293
कॉम	-5294
ंती	-5295
एगा	-5296
वाणी	-5297
▁आश्चर्य	-5298
्तिक	-5299
▁ईडी	-5300
▁हीरो	-5301
▁प्रोफेसर	-5302
▁38	-5303
▁तत्कालीन	-5304
▁विफल	-5305
▁मजदूरों	-5306
▁धूम	-5307
▁फाइबर	-5308
वर्ती	-5309
▁तिर	-5310
घाटन	-5311
▁लीड	-5312
▁पूर्वी	-5313
▁सैल	-5314
▁रिटर्न	-5315
▁ट्रॉफी	-5316
ud	-5317
▁आंध	-5318
▁Ch	-5319
राधिक	-5320
▁बोलते	-5321
▁बनना	-5322
▁अधीक्षक	-5323
▁बारी	-5324
तालों	-5325
▁पदा	-5326
▁नागरिकता	-5327
ामक	-5328
▁मूवी	-5329
ायंस	-5330
▁संतोष	-5331
▁क्रिप्ट	-5332
▁संस	-5333
▁जोशी	-5334
आईटी	-5335
▁विस्	-5336
▁अल्पसंख्य	-5337
▁फॉर	-5338
▁बटन	-5339
▁पारिवारिक	-5340
शियम	-5341
▁कवर	-5342
▁प्रदर्श	-5343
▁समझौता	-5344
▁बनाएं	-5345
▁बुजुर्ग	-5346
▁वक़	-5347
▁आजम	-5348
▁मानी	-5349
ंत्रिक	-5350
िकाओं	-5351
▁दर्शा	-5352
▁स्वरूप	-5353
वों	-5354
▁घुस	-5355
रन	-5356
▁सिविल	-5357
चीन	-5358
ंडीज	-5359
▁जन्मदिन	-5360
विक	-5361
▁ग्लो	-5362
▁राजद	-5363
▁अभ्यर्थ	-5364
▁हंग	-5365
▁प्रौद्योग	-5366
▁जाम	-5367
सेज	-5368
▁शोर	-5369
▁लीजिए	-5370
▁पश्चिमी	-5371
▁रखकर	-5372
▁यूट्यूब	-5373
▁चिंत	-5374
▁एजेंस	-5375
▁प्राथमिकता	-5376
क्चर	-5377
▁पवित्र	-5378
ंश	-5379
्ठा	-5380
▁सूजन	-5381
▁भेद	-5382
,0	-5383
▁आकर्षित	-5384
▁जुर्	-5385
▁समस्याएं	-5386
स्पी	-5387
▁अस्त	-5388
▁वाक	-5389
▁बतौर	-5390
▁पदक	-5391
▁झूठ	-5392
ॉक्स	-5393
▁अस्पतालों	-5394
▁कनेक्ट	-5395
▁पुराना	-5396
ज्	-5397
▁नेहरू	-5398
▁बाहरी	-5399
▁बम	-5400
मार्	-5401
सुर	-5402
▁एयरपोर्ट	-5403
न्ड	-5404
ंगों	-5405
▁हाँ	-5406
▁पेमेंट	-5407
▁हट	-5408
लाइ	-5409
▁300	-5410
▁वार्ड	-5411
▁हिन्दी	-5412
ड़ब	-5413
▁कॉन्फ्रेंस	-5414
▁फर्	-5415
ec	-5416
▁कैश	-5417
आइ	-5418
▁छुट्टी	-5419
धारी	-5420
▁नित	-5421
▁भूख	-5422
ost	-5423
टिंग	-5424
क्यू	-5425
चार्ज	-5426
▁सराह	-5427
▁कंगना	-5428
कृष्ण	-5429
ंपिक	-5430
▁मुकदमा	-5431
सारी	-5432
दुल	-5433
▁यहीं	-5434
▁लिखित	-5435
▁समक्ष	-5436
▁बढ़ी	-5437
pt	-5438
धिकरण	-5439
क्षेत्र	-5440
ाइक	-5441
हिता	-5442
▁एसोसिएशन	-5443
गैर	-5444
▁चूंकि	-5445
मेश्वर	-5446
ोसी	-5447
▁News	-5448
▁गौरव	-5449
▁रोज़	-5450
▁किंग्स	-5451
▁एकमात्र	-5452
▁ब्ला	-5453
▁रनों	-5454
िपुर	-5455
▁श्रमिक	-5456
▁पैरों	-5457
▁मुना	-5458
▁सूर	-5459
▁तार	-5460
▁त्यो	-5461
▁श्रेय	-5462
▁टाइम्स	-5463
▁कमाने	-5464
▁दृष्टिकोण	-5465
हाबाद	-5466
▁अनुश	-5467
पीएफ	-5468
▁रावत	-5469
▁स्ल	-5470
▁खेलते	-5471
ेशर	-5472
▁42	-5473
||	-5474
▁आतंकवादी	-5475
▁अभिय	-5476
▁मोटा	-5477
▁सर्वोच्च	-5478
एडा	-5479
▁यात्री	-5480
▁to	-5481
▁शिल	-5482
▁अंदाज	-5483
▁समझौते	-5484
▁प्रतिनिधित्व	-5485
▁टाइप	-5486
कारियों	-5487
▁जगत	-5488
▁सब्ज	-5489
▁स्पोर्ट	-5490
▁पॉलिसी	-5491
JP	-5492
▁आयुर्वेद	-5493
esh	-5494
▁संग्रह	-5495
▁जाल	-5496
▁नजदी	-5497
▁विशेषज्ञों	-5498
▁बुक	-5499
▁विष्णु	-5500
▁विज	-5501
▁श्रृंखला	-5502
▁ठे	-5503
▁रिफ	-5504
▁उड़ा	-5505
कै	-5506
▁On	-5507
ांकन	-5508
▁कटौती	-5509
▁क्वाल	-5510
▁कैमरे	-5511
ang	-5512
▁झटका	-5513
▁टक्कर	-5514
▁एग्जाम	-5515
▁तलाक	-5516
▁शहरी	-5517
▁उत्साह	-5518
▁कामयाब	-5519
▁सेमी	-5520
िएट	-5521
कीपर	-5522
▁आत्मा	-5523
▁दिखने	-5524
िने	-5525
लेस	-5526
भाषा	-5527
▁ऑप	-5528
वक	-5529
,99	-5530
▁जमी	-5531
▁देशभर	-5532
▁मारा	-5533
▁प्रसन्न	-5534
यूवी	-5535
स्ड	-5536
पि	-5537
ईओ	-5538
▁वाता	-5539
▁साझेदारी	-5540
▁स्रोत	-5541
▁प्रेरणा	-5542
▁पाठ्यक्रम	-5543
▁तुलसी	-5544
▁न्यूज़	-5545
▁विस्फोट	-5546
▁3.	-5547
न्यास	-5548
▁पैक	-5549
▁व्यापारियों	-5550
▁शुद्ध	-5551
▁आवाज़	-5552
▁सेवाएं	-5553
▁लह	-5554
▁रिश्तों	-5555
▁फीचर	-5556
▁स्टाफ	-5557
रात्रि	-5558
र्फ़	-5559
▁बचें	-5560
टीएम	-5561
▁प्रोफ	-5562
▁अदा	-5563
कालीन	-5564
▁मेल	-5565
▁हिट	-5566
▁सावधानी	-5567
माश	-5568
▁गंभीरता	-5569
▁क्षेत्रीय	-5570
▁विद्यार्थियों	-5571
▁2011	-5572
▁लिखने	-5573
▁उपस्थिति	-5574
▁ब्राह	-5575
▁भारती	-5576
▁नाइट	-5577
स्कृतिक	-5578
▁संहिता	-5579
▁वातावरण	-5580
िंस	-5581
ोगे	-5582
▁मतदाता	-5583
वायर	-5584
▁वार्ता	-5585
▁राशियों	-5586
▁आपराधिक	-5587
▁मेट्रो	-5588
▁पैनल	-5589
वासन	-5590
▁सच्चाई	-5591
▁ईश्वर	-5592
▁वक़्त	-5593
िब	-5594
▁तेजस्वी	-5595
▁लीक	-5596
▁अर्जुन	-5597
▁एनडीए	-5598
▁उद्घाटन	-5599
▁मोड	-5600
▁अधिकारों	-5601
रुद्ध	-5602
▁भेजे	-5603
▁संस्करण	-5604
▁नये	-5605
ट्र	-5606
ive	-5607
ाइयों	-5608
▁होली	-5609
▁रियर	-5610
▁सत्	-5611
15	-5612
▁सकी	-5613
▁धरती	-5614
लीय	-5615
▁सीर	-5616
▁गाना	-5617
▁कहान	-5618
▁आवंट	-5619
मण	-5620
ॉड	-5621
▁for	-5622
▁दुश्म	-5623
▁भंड	-5624
▁कब्जा	-5625
▁कार्तिक	-5626
▁प्राइम	-5627
ेश्वर	-5628
▁बुद्धि	-5629
▁तुम्हारी	-5630
▁मुआ	-5631
▁उद्य	-5632
▁बेंगलुरु	-5633
ww	-5634
▁पुनर्	-5635
▁जूझ	-5636
▁वर्ण	-5637
▁कना	-5638
▁इमरान	-5639
▁गारंटी	-5640
▁पापा	-5641
▁सीनियर	-5642
िश्न	-5643
age	-5644
बरा	-5645
▁सांसदों	-5646
▁मुख्यालय	-5647
▁नोएडा	-5648
ik	-5649
प्पल	-5650
▁टीएमसी	-5651
▁जड़	-5652
णु	-5653
▁परन्तु	-5654
▁सुशांत	-5655
▁सैनिकों	-5656
फ्तार	-5657
▁हेल्दी	-5658
एसई	-5659
▁गार्ड	-5660
▁कप्तानी	-5661
▁आहार	-5662
▁रिलायंस	-5663
▁ओम	-5664
▁भय	-5665
▁मद्	-5666
▁वाई	-5667
▁भेजने	-5668
▁इस्लाम	-5669
▁शरण	-5670
डीपी	-5671
▁मेर	-5672
▁चलती	-5673
▁स्थायी	-5674
▁जर्म	-5675
▁त्रि	-5676
▁UP	-5677
स्टार	-5678
▁हवाला	-5679
▁योग्यता	-5680
ind	-5681
द्दा	-5682
▁व्यस्त	-5683
साथी	-5684
चय	-5685
▁Pl	-5686
▁India	-5687
▁अनुप	-5688
यत	-5689
▁अत्यधिक	-5690
▁इकाई	-5691
▁नीर	-5692
म्भ	-5693
▁संपाद	-5694
▁परमेश्वर	-5695
▁गोवा	-5696
इंडीज	-5697
▁फ्ला	-5698
▁चोप	-5699
▁मरने	-5700
▁लापरवाही	-5701
▁ग्रामीणों	-5702
▁रखती	-5703
▁उल्लेखनीय	-5704
फाई	-5705
▁मृतक	-5706
▁सकेगा	-5707
▁हुईं	-5708
▁निवेशकों	-5709
▁Ex	-5710
▁साढ़े	-5711
▁पवन	-5712
▁चौक	-5713
▁Ad	-5714
▁प्रयासों	-5715
फिक	-5716
करार	-5717
▁करीबी	-5718
▁बढ़ाया	-5719
▁सत्या	-5720
▁पार्टियों	-5721
▁बढ	-5722
ाराण	-5723
▁नष्ट	-5724
▁आत्मविश्वास	-5725
▁तत्वों	-5726
▁PM	-5727
ख़	-5728
संध	-5729
▁करवाया	-5730
▁शहीद	-5731
कश	-5732
▁55	-5733
ord	-5734
िमंडल	-5735
ंगाना	-5736
▁कोले	-5737
io	-5738
BI	-5739
अगर	-5740
अर	-5741
▁पैन	-5742
▁एकादशी	-5743
▁अरुण	-5744
▁स्मृति	-5745
▁पायलट	-5746
ाराणसी	-5747
नाएं	-5748
▁ट्रांसफर	-5749
वह	-5750
स्पति	-5751
▁मिलना	-5752
▁पैट	-5753
▁परंतु	-5754
▁खिल	-5755
िंक	-5756
und	-5757
▁चुनौ	-5758
▁काउंस	-5759
▁Mar	-5760
▁एक्सच	-5761
▁इकट	-5762
▁सिम	-5763
▁निरंतर	-5764
▁Con	-5765
▁हर्ष	-5766
ंबू	-5767
▁भड़	-5768
▁नक्स	-5769
▁मद्देन	-5770
लाइट	-5771
▁शिश	-5772
▁जोड़ने	-5773
▁गायब	-5774
▁शाखा	-5775
▁उन्हीं	-5776
▁आपदा	-5777
▁दुष्	-5778
▁किडनी	-5779
▁शेष	-5780
सीआर	-5781
▁बहुमत	-5782
▁मणिपुर	-5783
▁त्योहार	-5784
▁आदत	-5785
▁मीन	-5786
केज	-5787
▁करोड़ों	-5788
▁दोस्ती	-5789
▁तल	-5790
▁समझते	-5791
▁मीटिंग	-5792
▁इंदिरा	-5793
▁पोषक	-5794
▁शुरु	-5795
▁बचत	-5796
▁आकर्षक	-5797
▁राजस्व	-5798
▁वेस्टइंडीज	-5799
▁एह	-5800
▁जॉन	-5801
▁अनुसूचित	-5802
▁जॉब	-5803
▁ढूंढ	-5804
▁सर्च	-5805
▁विजेता	-5806
▁कुंडली	-5807
▁मिर्च	-5808
▁धाम	-5809
▁सहज	-5810
▁रमेश	-5811
▁चक्कर	-5812
▁हवाले	-5813
▁दब	-5814
र्वाद	-5815
▁किमी	-5816
▁ख़िला	-5817
ana	-5818
▁चोपड़ा	-5819
िक्	-5820
▁चिल	-5821
बैक	-5822
▁कहाँ	-5823
▁चालू	-5824
च्छेद	-5825
▁एसयूवी	-5826
▁धूप	-5827
li	-5828
▁राशिफल	-5829
▁इसने	-5830
▁सतर्क	-5831
▁अपर	-5832
▁हस्ताक्षर	-5833
ारण	-5834
▁प्रतियोगिता	-5835
नाल्ड	-5836
सीसीआई	-5837
log	-5838
▁गहरी	-5839
▁जिसमे	-5840
line	-5841
▁फर्क	-5842
▁मारपीट	-5843
ंत्रित	-5844
▁हल्दी	-5845
▁एडमिट	-5846
ish	-5847
18	-5848
▁लाइट	-5849
कांत	-5850
▁पॉप	-5851
▁विरुद्ध	-5852
▁निशान	-5853
रात	-5854
▁डीएम	-5855
▁चुने	-5856
▁श्रम	-5857
▁बलों	-5858
▁उत्पी	-5859
▁गोद	-5860
▁गोरख	-5861
▁प्रौद्योगिकी	-5862
GB	-5863
रियर	-5864
▁उन्न	-5865
▁प्रेशर	-5866
▁जीवनसाथी	-5867
▁अडानी	-5868
कोट	-5869
ंगिक	-5870
▁तेलंगाना	-5871
सनीय	-5872
▁बाबू	-5873
ँह	-5874
▁Sh	-5875
गीय	-5876
▁स्नान	-5877
▁वाराणसी	-5878
▁ख्याल	-5879
▁कलाकार	-5880
▁दिलाने	-5881
▁IP	-5882
▁प्रीमियम	-5883
▁जानिए	-5884
▁कनेक्शन	-5885
▁150	-5886
▁अनुसंध	-5887
डब्ल्यू	-5888
ष्क	-5889
▁रोका	-5890
▁झेल	-5891
▁सर्वाधिक	-5892
्याम	-5893
▁आंस	-5894
तू	-5895
▁फाइल	-5896
दिग्ध	-5897
▁शिविर	-5898
क्रेन	-5899
मस	-5900
ाइनल	-5901
▁प्रतिदिन	-5902
▁मकसद	-5903
▁मोर्चा	-5904
श्री	-5905
▁संसदीय	-5906
▁युवती	-5907
▁सब्जी	-5908
▁39	-5909
▁एकता	-5910
▁वस्तु	-5911
▁छिपा	-5912
▁छापे	-5913
▁इलाहाबाद	-5914
▁प्राधिकरण	-5915
▁सिर्फ़	-5916
▁आशीर्वाद	-5917
▁दुबे	-5918
▁प्रशांत	-5919
▁समर्पित	-5920
कता	-5921
▁संदिग्ध	-5922
▁खरीदा	-5923
▁Result	-5924
▁वैल	-5925
▁रूपये	-5926
▁ट्रेनिंग	-5927
ँकि	-5928
▁आईडी	-5929
▁सांस्कृतिक	-5930
ain	-5931
▁गोपाल	-5932
न्त	-5933
▁पीढ़ी	-5934
▁उपयोगी	-5935
र्नर	-5936
▁इमार	-5937
▁स्टैंड	-5938
▁मुहूर्त	-5939
▁युग	-5940
▁ख़िलाफ़	-5941
▁मछ	-5942
याम	-5943
▁जवानों	-5944
▁ड्राइवर	-5945
ah	-5946
लिख	-5947
र्टी	-5948
▁संदेह	-5949
▁मतदाताओं	-5950
▁समन	-5951
▁गव	-5952
▁तरीकों	-5953
▁खेत	-5954
▁मकर	-5955
▁अनुसंधान	-5956
▁मंत्रियों	-5957
▁सूरज	-5958
▁कार्यक्रमों	-5959
▁घाट	-5960
▁आरएसएस	-5961
▁डूब	-5962
▁सॉफ्टवेयर	-5963
▁इलेक्ट्रॉन	-5964
ंचित	-5965
▁ताला	-5966
ंपरिक	-5967
▁शंकर	-5968
▁साधारण	-5969
25	-5970
▁ज़रूरी	-5971
▁चेयर	-5972
//	-5973
राज्य	-5974
▁साफ़	-5975
▁प्रतिबद्ध	-5976
▁तट	-5977
▁द्वार	-5978
चुनाव	-5979
▁धारण	-5980
▁पहुँ	-5981
▁पुणे	-5982
▁हल्का	-5983
▁उदय	-5984
▁चलिए	-5985
▁ट्रस्ट	-5986
▁पाप	-5987
▁इव	-5988
पुरा	-5989
▁सिक्	-5990
▁यूरिक	-5991
▁आपात	-5992
▁मूर्ति	-5993
▁हार्ट	-5994
▁जाएंगी	-5995
टके	-5996
▁कहे	-5997
▁कानपुर	-5998
-4	-5999
▁अगु	-6000
▁आईटी	-6001
▁पाना	-6002
आज	-6003
▁64	-6004
▁शर्त	-6005
क्ला	-6006
▁चालक	-6007
ांज	-6008
▁ओलंपिक	-6009
्टन	-6010
▁डिटेल	-6011
ेडकर	-6012
▁अर्धशत	-6013
▁साइड	-6014
िडी	-6015
▁मायावती	-6016
▁मुलायम	-6017
अब	-6018
वाया	-6019
▁कुर	-6020
▁गुल	-6021
▁मास्टर	-6022
▁मिड	-6023
▁65	-6024
फार्म	-6025
िसू	-6026
अपने	-6027
▁एडम	-6028
▁डील	-6029
▁बृह	-6030
▁कामका	-6031
▁जीएसटी	-6032
▁मध्यप्रदेश	-6033
▁बैंकिंग	-6034
▁44	-6035
▁बनाये	-6036
▁राणा	-6037
▁टीकाकरण	-6038
▁ब्राह्मण	-6039
▁घाटी	-6040
▁चढ़ा	-6041
all	-6042
▁सर्दी	-6043
://	-6044
▁मजाक	-6045
▁इंदौर	-6046
▁कमांड	-6047
ress	-6048
▁सिंगल	-6049
▁पाय	-6050
ितीय	-6051
▁आजाद	-6052
▁सेल्	-6053
▁नींबू	-6054
ीकरण	-6055
गणना	-6056
खल	-6057
▁194	-6058
तीत	-6059
▁बचे	-6060
▁आवेद	-6061
ev	-6062
जिटिव	-6063
▁दृश्य	-6064
▁पारंपरिक	-6065
▁फेस	-6066
स्वामी	-6067
▁डाटा	-6068
ड्स	-6069
▁घे	-6070
▁झग	-6071
वास्तव	-6072
ब्दी	-6073
पीएस	-6074
आरसी	-6075
own	-6076
▁बताती	-6077
▁कमर	-6078
▁पिट	-6079
आईए	-6080
गारी	-6081
ल्लाह	-6082
▁उड़ान	-6083
▁सृ	-6084
▁दंड	-6085
▁2000	-6086
▁लिखते	-6087
ष्म	-6088
जत	-6089
▁फ्रांस	-6090
▁मलिक	-6091
▁अनुच्छेद	-6092
ber	-6093
ड़प	-6094
▁डेब्यू	-6095
▁सैकड़ों	-6096
▁आमिर	-6097
▁गणेशजी	-6098
बेट	-6099
▁खुरा	-6100
▁बेंच	-6101
▁हराया	-6102
▁st	-6103
श्चा	-6104
पूत	-6105
▁लंदन	-6106
▁यकीन	-6107
▁करवाने	-6108
ear	-6109
ket	-6110
▁महात्मा	-6111
▁कैंड	-6112
▁फरार	-6113
▁स्वभाव	-6114
▁अहमदाबाद	-6115
▁मेहता	-6116
▁क्रिकेटर	-6117
▁पड़ोसी	-6118
पाई	-6119
पचारिक	-6120
▁पर्यटन	-6121
णमूल	-6122
▁दिनेश	-6123
▁उर्फ	-6124
▁सागर	-6125
▁हिम्मत	-6126
▁रोशनी	-6127
▁ऑर्डर	-6128
टिक	-6129
▁धु	-6130
▁शिखर	-6131
▁जितने	-6132
▁रफ्तार	-6133
▁स्क्र	-6134
▁मद्देनजर	-6135
ख्	-6136
▁दह	-6137
▁ऑफ़	-6138
▁पलट	-6139
▁पोषण	-6140
▁चंद	-6141
ैग	-6142
▁कव	-6143
▁घी	-6144
▁बनती	-6145
▁बंट	-6146
):	-6147
▁शक	-6148
▁ओटी	-6149
ंतरिक	-6150
▁आंध्र	-6151
दुर	-6152
▁विवेक	-6153
ियस	-6154
मोहन	-6155
▁कायम	-6156
▁आखिरकार	-6157
▁अपलोड	-6158
▁एकत्र	-6159
▁निर्द	-6160
▁नॉ	-6161
▁गुट	-6162
▁बोन	-6163
▁मुआव	-6164
राय	-6165
▁आपस	-6166
▁स्टोरी	-6167
▁घटनाएं	-6168
▁जनस	-6169
▁शेर	-6170
ड़िया	-6171
▁सियासी	-6172
डम	-6173
सैन	-6174
सील	-6175
▁बैल	-6176
▁मात	-6177
भू	-6178
इल	-6179
▁किशन	-6180
▁पुष्	-6181
▁जुर्माना	-6182
▁जटिल	-6183
▁ड्रेस	-6184
▁दही	-6185
ore	-6186
▁मुहैया	-6187
▁निकट	-6188
▁कैंप	-6189
▁मिथुन	-6190
धीन	-6191
तियां	-6192
प्पी	-6193
ुत्व	-6194
▁पेशकश	-6195
▁निलंबित	-6196
16	-6197
ंकन	-6198
ोग्रा	-6199
▁सीखने	-6200
ss	-6201
स्वरूप	-6202
▁न्यायिक	-6203
▁सुविधाएं	-6204
▁प्रशासनिक	-6205
आईसी	-6206
▁शुभकाम	-6207
▁निर्यात	-6208
▁प्रतिनिधि	-6209
▁समझना	-6210
▁हालाँकि	-6211
चरण	-6212
▁195	-6213
▁उक्त	-6214
▁ट्रैक	-6215
▁एक्सचेंज	-6216
लोत	-6217
▁पढ	-6218
▁तृणमूल	-6219
▁हिंदुस्तान	-6220
▁खाम	-6221
▁इन्हीं	-6222
दृ	-6223
क्ताओं	-6224
▁लक	-6225
▁गड़ब	-6226
▁उपाध्यक्ष	-6227
▁डेढ़	-6228
▁नामांकन	-6229
▁उत्पीड़न	-6230
▁ब्रह्म	-6231
▁वार्षिक	-6232
▁राजपूत	-6233
लक	-6234
▁इनकम	-6235
▁कर्मियों	-6236
▁परम	-6237
▁आईं	-6238
▁दीपिका	-6239
▁विषयों	-6240
्रीट	-6241
▁इंजीनियरिंग	-6242
रीबी	-6243
▁कराए	-6244
▁हैंडल	-6245
▁आंतरिक	-6246
▁फ़ोन	-6247
▁क्षति	-6248
▁खिताब	-6249
▁स्टार्ट	-6250
गित	-6251
▁मेन	-6252
▁इक	-6253
िंदर	-6254
▁चिन	-6255
▁साधा	-6256
▁एंड्र	-6257
▁कृपा	-6258
ET	-6259
▁गर्व	-6260
▁सेल्स	-6261
▁हल्के	-6262
ेयर	-6263
▁Com	-6264
▁ज्व	-6265
ालों	-6266
▁उर्	-6267
▁वें	-6268
▁बिलकुल	-6269
ric	-6270
चुर	-6271
▁सांप्र	-6272
▁सिद्धांत	-6273
▁ट्रक	-6274
▁निकाय	-6275
▁निंदा	-6276
जिये	-6277
ma	-6278
▁कलेक्टर	-6279
ial	-6280
▁आश्	-6281
▁ब्रिटिश	-6282
ग्रस्त	-6283
▁माइक्रो	-6284
▁सीन	-6285
▁आईसीसी	-6286
SE	-6287
▁अनुरूप	-6288
lic	-6289
▁खेलों	-6290
्हे	-6291
▁अजीब	-6292
▁आयात	-6293
ance	-6294
▁प्रिंट	-6295
▁ठोस	-6296
▁रुचि	-6297
मुख्य	-6298
▁व्हाट्स	-6299
▁चर्	-6300
▁सांप्रदायिक	-6301
▁आयर	-6302
▁सिख	-6303
▁गहलोत	-6304
▁हॉस्प	-6305
▁ड्यूटी	-6306
▁लिहाज	-6307
▁यो	-6308
डीएम	-6309
्राष्ट्रीय	-6310
▁कोरिया	-6311
▁सिंग	-6312
▁प्रकट	-6313
▁43	-6314
▁शहद	-6315
डेंट	-6316
▁हुये	-6317
यु	-6318
▁सिस	-6319
▁शरद	-6320
80	-6321
ॉइन	-6322
▁कैल	-6323
▁गड	-6324
▁विंड	-6325
्रल	-6326
▁नरे	-6327
▁घोटाले	-6328
▁बृहस्पति	-6329
▁चलाया	-6330
▁बदमाश	-6331
▁मल्टी	-6332
▁बिल्ड	-6333
▁उपयुक्त	-6334
▁46	-6335
फो	-6336
▁बढ़त	-6337
▁लॉग	-6338
▁जापान	-6339
▁मध्यम	-6340
▁स्पोर्ट्स	-6341
▁पाठक	-6342
ॉस	-6343
▁बैठकर	-6344
▁पकड़ा	-6345
▁चिट	-6346
▁तेंद	-6347
▁पढ़े	-6348
unt	-6349
▁गाइड	-6350
▁दिखे	-6351
▁पोस्टर	-6352
▁मुँह	-6353
▁पैकेज	-6354
▁संसाधन	-6355
▁अत	-6356
▁कोर	-6357
▁शैली	-6358
▁दवाओं	-6359
क्षत्र	-6360
▁सावधान	-6361
आईपी	-6362
▁नयी	-6363
ृत्य	-6364
▁टेक्नोलॉजी	-6365
▁नाय	-6366
▁अधिसू	-6367
▁एजेंसियों	-6368
▁कोय	-6369
▁मानें	-6370
▁पॉजिटिव	-6371
▁चोद	-6372
▁सर्क	-6373
क्रामक	-6374
▁4.	-6375
▁विविध	-6376
▁समुद्र	-6377
▁निकला	-6378
▁पदार्थों	-6379
▁किरण	-6380
ंधा	-6381
ीदा	-6382
▁स्वि	-6383
तना	-6384
▁मजे	-6385
▁तालि	-6386
▁डिप्टी	-6387
▁मददगार	-6388
मैंने	-6389
▁रोटी	-6390
▁छुटकारा	-6391
जाति	-6392
▁प्रभु	-6393
▁प्रेमी	-6394
िशियल	-6395
▁हज़ार	-6396
▁दीदी	-6397
ram	-6398
▁टन	-6399
काया	-6400
▁ठंड	-6401
▁गरीबों	-6402
▁प्लस	-6403
▁पब्लिक	-6404
्यांकन	-6405
▁शिवराज	-6406
▁सुरेश	-6407
्तर	-6408
▁बुमराह	-6409
▁वंचित	-6410
▁बताना	-6411
▁औद्योग	-6412
्ठी	-6413
▁बुर	-6414
▁खन्ना	-6415
▁अत्या	-6416
▁पर्सनल	-6417
▁अवि	-6418
सायिक	-6419
▁देनी	-6420
▁मासिक	-6421
▁मरा	-6422
▁पाती	-6423
▁वाइ	-6424
▁शेख	-6425
ब्बत	-6426
▁इत्या	-6427
▁सेले	-6428
जपे	-6429
▁अन्दर	-6430
▁असिस्ट	-6431
▁सराहना	-6432
▁विचारधारा	-6433
▁बरकरार	-6434
ax	-6435
धित	-6436
बली	-6437
▁मनोरंजन	-6438
▁पिच	-6439
▁चरणों	-6440
आत	-6441
▁जताया	-6442
▁चार्जिंग	-6443
पया	-6444
▁नीतियों	-6445
जिन	-6446
▁प्रोसे	-6447
चुअल	-6448
▁आयी	-6449
▁2010	-6450
▁वोटों	-6451
▁ओड	-6452
▁बीसीसीआई	-6453
▁हस्तक्षेप	-6454
ंथ	-6455
▁लाभकारी	-6456
▁सटी	-6457
▁किस्मत	-6458
are	-6459
▁कनाडा	-6460
▁यूक्रेन	-6461
िज्म	-6462
▁समर्थक	-6463
▁कहकर	-6464
▁वस्तुओं	-6465
▁निरीक्षण	-6466
िपल	-6467
्यर	-6468
जागर	-6469
बरी	-6470
▁क्षण	-6471
▁ड्रग	-6472
साइड	-6473
▁अमीर	-6474
se	-6475
▁1000	-6476
माही	-6477
▁अस्तित्व	-6478
डेजा	-6479
▁चाहिये	-6480
▁2008	-6481
ैश	-6482
▁महत्त्व	-6483
▁आतंकियों	-6484
कलन	-6485
वेल	-6486
सीन	-6487
वाहिक	-6488
▁मनाने	-6489
▁भोजपुरी	-6490
ेय	-6491
▁आँखों	-6492
▁नर्स	-6493
▁मच	-6494
▁मारुति	-6495
▁इशारा	-6496
▁नवीन	-6497
▁हुसैन	-6498
▁अधिव	-6499
▁विद्यार्थी	-6500
me	-6501
▁नोटिफिकेशन	-6502
ुलकर	-6503
▁Ele	-6504
▁खुलकर	-6505
▁रवाना	-6506
▁बोझ	-6507
▁बुद्ध	-6508
▁पसंदीदा	-6509
▁फास्ट	-6510
स्ट्रॉल	-6511
▁इत्यादि	-6512
ूहिक	-6513
▁उभर	-6514
▁असफल	-6515
▁सम्बन्ध	-6516
▁आश्वासन	-6517
▁बल्लेबाजों	-6518
जुट	-6519
जिया	-6520
▁डिज़	-6521
▁कच	-6522
,999	-6523
▁उपकरणों	-6524
ise	-6525
▁47	-6526
▁एव	-6527
▁कारों	-6528
▁आरंभ	-6529
▁व्यक्तित्व	-6530
ile	-6531
▁आफ	-6532
▁नाथ	-6533
▁नाराजगी	-6534
▁2009	-6535
नाश	-6536
ुणा	-6537
▁चोर	-6538
ग्रा	-6539
फाइनल	-6540
वाड़	-6541
▁बैग	-6542
वैधानिक	-6543
▁प्रीमियर	-6544
▁रिव	-6545
▁स्थाना	-6546
▁संतुलन	-6547
▁व्यावसायिक	-6548
▁सर्वेक्षण	-6549
17	-6550
▁निर्देशक	-6551
रसा	-6552
▁समर्थकों	-6553
ॉयड	-6554
▁छेड़	-6555
▁उच्चतम	-6556
▁समूहों	-6557
▁स्थगित	-6558
पंच	-6559
▁एंकर	-6560
▁उत्स	-6561
▁400	-6562
▁गढ़	-6563
▁बर्बाद	-6564
▁एकजुट	-6565
▁सोचने	-6566
ans	-6567
ऊंगा	-6568
▁जरा	-6569
▁तहसील	-6570
▁शिंदे	-6571
▁मोड़	-6572
▁काबू	-6573
▁मानस	-6574
▁नाबाल	-6575
▁सिलेंडर	-6576
▁फैक्ट	-6577
▁नक्षत्र	-6578
रू	-6579
▁साई	-6580
▁अज्ञ	-6581
▁अतिथि	-6582
▁जडेजा	-6583
▁विनोद	-6584
▁केंद्रों	-6585
टेक	-6586
▁मुज	-6587
▁मुठ	-6588
▁संवैधानिक	-6589
साम	-6590
▁htt	-6591
ID	-6592
▁धमा	-6593
▁अभाव	-6594
▁एहसास	-6595
▁यूरोप	-6596
▁देखता	-6597
▁उपचुनाव	-6598
▁49	-6599
▁उछ	-6600
▁इकट्ठा	-6601
▁r	-6602
▁संतु	-6603
▁फाउंड	-6604
मानी	-6605
▁यूएस	-6606
▁नाबाद	-6607
▁आधे	-6608
▁बढ़िया	-6609
▁डिली	-6610
पै	-6611
पता	-6612
▁तोड़ने	-6613
▁शुक्ला	-6614
ूती	-6615
▁नीला	-6616
▁जिंदा	-6617
▁सिद्धार्थ	-6618
लिक	-6619
▁अर्धशतक	-6620
ैत	-6621
gov	-6622
ंसी	-6623
चंद्र	-6624
▁लिखकर	-6625
▁52	-6626
▁जीती	-6627
▁अभिनय	-6628
▁चलेगा	-6629
▁नैतिक	-6630
▁निराशा	-6631
तांत्रिक	-6632
14	-6633
मूर्ति	-6634
▁कोलेस्ट्रॉल	-6635
ack	-6636
▁उतारा	-6637
▁टीमें	-6638
▁पत्रकारिता	-6639
▁जिसको	-6640
▁बिगड़	-6641
▁साड़ी	-6642
▁जेट	-6643
▁दुर्गा	-6644
▁अवस्था	-6645
▁बीएस	-6646
ari	-6647
▁घुट	-6648
▁दुब	-6649
णियों	-6650
▁दायरे	-6651
बंद	-6652
ेंच	-6653
भाविक	-6654
▁उपयोगकर्ता	-6655
लेशन	-6656
▁नाकाम	-6657
▁रॉयल	-6658
▁ब्यू	-6659
▁जूस	-6660
▁सहमत	-6661
पालिका	-6662
ेक्टर	-6663
▁बनते	-6664
▁दिवाली	-6665
▁त्याग	-6666
▁ख़ास	-6667
जैसे	-6668
▁स्वर्ण	-6669
गमेंट	-6670
▁vs	-6671
▁चंडी	-6672
▁संदीप	-6673
▁सोनी	-6674
▁धवन	-6675
स्पर्	-6676
▁शौच	-6677
▁सामूहिक	-6678
▁हॉट	-6679
▁कराना	-6680
▁उज्ज	-6681
▁श्रीवास्तव	-6682
जुए	-6683
▁मिठ	-6684
▁औद्योगिक	-6685
▁Rec	-6686
▁श्रद्धाल	-6687
▁कैसीनो	-6688
▁लिप	-6689
-0	-6690
▁औष	-6691
▁कीजिए	-6692
▁अत्यंत	-6693
काउंट	-6694
ach	-6695
बाई	-6696
▁हमलों	-6697
▁कॉर	-6698
कन	-6699
िवे	-6700
▁अरे	-6701
▁करेंगी	-6702
▁एक्टिंग	-6703
वाहा	-6704
▁विभागों	-6705
▁पहना	-6706
▁प्रॉ	-6707
▁इवेंट	-6708
ूद	-6709
▁उतनी	-6710
▁लेटे	-6711
▁चार्ट	-6712
▁प्रदर्शित	-6713
▁गरीबी	-6714
▁पैसों	-6715
सवाल	-6716
▁इजाजत	-6717
ass	-6718
▁कॉपी	-6719
एमआई	-6720
ायतों	-6721
▁हाइड	-6722
▁स्ट्राइक	-6723
इंड	-6724
शक्ति	-6725
▁निधि	-6726
▁आईए	-6727
ष्णा	-6728
ल्ले	-6729
▁हॉल	-6730
▁अय्यर	-6731
▁कुलदीप	-6732
▁प्राय	-6733
▁मांगा	-6734
▁जानकार	-6735
▁नारियल	-6736
▁विद्या	-6737
▁माध	-6738
▁डेविड	-6739
▁गोरखपुर	-6740
सला	-6741
▁लायक	-6742
▁पहनने	-6743
MP	-6744
▁मजबूती	-6745
फ्ल	-6746
स्टेबल	-6747
ोगी	-6748
▁वैध	-6749
▁टेबल	-6750
ौली	-6751
▁अंधे	-6752
▁खेलना	-6753
स्तु	-6754
▁संरचना	-6755
वाज	-6756
▁सर्ट	-6757
।।	-6758
▁यूनियन	-6759
लिखित	-6760
▁मूल्यांकन	-6761
प्पा	-6762
▁फंस	-6763
▁बेड	-6764
▁मानने	-6765
पटॉप	-6766
▁युक्त	-6767
▁नाबालिग	-6768
▁परीक्षाओं	-6769
ata	-6770
ार्टमेंट	-6771
क्टी	-6772
▁चूस	-6773
▁एपिस	-6774
वाड़ा	-6775
चाप	-6776
▁जीने	-6777
▁मम्मी	-6778
▁फेल	-6779
िमांड	-6780
▁ग्रो	-6781
▁कौर	-6782
▁पेशेवर	-6783
▁परियोजनाओं	-6784
▁जिलाधिकारी	-6785
भि	-6786
▁साइन	-6787
जपेयी	-6788
▁कृपया	-6789
▁जोड़े	-6790
▁नतीजा	-6791
▁पक्षों	-6792
▁तीर्थ	-6793
▁थोड़े	-6794
▁दस्त	-6795
▁पराम	-6796
▁वैभव	-6797
▁चरित्र	-6798
▁जयंती	-6799
ोजित	-6800
▁रेड्डी	-6801
वली	-6802
IC	-6803
▁पच	-6804
▁बीत	-6805
िविटी	-6806
▁कड़ा	-6807
▁चौके	-6808
22	-6809
▁जीतकर	-6810
▁सोचते	-6811
▁अंतर्राष्ट्रीय	-6812
पीय	-6813
▁पठ	-6814
कालिक	-6815
▁इच्छुक	-6816
▁हॉस्पिटल	-6817
60	-6818
▁ठहराया	-6819
▁प्रारंभिक	-6820
▁मानक	-6821
▁बेरोजगारी	-6822
पाठी	-6823
▁सैलरी	-6824
▁साथियों	-6825
ook	-6826
पंथी	-6827
▁सलाहकार	-6828
दून	-6829
▁मैनेजमेंट	-6830
▁रेप	-6831
▁आपसी	-6832
▁on	-6833
▁भेदभाव	-6834
्तार	-6835
▁सीपी	-6836
▁दत्त	-6837
भूत	-6838
▁आज़ा	-6839
▁टर्म	-6840
रस	-6841
्ढ	-6842
त्तियों	-6843
▁गर्भ	-6844
▁बोनस	-6845
▁एपिसोड	-6846
▁पहुंचाया	-6847
फ्तर	-6848
▁विड	-6849
▁चुदाई	-6850
▁प्रतिष्ठा	-6851
▁मॉड	-6852
▁गर्भव	-6853
▁हिंदुओं	-6854
▁प्रतिस्पर्	-6855
▁मार्क	-6856
▁भागीदारी	-6857
▁आचार्य	-6858
▁खाल	-6859
▁धनु	-6860
▁हंगामा	-6861
▁लिवर	-6862
क्षणिक	-6863
▁उठाते	-6864
▁कामकाज	-6865
▁काफ़ी	-6866
▁प्याज	-6867
ित्त	-6868
▁En	-6869
▁नाक	-6870
▁ढेर	-6871
ॉर	-6872
▁संपन्न	-6873
▁वेट	-6874
▁ग्लोबल	-6875
▁हैंडसेट	-6876
▁कठोर	-6877
▁क्रिस	-6878
▁चैट	-6879
▁कामों	-6880
▁परमाण	-6881
▁कॉमे	-6882
ोम	-6883
▁विवादित	-6884
प्तान	-6885
▁गठित	-6886
▁शत्र	-6887
▁सीता	-6888
▁स्वाभाविक	-6889
▁पौधे	-6890
▁दशकों	-6891
▁सुर्खियों	-6892
ंची	-6893
लील	-6894
कर्षण	-6895
▁लल	-6896
▁सेमीफाइनल	-6897
मुख्यमंत्री	-6898
▁रच	-6899
▁टैब	-6900
▁परामर्श	-6901
▁ब्लू	-6902
▁राजयोग	-6903
▁बिटक	-6904
▁तस्वीरों	-6905
▁ओडिशा	-6906
▁डिस्काउंट	-6907
▁मार्केटिंग	-6908
▁अभिव	-6909
▁दफ्तर	-6910
▁साइबर	-6911
▁सेंट्रल	-6912
फ्रेंड	-6913
▁दुर्भाग्य	-6914
▁ज़रूर	-6915
uk	-6916
▁ब्यूरो	-6917
ey	-6918
म्स	-6919
▁वाम	-6920
▁BJP	-6921
▁शोषण	-6922
हरादून	-6923
्योरिटी	-6924
▁तुम्हारा	-6925
▁शेड	-6926
वालों	-6927
▁नफर	-6928
मार्ग	-6929
▁सूचित	-6930
▁क्रिया	-6931
▁रायपुर	-6932
▁गेंदबाजों	-6933
चंद	-6934
मेज	-6935
▁गर्भवती	-6936
▁प्लांट	-6937
घ्र	-6938
▁रत्न	-6939
▁भूप	-6940
वंत	-6941
विधि	-6942
▁डोनाल्ड	-6943
शिंग	-6944
▁शिशु	-6945
▁बैठने	-6946
▁बॉर्डर	-6947
▁मेघ	-6948
▁गुस्से	-6949
▁बुकिंग	-6950
▁राजकुमार	-6951
▁तंज	-6952
▁रिए	-6953
▁कहें	-6954
▁प्रोसेसर	-6955
▁बरसा	-6956
ड़ियां	-6957
मला	-6958
▁मज़ा	-6959
▁बौद्ध	-6960
▁जाग	-6961
▁सीए	-6962
▁कॉन्ट	-6963
▁भावनात्मक	-6964
▁अटल	-6965
▁हमे	-6966
▁अनाज	-6967
▁लैपटॉप	-6968
▁जब्त	-6969
▁अपराधी	-6970
रीय	-6971
▁राजन	-6972
▁जोन	-6973
▁उद्यम	-6974
▁बढ़ाकर	-6975
नाल	-6976
▁प्लेइंग	-6977
▁नशे	-6978
▁किन्तु	-6979
झकर	-6980
्यून	-6981
न्नी	-6982
प्लाई	-6983
▁मैनेजर	-6984
नम	-6985
▁संसार	-6986
▁पोस्टम	-6987
▁जागरूकता	-6988
▁गेह	-6989
्युन	-6990
▁आध्या	-6991
▁सैमसंग	-6992
▁बिटकॉइन	-6993
▁गांड	-6994
▁मिश्रण	-6995
▁मोट	-6996
▁होस्ट	-6997
▁गिन	-6998
▁सीबी	-6999
▁दरवाजे	-7000
मह	-7001
▁मेष	-7002
मै	-7003
तिष्क	-7004
▁वस	-7005
▁परमाणु	-7006
▁संस्थाओं	-7007
▁स्थानांतर	-7008
▁वरुण	-7009
▁दिलीप	-7010
समय	-7011
व्या	-7012
्वेस्ट	-7013
ash	-7014
▁नाटक	-7015
24	-7016
ब्स	-7017
▁चट	-7018
स्को	-7019
▁प्लास्टिक	-7020
▁उद्धव	-7021
▁देखिए	-7022
▁डिज़ाइन	-7023
▁फु	-7024
▁पीछा	-7025
▁निभाई	-7026
▁पश्चा	-7027
▁दरवाजा	-7028
▁साक्षा	-7029
▁Ka	-7030
▁कर्त	-7031
▁परिचय	-7032
▁सिद्धू	-7033
▁प्रोसेस	-7034
ूली	-7035
▁सालाना	-7036
▁मंड	-7037
▁जायेंगे	-7038
▁चैंपियनशिप	-7039
लोनी	-7040
▁तालिबान	-7041
▁वास	-7042
▁शैक्षणिक	-7043
▁बनाती	-7044
▁शासित	-7045
▁प्राचीन	-7046
▁आध्यात्म	-7047
सुन	-7048
राष्ट्र	-7049
फना	-7050
मेर	-7051
▁1.5	-7052
▁हिल	-7053
▁इजरायल	-7054
'।	-7055
▁स्ट्रीम	-7056
▁निर्मित	-7057
▁प्रवासी	-7058
▁रूट	-7059
▁संतान	-7060
रिस	-7061
▁उजागर	-7062
र्मेंद्र	-7063
▁चंडीगढ़	-7064
▁भारतीयों	-7065
▁केएल	-7066
▁साइकिल	-7067
▁छत	-7068
▁सिलसिले	-7069
▁प्रस्तावित	-7070
▁परिप	-7071
▁फांसी	-7072
▁डेवल	-7073
▁ससुर	-7074
्वान	-7075
▁चंद्रमा	-7076
कंप	-7077
भुत	-7078
ैर्य	-7079
▁सर्जरी	-7080
इए	-7081
▁डिलीवरी	-7082
▁जीवित	-7083
▁चेयरमैन	-7084
▁What	-7085
▁कुशल	-7086
▁अलर्ट	-7087
▁सदा	-7088
▁पहने	-7089
▁विकल्पों	-7090
िरो	-7091
जाने	-7092
▁लिंग	-7093
▁उपभोक्ता	-7094
▁अपराधियों	-7095
▁वसू	-7096
▁कार्यकारी	-7097
rad	-7098
ure	-7099
सीना	-7100
oj	-7101
▁गोप	-7102
▁फिटनेस	-7103
▁उन्होने	-7104
▁सीसीटीवी	-7105
▁चपेट	-7106
13	-7107
▁आमंत्रित	-7108
सीम	-7109
▁चांद	-7110
▁शेयरों	-7111
▁महेंद्र	-7112
फ्यू	-7113
▁सेकेंड	-7114
▁श्रद्धा	-7115
▁दस्तावेजों	-7116
▁मंग	-7117
▁बताता	-7118
▁सेकंड	-7119
न्यू	-7120
ेन्द्र	-7121
र्चे	-7122
▁डाले	-7123
▁अश्विन	-7124
▁देहरादून	-7125
▁120	-7126
▁नरेन्द्र	-7127
▁तिमाही	-7128
▁ट्रेनों	-7129
▁गहराई	-7130
▁वोटर	-7131
▁धर्मेंद्र	-7132
▁इजाफा	-7133
▁फैट	-7134
ou	-7135
▁वैदिक	-7136
▁गिरने	-7137
▁जूनियर	-7138
▁दिखता	-7139
▁हिम	-7140
▁कब्जे	-7141
ड़ताल	-7142
▁हमसे	-7143
▁अज्ञात	-7144
सीए	-7145
त्तर	-7146
▁प्रोत्साहित	-7147
orm	-7148
▁रवी	-7149
▁जरुरी	-7150
▁तेंदुलकर	-7151
हाद	-7152
▁5.	-7153
▁चाहें	-7154
:-	-7155
load	-7156
▁तेरे	-7157
बिन	-7158
▁औपचारिक	-7159
फिट	-7160
वानिव	-7161
▁हेयर	-7162
▁ट्रेंड	-7163
▁रैं	-7164
्रु	-7165
▁बेश	-7166
▁महि	-7167
▁खुली	-7168
▁धैर्य	-7169
▁भौतिक	-7170
▁सेगमेंट	-7171
ष्कार	-7172
टिया	-7173
▁ऋषभ	-7174
▁टोक	-7175
कप्तान	-7176
▁मौजूदगी	-7177
▁Al	-7178
▁छोड़ा	-7179
ुसार	-7180
▁निराश	-7181
▁बिस्तर	-7182
▁छापेमारी	-7183
हरण	-7184
▁लाए	-7185
खु	-7186
िथ	-7187
▁रहकर	-7188
धिकारियों	-7189
▁भक्ति	-7190
▁महेश	-7191
ame	-7192
▁कुर्सी	-7193
SS	-7194
▁घटा	-7195
In	-7196
ंगन	-7197
▁पाइ	-7198
▁प्रतिमा	-7199
व्र	-7200
▁राउंड	-7201
▁विशेषता	-7202
झी	-7203
▁वारदा	-7204
प्लीकेशन	-7205
टेल	-7206
द्रोह	-7207
▁बुखार	-7208
▁हरे	-7209
जिस	-7210
▁ऋषि	-7211
▁जाएँ	-7212
▁घूमने	-7213
▁कलाकारों	-7214
▁त्रिपाठी	-7215
▁अटैक	-7216
▁आरती	-7217
▁ज़ोर	-7218
▁ढांचे	-7219
▁ट्रैफिक	-7220
23	-7221
बड़े	-7222
▁बाह	-7223
▁मांगने	-7224
▁विश्वसनीय	-7225
▁(3	-7226
ary	-7227
▁सना	-7228
▁नफरत	-7229
ईडी	-7230
ँस	-7231
▁अल्पसंख्यक	-7232
▁हेम	-7233
▁कमीशन	-7234
बस	-7235
वैसी	-7236
▁शास्त्री	-7237
▁जाप	-7238
▁विज्ञ	-7239
▁आस्था	-7240
▁थकान	-7241
▁करूंगा	-7242
▁छीन	-7243
▁उठाना	-7244
ैठ	-7245
▁इट	-7246
▁सनी	-7247
ोटी	-7248
▁आँख	-7249
धड़ी	-7250
▁चरम	-7251
▁डेस्क	-7252
▁संस्थापक	-7253
▁समुदायों	-7254
ue	-7255
▁बेव	-7256
▁चूक	-7257
▁फिज	-7258
संख्या	-7259
फ्टी	-7260
▁सीईओ	-7261
थल	-7262
▁आधी	-7263
▁अन्त	-7264
▁पासवर्ड	-7265
ठों	-7266
▁आलू	-7267
▁अफवाह	-7268
▁फ्लैट	-7269
▁लौटने	-7270
▁बैठी	-7271
ry	-7272
▁जनपद	-7273
▁जौ	-7274
जीवन	-7275
▁आशीष	-7276
▁काटने	-7277
▁पारदर्	-7278
▁सदस्यता	-7279
▁शमी	-7280
▁फील्ड	-7281
▁उत्तरी	-7282
▁ख़ुद	-7283
▁तेरी	-7284
▁समस्त	-7285
▁जायेगी	-7286
▁प्रत्यक्ष	-7287
▁कर्क	-7288
▁फैलाने	-7289
ड्डी	-7290
वायु	-7291
िंग्स	-7292
▁रचनात्मक	-7293
▁गीता	-7294
▁जेडी	-7295
▁अब्दु	-7296
▁ट्रेलर	-7297
▁लेनदेन	-7298
▁प्रशंसा	-7299
▁ठंडा	-7300
▁मुखिया	-7301
▁खर	-7302
▁बाजारों	-7303
धनों	-7304
▁ख़बर	-7305
▁बचना	-7306
▁स्टूडेंट्स	-7307
▁फोक	-7308
▁यूं	-7309
▁रिक्त	-7310
ग़	-7311
रिय	-7312
▁आलिया	-7313
▁लोकतांत्रिक	-7314
प्ट	-7315
▁उत्सव	-7316
ोदय	-7317
▁पड़ेगी	-7318
▁अभिव्य	-7319
▁अधिसूचना	-7320
ST	-7321
मेन	-7322
▁निवास	-7323
▁एचडी	-7324
बों	-7325
मिली	-7326
▁जद	-7327
▁नाश्	-7328
यें	-7329
▁ट्रां	-7330
▁आतंकवादियों	-7331
दिल	-7332
ारक	-7333
सब	-7334
▁54	-7335
▁गुड़	-7336
▁नोटबंदी	-7337
▁app	-7338
▁दुकानों	-7339
▁चैल	-7340
▁एप्लीकेशन	-7341
▁हल्की	-7342
▁उमर	-7343
▁गवाह	-7344
▁शॉर्ट	-7345
▁एनर्जी	-7346
▁टैग	-7347
▁टेल	-7348
राउंड	-7349
▁खोला	-7350
▁राजने	-7351
▁अंतरिक्ष	-7352
▁ईवी	-7353
▁कृष्णा	-7354
▁जोश	-7355
▁बरत	-7356
▁प्रारूप	-7357
एप	-7358
▁AI	-7359
▁दिव्या	-7360
▁रूसी	-7361
▁दुनियाभर	-7362
ुली	-7363
▁स्टे	-7364
ill	-7365
▁असिस्टेंट	-7366
▁मुर	-7367
▁आयकर	-7368
▁बादल	-7369
▁डाली	-7370
▁पहलू	-7371
्की	-7372
▁जैक	-7373
▁सऊ	-7374
▁अधि	-7375
▁ओबीसी	-7376
▁चौंका	-7377
▁गतिविधि	-7378
▁मस्तिष्क	-7379
वायरस	-7380
पुट	-7381
▁पंक	-7382
▁दादा	-7383
▁इंडियंस	-7384
▁निष्कर्ष	-7385
▁अद्	-7386
▁अमरी	-7387
ियमित	-7388
▁आह्वान	-7389
एमएस	-7390
▁चिल्ला	-7391
▁परेशानियों	-7392
्रेम	-7393
▁छाया	-7394
▁हरकत	-7395
▁सुनते	-7396
▁पत्ते	-7397
▁शक्तिशाली	-7398
▁जर्मनी	-7399
▁शक्त	-7400
▁संजीव	-7401
▁उपायों	-7402
▁क़ान	-7403
▁तकली	-7404
▁बहादुर	-7405
टेन	-7406
अंदा	-7407
▁अधीन	-7408
▁ओवैसी	-7409
▁इंस्टीट	-7410
▁अंकों	-7411
▁शिफ्ट	-7412
पने	-7413
फेक्ट	-7414
▁ग्रा	-7415
▁मेजब	-7416
▁संज्ञान	-7417
शीट	-7418
▁तन	-7419
▁स्त	-7420
▁आसमान	-7421
▁गुलाब	-7422
स्पेक्टर	-7423
▁भाषाओं	-7424
लत	-7425
किट	-7426
▁डिफ	-7427
▁लंबित	-7428
▁सभ	-7429
▁डिव	-7430
▁हसन	-7431
ef	-7432
▁कोत	-7433
▁हेल	-7434
▁प्रवृत्ति	-7435
▁आकलन	-7436
▁अभिभाव	-7437
भूषण	-7438
▁पीस	-7439
▁सन्	-7440
▁गणना	-7441
▁ऑफिसर	-7442
ock	-7443
▁जुटा	-7444
▁दर्जा	-7445
▁हिस्सेदारी	-7446
वाधिकार	-7447
▁संपूर्ण	-7448
▁सूरत	-7449
िस्ट्रेट	-7450
▁56	-7451
शेखर	-7452
▁प्रतिरोध	-7453
▁एसी	-7454
ोत्सव	-7455
21	-7456
▁:-	-7457
▁खाद	-7458
ंधन	-7459
▁आध्यात्मिक	-7460
ोश	-7461
फ़ा	-7462
कांग	-7463
▁मायने	-7464
▁एथ	-7465
▁मुठभ	-7466
▁मेहमान	-7467
▁फट	-7468
▁अड्ड	-7469
▁बाला	-7470
▁हार्म	-7471
▁रोगियों	-7472
-5	-7473
ौज	-7474
▁pro	-7475
▁स्वर	-7476
▁नक्सल	-7477
▁एआई	-7478
▁अंसारी	-7479
▁सब्सिडी	-7480
▁पन	-7481
▁ष	-7482
:30	-7483
▁फंसे	-7484
▁प्रमोशन	-7485
▁अमा	-7486
▁बाई	-7487
▁राउ	-7488
▁दीजिए	-7489
▁मूर्	-7490
▁फाइनेंस	-7491
▁लेट	-7492
▁फैशन	-7493
▁राखी	-7494
▁न्यायमूर्ति	-7495
ंडों	-7496
ून्य	-7497
म्मा	-7498
सपेश	-7499
▁पेस्ट	-7500
▁पैटर्न	-7501
विश	-7502
▁41	-7503
▁पुज	-7504
कृष्ट	-7505
▁सर्टिफ	-7506
▁जश्न	-7507
मैट	-7508
▁जुट	-7509
▁सेन	-7510
▁शीघ्र	-7511
▁सशक्त	-7512
▁विभाजन	-7513
▁कुश	-7514
wit	-7515
ruit	-7516
▁प्राण	-7517
ोरेंस	-7518
▁भव्य	-7519
▁जरुरत	-7520
▁प्रयाग	-7521
▁रिटायर	-7522
▁बिंदु	-7523
▁शर्तों	-7524
▁गेहूं	-7525
ebs	-7526
ानिक	-7527
भाजपा	-7528
▁रेटिंग	-7529
▁तुमने	-7530
ैली	-7531
ंचाई	-7532
▁कच्चे	-7533
▁अन्यथा	-7534
▁अर्थात	-7535
गें	-7536
▁ग्रहों	-7537
▁काउंसिल	-7538
डू	-7539
▁झटके	-7540
▁धीमी	-7541
▁रामदेव	-7542
बुक	-7543
▁किस्त	-7544
▁एक्सरसा	-7545
▁अंश	-7546
▁लाई	-7547
▁खरीदना	-7548
▁एक्सरसाइज	-7549
▁लेटेस्ट	-7550
▁कार्यक्षेत्र	-7551
लाना	-7552
▁मेले	-7553
▁समन्व	-7554
▁अनुराग	-7555
▁धोखाधड़ी	-7556
▁मंत्रिमंडल	-7557
▁घबरा	-7558
भूति	-7559
▁कॉम	-7560
▁चौकी	-7561
▁संसाधनों	-7562
ण्य	-7563
▁ch	-7564
रेली	-7565
▁वैसा	-7566
राने	-7567
ath	-7568
▁नहा	-7569
▁लड़का	-7570
▁प्रोट	-7571
▁अद्भुत	-7572
ऑफ	-7573
पालन	-7574
्यौ	-7575
▁कलेक्शन	-7576
▁प्रदर्शनकारियों	-7577
▁बर्फ	-7578
▁मंडी	-7579
▁2007	-7580
▁तुला	-7581
द्दाख	-7582
▁कोचिंग	-7583
▁ईमानदारी	-7584
▁इर	-7585
वर्ष	-7586
▁केश	-7587
▁बहर	-7588
▁नमा	-7589
▁खातों	-7590
ोली	-7591
▁कैद	-7592
▁कारोबारी	-7593
▁मानवाधिकार	-7594
▁लैंड	-7595
▁सटीक	-7596
▁घेर	-7597
क्ष्य	-7598
▁जनसंख्या	-7599
▁ज़मीन	-7600
▁अंदाजा	-7601
क्सीडेंट	-7602
▁53	-7603
विदा	-7604
▁अल्ट	-7605
▁मांसपेश	-7606
▁मेडल	-7607
▁सेल्फी	-7608
▁मुखर्जी	-7609
▁लू	-7610
▁साहस	-7611
▁उपलब्धि	-7612
AI	-7613
जि	-7614
्वार	-7615
▁दलितों	-7616
▁खुराक	-7617
केल	-7618
count	-7619
▁लेखन	-7620
▁जाँच	-7621
▁निचले	-7622
▁रणबीर	-7623
▁बनेगा	-7624
▁चुनौतियों	-7625
रि	-7626
▁पूजन	-7627
▁सेक्शन	-7628
टू	-7629
मेह	-7630
दाश्त	-7631
▁गर्ल	-7632
▁दुखी	-7633
▁खनन	-7634
▁विरासत	-7635
ह्न	-7636
▁नजदीक	-7637
यो	-7638
▁भला	-7639
परी	-7640
तायात	-7641
▁गंवा	-7642
▁पुलिसकर्मियों	-7643
▁51	-7644
▁मतभ	-7645
▁विद्युत	-7646
ूढ़	-7647
▁चैलेंज	-7648
खाने	-7649
▁संतुलित	-7650
णिक	-7651
▁एकड़	-7652
▁मुनाफा	-7653
▁फाउंडेशन	-7654
▁साक्षात्कार	-7655
शिक	-7656
▁घात	-7657
▁व्यायाम	-7658
▁मेटा	-7659
▁बेन	-7660
▁सऊदी	-7661
▁चिंतित	-7662
▁टिकैत	-7663
▁शुभकामनाएं	-7664
छाड़	-7665
श्मी	-7666
▁अनुबंध	-7667
बीन	-7668
▁बिन	-7669
▁दुबई	-7670
▁अफसरों	-7671
▁दुल	-7672
▁Card	-7673
पिंग	-7674
▁सेवानिव	-7675
ोरम	-7676
▁शुरूआत	-7677
▁एमपी	-7678
▁तरक्की	-7679
▁काशी	-7680
▁आगरा	-7681
▁आकर्षण	-7682
▁इंस	-7683
▁कष्ट	-7684
▁गायक	-7685
▁हादसा	-7686
ोज़	-7687
▁Ac	-7688
▁कमान	-7689
▁कारगर	-7690
▁हिंसक	-7691
ोर्	-7692
▁अनंत	-7693
▁इसपर	-7694
ownload	-7695
▁देखो	-7696
ग्रहण	-7697
▁सीतार	-7698
▁दोग	-7699
▁उतरे	-7700
ेटर	-7701
▁जलवायु	-7702
▁भैया	-7703
▁गोयल	-7704
▁शुभमन	-7705
ime	-7706
▁बृ	-7707
वाहित	-7708
▁फोकस	-7709
जेडी	-7710
▁सुभाष	-7711
▁वैवाहिक	-7712
▁इलेक्ट्रॉनिक	-7713
▁पेय	-7714
▁रंजन	-7715
▁दिखाते	-7716
लोक	-7717
शुल्क	-7718
▁तीव्र	-7719
▁इंतजाम	-7720
▁संस्कृत	-7721
रार	-7722
▁लद्दाख	-7723
▁बगैर	-7724
▁सत्तार	-7725
▁रेडियो	-7726
▁पांड	-7727
▁सेटअप	-7728
▁शॉट	-7729
लेकिन	-7730
▁एजेंट	-7731
▁पासवान	-7732
▁एबी	-7733
▁बालक	-7734
▁मेरठ	-7735
▁डाइ	-7736
▁होश	-7737
▁पैं	-7738
▁निम्नलिखित	-7739
ार्स	-7740
▁मैक्स	-7741
▁पदाधिकारी	-7742
ust	-7743
कड़	-7744
जीपी	-7745
▁महीना	-7746
▁यातायात	-7747
▁ट्रोल	-7748
▁यूरोपीय	-7749
नाइट	-7750
▁टॉस	-7751
ory	-7752
एनयू	-7753
फिर	-7754
▁फलों	-7755
▁वरना	-7756
▁कमिश्न	-7757
ूष	-7758
▁कैच	-7759
▁चिकित्सक	-7760
▁आक्रामक	-7761
▁बया	-7762
▁हिला	-7763
▁हितों	-7764
▁प्रतिष्ठित	-7765
▁लेनी	-7766
▁गुणों	-7767
▁जिनसे	-7768
▁डाक	-7769
▁फार	-7770
▁प्रिंस	-7771
▁फ्लाइट	-7772
ideo	-7773
▁आला	-7774
▁गरम	-7775
ड़की	-7776
ingh	-7777
▁विक्रम	-7778
▁खैर	-7779
▁निशाने	-7780
णिज	-7781
▁प्रकरण	-7782
ांतर	-7783
िडेट	-7784
▁72	-7785
▁बाज़ार	-7786
70	-7787
▁काग	-7788
▁टिप्स	-7789
न्ग	-7790
भाई	-7791
▁the	-7792
▁इलेवन	-7793
▁चैनलों	-7794
▁एडवा	-7795
▁कुत्ते	-7796
▁बहरहाल	-7797
aw	-7798
▁मामूली	-7799
▁नीरज	-7800
▁डिस्ट	-7801
ee	-7802
▁दर्शक	-7803
▁व्हाइट	-7804
▁रोमांटिक	-7805
फ्फर	-7806
▁रणवीर	-7807
▁रैंकिंग	-7808
▁शुक्ल	-7809
▁रेस	-7810
▁कहला	-7811
▁निदेश	-7812
▁बढ़ेगा	-7813
एसआई	-7814
ॉर्क	-7815
▁जुल	-7816
▁रेज	-7817
▁हड़ताल	-7818
▁हार्मोन	-7819
लोग	-7820
▁कपड़ों	-7821
स्टाइल	-7822
▁दुश्मन	-7823
▁प्रसारण	-7824
▁परिचित	-7825
▁(20	-7826
▁टाल	-7827
▁गुप्त	-7828
भु	-7829
▁ओटीटी	-7830
▁ठेके	-7831
▁ख़त्म	-7832
राइज	-7833
▁चाचा	-7834
▁पांडेय	-7835
▁Me	-7836
▁कॉफी	-7837
▁जिन्	-7838
▁पिटाई	-7839
वेज	-7840
दिष्ट	-7841
्यूशन	-7842
▁रोगों	-7843
▁मानवीय	-7844
▁मजिस्ट्रेट	-7845
▁हज	-7846
▁चलाते	-7847
▁मनमोहन	-7848
क्व	-7849
▁अवगत	-7850
▁स्पीकर	-7851
▁अल्लाह	-7852
▁राधा	-7853
▁साधन	-7854
▁डिस्क	-7855
▁पत्रिका	-7856
▁उपयोगकर्ताओं	-7857
णिज्य	-7858
▁मुठभेड़	-7859
"।	-7860
▁बलि	-7861
▁पैदल	-7862
▁निष्पक्ष	-7863
AN	-7864
▁डबल	-7865
▁भेजी	-7866
▁लाना	-7867
शास्त्र	-7868
ree	-7869
ोजक	-7870
गुरु	-7871
▁अब्दुल	-7872
▁बिहारी	-7873
ruitment	-7874
ार्टम	-7875
▁सप्लाई	-7876
▁आंखें	-7877
▁अतः	-7878
▁सबका	-7879
▁भिन्न	-7880
▁श्रमिकों	-7881
झाने	-7882
ायती	-7883
▁ब्रोकर	-7884
तुम	-7885
ब्बे	-7886
▁ऑयल	-7887
▁अपहरण	-7888
▁स्नै	-7889
▁सुब	-7890
▁रोगी	-7891
▁डायरेक्ट	-7892
▁कनेक्टिविटी	-7893
ैम	-7894
▁निर्देशन	-7895
▁शून्य	-7896
▁शत्रु	-7897
▁निवेशक	-7898
ंचल	-7899
िवेदी	-7900
रेटर	-7901
▁बोर	-7902
ांजलि	-7903
▁फि	-7904
▁मछली	-7905
▁com	-7906
▁कंस	-7907
▁फैन	-7908
▁वोटिंग	-7909
ोदिया	-7910
▁पीड़ा	-7911
▁प्लेयर	-7912
▁अदरक	-7913
शिंगटन	-7914
AP	-7915
▁250	-7916
▁दर्जन	-7917
▁बाप	-7918
▁बैन	-7919
▁खाएं	-7920
▁एनसीपी	-7921
▁मूल्यों	-7922
▁फंसा	-7923
लपुर	-7924
▁आंत	-7925
▁कठिना	-7926
▁श्याम	-7927
▁बैक्टी	-7928
▁क्रमश	-7929
▁जावेद	-7930
▁ड्रोन	-7931
▁निकली	-7932
ओल	-7933
काय	-7934
प्रीत	-7935
cy	-7936
पयोग	-7937
मेरे	-7938
▁पला	-7939
▁शौचालय	-7940
▁एमएस	-7941
▁गर्दन	-7942
ंठ	-7943
जग	-7944
ink	-7945
▁58	-7946
▁करीना	-7947
▁दिवसीय	-7948
▁प्रवाह	-7949
तीन	-7950
▁कैलो	-7951
जना	-7952
witter	-7953
▁पकड़ने	-7954
▁राइड	-7955
ight	-7956
न्दर	-7957
▁नेहा	-7958
▁पित	-7959
▁गैले	-7960
▁बोतल	-7961
▁चतुर्थ	-7962
ेस्ट	-7963
▁रघु	-7964
गाम	-7965
▁iP	-7966
वादियों	-7967
▁पंजीकृत	-7968
▁घड़ी	-7969
▁फर्म	-7970
▁ऊंचाई	-7971
▁चांदी	-7972
▁विवादों	-7973
▁रोशन	-7974
अन	-7975
म्बे	-7976
▁ऑडियो	-7977
कांड	-7978
माटर	-7979
लांग	-7980
▁औरत	-7981
▁ईंधन	-7982
▁पर्दे	-7983
▁पंकज	-7984
रेशन	-7985
▁आर्मी	-7986
ect	-7987
▁टॉर्क	-7988
▁पूछने	-7989
शंकर	-7990
▁संपादक	-7991
▁स्पिनर	-7992
▁लकड़ी	-7993
▁गोपनीय	-7994
▁इन्होंने	-7995
▁राइ	-7996
▁ड्राइव	-7997
▁क्रांति	-7998
▁सिलसिला	-7999
▁हिंदुत्व	-8000
ध्याय	-8001
खण्ड	-8002
▁मधुमेह	-8003
ug	-8004
▁खासतौर	-8005
डि	-8006
▁मांगे	-8007
▁संवेद	-8008
▁Te	-8009
विजन	-8010
▁धारणा	-8011
▁ढाई	-8012
▁सेक्सी	-8013
▁हालिया	-8014
out	-8015
डिंग	-8016
▁सफ़	-8017
▁प्रतिबंधित	-8018
▁धूल	-8019
▁उठता	-8020
▁इंस्टीट्यूट	-8021
▁प्रभावशाली	-8022
▁सर्टिफिकेट	-8023
आरपी	-8024
च्छा	-8025
हारिक	-8026
▁कोने	-8027
▁ज्ञा	-8028
▁उठाकर	-8029
▁अक्षर	-8030
▁ईरानी	-8031
डो	-8032
▁जातक	-8033
▁मित्रों	-8034
▁कारक	-8035
▁पकड़े	-8036
▁स्टेज	-8037
▁उत्कृष्ट	-8038
▁याचिकाकर्ता	-8039
ुष	-8040
▁j	-8041
▁शिक्षण	-8042
▁छिप	-8043
▁पंचा	-8044
▁पागल	-8045
▁राहु	-8046
▁फ्रेंच	-8047
▁समृद्धि	-8048
▁अधिवक्ता	-8049
▁अब्दुल्ला	-8050
▁e	-8051
▁दोगु	-8052
▁मान्य	-8053
शियल	-8054
▁शॉप	-8055
▁सूर्यकुमार	-8056
▁इमारत	-8057
▁ज्ञात	-8058
▁निभाने	-8059
▁सदी	-8060
▁साइंस	-8061
▁सुक	-8062
Ah	-8063
▁शौक	-8064
▁दांव	-8065
▁आश्रम	-8066
▁आईसी	-8067
▁हकी	-8068
▁कश्मी	-8069
▁प्रको	-8070
▁मौर्य	-8071
▁128	-8072
▁एंज	-8073
▁दायित्व	-8074
स्टल	-8075
▁कैंडिडेट	-8076
▁किराए	-8077
▁मेकअप	-8078
▁रौ	-8079
ृत्त	-8080
▁विराज	-8081
▁योजनाएं	-8082
▁बीस	-8083
▁एंटर	-8084
▁चौथी	-8085
▁वैज्ञानिकों	-8086
▁नितिन	-8087
मर्श	-8088
▁वेल	-8089
▁संजू	-8090
▁जायसवाल	-8091
▁धान	-8092
▁प्लेटफार्म	-8093
▁सिक्योरिटी	-8094
▁पोस्टमार्टम	-8095
स्सी	-8096
▁दरों	-8097
▁ऑलराउंड	-8098
▁Election	-8099
▁पौध	-8100
▁हड्ड	-8101
able	-8102
▁तिलक	-8103
▁बहाने	-8104
▁इंफ	-8105
▁उपहार	-8106
▁जरूरतों	-8107
बिट	-8108
▁घो	-8109
▁जना	-8110
▁जाट	-8111
▁अगला	-8112
▁करवाई	-8113
आम	-8114
▁कैप्टन	-8115
प्रति	-8116
▁कैल्	-8117
▁गहरे	-8118
▁रसोई	-8119
▁आरबीआई	-8120
▁जोड़ों	-8121
▁हौ	-8122
शुदा	-8123
▁टमाटर	-8124
▁ऑफिशियल	-8125
दाद	-8126
रीबन	-8127
▁पेंट	-8128
▁भगत	-8129
▁शोक	-8130
जेक्शन	-8131
▁चुनने	-8132
▁विकेटकीपर	-8133
▁फस	-8134
▁जिम	-8135
▁शेट	-8136
▁चलाई	-8137
▁भरोसे	-8138
सम्म	-8139
▁बढ़ेगी	-8140
▁वाजपेयी	-8141
▁रुके	-8142
▁खोजने	-8143
▁अनुवाद	-8144
90	-8145
पह	-8146
भवी	-8147
नेशन	-8148
▁स्ने	-8149
▁फूड्स	-8150
▁मारकर	-8151
▁स्तरी	-8152
▁ज़िंदगी	-8153
टकों	-8154
▁चिराग	-8155
▁तकलीफ	-8156
▁मानो	-8157
▁संभालने	-8158
्ज़	-8159
▁नामों	-8160
▁पहुँचा	-8161
▁स्थलों	-8162
गठ	-8163
▁बदलते	-8164
▁अशु	-8165
▁एसटी	-8166
▁अर्पित	-8167
ta	-8168
जवान	-8169
▁हरि	-8170
▁टीचर	-8171
▁आईएएस	-8172
इं	-8173
धाम	-8174
रित	-8175
▁एटीएम	-8176
▁निपट	-8177
▁एक्सेस	-8178
▁गाड़ियों	-8179
बानी	-8180
mi	-8181
▁ग्ला	-8182
▁राजू	-8183
▁वाणिज्य	-8184
▁क्रू	-8185
▁सौंपी	-8186
▁मुस्कुरा	-8187
▁प्रयागराज	-8188
▁370	-8189
▁अटक	-8190
▁एजु	-8191
▁दुरुस्त	-8192
▁त्रिप	-8193
▁न्यूय	-8194
▁स्तरीय	-8195
▁कोट	-8196
▁मिसाइल	-8197
▁अभ्यर्थी	-8198
▁ऐश्व	-8199
▁पासपोर्ट	-8200
िस्टर	-8201
▁किसे	-8202
▁फैमिली	-8203
▁सब्जियों	-8204
▁Recruitment	-8205
ase	-8206
▁फ़ै	-8207
▁जवाहर	-8208
कांक्षा	-8209
▁ट्रायल	-8210
▁वारदात	-8211
▁लक्षणों	-8212
▁रुका	-8213
▁हानि	-8214
▁गैलेक्सी	-8215
▁बड़	-8216
▁सबकुछ	-8217
द्धा	-8218
▁पठान	-8219
▁सिसोदिया	-8220
▁राघ	-8221
▁संशोधित	-8222
▁शिम	-8223
▁इनको	-8224
uc	-8225
पेक्ष	-8226
ांतिक	-8227
▁एम्स	-8228
ebsite	-8229
▁पीटीआई	-8230
▁बॉन्ड	-8231
▁फायरिंग	-8232
▁सत्तारूढ़	-8233
▁टेक	-8234
▁फोर्स	-8235
▁प्राइमरी	-8236
लीम	-8237
▁फर्स्ट	-8238
▁महिंद्रा	-8239
▁आंटी	-8240
▁कट्टर	-8241
▁स्नातक	-8242
▁रिलेशन	-8243
हाई	-8244
▁लोकप्रियता	-8245
▁57	-8246
▁125	-8247
▁आसार	-8248
▁रांची	-8249
▁देखेंगे	-8250
▁ताज	-8251
▁पाक	-8252
▁जबरन	-8253
▁कमिश्नर	-8254
▁मुजफ्फर	-8255
▁दृढ़	-8256
उड	-8257
ोंग	-8258
▁डालते	-8259
▁पीड़ितों	-8260
▁लड़कियां	-8261
▁किल	-8262
▁मनोहर	-8263
किस्तान	-8264
▁अंध	-8265
▁बारह	-8266
▁कैलोरी	-8267
▁पहलवान	-8268
▁जानवरों	-8269
ge	-8270
शय	-8271
▁खट	-8272
▁टाइट	-8273
▁श्रा	-8274
▁बादाम	-8275
▁रविंद्र	-8276
▁बघ	-8277
टीसी	-8278
ेली	-8279
▁गुर्	-8280
▁श्रीनगर	-8281
▁आरा	-8282
▁धरना	-8283
▁2022:	-8284
▁परिस्थिति	-8285
कॉ	-8286
▁बिज़	-8287
▁पुत	-8288
▁मेला	-8289
▁एंटीऑ	-8290
▁महानि	-8291
▁इंस्पेक्टर	-8292
▁पुलिसकर्मी	-8293
▁मानता	-8294
▁स्वच्छता	-8295
▁85	-8296
सपैठ	-8297
्वयन	-8298
वश	-8299
▁जेपी	-8300
▁नकली	-8301
मिन	-8302
▁बाबर	-8303
▁रहस्य	-8304
चौ	-8305
iness	-8306
▁नायक	-8307
▁पोट	-8308
▁स्थितियों	-8309
म्बा	-8310
▁अतीत	-8311
▁टुकड़े	-8312
▁संतुष्ट	-8313
▁स्थिरता	-8314
दूरी	-8315
▁व्हील	-8316
mp	-8317
▁नील	-8318
▁मंदिरों	-8319
जनों	-8320
ट्टे	-8321
▁इनसे	-8322
▁गि	-8323
▁छुपा	-8324
▁आरसीबी	-8325
ूरती	-8326
▁लाभदायक	-8327
▁बहाल	-8328
▁श्रीराम	-8329
45	-8330
ज्य	-8331
राशि	-8332
▁किस्म	-8333
▁भूकंप	-8334
▁विद्व	-8335
▁कब्ज	-8336
▁रूपए	-8337
क्यूमेंट	-8338
▁गहन	-8339
▁परिजन	-8340
▁67	-8341
▁परिणामस्वरूप	-8342
ियंट	-8343
जेंसी	-8344
प्रकाश	-8345
▁लापता	-8346
▁श्रेयस	-8347
▁कार्यरत	-8348
▁केयर	-8349
▁बेटियों	-8350
▁सैफ	-8351
▁एससी	-8352
▁कस्ट	-8353
▁डेवलप	-8354
▁अवॉर्ड	-8355
▁जोरदार	-8356
▁सर्दियों	-8357
घरों	-8358
▁अनदे	-8359
▁कैल्शियम	-8360
AT	-8361
्वल	-8362
▁दलील	-8363
▁दमदार	-8364
तेश	-8365
ूर्ण	-8366
▁बजर	-8367
बाय	-8368
▁con	-8369
िद्वार	-8370
जियाबाद	-8371
▁कबीर	-8372
▁भूषण	-8373
र्निंग	-8374
▁मूड	-8375
▁सूच	-8376
▁उपन्यास	-8377
▁सीधी	-8378
▁बोल्ड	-8379
▁खरीदारी	-8380
▁एकल	-8381
ौत	-8382
चलित	-8383
▁वास्तु	-8384
▁माध्यमिक	-8385
▁चलना	-8386
वर्धन	-8387
▁पहाड़ी	-8388
▁पूर्णिमा	-8389
▁लाश	-8390
▁अकेला	-8391
▁ईद	-8392
▁इक्	-8393
▁चक्रवर्ती	-8394
ेक्स	-8395
▁क्रे	-8396
साइकिल	-8397
▁पारियों	-8398
एसी	-8399
▁ज़िन्	-8400
▁उपमुख्यमंत्री	-8401
▁2005	-8402
▁परे	-8403
▁अनुभवी	-8404
▁निर्देशित	-8405
▁लकी	-8406
▁कोटा	-8407
▁पाएगा	-8408
▁फुटबॉल	-8409
▁दया	-8410
▁ज़िम्मे	-8411
▁राजेंद्र	-8412
CC	-8413
▁चलो	-8414
▁कश्मीरी	-8415
▁ग्राउंड	-8416
▁स्वयंसे	-8417
▁गाल	-8418
गोल	-8419
शियन	-8420
▁गुरू	-8421
▁अरुणा	-8422
▁मासूम	-8423
▁एके	-8424
▁सौंपा	-8425
▁हथियारों	-8426
▁भोग	-8427
▁समग्र	-8428
▁क्राइम	-8429
▁नग	-8430
ूँगा	-8431
▁दुः	-8432
▁जानती	-8433
▁देवता	-8434
▁भूत	-8435
▁दीर्	-8436
थियों	-8437
स्वती	-8438
▁अंडे	-8439
▁चश्म	-8440
▁निकाली	-8441
▁मथ	-8442
▁जया	-8443
▁अवतार	-8444
▁घटनाक्रम	-8445
IP	-8446
▁नसी	-8447
श्चिक	-8448
ष्टमी	-8449
▁दंगों	-8450
▁कमजोरी	-8451
▁कोतवाली	-8452
▁सदस्यीय	-8453
ग्व	-8454
नीर	-8455
भावना	-8456
▁कर्तव्य	-8457
▁नज़	-8458
▁प्रका	-8459
elhi	-8460
▁बुरे	-8461
▁प्रतिद्व	-8462
▁ग्रेजुए	-8463
▁हकीकत	-8464
▁शेट्टी	-8465
▁चक	-8466
▁दाग	-8467
▁ज्ञापन	-8468
▁बिज़नेस	-8469
ंकार	-8470
▁59	-8471
▁नतीजों	-8472
▁सीरियल	-8473
वंशी	-8474
▁बॉय	-8475
▁सिंघ	-8476
▁खरीदी	-8477
▁मार्गदर्शन	-8478
▁व्यावहारिक	-8479
▁घातक	-8480
▁असरदार	-8481
▁ड्राइविंग	-8482
ऊँ	-8483
▁पूर्वा	-8484
▁ईयर	-8485
▁पड़ोस	-8486
▁66	-8487
क्रोश	-8488
▁घुसपैठ	-8489
ख्त	-8490
दरी	-8491
ोंक	-8492
▁IN	-8493
मुना	-8494
▁एरिया	-8495
▁पीट	-8496
जेक्ट	-8497
छोटे	-8498
▁कैफ	-8499
▁वॉल	-8500
▁https	-8501
▁मांगों	-8502
पण	-8503
▁Up	-8504
▁देओल	-8505
▁सोनू	-8506
पत्	-8507
▁प्रदीप	-8508
णवी	-8509
▁सदर	-8510
▁बंदर	-8511
▁हानिक	-8512
▁hindi	-8513
▁पंचांग	-8514
ED	-8515
थन	-8516
रह	-8517
▁सिरे	-8518
▁वर्षा	-8519
▁म्यूजिक	-8520
▁इन्वेस्ट	-8521
सिस	-8522
▁बहू	-8523
▁गिनती	-8524
▁माफिया	-8525
▁हरिद्वार	-8526
▁Sam	-8527
▁केम	-8528
▁पॉपुलर	-8529
▁प्राथमिकी	-8530
▁घटाने	-8531
दमी	-8532
▁दूंगा	-8533
▁अपनाने	-8534
द्री	-8535
▁भड़क	-8536
▁युवकों	-8537
▁रखेंगे	-8538
लिये	-8539
▁तेज़	-8540
▁किंतु	-8541
▁भाइयों	-8542
MS	-8543
थाम	-8544
▁बिर	-8545
▁सामु	-8546
▁अनुशासन	-8547
▁रिश्तेदार	-8548
app	-8549
्टा	-8550
र्की	-8551
▁प्रजा	-8552
▁व्हाट्सएप	-8553
ell	-8554
ंगली	-8555
▁नवरात्रि	-8556
▁भास्कर	-8557
ाइज	-8558
▁इको	-8559
▁दुआ	-8560
▁खोले	-8561
▁लेगा	-8562
▁मानसून	-8563
ट्टा	-8564
usiness	-8565
▁जादू	-8566
▁बाधित	-8567
▁डिमांड	-8568
अंदाज	-8569
▁बयानों	-8570
▁दर्शाता	-8571
IR	-8572
▁वृश्चिक	-8573
▁असह	-8574
▁Whats	-8575
▁एशियाई	-8576
दायी	-8577
▁परिणामों	-8578
▁गाजियाबाद	-8579
▁Singh	-8580
िटल्स	-8581
▁केन्द	-8582
▁सरदार	-8583
▁आवंटित	-8584
35	-8585
▁आलोक	-8586
▁उल्ट	-8587
▁पढ़ते	-8588
शिता	-8589
▁भ्रम	-8590
▁वसूली	-8591
ेशनल	-8592
▁जेब	-8593
▁सोल	-8594
▁लौटे	-8595
▁बताएं	-8596
▁हानिकारक	-8597
▁माफ	-8598
▁सस्प	-8599
mit	-8600
▁गली	-8601
▁मसल	-8602
▁कैटे	-8603
▁रणनीतिक	-8604
▁सरकारें	-8605
एनजी	-8606
▁चाइ	-8607
▁वर्जन	-8608
▁जनगणना	-8609
▁उपभोक्ताओं	-8610
▁झलक	-8611
▁गाँधी	-8612
▁समानता	-8613
▁अड्डे	-8614
डेन	-8615
▁बैलेंस	-8616
▁गज	-8617
फोड़	-8618
▁निवार	-8619
▁हार्ड	-8620
ert	-8621
▁बीपी	-8622
▁पॉइंट	-8623
▁उर्दू	-8624
▁सहयोगियों	-8625
▁नॉन	-8626
▁कामयाबी	-8627
▁मय	-8628
▁छान	-8629
▁भेंट	-8630
▁बिलियन	-8631
िनल	-8632
▁कटा	-8633
▁टीके	-8634
▁भावुक	-8635
▁छठे	-8636
▁निया	-8637
▁ट्रैक्टर	-8638
▁महत्त्वपूर्ण	-8639
▁गिरी	-8640
▁संयोग	-8641
▁चन्द्र	-8642
▁चंद्रशेखर	-8643
▁2004	-8644
▁माला	-8645
▁लगीं	-8646
मपुर	-8647
ौड़	-8648
▁आड	-8649
हेज	-8650
ुलेंस	-8651
▁वृक्ष	-8652
▁विक्रे	-8653
▁सिंधिया	-8654
▁स्थानांतरित	-8655
ष्ठा	-8656
लेश	-8657
▁ढा	-8658
▁असं	-8659
▁वेद	-8660
▁इंद्र	-8661
▁चुनें	-8662
▁पहुंचकर	-8663
▁आक	-8664
▁तप	-8665
▁And	-8666
▁एजें	-8667
▁अख्तर	-8668
▁रॉयल्स	-8669
▁उग्र	-8670
▁निजात	-8671
▁गुलाम	-8672
▁सुपरस्टार	-8673
▁क्लीन	-8674
▁बेरोजगार	-8675
▁अभिव्यक्ति	-8676
ल्ली	-8677
▁वीक	-8678
▁समृद्ध	-8679
▁देवेंद्र	-8680
▁बॉल	-8681
▁सबक	-8682
▁हेली	-8683
▁स्टडी	-8684
बोर्ड	-8685
▁अनाव	-8686
▁पुनः	-8687
▁ड्राई	-8688
तला	-8689
▁सतह	-8690
▁अगुवाई	-8691
▁ऑलराउंडर	-8692
ign	-8693
▁सरस्वती	-8694
सेल	-8695
▁डिल	-8696
▁स्कैन	-8697
▁मजेदार	-8698
फुल	-8699
▁अंतरिम	-8700
▁दोषियों	-8701
▁आलम	-8702
▁खुफिया	-8703
▁सेव	-8704
▁राजनाथ	-8705
ूंगी	-8706
कौन	-8707
▁भीषण	-8708
▁लहसुन	-8709
▁हैरानी	-8710
दिव	-8711
▁हेल्प	-8712
▁तकरीबन	-8713
▁फू	-8714
▁रम	-8715
हमने	-8716
▁केन्द्रीय	-8717
▁कस्	-8718
▁पांचवें	-8719
▁यूए	-8720
▁कॉर्प	-8721
▁मानसिकता	-8722
▁अग्नि	-8723
▁उत्तम	-8724
▁फूलों	-8725
▁दुरुपयोग	-8726
ashi	-8727
▁बताएंगे	-8728
▁राजमार्ग	-8729
ऊं	-8730
▁कूल	-8731
▁विराजमान	-8732
▁आंसू	-8733
▁शिवा	-8734
▁रहमान	-8735
▁घाय	-8736
▁मोटरसाइकिल	-8737
ube	-8738
▁ओपनर	-8739
▁सम्बंध	-8740
चित्र	-8741
ेंशियल	-8742
▁डिबेट	-8743
▁कुमारी	-8744
▁जमाने	-8745
▁पहाड़	-8746
erv	-8747
▁सिंगर	-8748
▁नीलामी	-8749
▁99	-8750
▁बाँ	-8751
र्देश	-8752
▁भीम	-8753
फॉ	-8754
▁खड़	-8755
▁गणित	-8756
▁भक्तों	-8757
ens	-8758
▁कंटेंट	-8759
▁टच	-8760
▁वर्णन	-8761
▁रजिस्टर	-8762
जली	-8763
ाइजी	-8764
▁किट	-8765
▁भंग	-8766
▁परिवर्त	-8767
▁बैक्टीरिया	-8768
ोरेशन	-8769
बुल	-8770
धारणा	-8771
▁ध्रु	-8772
▁वीजा	-8773
▁iPhone	-8774
ोटा	-8775
▁छुट्ट	-8776
iss	-8777
▁उभ	-8778
्लाई	-8779
▁नाते	-8780
▁बघेल	-8781
सेन	-8782
▁मांसपेशियों	-8783
▁2002	-8784
▁बंधन	-8785
▁श्रद्धांजलि	-8786
लभ	-8787
▁साधना	-8788
▁बनेंगे	-8789
▁लाठी	-8790
▁मिक्स	-8791
▁व्याख्या	-8792
रेगा	-8793
▁अल्ट्रा	-8794
▁आरक्षित	-8795
▁वेरियंट	-8796
▁धीर	-8797
▁तरफ़	-8798
▁धक्का	-8799
▁बढ़ाना	-8800
ऐप	-8801
शोर	-8802
▁मुआवजा	-8803
श्योरेंस	-8804
▁यार	-8805
▁जातियों	-8806
▁राइट	-8807
▁केदार	-8808
क्य	-8809
▁ज़िन्दगी	-8810
▁गुन	-8811
▁जलन	-8812
▁अनो	-8813
▁डेम	-8814
▁लैस	-8815
▁फुटेज	-8816
▁अनियमित	-8817
▁क्रिप्टो	-8818
▁ब्राउ	-8819
▁अस्थायी	-8820
कास्ट	-8821
▁कामना	-8822
▁चिन्ह	-8823
▁क्रीम	-8824
र्जन	-8825
▁लांच	-8826
▁सतीश	-8827
सप्रीत	-8828
▁गिरोह	-8829
▁प्रकाशन	-8830
शैली	-8831
▁Pol	-8832
▁असा	-8833
▁आसन	-8834
▁Bank	-8835
डीए	-8836
बहुत	-8837
▁बृज	-8838
▁भागने	-8839
▁सिंचाई	-8840
▁गृहमंत्री	-8841
▁खरा	-8842
▁दार	-8843
▁अत्याचार	-8844
▁गाली	-8845
िस्तान	-8846
फिल	-8847
ॉप्टर	-8848
▁प्रसारित	-8849
▁मदर	-8850
▁पीना	-8851
▁69	-8852
▁5000	-8853
▁जानबू	-8854
▁फ्लिप	-8855
▁पश्चात	-8856
▁प्रोत्साहन	-8857
▁Bo	-8858
ायें	-8859
▁दिश	-8860
▁बारा	-8861
▁आक्रोश	-8862
▁सीमाओं	-8863
▁सपनों	-8864
लाभ	-8865
▁अन्न	-8866
▁पेशाब	-8867
▁नजरअंदाज	-8868
eal	-8869
▁कूद	-8870
▁गेम्स	-8871
▁नवीनतम	-8872
▁घायलों	-8873
▁जोड़कर	-8874
▁रेश	-8875
▁परहेज	-8876
▁प्रॉप	-8877
▁सोचना	-8878
▁श्रीमती	-8879
▁झड़प	-8880
▁मारी	-8881
ung	-8882
▁बर्तन	-8883
▁कैला	-8884
▁चाली	-8885
विटी	-8886
▁फीट	-8887
▁बहि	-8888
▁जनजाति	-8889
▁कांस्टेबल	-8890
▁प्रतीत	-8891
▁प्राइस	-8892
▁आंव	-8893
▁टार	-8894
▁केके	-8895
▁दिखती	-8896
▁प्रेग्न	-8897
MI	-8898
▁y	-8899
यर्स	-8900
▁अतिक	-8901
▁कक्ष	-8902
▁अनुपात	-8903
▁खूबसूरती	-8904
चढ़ा	-8905
निस्ट	-8906
▁जहाज	-8907
र्नल	-8908
▁गर्मियों	-8909
nic	-8910
मंडल	-8911
यिक	-8912
▁Jio	-8913
स्टेट	-8914
▁स्वीकृति	-8915
बै	-8916
tern	-8917
▁फेर	-8918
▁मसले	-8919
▁मीना	-8920
▁निर्देशों	-8921
▁महंगा	-8922
▁त्रिपुरा	-8923
▁टूर	-8924
▁अहसास	-8925
▁आवेदक	-8926
▁बगल	-8927
▁क्यो	-8928
▁मस्त	-8929
-6	-8930
बॉक्स	-8931
▁सुखद	-8932
▁निदेशालय	-8933
िंगर	-8934
▁Ass	-8935
▁चहल	-8936
क्रमण	-8937
▁बसों	-8938
▁हटाया	-8939
▁एजुकेशन	-8940
▁जसप्रीत	-8941
▁छात्राओं	-8942
निर	-8943
▁62	-8944
▁कन्न	-8945
▁सुहा	-8946
▁सुशील	-8947
▁निकालकर	-8948
▁गोलीबारी	-8949
नीत	-8950
▁2006	-8951
▁गिफ्ट	-8952
▁नृत्य	-8953
पोषण	-8954
क्ष्म	-8955
▁शीर्षक	-8956
नव	-8957
▁अजित	-8958
▁आंगन	-8959
▁बर्थ	-8960
-10	-8961
▁Pay	-8962
▁रजत	-8963
▁बेकार	-8964
▁मतभेद	-8965
▁साधते	-8966
▁वर्गों	-8967
ual	-8968
▁सहारे	-8969
▁रिएक्शन	-8970
ईई	-8971
ंगुली	-8972
▁वैकल्प	-8973
▁कैपिटल्स	-8974
ire	-8975
ंगत	-8976
▁मले	-8977
▁स्तन	-8978
▁दावों	-8979
निस	-8980
▁कृत	-8981
,500	-8982
▁वैकल्पिक	-8983
▁लघु	-8984
▁कॉले	-8985
▁पृष्ठभूमि	-8986
हाइड	-8987
नैतिक	-8988
▁समापन	-8989
▁द्वितीय	-8990
▁मार्क्स	-8991
ोत्तर	-8992
▁ख़ुशी	-8993
दित्य	-8994
▁थर	-8995
▁अमल	-8996
▁मील	-8997
▁शता	-8998
▁सम्प	-8999
▁कालेज	-9000
ल्डर	-9001
▁दोनो	-9002
▁निगाह	-9003
▁पढ़ना	-9004
▁अवधारणा	-9005
▁उत्साहित	-9006
▁68	-9007
▁सक्	-9008
▁अपराधों	-9009
▁अभ्यर्थियों	-9010
▁फसलों	-9011
▁कीमतें	-9012
पीए	-9013
▁Real	-9014
▁इमेज	-9015
गठबंधन	-9016
▁हराकर	-9017
▁वस्त्र	-9018
▁सत्यापन	-9019
▁..	-9020
▁डायल	-9021
▁प्रश्	-9022
▁श्रेष्ठ	-9023
▁प्रावधानों	-9024
WE	-9025
▁डब्ल्यू	-9026
▁फेफ	-9027
▁वाणी	-9028
▁रोमांचक	-9029
▁भरत	-9030
▁टैंक	-9031
▁न्यूयॉर्क	-9032
▁वादे	-9033
▁एयरटेल	-9034
्यार	-9035
▁सेलि	-9036
▁स्मिथ	-9037
▁रिलीज़	-9038
इयां	-9039
न्ने	-9040
▁बकाया	-9041
▁मथुरा	-9042
▁सार्थ	-9043
▁63	-9044
▁AM	-9045
ख्यात	-9046
▁आयरन	-9047
▁नुस्	-9048
EO	-9049
्रेसी	-9050
▁त्वर	-9051
▁रग	-9052
बर्ग	-9053
▁सीएस	-9054
▁कोयला	-9055
▁अवसरों	-9056
▁छेड़छाड़	-9057
▁प्रॉपर्टी	-9058
गाई	-9059
गाव	-9060
▁सूख	-9061
न्त्र	-9062
▁सौंद	-9063
▁धाराओं	-9064
▁मजदूरी	-9065
▁नौकरियों	-9066
▁प्रतीक्षा	-9067
▁ईसाई	-9068
▁मधुर	-9069
▁टाइगर	-9070
▁बिल्डिंग	-9071
na	-9072
निर्भर	-9073
▁हलफना	-9074
ोषित	-9075
्लील	-9076
▁ड्रग्स	-9077
▁एल्	-9078
▁राठ	-9079
▁गम	-9080
▁अनुदान	-9081
▁तथ्यों	-9082
▁प्रैक्ट	-9083
▁सख्ती	-9084
▁चर्चित	-9085
नायक	-9086
▁सद्	-9087
कार्ट	-9088
▁Shar	-9089
▁ऑस्ट्रेलियाई	-9090
▁गियर	-9091
▁मौतों	-9092
▁पंड्या	-9093
▁गड़बड़ी	-9094
▁महानिदेशक	-9095
▁सॉल	-9096
▁मानद	-9097
▁मुकदमे	-9098
pur	-9099
ंबा	-9100
▁उछाल	-9101
▁पुण्य	-9102
▁लौटा	-9103
▁गंदगी	-9104
▁रुपया	-9105
▁बढ़ाते	-9106
चू	-9107
फेक्शन	-9108
▁डाक्टर	-9109
▁मिलाएं	-9110
▁प्रतिस्पर्धा	-9111
▁स्पेसिफिकेशन	-9112
टकी	-9113
ासंगिक	-9114
▁दक्षिणी	-9115
ुद्दीन	-9116
▁प्रथा	-9117
▁बृहस्पतिवार	-9118
ोत	-9119
App	-9120
▁प्रवर्तन	-9121
▁टकराव	-9122
▁प्रशंस	-9123
▁अफ़	-9124
ence	-9125
▁रैंक	-9126
▁आब	-9127
▁गांगुली	-9128
▁निर्दलीय	-9129
▁CO	-9130
▁असंत	-9131
▁मुसी	-9132
▁किसने	-9133
▁रात्रि	-9134
शाही	-9135
▁ऊंची	-9136
ूबी	-9137
▁डां	-9138
▁त्वरित	-9139
,'	-9140
ैनी	-9141
▁पंजाबी	-9142
णीय	-9143
िकरण	-9144
▁किराया	-9145
प्लिकेशन	-9146
AR	-9147
▁कड़े	-9148
▁घटनास्थल	-9149
▁मौलिक	-9150
जहां	-9151
सेक्स	-9152
ोत्तम	-9153
▁पड़ते	-9154
▁अर्जित	-9155
▁उठे	-9156
▁बजाज	-9157
▁फोटोग्रा	-9158
▁इंश्योरेंस	-9159
▁6.	-9160
ुलिन	-9161
▁दीं	-9162
▁दवाई	-9163
▁अतिक्रमण	-9164
▁निर्मला	-9165
▁अनिश्चित	-9166
▁सेल्सियस	-9167
जाब	-9168
स्करी	-9169
▁फिल्मी	-9170
▁विश्वविद्यालयों	-9171
मंड	-9172
▁ग्रोथ	-9173
▁सस्ते	-9174
odi	-9175
्वाल	-9176
▁झुक	-9177
▁सस्ती	-9178
▁टारगेट	-9179
म्र	-9180
सें	-9181
▁उज	-9182
▁गर्भाव	-9183
ph	-9184
▁पंप	-9185
▁सूबे	-9186
▁ऐश्वर्या	-9187
▁क्वालिटी	-9188
▁प्रोडक्शन	-9189
णों	-9190
बड़ी	-9191
obile	-9192
▁बेबी	-9193
▁प्रदेशों	-9194
ani	-9195
एचडी	-9196
▁अजीत	-9197
▁राशिद	-9198
▁सुनाया	-9199
▁पका	-9200
▁बैच	-9201
▁प्रबंधक	-9202
1,	-9203
▁कॉमेडी	-9204
▁संवाददाता	-9205
ld	-9206
श्यप	-9207
▁सील	-9208
▁सावन	-9209
▁सस्ता	-9210
▁गोलियां	-9211
▁पार्किंग	-9212
26	-9213
ँग	-9214
जिकल	-9215
▁95	-9216
▁चार्	-9217
▁ज़िले	-9218
▁कमलनाथ	-9219
ानिर्देश	-9220
75	-9221
▁जर्	-9222
▁नागपुर	-9223
▁डॉक्यूमेंट	-9224
ंपल	-9225
ल्तान	-9226
▁पाइप	-9227
▁शिमला	-9228
▁स्टील	-9229
sh	-9230
▁इटली	-9231
▁लिखना	-9232
राबरी	-9233
▁नौजवान	-9234
▁ऊपरी	-9235
थित	-9236
▁उबाल	-9237
▁एसबीआई	-9238
▁गुड	-9239
▁मैथ	-9240
▁पाकर	-9241
▁लक्ष्यों	-9242
िकासी	-9243
▁सूखे	-9244
किस	-9245
▁अप्लाई	-9246
▁Ar	-9247
▁सौदा	-9248
▁परवाह	-9249
▁इस्तीफे	-9250
▁प्रांत	-9251
▁तैयारियों	-9252
cope	-9253
▁खेतों	-9254
▁दिशानिर्देश	-9255
ोजर	-9256
▁पाँच	-9257
▁बेचा	-9258
▁पौधों	-9259
▁मैनु	-9260
▁स्क्	-9261
▁मिठाई	-9262
▁नदियों	-9263
▁आयुर्वेदिक	-9264
▁फेड	-9265
▁दुष्कर्म	-9266
▁लाइफस्टाइल	-9267
▁यथ	-9268
ific	-9269
चालित	-9270
▁अंकित	-9271
▁दीर्घ	-9272
ैव	-9273
▁पद्म	-9274
▁बुलंद	-9275
▁लड़कों	-9276
▁सबकी	-9277
▁गिलास	-9278
▁नमी	-9279
▁जदयू	-9280
▁अवार्ड	-9281
▁आइये	-9282
sc	-9283
▁खाया	-9284
▁जिनको	-9285
▁आदिवासियों	-9286
▁गत	-9287
देवी	-9288
▁IPL	-9289
क्षिक	-9290
शीलता	-9291
▁मंजिल	-9292
▁एलो	-9293
▁मोर	-9294
▁अश्लील	-9295
▁एडमिशन	-9296
ihar	-9297
▁छाप	-9298
▁अन्ना	-9299
▁लम्बे	-9300
▁पात्रता	-9301
!"	-9302
▁वाकई	-9303
▁खांसी	-9304
▁तालाब	-9305
▁दिलाई	-9306
▁बस्ती	-9307
▁जेडीयू	-9308
▁इंडेक्स	-9309
मय	-9310
▁शाहिद	-9311
हू	-9312
शिव	-9313
▁भंडार	-9314
▁रिचार्ज	-9315
▁किलोग्राम	-9316
▁गर्भावस्था	-9317
सरत	-9318
दर्द	-9319
्वित	-9320
गेटिव	-9321
▁घंटा	-9322
▁रोकथाम	-9323
▁मांस	-9324
▁पहलुओं	-9325
▁लाह	-9326
▁गौरी	-9327
▁उठने	-9328
▁राउत	-9329
▁जानवर	-9330
▁अरो	-9331
▁उठी	-9332
▁पीसी	-9333
▁विनय	-9334
▁सीआर	-9335
▁चिह्न	-9336
▁सौभाग्य	-9337
राइ	-9338
▁जेटली	-9339
▁2.5	-9340
▁गंग	-9341
मंत्र	-9342
ियर्स	-9343
▁चयनित	-9344
▁प्रवी	-9345
▁टेलीविजन	-9346
ple	-9347
्हन	-9348
▁खन	-9349
▁वसा	-9350
of	-9351
ojana	-9352
▁पुरी	-9353
▁लेफ्ट	-9354
तरह	-9355
▁Hor	-9356
▁माओ	-9357
▁मोटापा	-9358
▁साहू	-9359
▁ईएमआई	-9360
mAh	-9361
्वत	-9362
▁वय	-9363
चालन	-9364
▁कांड	-9365
▁di	-9366
▁झूठे	-9367
▁टकरा	-9368
▁शिल्	-9369
▁एसडीएम	-9370
▁खरीदते	-9371
कसा	-9372
▁पद्ध	-9373
▁बेशक	-9374
▁उतरने	-9375
▁रंगों	-9376
AS	-9377
▁बदनाम	-9378
▁क़ानून	-9379
▁किताबें	-9380
▁उपलब्धता	-9381
▁चलकर	-9382
▁उंगली	-9383
.''	-9384
जील	-9385
▁खानपान	-9386
▁मोर्चे	-9387
▁दिलचस्पी	-9388
▁बर्दाश्त	-9389
ेशनों	-9390
▁कॉम्	-9391
▁तलाशी	-9392
स्क्रीन	-9393
ome	-9394
हमें	-9395
▁महल	-9396
▁महागठबंधन	-9397
▁बदमाशों	-9398
▁अंग्रेजों	-9399
बूत	-9400
▁नीम	-9401
▁चुप्पी	-9402
▁टैबलेट	-9403
▁77	-9404
चुरल	-9405
▁अवश	-9406
▁गला	-9407
▁पीएस	-9408
▁जूते	-9409
▁दुःख	-9410
▁स्लॉट	-9411
▁श्रद्धालुओं	-9412
▁भटक	-9413
विचार	-9414
▁सियासत	-9415
33	-9416
▁पीक	-9417
▁बैंड	-9418
▁सिराज	-9419
▁दशा	-9420
▁टूल	-9421
▁कंधे	-9422
▁आईफोन	-9423
▁पीरिय	-9424
एफसी	-9425
ption	-9426
▁बायो	-9427
▁आरजेडी	-9428
▁सामुदायिक	-9429
dian	-9430
▁उलट	-9431
▁जौहर	-9432
▁is	-9433
▁गवर्नर	-9434
▁दिखाता	-9435
माया	-9436
▁पटा	-9437
ष्मान	-9438
▁तुझे	-9439
▁आवंटन	-9440
▁जेएनयू	-9441
▁तस्करी	-9442
▁कैटेगरी	-9443
▁वकीलों	-9444
▁नास	-9445
▁सीजे	-9446
्हा	-9447
ष्का	-9448
twitter	-9449
बिया	-9450
्वाइंट	-9451
▁इसलिये	-9452
▁शेड्यूल	-9453
एगी	-9454
port	-9455
oscope	-9456
▁सीने	-9457
▁सूक्ष्म	-9458
▁राजनैतिक	-9459
▁उत्ते	-9460
▁बढ़ना	-9461
स्पद	-9462
▁आएं	-9463
▁बहनों	-9464
▁रियलमी	-9465
▁उद्योगों	-9466
ांतों	-9467
▁बवाल	-9468
▁दिलाया	-9469
▁हमलावर	-9470
▁गोस्वामी	-9471
कला	-9472
▁लाकर	-9473
▁निकासी	-9474
▁सिनेमाघरों	-9475
▁Un	-9476
▁देसी	-9477
▁जनहित	-9478
▁चिट्ठी	-9479
▁नंद	-9480
▁आश्व	-9481
▁कारा	-9482
▁रेस्ट	-9483
▁कॉलेजों	-9484
▁दीक्षित	-9485
स्टिव	-9486
▁महंगे	-9487
▁हिमाल	-9488
▁युवराज	-9489
▁व्यापारिक	-9490
▁आवश्यकताओं	-9491
▁कोरोनावायरस	-9492
▁कुलपति	-9493
▁मृतकों	-9494
▁आचार	-9495
▁अधिग्रहण	-9496
रेख	-9497
वाड़ी	-9498
▁साहिब	-9499
▁वितरित	-9500
▁लक्ष्मण	-9501
▁रावण	-9502
▁लिहाजा	-9503
▁यमुना	-9504
▁आभार	-9505
▁बनार	-9506
▁बिताने	-9507
▁प्रतिनिधियों	-9508
▁कम्	-9509
▁मैक	-9510
▁ब्रांच	-9511
▁78	-9512
▁जनसभा	-9513
▁भागवत	-9514
▁तैनाती	-9515
▁ऋतु	-9516
▁जुटी	-9517
▁बुलेट	-9518
▁सीतारमण	-9519
एचओ	-9520
▁पाटिल	-9521
▁विदेशों	-9522
▁सब्सक्र	-9523
▁ग्रंथ	-9524
▁अकादमी	-9525
हिया	-9526
▁pic	-9527
▁कॉमन	-9528
▁74	-9529
▁इमो	-9530
▁कपल	-9531
▁कूट	-9532
▁तड़	-9533
▁जताते	-9534
▁बढ़ाता	-9535
▁कंटेस्ट	-9536
लॉ	-9537
▁आइडिया	-9538
▁आज़ादी	-9539
▁धनराशि	-9540
आधार	-9541
▁एमबी	-9542
▁चौथा	-9543
▁एक्सपर्ट्स	-9544
▁कश्यप	-9545
▁प्रिया	-9546
सागर	-9547
▁रजनी	-9548
▁पूछते	-9549
▁अरुणाचल	-9550
▁73	-9551
▁टोल	-9552
▁जुटे	-9553
▁देवगन	-9554
▁ससुराल	-9555
रियल	-9556
▁वॉट	-9557
▁इंकार	-9558
▁कैलाश	-9559
▁मस्ती	-9560
▁मरम्मत	-9561
▁उधार	-9562
▁प्रोफाइल	-9563
लीन	-9564
सिल	-9565
णवीस	-9566
▁पान	-9567
▁रिम	-9568
▁अर्चना	-9569
▁बाघ	-9570
▁मुर्	-9571
▁कम्पनी	-9572
▁निकाले	-9573
▁पार्षद	-9574
▁संवेदना	-9575
्ति	-9576
▁तोह	-9577
▁बरसात	-9578
▁76	-9579
▁एंब	-9580
▁नींव	-9581
▁दिग्व	-9582
▁कॉलोनी	-9583
▁बूब	-9584
▁केशव	-9585
▁फ्रेंड	-9586
▁बराबरी	-9587
▁सातवें	-9588
▁चाकू	-9589
▁बाइन	-9590
▁कोशिकाओं	-9591
▁न्यायपालिका	-9592
ूथ	-9593
▁मैग्	-9594
▁ग्राफ	-9595
▁सशस्त्र	-9596
ond	-9597
र्वे	-9598
▁मोटी	-9599
▁Day	-9600
▁हत्याकांड	-9601
▁शत	-9602
▁उठकर	-9603
▁विविधता	-9604
ंडन	-9605
ंडर	-9606
▁किले	-9607
▁उन्नत	-9608
▁धमाके	-9609
▁मानवता	-9610
दनी	-9611
राइड	-9612
▁सिग	-9613
▁क्रूर	-9614
ल्हा	-9615
▁शशि	-9616
▁बनवा	-9617
▁बोलना	-9618
▁संप्र	-9619
IT	-9620
:00	-9621
एनएस	-9622
प्ला	-9623
▁प्रमाणित	-9624
▁राग	-9625
हमारे	-9626
▁ताना	-9627
र्चर	-9628
▁अपनाया	-9629
▁उपज	-9630
▁ऐप्स	-9631
▁पैरा	-9632
▁राजकीय	-9633
▁दबाने	-9634
▁बाइनरी	-9635
▁Horoscope	-9636
▁पेन	-9637
▁सेब	-9638
▁आपत्तिजनक	-9639
सिम	-9640
▁उकसा	-9641
▁उदार	-9642
▁Video	-9643
ौदा	-9644
्ढा	-9645
▁अशुभ	-9646
▁कसा	-9647
कुम	-9648
परा	-9649
▁दिखी	-9650
▁बीवी	-9651
▁आईपीएस	-9652
▁समीकरण	-9653
▁शैक्षिक	-9654
ॉइड	-9655
▁84	-9656
्वती	-9657
▁फैटी	-9658
विड़	-9659
▁रसाय	-9660
▁लॉस	-9661
ब्रे	-9662
▁पिला	-9663
▁पट्टी	-9664
▁फिन	-9665
▁मैट	-9666
▁फैलने	-9667
▁बेसिक	-9668
▁उमेश	-9669
▁बाथर	-9670
▁नड्डा	-9671
हद	-9672
100	-9673
▁ka	-9674
▁तुर्की	-9675
▁फ्लिपकार्ट	-9676
ith	-9677
िजय	-9678
▁लोकल	-9679
▁इंसुलिन	-9680
▁हफ्त	-9681
▁बजरंग	-9682
▁ईमानदार	-9683
चारा	-9684
▁गडकरी	-9685
▁गरिमा	-9686
▁विलियम	-9687
▁शरीफ	-9688
नेश्वर	-9689
▁निर्माताओं	-9690
▁इज़	-9691
▁पों	-9692
क्षीय	-9693
▁चर्च	-9694
▁डुअल	-9695
▁तब्दी	-9696
▁निश्च	-9697
▁प्रतिबद्धता	-9698
▁पड	-9699
नामा	-9700
▁ऑपरेट	-9701
▁चौंकाने	-9702
ूफ	-9703
▁टु	-9704
▁एएन	-9705
▁दिखते	-9706
▁नाज	-9707
▁रहेंगी	-9708
ज़ल	-9709
धीर	-9710
▁बादशाह	-9711
डन	-9712
िडेंट	-9713
▁WWE	-9714
▁मानकों	-9715
▁बूथ	-9716
▁बताओ	-9717
▁प्रश्नों	-9718
▁Red	-9719
▁तूफान	-9720
▁समुद्री	-9721
▁फरी	-9722
▁वां	-9723
चढ़ाव	-9724
पोरेट	-9725
▁युति	-9726
र्मेंस	-9727
▁मैनुअल	-9728
▁समझाने	-9729
बोट	-9730
ंजलि	-9731
जिस्ट	-9732
▁प्रकोप	-9733
▁आत्मनिर्भर	-9734
कांक	-9735
▁अस्वी	-9736
▁वैल्यू	-9737
▁हफ्तों	-9738
▁2003	-9739
▁प्रोटोक	-9740
▁क्रोध	-9741
▁उत्सुक	-9742
▁मौलाना	-9743
घाट	-9744
ांकित	-9745
▁आख़	-9746
▁इंतज़ार	-9747
विन	-9748
cess	-9749
▁जानकर	-9750
▁सार्थक	-9751
उन्होंने	-9752
घात	-9753
ल्फ	-9754
▁दिना	-9755
▁बाएं	-9756
▁सिंद	-9757
▁चेतना	-9758
बाग	-9759
तोड़	-9760
▁मल्ल	-9761
▁यशस्वी	-9762
PS	-9763
dit	-9764
▁उबर	-9765
मित्व	-9766
▁देशभ	-9767
▁पलायन	-9768
▁बॉम्बे	-9769
▁आयुष्मान	-9770
▁रिश्तेदारों	-9771
पाही	-9772
▁जनरेट	-9773
▁शिकायतों	-9774
र्पण	-9775
ंत्रण	-9776
▁ग्वाल	-9777
▁रिश्वत	-9778
▁शिर	-9779
▁जोकि	-9780
▁झुका	-9781
▁नकदी	-9782
▁सैनी	-9783
▁असमर्थ	-9784
▁जुड़ने	-9785
▁शिकायतें	-9786
▁पाये	-9787
ational	-9788
▁बाथरूम	-9789
▁प्रतिद्वंद	-9790
CB	-9791
▁(5	-9792
▁Mot	-9793
▁कागज	-9794
▁नारी	-9795
नाइटेड	-9796
▁निकलते	-9797
▁पिछड़ा	-9798
काउ	-9799
▁कमाए	-9800
▁ब्लॉ	-9801
▁टूटने	-9802
▁प्रताड़	-9803
▁फैक्ट्री	-9804
▁जजों	-9805
▁जातीय	-9806
▁शांतिपूर्ण	-9807
▁वैर	-9808
▁द्वि	-9809
▁स्टेशनों	-9810
कानूनी	-9811
▁इरादा	-9812
▁समन्वय	-9813
▁विश्लेष	-9814
▁उपाध्याय	-9815
ood	-9816
▁पिन	-9817
प्पू	-9818
▁अकबर	-9819
▁संयोजक	-9820
▁सूचकांक	-9821
▁स्वचालित	-9822
.)	-9823
▁(4	-9824
ान्य	-9825
▁नमाज	-9826
▁मालिश	-9827
▁दिग्विजय	-9828
▁झगड़ा	-9829
िएटर	-9830
▁ललित	-9831
▁Raj	-9832
▁सैमसन	-9833
▁हड्डियों	-9834
रोक्त	-9835
▁उनपर	-9836
▁शाही	-9837
▁कपड़ा	-9838
:5	-9839
वारे	-9840
▁महोत्सव	-9841
िं	-9842
▁उलझ	-9843
▁पदो	-9844
▁नॉर्म	-9845
▁अस्थिर	-9846
▁सूट	-9847
▁निभाया	-9848
कार्ड	-9849
साइटी	-9850
▁किताबों	-9851
▁कीं	-9852
▁जगा	-9853
▁Realme	-9854
▁माननीय	-9855
OS	-9856
▁जहर	-9857
▁सान	-9858
▁Blog	-9859
▁हंसी	-9860
▁अवकाश	-9861
▁पर्दा	-9862
▁रिकार्ड	-9863
कपा	-9864
▁बूब्स	-9865
िणी	-9866
वण	-9867
▁सोनम	-9868
▁2025:	-9869
▁चाहेंगे	-9870
डीओ	-9871
सनी	-9872
▁मौतें	-9873
ुद्ध	-9874
▁सब्जियां	-9875
पीठ	-9876
▁Off	-9877
▁संभल	-9878
ali	-9879
▁डिस	-9880
▁मसू	-9881
▁जमीनी	-9882
▁वाशिंगटन	-9883
▁महंगी	-9884
ैगन	-9885
▁अमन	-9886
▁लड़े	-9887
▁जितेंद्र	-9888
नान	-9889
▁निवारण	-9890
!!	-9891
ौरी	-9892
दर्श	-9893
▁एसएसपी	-9894
▁प्रवीण	-9895
▁दुकानें	-9896
▁परेशानियां	-9897
▁एनएम	-9898
▁सुजु	-9899
▁उन्हे	-9900
▁हेमंत	-9901
▁करवाना	-9902
▁सनराइज	-9903
▁कांट	-9904
▁Online	-9905
पार	-9906
बास	-9907
▁05	-9908
▁चो	-9909
▁मृ	-9910
▁एनआईए	-9911
▁कहानियों	-9912
लाने	-9913
▁गुम	-9914
व्यापी	-9915
▁बदलना	-9916
▁छोड़ना	-9917
▁परिभाषा	-9918
▁गाव	-9919
▁दांत	-9920
▁धातु	-9921
▁घोटाला	-9922
▁द्रविड़	-9923
▁पूर्वोत्तर	-9924
▁प्रबल	-9925
▁आक्रमण	-9926
▁रोमांस	-9927
▁आर्यन	-9928
▁350	-9929
▁एनटी	-9930
▁राघव	-9931
eg	-9932
▁सास	-9933
▁उर्व	-9934
▁सिपाही	-9935
oin	-9936
▁तरल	-9937
▁दिखाए	-9938
▁साक्षी	-9939
▁सोसाइटी	-9940
▁बिगा	-9941
▁गुनगु	-9942
▁सुन्दर	-9943
ाव	-9944
▁बख	-9945
प्लो	-9946
▁गों	-9947
ांतरण	-9948
▁रनौत	-9949
▁द्वीप	-9950
▁शादीशुदा	-9951
ंकि	-9952
▁एनजी	-9953
्युनिटी	-9954
▁पात्रा	-9955
स्ला	-9956
▁चलें	-9957
▁तेरा	-9958
▁स्टेटस	-9959
▁स्वर्ग	-9960
धर्म	-9961
▁उतरी	-9962
▁मेयर	-9963
तिर	-9964
ुरू	-9965
▁फाल	-9966
▁स्नैप	-9967
▁वर्चुअल	-9968
पाकिस्तान	-9969
स्मिक	-9970
▁उसमे	-9971
▁कार्बन	-9972
▁वायुसेना	-9973
▁फड	-9974
इसके	-9975
▁अख़	-9976
▁सैय	-9977
▁हाथी	-9978
है	-9979
▁लीला	-9980
88	-9981
रेपी	-9982
▁सरा	-9983
▁असुर	-9984
▁जर्नल	-9985
▁यंत्र	-9986
राष्ट्रपति	-9987
▁पदाधिकारियों	-9988
्टे	-9989
तिथि	-9990
▁मीरा	-9991
▁इम्यून	-9992
▁संन्यास	-9993
प्न	-9994
▁सकेगी	-9995
▁पिछड़े	-9996
",	-9997
TC	-9998
रिफ	-9999
▁एलईडी	-10000
▁तलवार	-10001
▁स्त्र	-10002
▁ड्रिंक	-10003
▁निरस्त	-10004
▁सुजुकी	-10005
▁दस्तावेज़	-10006
▁The	-10007
▁संबोधन	-10008
सोस	-10009
▁ad	-10010
डीएफ	-10011
▁बाज	-10012
▁घटकर	-10013
▁सच्चे	-10014
नॉ	-10015
▁डेमोक	-10016
36	-10017
खड़	-10018
▁थक	-10019
शियां	-10020
▁पनीर	-10021
▁तोड़ा	-10022
▁आडवाणी	-10023
▁स्वदेश	-10024
ज़े	-10025
धना	-10026
▁विषा	-10027
ix	-10028
वाग	-10029
▁देह	-10030
▁सृजन	-10031
▁शुभार	-10032
▁बची	-10033
▁क्लिप	-10034
▁कहेंगे	-10035
▁शताब्दी	-10036
▁कोष	-10037
▁चुक	-10038
विकेट	-10039
▁Prad	-10040
▁आयुष	-10041
▁रोचक	-10042
▁बहिष्कार	-10043
▁Exam	-10044
ढ़ियों	-10045
▁सरसों	-10046
लै	-10047
▁वंश	-10048
▁प्रय	-10049
▁सिले	-10050
▁सौदे	-10051
▁रिपब्लिक	-10052
2,	-10053
लीट	-10054
▁वचन	-10055
िनेशन	-10056
▁हरीश	-10057
▁प्रासंगिक	-10058
▁मूंग	-10059
▁उल्टा	-10060
▁स्वामित्व	-10061
ork	-10062
orld	-10063
ॉरिटी	-10064
▁खासा	-10065
▁दुर्लभ	-10066
▁स्टूडेंट	-10067
▁जहरी	-10068
फॉर्मेंस	-10069
▁सनराइजर्स	-10070
लेटर	-10071
▁आगमन	-10072
बिलिटी	-10073
▁अन्या	-10074
विज्ञान	-10075
▁पदोन्न	-10076
▁मोहब्बत	-10077
डोर	-10078
▁Not	-10079
▁सौरभ	-10080
▁फेस्टिव	-10081
oy	-10082
▁भुव	-10083
▁फ्लोर	-10084
▁पूर्ति	-10085
▁us	-10086
▁बक	-10087
▁सैंप	-10088
पाली	-10089
▁उदा	-10090
▁खरीदे	-10091
ong	-10092
▁सीखा	-10093
▁इमरजेंसी	-10094
▁आश्र	-10095
▁इनाम	-10096
▁दादी	-10097
ौलत	-10098
▁प्रोड्यू	-10099
27	-10100
IN	-10101
▁ख़राब	-10102
▁सनातन	-10103
▁स्कूली	-10104
anc	-10105
▁फ्यू	-10106
▁साधु	-10107
▁पर्वत	-10108
▁सर्वि	-10109
▁जानबूझकर	-10110
▁निवासियों	-10111
▁सफलतापूर्वक	-10112
▁मुसीबत	-10113
▁हाश	-10114
▁गिरफ़	-10115
▁सिग्न	-10116
▁पड़ताल	-10117
▁कैदियों	-10118
▁स्टार्स	-10119
▁एप्लिकेशन	-10120
▁डॉट	-10121
▁क्रॉस	-10122
▁तब्दील	-10123
▁आभा	-10124
▁जल्दबाजी	-10125
▁कार्यस्थल	-10126
▁जेन	-10127
put	-10128
▁तहरी	-10129
▁बजाए	-10130
स्ल	-10131
▁देखती	-10132
▁ईवीएम	-10133
▁सबमिट	-10134
▁कॉलिंग	-10135
▁स्वीकृत	-10136
▁नमू	-10137
▁मसा	-10138
ग्रेड	-10139
▁बचाया	-10140
▁सिंगा	-10141
▁गणतंत्र	-10142
▁वीरेंद्र	-10143
▁अहंकार	-10144
▁सम्पूर्ण	-10145
▁दाह	-10146
▁नकद	-10147
▁भजन	-10148
▁शिवलिंग	-10149
▁लाभार्थियों	-10150
उल	-10151
▁BS	-10152
▁खपत	-10153
▁ठिका	-10154
▁दक्ष	-10155
▁अंततः	-10156
▁भड़का	-10157
▁पालिका	-10158
किसी	-10159
▁कमरा	-10160
▁10,000	-10161
▁पर्यटकों	-10162
यरी	-10163
▁शार	-10164
▁होल	-10165
▁सीएए	-10166
क्टर्स	-10167
▁लीडर	-10168
▁पार्टियां	-10169
▁Sc	-10170
क्री	-10171
▁रुझ	-10172
यात्रा	-10173
प्ताहिक	-10174
▁दलाल	-10175
▁वाटर	-10176
काउंटर	-10177
▁उपरोक्त	-10178
▁प्रशंसकों	-10179
▁दांतों	-10180
▁यूजी	-10181
▁रश्म	-10182
DA	-10183
िन्द	-10184
▁भती	-10185
नीतिक	-10186
▁गतिविधियां	-10187
▁हनी	-10188
▁अनुचित	-10189
man	-10190
पादन	-10191
▁क्वा	-10192
▁स्वादिष्ट	-10193
ल्लू	-10194
कांग्रेस	-10195
▁राजनेता	-10196
▁सूचीबद्ध	-10197
-8	-10198
▁2'	-10199
▁शर	-10200
वेरा	-10201
▁झील	-10202
▁ग्रेड	-10203
▁दुल्हन	-10204
▁नजदीकी	-10205
▁भविष्यवाणी	-10206
▁अभय	-10207
▁एडी	-10208
प्रो	-10209
▁One	-10210
▁कराते	-10211
.50	-10212
oday	-10213
्यां	-10214
▁ईस्ट	-10215
▁दुखद	-10216
पतियों	-10217
▁चतुर्थी	-10218
▁कहानियां	-10219
▁परफॉर्मेंस	-10220
▁डै	-10221
यानक	-10222
▁उपर	-10223
▁गुज	-10224
▁मसी	-10225
▁बैनर	-10226
▁सोचता	-10227
▁परीक्षाएं	-10228
▁दीपा	-10229
▁पचास	-10230
▁सौंदर्य	-10231
▁खड़गे	-10232
▁ओपनिंग	-10233
▁इक्विटी	-10234
▁प्रोटोकॉल	-10235
त्तों	-10236
प्लस	-10237
▁अमाव	-10238
▁तुमसे	-10239
▁फिंगर	-10240
▁पार्वती	-10241
▁निर्धारण	-10242
मोह	-10243
्मिक	-10244
▁Pre	-10245
▁कंडी	-10246
▁साइज	-10247
▁सभ्यता	-10248
VID	-10249
रूप	-10250
▁7.	-10251
▁लालच	-10252
▁फडणवीस	-10253
▁क्रिस्ट	-10254
▁फॉर्मेट	-10255
▁तैयारियां	-10256
तमंद	-10257
स्पर	-10258
▁इशान	-10259
▁मसाला	-10260
▁प्रमोद	-10261
).	-10262
ारायण	-10263
सरे	-10264
▁खाई	-10265
▁मशी	-10266
▁सुग	-10267
▁खनिज	-10268
▁ध्वस्त	-10269
ie	-10270
▁क्ले	-10271
▁सम्बंधित	-10272
▁ha	-10273
roid	-10274
▁रोने	-10275
▁बाध्य	-10276
▁इस्लामिक	-10277
▁06	-10278
आरएस	-10279
देही	-10280
▁दखल	-10281
▁हावी	-10282
▁पत्तों	-10283
▁सीजेआई	-10284
▁हिन्दु	-10285
▁क्रिप्टोकर	-10286
▁TV	-10287
ical	-10288
▁चंदन	-10289
▁खिड़की	-10290
▁खुशियां	-10291
vi	-10292
फु	-10293
यास	-10294
ामे	-10295
▁जागरण	-10296
▁बदलकर	-10297
▁स्पेन	-10298
▁समझाया	-10299
▁रथ	-10300
▁आहत	-10301
▁दूँ	-10302
▁पीयू	-10303
▁ध्वनि	-10304
▁पाठकों	-10305
▁छाती	-10306
▁मोटे	-10307
▁आकस्मिक	-10308
▁इंग्लिश	-10309
मिया	-10310
▁रामपुर	-10311
▁प्रशिक्षित	-10312
रेस्ट	-10313
▁भरना	-10314
▁रैना	-10315
▁600	-10316
▁वैष्ण	-10317
▁क्रांतिक	-10318
▁ग्री	-10319
▁Delhi	-10320
▁अपार	-10321
:0	-10322
सेफ	-10323
▁शॉ	-10324
वाइड	-10325
▁व्यय	-10326
▁रेडमी	-10327
-7	-10328
31	-10329
▁एपी	-10330
स्थापित	-10331
▁लता	-10332
द्वाज	-10333
▁लाभार्थी	-10334
पेन	-10335
▁बरस	-10336
वाहाटी	-10337
org	-10338
▁शाहीन	-10339
मेरी	-10340
▁खुदरा	-10341
्युनिस्ट	-10342
▁सेवानिवृत्त	-10343
िंटन	-10344
▁समित	-10345
▁सोया	-10346
▁ढांचा	-10347
छोटी	-10348
ीकृत	-10349
▁आति	-10350
▁ठहर	-10351
▁रेग	-10352
earch	-10353
▁चुरा	-10354
▁आरटीआई	-10355
▁सिंगापुर	-10356
▁रिलेशनशिप	-10357
समा	-10358
mart	-10359
ख्ता	-10360
over	-10361
▁किचन	-10362
▁इरफान	-10363
▁राजभर	-10364
ड्डू	-10365
▁अमान	-10366
▁आचरण	-10367
▁डिटे	-10368
▁फेमस	-10369
▁घुटने	-10370
▁भयानक	-10371
▁लंबाई	-10372
▁हाईवे	-10373
29	-10374
फरी	-10375
▁(19	-10376
▁सोरेन	-10377
▁वसूल	-10378
▁सुप्र	-10379
▁करेंसी	-10380
फै	-10381
धारकों	-10382
▁आएंगी	-10383
▁नोटों	-10384
▁सितम्बर	-10385
नामी	-10386
▁Air	-10387
▁मिसाल	-10388
▁सहवाग	-10389
▁मालिकों	-10390
▁चैलेंजर्स	-10391
▁अल्पसंख्यकों	-10392
ंधर	-10393
िवेश	-10394
▁ड्रा	-10395
▁असंभव	-10396
▁स्पॉट	-10397
▁गोविंद	-10398
▁पद्धति	-10399
वैज्ञानिक	-10400
हेल	-10401
▁शाल	-10402
▁जीडीपी	-10403
कथित	-10404
▁आर्य	-10405
▁जॉर्ज	-10406
तिया	-10407
खास्त	-10408
▁उपायुक्त	-10409
la	-10410
परि	-10411
▁वान	-10412
▁अन्याय	-10413
▁ग्वालियर	-10414
आन	-10415
राहट	-10416
▁तबाद	-10417
▁रिटेल	-10418
▁चुपचाप	-10419
प्रद	-10420
▁रतन	-10421
▁हत्य	-10422
▁मुस्कान	-10423
▁up	-10424
▁घृ	-10425
▁लैब	-10426
चर्या	-10427
निर्देश	-10428
▁संयंत्र	-10429
ib	-10430
गर्	-10431
▁83	-10432
▁सोलर	-10433
▁दिखाना	-10434
▁अमावस्या	-10435
मुच	-10436
शंस	-10437
▁तले	-10438
▁एसएमएस	-10439
▁सुधारने	-10440
पुरम	-10441
गोपाल	-10442
▁भत्ता	-10443
▁रोकना	-10444
▁विंडो	-10445
▁अंतराल	-10446
ौफ	-10447
▁भिगो	-10448
▁प्रत्याशियों	-10449
दृश्य	-10450
▁1990	-10451
▁रवैया	-10452
▁पिक्सल	-10453
▁फते	-10454
▁क्री	-10455
▁फ्ले	-10456
▁सुल्तान	-10457
बिज	-10458
शित	-10459
सीडी	-10460
▁पटरी	-10461
▁सिंदूर	-10462
कतों	-10463
▁बरी	-10464
▁कर्मी	-10465
▁मिनी	-10466
बेस	-10467
▁नल	-10468
▁मस्क	-10469
▁विनाश	-10470
▁एनआरसी	-10471
▁इंटी	-10472
▁शोरूम	-10473
▁परिचालन	-10474
▁01	-10475
▁रोह	-10476
▁लेगी	-10477
▁विद्यालयों	-10478
-15	-10479
▁लड	-10480
ंताओं	-10481
▁मंजूर	-10482
पीसी	-10483
▁मर्	-10484
ेलियन	-10485
▁कास्ट	-10486
▁दस्तक	-10487
▁अलीगढ़	-10488
▁मेघालय	-10489
▁राशियां	-10490
ैय	-10491
पीजी	-10492
िप्शन	-10493
▁डीजीपी	-10494
▁चार्जशीट	-10495
▁प्रतिकूल	-10496
सले	-10497
▁Gal	-10498
▁भया	-10499
▁हाफ	-10500
तावास	-10501
▁नगरी	-10502
ार्जुन	-10503
▁पुष्प	-10504
28	-10505
ल्चर	-10506
▁अनू	-10507
▁नैनी	-10508
▁अरोड़ा	-10509
▁उदयपुर	-10510
▁जख	-10511
▁उन्नति	-10512
47	-10513
▁लाज	-10514
▁पीते	-10515
▁मातृ	-10516
महा	-10517
▁अंगू	-10518
▁लटका	-10519
▁रिहाई	-10520
▁WhatsApp	-10521
शर	-10522
its	-10523
▁86	-10524
▁ट्रांसम	-10525
pl	-10526
घन	-10527
छित	-10528
अपनी	-10529
▁देवर	-10530
▁व्यू	-10531
▁पांड्या	-10532
ईटी	-10533
फेल	-10534
▁800	-10535
कॉमर्स	-10536
ांशु	-10537
▁परत	-10538
▁मल्ह	-10539
▁निहित	-10540
▁प्लानिंग	-10541
▁धनिया	-10542
▁बनारस	-10543
▁हुड्डा	-10544
old	-10545
यदि	-10546
▁तौ	-10547
▁Sch	-10548
▁रहो	-10549
▁नॉर्मल	-10550
▁अनुष्का	-10551
▁जं	-10552
▁चिद	-10553
▁डार्क	-10554
▁मुक़	-10555
▁कर्फ्यू	-10556
▁कड़	-10557
▁डोज	-10558
▁उतने	-10559
▁मेथी	-10560
▁समर्पण	-10561
▁भारद्वाज	-10562
▁नाच	-10563
लाइंस	-10564
▁पहुंचते	-10565
▁मुश्किलें	-10566
▁घन	-10567
र्मा	-10568
▁चेन	-10569
▁मसाले	-10570
▁आईआईटी	-10571
▁शॉपिंग	-10572
रोन	-10573
▁हेमा	-10574
▁आरोपित	-10575
दक	-10576
▁गुहार	-10577
▁ब्रह्मा	-10578
▁वैरिएंट	-10579
▁कम्युनिस्ट	-10580
एड	-10581
बड़	-10582
oron	-10583
्ह्ह	-10584
▁कन्ह	-10585
▁नौसेना	-10586
▁विक्की	-10587
ele	-10588
▁जोध	-10589
▁दंप	-10590
ebook	-10591
▁स्मार	-10592
▁हिन्द	-10593
फ्लिक्स	-10594
▁सेशन	-10595
▁मूव	-10596
▁पवेलियन	-10597
▁गुवाहाटी	-10598
▁थीम	-10599
▁नबी	-10600
▁बेस्ड	-10601
▁For	-10602
▁नाल	-10603
▁डालना	-10604
भाषित	-10605
रक्षा	-10606
▁गोला	-10607
▁माँग	-10608
▁जलाने	-10609
▁बारीक	-10610
▁सर्वर	-10611
▁कमांडर	-10612
▁ex	-10613
▁चॉक	-10614
▁ग्ले	-10615
▁निखार	-10616
▁प्रोफेशनल	-10617
PF	-10618
श्ती	-10619
▁खुलने	-10620
sung	-10621
▁108	-10622
▁ब्लूट	-10623
▁उतारने	-10624
▁संभाला	-10625
▁टेस्टिंग	-10626
ंबल	-10627
प्रिंट	-10628
▁इंटेल	-10629
▁दूतावास	-10630
संच	-10631
▁आओ	-10632
▁बदन	-10633
िस्ट्री	-10634
▁ऑफलाइन	-10635
▁साम्रा	-10636
▁मूला	-10637
▁आँखें	-10638
▁पहनकर	-10639
▁कंडीशन	-10640
▁शिल्पा	-10641
▁साप्ताहिक	-10642
▁पेरिस	-10643
टाइम	-10644
▁लिट	-10645
▁वीं	-10646
▁इमाम	-10647
▁सचमुच	-10648
▁डिप्लो	-10649
नियों	-10650
▁मोती	-10651
▁लेंस	-10652
▁त्यागी	-10653
▁फूट	-10654
▁सीओ	-10655
▁खिंच	-10656
▁पीले	-10657
▁वृषभ	-10658
▁गोपनीयता	-10659
▁खासी	-10660
▁जीना	-10661
▁अदालतों	-10662
ics	-10663
▁शू	-10664
मेरा	-10665
▁विलय	-10666
▁हेलीक	-10667
▁पारदर्शिता	-10668
.25	-10669
▁चाट	-10670
▁जगदी	-10671
▁एकनाथ	-10672
▁Inst	-10673
▁अध्याय	-10674
axy	-10675
माइ	-10676
▁बन्द	-10677
स्तरीय	-10678
▁अलगाव	-10679
▁समझता	-10680
▁विमानों	-10681
स्की	-10682
▁रैल	-10683
▁त्यौ	-10684
▁नरेश	-10685
▁अवसाद	-10686
▁विभाजित	-10687
IS	-10688
णन	-10689
्राट	-10690
▁द्विप	-10691
खाव	-10692
किता	-10693
▁कुकी	-10694
सम्मान	-10695
▁लॉगिन	-10696
▁मंदी	-10697
दिल्ली	-10698
▁दिलों	-10699
▁लगेगी	-10700
▁98	-10701
प्रत	-10702
मू	-10703
▁ऊँ	-10704
▁चौथ	-10705
▁सलीम	-10706
▁दवाएं	-10707
▁पशुओं	-10708
▁बहुजन	-10709
▁रोबोट	-10710
▁निरीक्षक	-10711
'.	-10712
वला	-10713
ेंटी	-10714
▁मौन	-10715
▁कोमल	-10716
▁सच्चा	-10717
▁होंडा	-10718
▁जोधपुर	-10719
▁जानकारियां	-10720
एब	-10721
कुश	-10722
▁यी	-10723
▁मुम	-10724
▁आमदनी	-10725
▁डेयरी	-10726
▁बदौलत	-10727
▁सच्ची	-10728
▁क्रियान	-10729
▁शक्तियों	-10730
▁71	-10731
▁लग्न	-10732
▁चलेगी	-10733
▁दिवंगत	-10734
▁सीरिया	-10735
▁बर्खास्त	-10736
ीडी	-10737
▁दीन	-10738
▁हता	-10739
▁मेकर्स	-10740
▁ac	-10741
▁चीख	-10742
म्परा	-10743
▁भुवनेश्वर	-10744
4,	-10745
पुरुष	-10746
▁आमने	-10747
▁नेटफ्लिक्स	-10748
चूड़	-10749
ाहिर	-10750
▁शिप	-10751
▁चलाना	-10752
▁सीबीएसई	-10753
rat	-10754
▁MP	-10755
▁चलन	-10756
▁चुटकी	-10757
▁सिगरेट	-10758
▁जीभ	-10759
▁लगेंगे	-10760
▁शिक्षित	-10761
▁यूपीएससी	-10762
▁स्वयंसेवक	-10763
▁इरादे	-10764
▁क्योकि	-10765
uti	-10766
▁डें	-10767
▁बोस	-10768
▁नायडू	-10769
▁अनावश्यक	-10770
▁एनकाउंटर	-10771
▁डेमोक्रेट	-10772
वरकर	-10773
▁बसा	-10774
▁ब्लूटूथ	-10775
▁प्रोडक्ट्स	-10776
किम	-10777
क्तूबर	-10778
▁विडियो	-10779
▁सुनीता	-10780
uj	-10781
ark	-10782
हरों	-10783
▁सुध	-10784
▁पत्रों	-10785
▁शिवपाल	-10786
oan	-10787
▁मंशा	-10788
▁बरतने	-10789
▁डिफेंस	-10790
▁आश्वस्त	-10791
www	-10792
्रेश	-10793
▁मिच	-10794
▁उठाई	-10795
▁टिका	-10796
▁समझे	-10797
ंबरम	-10798
▁कैप्शन	-10799
▁मुस्लिमों	-10800
ज्जत	-10801
▁अधू	-10802
▁केन	-10803
▁दत्ता	-10804
▁सहकारी	-10805
▁सज़ा	-10806
▁बनेगी	-10807
▁79	-10808
ारोप	-10809
मि	-10810
राना	-10811
▁वीवो	-10812
▁सूखा	-10813
▁हॉकी	-10814
▁जुलूस	-10815
▁कन्हैया	-10816
▁दुकानदार	-10817
▁गुरुग्राम	-10818
▁व्यवस्थित	-10819
▁हेक्ट	-10820
▁नेचुरल	-10821
▁सुविधाएँ	-10822
▁सिद्धांतों	-10823
▁सता	-10824
▁होंठ	-10825
▁सीखना	-10826
▁अग्रिम	-10827
▁संचालक	-10828
ips	-10829
▁छिल	-10830
▁वक्	-10831
▁संभावनाओं	-10832
▁Read	-10833
▁आन्द	-10834
▁दंगे	-10835
▁एक्सट	-10836
▁Account	-10837
▁डिपार्टमेंट	-10838
32	-10839
धियों	-10840
▁कवरेज	-10841
ne	-10842
▁केले	-10843
ेक्षित	-10844
▁स्किल	-10845
▁चैंपियंस	-10846
ज़ोर	-10847
▁रिंग	-10848
▁खुशियों	-10849
फोल	-10850
ency	-10851
▁आईपीसी	-10852
▁एलर्जी	-10853
▁तालमेल	-10854
▁गोग	-10855
▁महार	-10856
▁मुमकिन	-10857
विकेटकीपर	-10858
ोही	-10859
जीपुर	-10860
▁भरकर	-10861
▁बैटिंग	-10862
▁महानगर	-10863
▁सिग्नल	-10864
▁क्वार्ट	-10865
▁आटा	-10866
▁पीटा	-10867
▁चूसने	-10868
▁बंदूक	-10869
▁Galaxy	-10870
▁चुकाने	-10871
▁गर्लफ्रेंड	-10872
▁स्नेह	-10873
▁अक्तूबर	-10874
▁ट्रांसमिशन	-10875
6,	-10876
mer	-10877
ाराम	-10878
▁Fac	-10879
्रैक्ट	-10880
PSC	-10881
पत्नी	-10882
▁मराठी	-10883
▁सनसनी	-10884
▁दिनांक	-10885
▁प्रैक्टिस	-10886
▁संवाददाताओं	-10887
▁डेली	-10888
▁मतों	-10889
िनर	-10890
▁भुगत	-10891
▁विहार	-10892
▁सलामी	-10893
▁दुष्प्र	-10894
▁तोड़फोड़	-10895
वारा	-10896
मुक्त	-10897
कमान	-10898
वर्स	-10899
▁चुनी	-10900
▁त्यौहार	-10901
3,	-10902
▁स्वप्न	-10903
िटेड	-10904
▁हैक	-10905
▁पसीना	-10906
राई	-10907
▁किसके	-10908
▁सुलझाने	-10909
▁आकांक्षा	-10910
▁शोधकर्ताओं	-10911
▁नशा	-10912
▁फटकार	-10913
▁याचिकाओं	-10914
ंकू	-10915
▁अखा	-10916
ोरेंट	-10917
▁नर्म	-10918
▁बूंद	-10919
oll	-10920
▁मॉल	-10921
▁ठंडे	-10922
▁पिक्	-10923
▁खुजली	-10924
▁बुलाई	-10925
गिन	-10926
पेड	-10927
पीएम	-10928
▁रेत	-10929
▁पुजारी	-10930
▁सीआरपीएफ	-10931
▁चंद्रचूड़	-10932
▁छठ	-10933
▁अंज	-10934
▁योगा	-10935
▁ह्यू	-10936
▁मानती	-10937
▁सरपंच	-10938
▁तथाकथित	-10939
▁कांग्रेसी	-10940
34	-10941
बलों	-10942
्रपान	-10943
▁सदैव	-10944
▁दरबार	-10945
▁सुकून	-10946
▁अंधेरे	-10947
▁चॉकलेट	-10948
▁थरूर	-10949
▁प्रीति	-10950
▁विद्रोह	-10951
रखाव	-10952
▁गिरि	-10953
▁फ़ाय	-10954
▁अंगों	-10955
▁ड्रामा	-10956
▁मोटर्स	-10957
▁बीमारियां	-10958
▁हलचल	-10959
▁किस्सा	-10960
eng	-10961
▁सिद्दी	-10962
▁सितारों	-10963
▁ऐंड	-10964
▁पहचा	-10965
▁शार्	-10966
ंबेडकर	-10967
छात्रा	-10968
▁अंकिता	-10969
निंदा	-10970
▁पूनम	-10971
▁अग्रणी	-10972
▁परम्परा	-10973
▁ऐड	-10974
▁मामा	-10975
.20	-10976
वात	-10977
▁झूठी	-10978
्ग	-10979
सिन	-10980
्यूर	-10981
▁स्टीव	-10982
▁सप्त	-10983
▁प्रतिभाग	-10984
af	-10985
ूण	-10986
▁तबी	-10987
▁अबतक	-10988
▁सोते	-10989
ाया	-10990
▁110	-10991
▁दिनचर्या	-10992
▁प्रिंसिपल	-10993
खाना	-10994
▁बिछ	-10995
▁वैन	-10996
ंहा	-10997
नपुर	-10998
सिया	-10999
ोरेट	-11000
▁कहर	-11001
▁तीखी	-11002
▁धनलाभ	-11003
TM	-11004
ंवर	-11005
▁शिवम	-11006
▁भागों	-11007
▁शायरी	-11008
▁आपातकाल	-11009
▁चिदंबरम	-11010
▁ढी	-11011
▁घटक	-11012
▁पीजी	-11013
ज्जा	-11014
हाउस	-11015
▁अद्व	-11016
▁असाम	-11017
▁ख्वा	-11018
▁टैरिफ	-11019
▁डोमेन	-11020
▁निकलकर	-11021
▁89	-11022
▁मोन	-11023
▁पिताजी	-11024
गि	-11025
बर्ट	-11026
▁पते	-11027
▁तेज़ी	-11028
▁पक्का	-11029
▁यादगार	-11030
िजन	-11031
ोर्टर	-11032
▁चंदा	-11033
▁मीठा	-11034
▁प्रोटे	-11035
▁शर्मनाक	-11036
▁प्रतियोगी	-11037
▁क्रिप्टोकरेंसी	-11038
▁विनि	-11039
▁कैपिटल	-11040
राज्यपाल	-11041
▁परिभाषित	-11042
▁नक्सलियों	-11043
▁महाविद्यालय	-11044
emb	-11045
्ता	-11046
▁Ph	-11047
▁सहन	-11048
▁नम्बर	-11049
त्याशित	-11050
▁रामायण	-11051
▁अनुभवों	-11052
काई	-11053
कोण	-11054
जीर	-11055
▁Tr	-11056
हिंद	-11057
▁काफ	-11058
▁समीर	-11059
▁चोटिल	-11060
▁फ़ाइल	-11061
▁पेड़ों	-11062
▁सेंसेक्स	-11063
एसडी	-11064
▁कंड	-11065
▁रेख	-11066
▁मुरा	-11067
▁अकाली	-11068
▁दुर्ग	-11069
प्रतिनि	-11070
▁उपराष्ट्रपति	-11071
▁61	-11072
▁झड़	-11073
▁बागी	-11074
▁ब्रि	-11075
▁अमेजन	-11076
▁अनुप्र	-11077
▁जुटाने	-11078
▁Samsung	-11079
▁द्विपक्षीय	-11080
▁तेलु	-11081
▁फ्रेम	-11082
▁कैरियर	-11083
ंट्स	-11084
▁ग्लास	-11085
▁नॉर्थ	-11086
▁Business	-11087
▁2,	-11088
तरफा	-11089
फील्ड	-11090
▁लोकेशन	-11091
▁सर्विसेज	-11092
▁क्षतिग्रस्त	-11093
▁झंडा	-11094
▁बलिदान	-11095
▁शुभारंभ	-11096
▁श्रीकृष्ण	-11097
▁एंटीऑक्सीडेंट	-11098
lus	-11099
कने	-11100
साफ	-11101
▁82	-11102
▁नक्	-11103
▁निषा	-11104
▁चिंताओं	-11105
▁निकालना	-11106
▁उगा	-11107
▁संयम	-11108
▁1999	-11109
▁पादु	-11110
▁मनाई	-11111
▁अगुआई	-11112
▁पकड़कर	-11113
ode	-11114
वामा	-11115
▁विभागीय	-11116
▁समझदारी	-11117
्यव	-11118
▁कन्	-11119
▁परिश	-11120
▁संभावनाएं	-11121
मौ	-11122
▁करिश	-11123
▁तारा	-11124
▁भ्रमण	-11125
▁भ्रष्ट	-11126
▁फ्रेंचाइजी	-11127
-21	-11128
▁छी	-11129
विंदर	-11130
▁औषधि	-11131
▁तादाद	-11132
▁फिरोज	-11133
▁चिकित्सकों	-11134
▁अनुपालन	-11135
▁वास्तविकता	-11136
ूला	-11137
नहीं	-11138
फ्ती	-11139
▁मेजर	-11140
▁कच्चा	-11141
▁बरेली	-11142
▁एडवांस	-11143
▁किशोरी	-11144
▁सदियों	-11145
▁सावरकर	-11146
▁यूनाइटेड	-11147
▁हेक्टेयर	-11148
▁वक्फ	-11149
▁अर्जी	-11150
▁HD	-11151
▁नोक	-11152
▁एसआईटी	-11153
▁नाश्ते	-11154
▁97	-11155
ड्ढा	-11156
▁मक्	-11157
▁अतुल	-11158
▁रहाणे	-11159
निरपेक्ष	-11160
रेप	-11161
▁256	-11162
नें	-11163
रीज़	-11164
सिपी	-11165
टरीना	-11166
▁मन्द	-11167
▁ब्रॉड	-11168
▁चीज़ों	-11169
ंडई	-11170
रां	-11171
▁Man	-11172
▁एन्	-11173
▁परमा	-11174
▁तबीयत	-11175
▁अंबेडकर	-11176
▁नौकरियां	-11177
▁जुन	-11178
▁सेवक	-11179
▁विक्र	-11180
▁स्ट्रीट	-11181
▁निर्णायक	-11182
▁निर्व	-11183
▁प्रचलित	-11184
▁सुरेंद्र	-11185
णाल	-11186
लीटर	-11187
▁समीप	-11188
▁उल्टी	-11189
▁मिर्जा	-11190
▁अप्रत्याशित	-11191
AM	-11192
लेवा	-11193
▁ग्रैंड	-11194
▁निकलता	-11195
▁महादेव	-11196
लें	-11197
ॉल्ट	-11198
▁शेखर	-11199
बेल	-11200
▁जस	-11201
▁उपवास	-11202
▁न्यायाधीशों	-11203
▁प्रक्रियाओं	-11204
▁ख़री	-11205
▁धड़क	-11206
▁बताकर	-11207
▁निफ्टी	-11208
ital	-11209
्रास	-11210
▁आइट	-11211
र्माण	-11212
▁मीणा	-11213
▁डिलीट	-11214
▁मुकाम	-11215
▁कैटरीना	-11216
जाही	-11217
▁पेयजल	-11218
▁Market	-11219
▁अमरीका	-11220
▁प्रखंड	-11221
▁प्रमाणपत्र	-11222
▁श्वे	-11223
▁कस्टम	-11224
▁पतंजलि	-11225
जोत	-11226
र्गत	-11227
▁मज़बूत	-11228
▁सुसाइड	-11229
▁अखबारों	-11230
▁द्विवेदी	-11231
RC	-11232
वित	-11233
▁निः	-11234
▁महत्वा	-11235
▁सचिवालय	-11236
37	-11237
▁हर्	-11238
▁इनपुट	-11239
▁बिश्न	-11240
▁घाव	-11241
क्रिय	-11242
▁साक्ष्य	-11243
▁Download	-11244
विद	-11245
▁07	-11246
▁नू	-11247
form	-11248
मर्रा	-11249
▁अनदेखी	-11250
▁चुनिंदा	-11251
▁ब्रेकिंग	-11252
विल	-11253
चीनी	-11254
▁कब्र	-11255
▁तोमर	-11256
दिवसीय	-11257
▁निर्दोष	-11258
▁अभियुक्त	-11259
बॉ	-11260
▁US	-11261
▁अनी	-11262
ोत्रा	-11263
▁पूछना	-11264
▁संगठित	-11265
शो	-11266
▁फिस	-11267
▁उंगल	-11268
▁घेरे	-11269
▁त्रुट	-11270
▁पार्थ	-11271
▁कठिनाई	-11272
▁जंगलों	-11273
▁रेसिपी	-11274
▁रक्तचाप	-11275
▁स्ट्रीमिंग	-11276
गान	-11277
बाड़ी	-11278
▁वंदे	-11279
▁धूम्रपान	-11280
▁Hy	-11281
▁घास	-11282
▁फीड	-11283
▁परेड	-11284
▁संकेतक	-11285
▁रिफ्रेश	-11286
▁परिदृश्य	-11287
ायन	-11288
रेखा	-11289
▁केक	-11290
▁मोम	-11291
▁नाना	-11292
▁बिश्नोई	-11293
▁फ़िर	-11294
▁हमको	-11295
▁एकीकृत	-11296
▁असाधारण	-11297
▁इकाइयों	-11298
▁संपत्तियों	-11299
षित	-11300
ेटेड	-11301
▁एले	-11302
▁कदर	-11303
▁बदली	-11304
राल	-11305
▁तंग	-11306
▁भगा	-11307
▁सचे	-11308
▁ट्राई	-11309
▁फैसलों	-11310
▁उद्देश्यों	-11311
पुल	-11312
▁88	-11313
▁me	-11314
▁चिकन	-11315
क्षकों	-11316
▁पढ़कर	-11317
▁अमृतसर	-11318
▁कार्बो	-11319
▁प्रसंग	-11320
▁मूलांक	-11321
मणि	-11322
▁आंच	-11323
▁बसे	-11324
▁आन्दोलन	-11325
▁आवाजाही	-11326
याँ	-11327
िरोधी	-11328
▁धामी	-11329
▁बौद्धिक	-11330
2)	-11331
te	-11332
▁x	-11333
▁डू	-11334
▁तीर	-11335
▁भिड़	-11336
▁श्वेता	-11337
▁इंजेक्शन	-11338
▁छिड़	-11339
▁निचे	-11340
▁छोड़ी	-11341
▁भयावह	-11342
▁मतगणना	-11343
देख	-11344
▁blog	-11345
▁मुल्क	-11346
▁संबित	-11347
▁निभाते	-11348
▁विश्वनाथ	-11349
▁डेड	-11350
आधारी	-11351
योग्य	-11352
िशंकर	-11353
▁धोने	-11354
▁पढ़ी	-11355
▁मजबूरी	-11356
▁स्वार्थ	-11357
▁अभिभावकों	-11358
▁बुजुर्गों	-11359
38	-11360
मोल	-11361
▁थिएटर	-11362
▁पलटवार	-11363
▁पदोन्नति	-11364
▁साय	-11365
▁हक़	-11366
UV	-11367
नाई	-11368
▁मसाज	-11369
▁निषाद	-11370
▁यूपीए	-11371
▁गुलाबी	-11372
▁गेमिंग	-11373
▁विमर्श	-11374
▁समू	-11375
▁वकाल	-11376
▁दिसम्बर	-11377
▁सतर्कता	-11378
▁बढ़ाई	-11379
धु	-11380
एनए	-11381
▁आईएम	-11382
▁दयाल	-11383
▁सैयद	-11384
▁आंबेडकर	-11385
oh	-11386
▁शैल	-11387
▁उसपर	-11388
एफआई	-11389
रांत	-11390
▁ओपी	-11391
▁झाड़	-11392
▁बुलड	-11393
▁फ्रूट	-11394
▁स्रोतों	-11395
▁स्पष्टीकरण	-11396
ull	-11397
▁09	-11398
▁इश्	-11399
▁सुचार	-11400
▁इफेक्ट	-11401
▁कार्यान	-11402
▁द्विआधारी	-11403
ER	-11404
oss	-11405
▁नरम	-11406
वासीय	-11407
आधारित	-11408
▁इज्जत	-11409
▁साबुन	-11410
▁ब्यूटी	-11411
▁कांफ्रेंस	-11412
IV	-11413
▁शोएब	-11414
▁पितृ	-11415
▁लोहे	-11416
▁क्वार	-11417
▁क्षमा	-11418
▁हड्डी	-11419
▁विनम्र	-11420
कोई	-11421
▁टाई	-11422
ियाना	-11423
▁विपणन	-11424
▁कुशवाहा	-11425
▁डिटेल्स	-11426
▁क्वार्टर	-11427
ंझ	-11428
एलए	-11429
▁ट्रिपल	-11430
▁महक	-11431
▁तिरु	-11432
▁प्या	-11433
▁पुतिन	-11434
▁हॉलीवुड	-11435
▁गाड़ियां	-11436
णक्य	-11437
▁डोर	-11438
▁फिलि	-11439
▁नारेबाजी	-11440
▁आरटी	-11441
▁चलाए	-11442
▁बुराई	-11443
्शा	-11444
राइट	-11445
▁झां	-11446
▁धरने	-11447
▁COVID	-11448
▁वनप्लस	-11449
▁वैचारिक	-11450
बिग	-11451
▁94	-11452
▁जगदीश	-11453
▁ट्रम्प	-11454
▁पुलवामा	-11455
▁गियरबॉक्स	-11456
नीति	-11457
सूसी	-11458
ासित	-11459
▁पौधा	-11460
▁ट्रीट	-11461
▁केकेआर	-11462
▁एकत्रित	-11463
▁दहशत	-11464
▁औरतों	-11465
▁डेबिट	-11466
▁खर्चों	-11467
▁राइडर्स	-11468
▁डीए	-11469
▁कतार	-11470
▁डेवलपमेंट	-11471
थान	-11472
▁160	-11473
▁डेंगू	-11474
चाराधीन	-11475
▁गार्डन	-11476
▁बांटने	-11477
▁भाटिया	-11478
PC	-11479
.30	-11480
▁नीट	-11481
▁डीलर	-11482
▁हर्ट	-11483
▁Redmi	-11484
▁दिव्य	-11485
▁विज्ञाप	-11486
▁प्रेग्नेंसी	-11487
खिल	-11488
डीएस	-11489
र्ति	-11490
िफाई	-11491
▁पूल	-11492
▁तर्ज	-11493
▁ट्यूब	-11494
▁स्वराज	-11495
▁अमरिंदर	-11496
मिल	-11497
पेशा	-11498
▁देन	-11499
▁श्व	-11500
▁आंसर	-11501
▁मूर्ख	-11502
▁खेसारी	-11503
▁कदमों	-11504
▁लाहौर	-11505
सेप्ट	-11506
▁जानलेवा	-11507
▁यूएई	-11508
भारतीय	-11509
▁मनरेगा	-11510
39	-11511
मोट	-11512
▁सवारी	-11513
▁प्रयोगशाला	-11514
▁96	-11515
▁pl	-11516
▁Ama	-11517
▁चाची	-11518
▁महंत	-11519
▁टाइटंस	-11520
▁गावस्कर	-11521
▁ब्राजील	-11522
ष्ठी	-11523
umber	-11524
प्पड़	-11525
▁पाण्ड	-11526
▁कुत्तों	-11527
जाना	-11528
इजेशन	-11529
▁समाय	-11530
▁कंटेन	-11531
▁टेनिस	-11532
▁लेखकों	-11533
ews	-11534
▁इज	-11535
▁मल्होत्रा	-11536
du	-11537
्लो	-11538
▁कत	-11539
▁पहनी	-11540
▁पीयूष	-11541
▁मौकों	-11542
▁सिंधु	-11543
▁देखरेख	-11544
▁परिवर्तित	-11545
▁87	-11546
▁सई	-11547
▁गंध	-11548
▁बीएच	-11549
▁2024:	-11550
▁क्रमशः	-11551
▁जयशंकर	-11552
▁सितारे	-11553
▁सिल्वर	-11554
▁संक्रमितों	-11555
▁उदास	-11556
▁सुमन	-11557
▁एप्पल	-11558
▁चड्ढा	-11559
▁नाश्ता	-11560
▁धरा	-11561
▁बाजी	-11562
▁मशीनों	-11563
▁Pradesh	-11564
सीमा	-11565
▁लगवा	-11566
▁शर्ट	-11567
▁जिहाद	-11568
▁मानकर	-11569
▁राफेल	-11570
▁वकालत	-11571
▁सूर्या	-11572
स्ट्रक्चर	-11573
▁स्टार्टअप	-11574
क्यों	-11575
▁अंकल	-11576
▁पायदान	-11577
▁पादुकोण	-11578
▁हेलीकॉप्टर	-11579
▁लची	-11580
▁2001	-11581
▁असमान	-11582
▁पॉलिट	-11583
▁मेजबानी	-11584
ँद	-11585
िलाई	-11586
▁अंप	-11587
eries	-11588
▁अख़बार	-11589
▁बीबीसी	-11590
▁शिकायतकर्ता	-11591
वृ	-11592
ove	-11593
अनु	-11594
▁(6	-11595
▁पिल	-11596
▁अनुपम	-11597
▁चालान	-11598
▁अस्वीकार	-11599
▁पत्तियों	-11600
▁सीएनजी	-11601
▁एमए	-11602
▁रिच	-11603
मैटिक	-11604
▁चिंतन	-11605
गना	-11606
▁कवाय	-11607
▁ग़लत	-11608
वृत्ति	-11609
▁बताये	-11610
▁प्यारी	-11611
▁महासभा	-11612
▁मैन्यु	-11613
▁अती	-11614
▁पोज	-11615
▁संगम	-11616
▁हटाए	-11617
प्रधान	-11618
▁बंटवारे	-11619
▁सोसाय	-11620
▁संयोजन	-11621
▁टिप्पणियों	-11622
धू	-11623
अभी	-11624
irus	-11625
▁नाव	-11626
▁मुबार	-11627
िलासपुर	-11628
▁फिजिकल	-11629
जोल	-11630
▁पग	-11631
▁अर्श	-11632
▁शोभा	-11633
विरोधी	-11634
▁चुनना	-11635
▁सम्राट	-11636
▁सक्सेना	-11637
▁प्रतिक्रियाएं	-11638
▁पिए	-11639
▁आंवला	-11640
▁गेस्ट	-11641
▁दर्जनों	-11642
रर	-11643
▁आंश	-11644
▁चित	-11645
ealth	-11646
▁गुजार	-11647
▁एनडीटीवी	-11648
▁निर्वाचित	-11649
▁आस्ट्रेलिया	-11650
त्रिम	-11651
▁आवासीय	-11652
▁रजिस्टर्ड	-11653
▁प्रदर्शनों	-11654
वियों	-11655
▁चाणक्य	-11656
/2	-11657
ip	-11658
eme	-11659
मेड	-11660
ोरा	-11661
▁षड	-11662
फायर	-11663
वेस्ट	-11664
▁Date	-11665
क्ष्मी	-11666
▁गानों	-11667
▁भूपेश	-11668
▁नवम्बर	-11669
▁रिपोर्टर	-11670
कक्ष	-11671
म्बई	-11672
▁स्पर्श	-11673
act	-11674
लॉक	-11675
▁आटे	-11676
▁मेजबान	-11677
टीएस	-11678
▁अखंड	-11679
▁लाते	-11680
▁म्यां	-11681
▁चीज़ें	-11682
▁प्वाइंट	-11683
enef	-11684
DI	-11685
िसा	-11686
▁Cl	-11687
▁रीड	-11688
ालैंड	-11689
▁मुहिम	-11690
▁विशेषकर	-11691
▁केदारनाथ	-11692
▁ठिक	-11693
▁रमन	-11694
▁ट्रि	-11695
▁चौराह	-11696
▁औस	-11697
▁बान	-11698
▁हुक	-11699
▁पालक	-11700
▁नमस्कार	-11701
▁उपलब्धियों	-11702
ale	-11703
अमे	-11704
▁Upd	-11705
▁मिज	-11706
▁शीत	-11707
▁सैंपल	-11708
लु	-11709
दीन	-11710
▁1:	-11711
मेंस	-11712
हानि	-11713
▁लोड	-11714
▁जीरो	-11715
▁पाएं	-11716
▁मन्दिर	-11717
▁सेफ्टी	-11718
▁जानकारों	-11719
▁स्ली	-11720
ब्बल	-11721
▁Cre	-11722
▁बनें	-11723
▁अलविदा	-11724
▁नियामक	-11725
▁CM	-11726
▁डिनर	-11727
▁शवों	-11728
जीविका	-11729
▁जिसपर	-11730
▁बनाएंगे	-11731
ivo	-11732
ब्री	-11733
▁भुला	-11734
▁वैसी	-11735
▁काबिल	-11736
▁मेहंदी	-11737
▁हॉस्टल	-11738
▁एलान	-11739
▁लेटर	-11740
▁अनजान	-11741
▁सुनना	-11742
▁ग्रस्त	-11743
वनि	-11744
्यूम	-11745
▁वेंट	-11746
▁काटकर	-11747
▁पहनना	-11748
▁रिंकू	-11749
▁दाखिला	-11750
▁क्रिसमस	-11751
▁प्रतिपक्ष	-11752
▁प्रस्तुति	-11753
द्वीप	-11754
▁पाबंदी	-11755
▁04	-11756
▁सेठ	-11757
▁टास्क	-11758
▁अभिभावक	-11759
▁एलोवेरा	-11760
▁सुविधाजनक	-11761
▁मनोवैज्ञानिक	-11762
क़े	-11763
्यम	-11764
्रू	-11765
▁700	-11766
▁ख़ान	-11767
▁नवजात	-11768
▁डिप्लोमा	-11769
eat	-11770
atch	-11771
▁नाट	-11772
▁ठंडी	-11773
▁फ्लू	-11774
▁Today	-11775
▁प्यारे	-11776
NG	-11777
▁ag	-11778
स्ट्रा	-11779
▁अपग्रेड	-11780
ब्ब	-11781
ॉलर	-11782
▁पपी	-11783
▁जरूरतमंद	-11784
ताप	-11785
▁पाएगी	-11786
▁किराये	-11787
▁पेटीएम	-11788
▁रिटायरमेंट	-11789
ttar	-11790
ोड़ा	-11791
▁काय	-11792
▁नान	-11793
▁पत्ता	-11794
▁Mobile	-11795
▁टैं	-11796
▁घुमा	-11797
▁1,000	-11798
▁ग्यार	-11799
▁छक्का	-11800
▁दीवारों	-11801
▁प्रशंसक	-11802
▁सुंदरता	-11803
▁प्रतिनिधिमंडल	-11804
ेंदु	-11805
ission	-11806
▁स्विच	-11807
रलैंड	-11808
▁औसतन	-11809
▁पारस	-11810
▁बांस	-11811
▁जयराम	-11812
▁पप्पू	-11813
▁तिरंगा	-11814
▁मल्लिक	-11815
▁उम्मीदें	-11816
्ठ	-11817
▁घोल	-11818
हाइड्रेट	-11819
▁फेफड़ों	-11820
▁पंचायतों	-11821
▁सर्वोत्तम	-11822
▁Ma	-11823
▁NE	-11824
ड़कर	-11825
वादा	-11826
▁किफ	-11827
सरकार	-11828
▁एंबुलेंस	-11829
▁गैरकानूनी	-11830
▁मदन	-11831
▁प्ली	-11832
▁फैली	-11833
▁पथराव	-11834
▁इंटेलिज	-11835
▁जन्मभूमि	-11836
▁थम	-11837
▁कचरा	-11838
▁जीवा	-11839
▁टायर	-11840
ड्रैगन	-11841
यली	-11842
वाट	-11843
मताओं	-11844
▁ऋतिक	-11845
▁गाजर	-11846
▁नैनीताल	-11847
SP	-11848
ब्वे	-11849
▁दमन	-11850
▁जोड़ो	-11851
▁मेटाबॉल	-11852
▁प्रारम्भ	-11853
▁कैंडिडेट्स	-11854
▁रिपोर्टिंग	-11855
ानंद	-11856
▁नकल	-11857
▁सौरव	-11858
▁Apple	-11859
▁अहमियत	-11860
▁दर्दनाक	-11861
▁समाप्ति	-11862
रोट	-11863
धारक	-11864
▁हँस	-11865
ष्यों	-11866
▁बिठा	-11867
▁अनलिम	-11868
▁जैविक	-11869
▁रेस्टोरेंट	-11870
▁2-3	-11871
मेंट्स	-11872
▁लीजिये	-11873
pr	-11874
lick	-11875
▁सोसायटी	-11876
95	-11877
-18	-11878
ंटा	-11879
▁To	-11880
द्यपि	-11881
▁एफडी	-11882
▁करूं	-11883
▁जिया	-11884
▁मच्छ	-11885
▁हटने	-11886
▁ऑपरेटर	-11887
▁जासूसी	-11888
▁बिलासपुर	-11889
जाज	-11890
▁दूं	-11891
▁पेड	-11892
▁आंशिक	-11893
▁यथार्थ	-11894
▁आयरलैंड	-11895
1)	-11896
77	-11897
▁उठते	-11898
▁एग्री	-11899
▁कवायद	-11900
▁विजिट	-11901
▁जमात	-11902
▁लण्ड	-11903
/20	-11904
मेगा	-11905
▁1998	-11906
▁कसते	-11907
▁टीबी	-11908
▁डेरा	-11909
▁सुने	-11910
▁थप्पड़	-11911
de	-11912
ारू	-11913
▁लहरा	-11914
▁एएनआई	-11915
▁आजीविका	-11916
▁उपराज्यपाल	-11917
ॉफ	-11918
▁Su	-11919
ala	-11920
▁कराएं	-11921
▁बैंगल	-11922
लीला	-11923
हार्	-11924
▁एलपीजी	-11925
▁क्रांतिकारी	-11926
शीद	-11927
मोदी	-11928
स्टन	-11929
▁यूके	-11930
नात्मक	-11931
▁हकदार	-11932
▁पर्यटक	-11933
ोसिस	-11934
▁ग्लू	-11935
▁अंकुश	-11936
▁त्रास	-11937
▁रेस्त	-11938
▁किस्से	-11939
▁मुबारक	-11940
्रास्ट्रक्चर	-11941
coin	-11942
▁डरा	-11943
▁मुस्त	-11944
▁गुर्जर	-11945
▁ऑपरेटिंग	-11946
▁1991	-11947
▁भरपाई	-11948
▁मोहित	-11949
▁वरदान	-11950
▁जनप्रतिनि	-11951
पादित	-11952
▁रसायन	-11953
▁प्रवास	-11954
▁रखरखाव	-11955
▁देवताओं	-11956
▁विकलांग	-11957
-25	-11958
धीय	-11959
▁कृति	-11960
कुमारी	-11961
per	-11962
▁02	-11963
▁03	-11964
दानी	-11965
▁सुष	-11966
▁ऑडिट	-11967
▁चमत्कार	-11968
▁सिरदर्द	-11969
▁पारदर्शी	-11970
▁अनलिमिटेड	-11971
▁विरोधियों	-11972
▁सरो	-11973
▁थाली	-11974
▁मीर	-11975
▁लम्बी	-11976
माला	-11977
स्फी	-11978
ुतोष	-11979
▁खां	-11980
▁चिर	-11981
णियां	-11982
▁खाकर	-11983
▁हसीना	-11984
▁अधिकृत	-11985
▁प्रोमो	-11986
▁विस्फोटक	-11987
संघ	-11988
▁2:	-11989
करीब	-11990
▁बहुल	-11991
▁माथे	-11992
▁कार्ट	-11993
▁चश्मा	-11994
▁स्मारक	-11995
▁एंड्रॉयड	-11996
बीटी	-11997
▁वसु	-11998
▁1980	-11999
▁खोने	-12000
▁खासियत	-12001
▁दोगुना	-12002
▁सिद्दीकी	-12003
▁ऑफर्स	-12004
▁ठिकानों	-12005
▁सेलिब्र	-12006
▁श्रद्धालु	-12007
▁इंडस्ट्रीज	-12008
-12	-12009
ड्रा	-12010
यानी	-12011
▁144	-12012
▁जेम्स	-12013
▁दोस्तो	-12014
▁रिव्यू	-12015
▁जानेंगे	-12016
▁धर्मनिरपेक्ष	-12017
तृ	-12018
oft	-12019
▁गोगोई	-12020
▁पैकेट	-12021
▁होंठों	-12022
▁अध्यापक	-12023
▁मध्यस्थ	-12024
बेन	-12025
▁ओब	-12026
▁राध	-12027
▁1996	-12028
▁झूठा	-12029
▁अब्बास	-12030
▁नाराज़	-12031
▁मुरली	-12032
▁मुख्तार	-12033
▁प्रेमिका	-12034
उंस	-12035
्नल	-12036
जीवी	-12037
▁नाख	-12038
सामने	-12039
▁Khan	-12040
▁Play	-12041
ेंसिंग	-12042
▁निचली	-12043
▁विफलता	-12044
▁website	-12045
▁एंटरटेन	-12046
▁विक्रेता	-12047
▁Hot	-12048
▁उमा	-12049
▁छापा	-12050
▁वहीँ	-12051
▁स्वत	-12052
▁सट्टे	-12053
▁पीरियड	-12054
▁विंडोज	-12055
▁Android	-12056
▁वायरलेस	-12057
जद	-12058
hip	-12059
पश्च	-12060
▁नहर	-12061
▁लगाम	-12062
▁तहरीर	-12063
▁बर्ताव	-12064
▁कृत्रिम	-12065
▁महाभारत	-12066
▁हिर	-12067
▁लगना	-12068
▁एमएसपी	-12069
मीर	-12070
▁रवै	-12071
▁महावीर	-12072
▁सूर्यवंशी	-12073
▁रिकॉर्डिंग	-12074
▁चुनौतीपूर्ण	-12075
AC	-12076
bh	-12077
निटर	-12078
प्रा	-12079
▁अवर	-12080
▁मयंक	-12081
▁हुंडई	-12082
▁काउंटर	-12083
▁निकलना	-12084
▁फेस्टिवल	-12085
▁हस्तांतर	-12086
▁!!	-12087
▁चुद	-12088
▁वॉक	-12089
▁खुलासे	-12090
▁फंक्शन	-12091
▁भगवा	-12092
▁मुहर	-12093
▁स्टूडियो	-12094
ओवर	-12095
▁81	-12096
▁मैर	-12097
▁1947	-12098
▁हारने	-12099
मंत्रियों	-12100
▁छोर	-12101
▁खुशबू	-12102
▁कैलेंडर	-12103
▁ठेकेदार	-12104
▁दुर्भाग्यपूर्ण	-12105
शहर	-12106
धाना	-12107
▁FIR	-12108
▁एनएस	-12109
▁दरार	-12110
▁अभिनव	-12111
▁कोशिशों	-12112
▁अध्यादेश	-12113
▁केसर	-12114
▁व्यंग	-12115
▁अंदरूनी	-12116
▁राजनयिक	-12117
▁ओह	-12118
▁ईशा	-12119
▁चूम	-12120
ember	-12121
▁भेजना	-12122
▁माइकल	-12123
ईस	-12124
▁खौफ	-12125
▁गाया	-12126
▁गिना	-12127
▁भोले	-12128
ोत्तरी	-12129
ग्राउंड	-12130
▁उज्जैन	-12131
▁केमिकल	-12132
▁गिराया	-12133
ृता	-12134
ोवा	-12135
ates	-12136
ंद्रह	-12137
ब्राह	-12138
▁सुमित	-12139
▁एजेंडा	-12140
▁संबद्ध	-12141
▁स्टैंडर्ड	-12142
MC	-12143
षी	-12144
संत	-12145
▁टॉय	-12146
▁बंदी	-12147
▁सेविंग	-12148
▁किफायती	-12149
▁सुरक्षाबलों	-12150
ेब	-12151
क्कड़	-12152
इंडिया	-12153
र्शियल	-12154
▁अफसोस	-12155
▁होल्ड	-12156
▁जवाहरलाल	-12157
▁पुनर्वास	-12158
▁म्यूचुअल	-12159
rit	-12160
पिछ	-12161
▁पस	-12162
वड़ा	-12163
▁यूँ	-12164
▁वाद	-12165
▁Cour	-12166
▁आदेशों	-12167
▁एस्टेट	-12168
▁रवींद्र	-12169
▁अनुमानित	-12170
▁स्नैपड्रैगन	-12171
बीएस	-12172
▁आज़	-12173
▁टैप	-12174
संचार	-12175
▁अंपायर	-12176
kar	-12177
ओएस	-12178
पाट	-12179
▁180	-12180
बाज़ी	-12181
▁चाहत	-12182
▁चाहा	-12183
▁समावेश	-12184
▁परमात्मा	-12185
▁विज्ञापनों	-12186
ुख	-12187
हिट	-12188
▁लिक	-12189
▁शेफ	-12190
▁कॉम्प	-12191
▁बालिका	-12192
ॉर्	-12193
ज़ों	-12194
▁लीवर	-12195
▁कृत्य	-12196
▁कीजिये	-12197
▁ग्यारह	-12198
▁शिवाजी	-12199
▁पहुंचना	-12200
▁अद्वितीय	-12201
▁स्त्रियों	-12202
ents	-12203
▁धमक	-12204
▁अराज	-12205
क्षिप्त	-12206
▁तोड़कर	-12207
▁नक्सली	-12208
सस	-12209
▁अड़	-12210
embly	-12211
▁संध्या	-12212
ऑन	-12213
▁Th	-12214
olog	-12215
रीदी	-12216
▁बोध	-12217
▁मर्जी	-12218
▁परिपक्व	-12219
▁फरीदाबाद	-12220
▁सत्ताधारी	-12221
▁साम्राज्य	-12222
▁डेमोक्रेटिक	-12223
▁130	-12224
नए	-12225
ँसी	-12226
प्पो	-12227
▁2.0	-12228
▁अतीक	-12229
▁रुकने	-12230
▁सुधीर	-12231
▁माइक्र	-12232
▁क्लासिक	-12233
▁शुक्रिया	-12234
ace	-12235
बाप	-12236
▁ड्रॉ	-12237
▁बंगाली	-12238
▁सिब्बल	-12239
ुबली	-12240
▁यज्ञ	-12241
▁नेत्र	-12242
▁टैक्सी	-12243
▁इंफेक्शन	-12244
▁कॉरपोरेट	-12245
▁आपातकालीन	-12246
ors	-12247
▁घृणा	-12248
▁बापू	-12249
▁पढ़िए	-12250
▁कस्टमर	-12251
▁यद्यपि	-12252
▁दीपावली	-12253
सक	-12254
भजन	-12255
▁इन्स	-12256
▁वन्य	-12257
▁विंग	-12258
▁इलाका	-12259
▁देंगी	-12260
▁भावनाएं	-12261
▁एकदिवसीय	-12262
▁पोर्टफोल	-12263
▁मुश्किलों	-12264
▁स्क्रिप्ट	-12265
गमन	-12266
▁नूर	-12267
▁कमला	-12268
ानुभूति	-12269
▁क्यूंकि	-12270
मेक	-12271
▁कण	-12272
▁Step	-12273
▁बदबू	-12274
▁तृतीय	-12275
▁बेहोश	-12276
▁नर्सिंग	-12277
हाली	-12278
्रार	-12279
▁तलब	-12280
िनेंट	-12281
▁मिचेल	-12282
▁तुम्हे	-12283
▁स्टाइलिश	-12284
!'	-12285
नस	-12286
▁sh	-12287
▁लत	-12288
▁डेल	-12289
िडिटी	-12290
▁काजल	-12291
▁ज्वा	-12292
▁यूज़	-12293
▁दुसरे	-12294
▁फिक्स	-12295
▁बस्तर	-12296
▁उपेक्षा	-12297
57	-12298
▁IC	-12299
▁कद	-12300
ण्डल	-12301
▁थाम	-12302
▁यथा	-12303
▁ज़रिए	-12304
▁बाबरी	-12305
▁सम्पन्न	-12306
▁हलफनामे	-12307
HO	-12308
▁जेठ	-12309
▁सुलझा	-12310
▁जबलपुर	-12311
▁नौकरीपेशा	-12312
ck	-12313
urr	-12314
ॉन्स	-12315
▁How	-12316
▁अमेठी	-12317
▁आज़ाद	-12318
▁निदान	-12319
▁लगाये	-12320
▁वक्री	-12321
▁गोल्डन	-12322
▁प्रदर्शनकारी	-12323
ोशी	-12324
▁Bh	-12325
▁लय	-12326
्यूमर	-12327
▁नकार	-12328
▁रिकवरी	-12329
ोव	-12330
way	-12331
▁भट	-12332
▁नवाज	-12333
▁आनन्द	-12334
रोल	-12335
▁पाटी	-12336
▁डायलॉग	-12337
▁मैग्नी	-12338
so	-12339
डीसी	-12340
▁3.5	-12341
▁पिक	-12342
▁Board	-12343
▁भेजकर	-12344
▁नन	-12345
abha	-12346
▁कर्नल	-12347
▁क्रिएट	-12348
▁खरीदें	-12349
▁नेताजी	-12350
ँव	-12351
वॉ	-12352
-22	-12353
प्रश	-12354
▁सिद्धि	-12355
▁इस्लामी	-12356
▁ग्रेजुएशन	-12357
ायर्ड	-12358
▁Vivo	-12359
▁टर्न	-12360
▁मर्या	-12361
▁संभवतः	-12362
ीजन	-12363
▁पॉवर	-12364
▁रिस्प	-12365
▁समझें	-12366
▁चिंताजनक	-12367
कुंभ	-12368
हाड़	-12369
▁एडवो	-12370
▁ध्रुव	-12371
▁स्टेन	-12372
▁रेखांकित	-12373
▁मल्लिकार्जुन	-12374
▁बख्	-12375
▁सवा	-12376
▁जनजा	-12377
▁वृद्ध	-12378
▁स्टाल	-12379
▁आशुतोष	-12380
▁अथॉरिटी	-12381
▁ईंट	-12382
▁अकेली	-12383
▁कीमती	-12384
▁टुकड़ों	-12385
▁क्षमताओं	-12386
▁पूर्वानु	-12387
▁एम्ब	-12388
चंद्रन	-12389
▁दामों	-12390
▁190	-12391
▁गर्ग	-12392
▁स्तंभ	-12393
▁ज़्यादातर	-12394
▁पोर्टफोलियो	-12395
500	-12396
▁महाप	-12397
▁जायजा	-12398
▁जीवंत	-12399
▁शिरकत	-12400
▁वर्कआउट	-12401
▁उत्सर्जन	-12402
▁संरक्षित	-12403
▁नाश	-12404
▁लंच	-12405
▁सकल	-12406
▁मसलन	-12407
▁रिस्क	-12408
▁स्मरण	-12409
फ़्ट	-12410
बाही	-12411
▁Cont	-12412
▁बैठकों	-12413
▁शर्तें	-12414
44	-12415
वाहक	-12416
▁पहाड़ों	-12417
▁सहानुभूति	-12418
▁08	-12419
▁पसी	-12420
▁एडिशन	-12421
▁कमज़ोर	-12422
)-	-12423
BSE	-12424
ुलन	-12425
▁बग	-12426
िसिन	-12427
▁कैदी	-12428
▁कैंपस	-12429
▁छोड़े	-12430
▁समझकर	-12431
▁आरामदायक	-12432
▁नामित	-12433
▁विधवा	-12434
डियन	-12435
▁लखी	-12436
▁बैकअप	-12437
98	-12438
FC	-12439
न्नत	-12440
पर्स	-12441
▁समर	-12442
ोरियल	-12443
▁माली	-12444
▁प्यास	-12445
▁बेल्ट	-12446
▁साकार	-12447
▁दीर्घकालिक	-12448
▁बदलती	-12449
▁Maruti	-12450
▁बेसब्री	-12451
गीर	-12452
▁अनार	-12453
▁भलाई	-12454
▁कस्बे	-12455
▁रेस्तरां	-12456
ages	-12457
▁एलन	-12458
▁लां	-12459
र्वेदी	-12460
▁जीतना	-12461
▁संक्षिप्त	-12462
▁बैठते	-12463
▁लड़ना	-12464
▁निष्क्रिय	-12465
ाहट	-12466
न्तर	-12467
ल्थ	-12468
▁भव	-12469
▁AAP	-12470
▁नेक	-12471
▁जंगली	-12472
▁ग्रेटर	-12473
lication	-12474
▁गलतियों	-12475
▁कार्यालयों	-12476
▁पूर्वानुमान	-12477
छता	-12478
भीत	-12479
▁छेद	-12480
▁पेट्रोलियम	-12481
rom	-12482
गिल	-12483
राणिक	-12484
▁कुचल	-12485
▁जर्मन	-12486
▁मूत्र	-12487
▁सिखाया	-12488
▁अपमानजनक	-12489
गैरह	-12490
▁एनाल	-12491
▁बर्न	-12492
▁आंतों	-12493
▁गुमराह	-12494
▁फिंगरप्रिंट	-12495
▁गेल	-12496
▁देसाई	-12497
▁पुजारा	-12498
▁मुहम्मद	-12499
▁मान्यताओं	-12500
▁कंटेस्टेंट	-12501
टॉप	-12502
▁फौज	-12503
▁लपेट	-12504
▁ओवरों	-12505
▁यूएसबी	-12506
▁दावेदार	-12507
▁स्क्रीनिंग	-12508
▁92	-12509
▁तात्	-12510
पोरेशन	-12511
।)	-12512
▁आयाम	-12513
▁रिज़	-12514
फ़ॉर्म	-12515
▁चाहने	-12516
▁जीवनशैली	-12517
▁कम्प्यूटर	-12518
▁चतुर्वेदी	-12519
ero	-12520
एनएल	-12521
▁विराम	-12522
▁मॉनिटर	-12523
ouT	-12524
इसे	-12525
ोहित	-12526
्रोजन	-12527
▁जुनून	-12528
▁Assembly	-12529
▁कार्बोहाइड्रेट	-12530
कप	-12531
▁चुत	-12532
▁बगा	-12533
▁आज्ञ	-12534
▁कोल्ड	-12535
▁व्यर्थ	-12536
▁पौराणिक	-12537
▁भाग्यशाली	-12538
घ्न	-12539
▁OT	-12540
▁छपी	-12541
▁रखनी	-12542
▁गुरुद्व	-12543
क़ा	-12544
▁पीपी	-12545
▁कोलंब	-12546
▁पंद्रह	-12547
▁रुकावट	-12548
▁औषधीय	-12549
▁दिनभर	-12550
▁सुरंग	-12551
▁प्लेऑफ	-12552
▁स्तरों	-12553
▁इंस्टॉल	-12554
▁जवाबदेही	-12555
ुखी	-12556
▁इंटेलिजेंस	-12557
▁देशवासियों	-12558
▁योन	-12559
▁आइटम	-12560
▁उन्म	-12561
▁माइन	-12562
▁चमकदार	-12563
▁सीमेंट	-12564
▁बुलडोजर	-12565
▁दबद	-12566
▁झंडे	-12567
▁पाली	-12568
▁Indian	-12569
lip	-12570
आरएफ	-12571
▁परो	-12572
▁खदान	-12573
▁धकेल	-12574
▁तबाही	-12575
▁बोलता	-12576
▁वाक्य	-12577
▁निश्चय	-12578
▁डिप्रेशन	-12579
मोरी	-12580
▁मज़े	-12581
▁करिश्मा	-12582
▁शास्त्रों	-12583
▁अपार्टमेंट	-12584
ात्	-12585
पानी	-12586
▁दाने	-12587
▁धुंध	-12588
▁World	-12589
▁मुफ्ती	-12590
▁ट्रेनें	-12591
▁ज़िम्मेदारी	-12592
▁पारा	-12593
▁झगड़े	-12594
▁ब्रेन	-12595
▁वापिस	-12596
▁अफरीदी	-12597
▁एडवोकेट	-12598
▁उम्मीदों	-12599
▁विज्ञप्ति	-12600
Ch	-12601
ओमी	-12602
▁घोर	-12603
▁आदान	-12604
▁लाता	-12605
▁सचेत	-12606
▁सम्मिल	-12607
▁सुप्रीमो	-12608
pan	-12609
▁लेखा	-12610
▁स्टॉप	-12611
▁कामगार	-12612
▁पूर्वक	-12613
▁ब्रश	-12614
▁स्कै	-12615
▁अनुया	-12616
▁ओबामा	-12617
▁व्ह	-12618
▁चौंक	-12619
▁कॉर्पोरेट	-12620
▁Am	-12621
▁ढे	-12622
▁शीतल	-12623
▁50,000	-12624
▁पंक्ति	-12625
▁परिवेश	-12626
▁प्रताड़ित	-12627
48	-12628
67	-12629
बेर	-12630
दत्त	-12631
▁कतई	-12632
▁ज़रा	-12633
▁पूरक	-12634
▁रोहत	-12635
स्फीति	-12636
▁हटाकर	-12637
कांक्षी	-12638
नानी	-12639
▁इकल	-12640
▁बखूबी	-12641
वाइन	-12642
ोनिया	-12643
▁पुष्कर	-12644
▁सेक्रेट	-12645
68	-12646
नाह	-12647
▁असामान्य	-12648
▁क्रियान्वयन	-12649
चिक	-12650
सूर	-12651
ेटिक	-12652
▁पैड	-12653
क्टिव	-12654
विंदा	-12655
▁प्रगतिशील	-12656
9,	-12657
bo	-12658
्बा	-12659
▁राजे	-12660
▁ग्लूको	-12661
▁राष्ट्रवादी	-12662
65	-12663
धक	-12664
दड़	-12665
▁।।	-12666
▁रोट	-12667
▁हाज	-12668
लोगों	-12669
स्पीड	-12670
▁Free	-12671
▁समेट	-12672
▁कुंजी	-12673
▁चौड़ा	-12674
▁फैन्स	-12675
▁अभियंता	-12676
षे	-12677
पाठ	-12678
▁Mov	-12679
▁छुड़ा	-12680
▁कीर्ति	-12681
▁मालिनी	-12682
▁th	-12683
▁6.5	-12684
▁रचा	-12685
▁ऊंचा	-12686
▁इकोनॉ	-12687
▁स्ट्रोक	-12688
II	-12689
धव	-12690
िशनल	-12691
▁फेक	-12692
▁गूंज	-12693
ेंटाइन	-12694
▁पुकार	-12695
▁प्रतिभागियों	-12696
▁अनशन	-12697
▁मुकाबलों	-12698
yst	-12699
बाह	-12700
हतिया	-12701
▁खिलौ	-12702
▁डालर	-12703
▁हीरा	-12704
▁मैग्नीशियम	-12705
▁Bl	-12706
▁टोपी	-12707
▁कुश्ती	-12708
ौरन	-12709
▁आख़िर	-12710
▁ज्वाइन	-12711
▁तीव्रता	-12712
▁हस्तियों	-12713
▁छुट्टियों	-12714
▁राष्ट्रवाद	-12715
माबाद	-12716
▁रहित	-12717
▁खोलकर	-12718
▁दुर्व	-12719
▁बच्चो	-12720
▁वगैरह	-12721
▁अश्विनी	-12722
क़ी	-12723
▁डीसी	-12724
▁सुषमा	-12725
200	-12726
ush	-12727
ओगे	-12728
गेड	-12729
▁कलक	-12730
▁यीशु	-12731
▁योद्धा	-12732
▁प्रॉब्ल	-12733
मुन	-12734
▁93	-12735
यंकर	-12736
▁खेर	-12737
▁निज	-12738
▁दंगा	-12739
▁नीलम	-12740
▁सहार	-12741
▁गंवाने	-12742
▁तालिका	-12743
▁जबरदस्ती	-12744
▁संवेदनशीलता	-12745
हु	-12746
लिन	-12747
▁एकेड	-12748
▁हिमालय	-12749
▁दालचीनी	-12750
▁बदलावों	-12751
जीन	-12752
▁डिपॉ	-12753
▁बटलर	-12754
▁मसीह	-12755
▁शासक	-12756
▁धर्मों	-12757
▁बर्थडे	-12758
▁बीएसपी	-12759
▁परिश्रम	-12760
▁वेश	-12761
▁डायरी	-12762
▁बनवाने	-12763
▁लाभप्रद	-12764
▁हड़क	-12765
asthan	-12766
द्रोही	-12767
▁आभूषण	-12768
▁सक्रियता	-12769
▁श्रेणियों	-12770
वर्ग	-12771
▁Fin	-12772
endra	-12773
▁रहीम	-12774
▁करोगे	-12775
ोनेशिया	-12776
▁लखीमपुर	-12777
▁समितियों	-12778
64	-12779
महल	-12780
संह	-12781
▁Di	-12782
रेटिव	-12783
ष्टिक	-12784
▁कैरे	-12785
▁वीकेंड	-12786
▁नियो	-12787
▁ताल्ल	-12788
▁कारोबारियों	-12789
▁चारा	-12790
▁रोहि	-12791
▁Rashi	-12792
▁प्रसं	-12793
▁डेटिंग	-12794
▁गैंगस्टर	-12795
▁निमंत्रण	-12796
▁कॉन्ट्रैक्ट	-12797
विस	-12798
▁डरते	-12799
्यवहार	-12800
▁आज्ञा	-12801
▁नहाने	-12802
▁प्रदोष	-12803
▁एक्टर्स	-12804
▁Act	-12805
▁सूद	-12806
▁फैले	-12807
▁दिखाकर	-12808
एलसी	-12809
▁Dis	-12810
स्तों	-12811
▁उपास	-12812
▁दहेज	-12813
▁जुड़ाव	-12814
▁सीएसके	-12815
▁सौहार्	-12816
▁स्टोक्स	-12817
▁कार्यशाला	-12818
▁वाणिज्यिक	-12819
▁हेल्पलाइन	-12820
BC	-12821
ement	-12822
▁पांव	-12823
▁मुगल	-12824
▁यादें	-12825
▁कारावास	-12826
▁हाइड्रेट	-12827
ैच	-12828
igh	-12829
char	-12830
▁चंप	-12831
▁पारि	-12832
▁मिलन	-12833
▁रेफर	-12834
▁रुझान	-12835
▁गिरफ़्तार	-12836
▁चुनौतियां	-12837
जनी	-12838
▁बीती	-12839
▁माइक	-12840
▁मिटा	-12841
▁एनजीओ	-12842
▁भयंकर	-12843
▁ताकतवर	-12844
▁देशमुख	-12845
▁बंदरगाह	-12846
▁आइसो	-12847
▁SBI	-12848
▁निबंध	-12849
▁जामिया	-12850
▁बैंगलोर	-12851
▁सम्मिलित	-12852
▁मुजफ्फरपुर	-12853
▁कार्यान्वयन	-12854
▁Post	-12855
▁पॉली	-12856
▁इजराइल	-12857
AA	-12858
ंजय	-12859
उधर	-12860
बहन	-12861
माता	-12862
▁खिस	-12863
▁डीडी	-12864
▁अपनों	-12865
▁आजीवन	-12866
mission	-12867
▁1992	-12868
▁अम्ब	-12869
▁एमएम	-12870
▁निकलती	-12871
वादास्पद	-12872
▁अन्तर्गत	-12873
जोर	-12874
▁कबूल	-12875
▁जयंत	-12876
▁विद्वान	-12877
दिया	-12878
स्थी	-12879
▁मेहमानों	-12880
▁इम्युनिटी	-12881
ैप	-12882
हमी	-12883
▁गोबर	-12884
▁मिमी	-12885
▁मनाते	-12886
▁लड़ते	-12887
▁शिष्य	-12888
▁फेंकने	-12889
▁नैतिकता	-12890
▁समर्थित	-12891
▁प्रदर्शनी	-12892
लग	-12893
▁कंध	-12894
कार्प	-12895
ouTube	-12896
▁Bihar	-12897
▁भगवंत	-12898
▁महिमा	-12899
▁वॉट्स	-12900
▁साहेब	-12901
▁आबकारी	-12902
▁राजदूत	-12903
▁दोहराया	-12904
▁प्रधाना	-12905
▁स्वदेशी	-12906
बूल	-12907
▁2-	-12908
umar	-12909
ब्लू	-12910
▁पक्षी	-12911
▁स्वाय	-12912
▁जापानी	-12913
▁जिम्बा	-12914
▁वेंटिल	-12915
▁एट	-12916
गिरी	-12917
▁लीज	-12918
ान्यास	-12919
▁म्यांमार	-12920
ओसी	-12921
▁खल	-12922
▁ऑर्	-12923
▁पेर	-12924
▁सीम	-12925
▁परंपरागत	-12926
सभी	-12927
▁आड़	-12928
षिकेश	-12929
▁Trad	-12930
▁ऊंचे	-12931
▁रणजी	-12932
केंद्र	-12933
▁इकबाल	-12934
ti	-12935
एआई	-12936
सरण	-12937
िज़	-12938
निष्ठ	-12939
ूल्हे	-12940
▁कयास	-12941
▁दक्षता	-12942
साल	-12943
्ये	-12944
▁Gro	-12945
▁1500	-12946
▁अद्य	-12947
▁बेचे	-12948
▁ड्रॉप	-12949
▁ब्रिज	-12950
प्लेक्स	-12951
मेकर	-12952
▁खटख	-12953
▁डॉन	-12954
▁लंग	-12955
तीर्ण	-12956
▁चादर	-12957
▁लग्ज	-12958
परिवार	-12959
▁नर्मदा	-12960
▁पुत्री	-12961
▁अविश्वास	-12962
▁मुताबिक़	-12963
▁एनी	-12964
▁मेम	-12965
▁बॉबी	-12966
वेंद्र	-12967
▁टाइटल	-12968
▁आराधना	-12969
▁सर्किट	-12970
ead	-12971
खलन	-12972
▁चबा	-12973
▁मेरिट	-12974
▁गाजीपुर	-12975
▁ब्राउज़र	-12976
ोच	-12977
-23	-12978
वीन	-12979
▁जिद	-12980
▁पटक	-12981
▁मैग	-12982
▁वॉच	-12983
▁अनमोल	-12984
▁गीतों	-12985
▁वैधता	-12986
▁सिक्के	-12987
▁दिव्यांग	-12988
▁प्रतिद्वंद्वी	-12989
▁सरफ	-12990
▁घाटा	-12991
▁टुडे	-12992
▁एथलीट	-12993
▁कराकर	-12994
▁खाड़ी	-12995
▁गायकवाड़	-12996
▁रोजमर्रा	-12997
▁आश्चर्यजनक	-12998
▁विवादास्पद	-12999
बत्ती	-13000
▁उत्प	-13001
▁जीरा	-13002
पूर्ति	-13003
▁बेवजह	-13004
▁गोविंदा	-13005
▁तारीखों	-13006
▁स्टेप्स	-13007
करों	-13008
बरेली	-13009
▁बाबत	-13010
▁पंक्त	-13011
▁पंचमी	-13012
▁कहलाता	-13013
▁कक्षाओं	-13014
ुस	-13015
▁सजग	-13016
▁रोते	-13017
▁अन्तर	-13018
▁छोड़ते	-13019
▁बेचैनी	-13020
▁उत्पादक	-13021
▁संग्राम	-13022
▁भूपेंद्र	-13023
▁जिम्बाब्वे	-13024
▁सिमट	-13025
▁तहसीलदार	-13026
raj	-13027
जगह	-13028
▁असदु	-13029
▁फिसल	-13030
▁हराने	-13031
▁हाइपर	-13032
▁मिजोरम	-13033
gist	-13034
पुल्स	-13035
▁हिना	-13036
▁उतारे	-13037
▁हरभजन	-13038
▁अर्शदीप	-13039
ake	-13040
der	-13041
उत्	-13042
मार्क	-13043
▁एनएच	-13044
▁करिए	-13045
▁बनीं	-13046
▁आदतों	-13047
▁बहाना	-13048
▁चालीसा	-13049
भवन	-13050
क्ले	-13051
बूबा	-13052
▁अवध	-13053
▁केला	-13054
▁रवैये	-13055
▁लास्ट	-13056
▁पढ़ाने	-13057
▁घरवालों	-13058
▁ब्रिगेड	-13059
▁लड़ेंगे	-13060
▁घुटनों	-13061
▁ज़िक्र	-13062
▁वामपंथी	-13063
▁एंड्रॉइड	-13064
kh	-13065
-17	-13066
ोले	-13067
▁छल	-13068
विदेश	-13069
▁ब्रज	-13070
▁वर्च	-13071
▁अयोग्य	-13072
▁प्रदूष	-13073
▁विनिर्माण	-13074
▁Pat	-13075
▁ठगी	-13076
▁नवाब	-13077
▁फर्श	-13078
▁इशारे	-13079
▁झड़ने	-13080
▁रिवर्स	-13081
न्नू	-13082
▁Net	-13083
▁अंडा	-13084
▁कांस	-13085
▁लगाता	-13086
▁संक्र	-13087
▁बुलाने	-13088
▁दूरसंचार	-13089
▁सतत	-13090
▁चट्ट	-13091
▁फतेह	-13092
▁रीति	-13093
दुनिया	-13094
▁लग्जरी	-13095
वियर	-13096
▁भां	-13097
▁1984	-13098
▁एडिट	-13099
▁सगाई	-13100
▁निर्मल	-13101
▁देशभक्ति	-13102
omi	-13103
Plus	-13104
atus	-13105
ट्टर	-13106
▁Tra	-13107
▁अहि	-13108
▁वृष	-13109
कायदा	-13110
▁मंज़	-13111
▁चोदने	-13112
▁अर्थात्	-13113
▁ट्रीटमेंट	-13114
तब	-13115
रूम	-13116
िमय	-13117
हमति	-13118
▁इंप	-13119
▁बिख	-13120
▁Co	-13121
▁टोन	-13122
▁5-	-13123
▁ओला	-13124
▁यहू	-13125
▁प्लेस	-13126
▁चिपसेट	-13127
▁निवेदन	-13128
▁सुब्रमण	-13129
▁राजनेताओं	-13130
▁मुजफ्फरनगर	-13131
anj	-13132
ऐसे	-13133
▁3,	-13134
ाइलों	-13135
ternet	-13136
▁मांझी	-13137
▁मुद्रास्फीति	-13138
EE	-13139
उप	-13140
सेवा	-13141
▁गुज़र	-13142
▁मुआवजे	-13143
▁सेटिंग	-13144
▁ड्राफ्ट	-13145
▁शिलान्यास	-13146
चारे	-13147
बन्ध	-13148
▁पीला	-13149
▁कमरों	-13150
▁चर्बी	-13151
▁पक्की	-13152
▁बंगले	-13153
▁मज़दूर	-13154
▁बिंदुओं	-13155
▁लाइब्रे	-13156
▁इंडोनेशिया	-13157
नई	-13158
ितु	-13159
▁91	-13160
oney	-13161
▁घटी	-13162
▁लॉन्ग	-13163
▁विदाई	-13164
▁कन्नड़	-13165
▁गैंगरेप	-13166
▁भागलपुर	-13167
▁रियलिटी	-13168
▁धर्मांतरण	-13169
▁ट्रांसपोर्ट	-13170
खम	-13171
केन	-13172
▁3-	-13173
▁नशी	-13174
बायोट	-13175
▁यादों	-13176
▁एकाउंट	-13177
▁समकक्ष	-13178
▁जिन्दगी	-13179
▁परफेक्ट	-13180
मीत	-13181
जीबी	-13182
बाला	-13183
▁140	-13184
▁कसर	-13185
▁अनुज	-13186
▁बलिया	-13187
▁भतीजे	-13188
▁फाइनेंशियल	-13189
वंश	-13190
्वरी	-13191
▁सौम	-13192
▁बटोर	-13193
▁उपद्र	-13194
▁नाजुक	-13195
▁गुजरने	-13196
▁सिक्किम	-13197
भारी	-13198
▁Mah	-13199
▁रातों	-13200
▁प्रोफ़	-13201
▁मर्यादा	-13202
▁Facebook	-13203
St	-13204
किया	-13205
फर्म	-13206
ुर्र	-13207
▁विस	-13208
▁सलाम	-13209
▁बोलीं	-13210
▁प्रभार	-13211
▁मांगते	-13212
सां	-13213
▁तैर	-13214
▁थाई	-13215
itcoin	-13216
▁फोटोज	-13217
▁मिलीं	-13218
▁विकार	-13219
▁दिखेगा	-13220
कोच	-13221
ैशी	-13222
ाफ्ट	-13223
▁लेग	-13224
▁सूप	-13225
▁जड़ी	-13226
▁सड़कें	-13227
डि़	-13228
▁नट	-13229
वीपी	-13230
▁जुआ	-13231
▁वोल	-13232
▁ओप्पो	-13233
▁कलकत्ता	-13234
ings	-13235
जियम	-13236
ब्बा	-13237
▁कलम	-13238
मानना	-13239
▁फ्लॉप	-13240
▁क्विंट	-13241
▁पुख्ता	-13242
▁हड़कंप	-13243
▁निकायों	-13244
PM	-13245
अरे	-13246
पाक	-13247
▁घों	-13248
▁ग्लै	-13249
▁सुधा	-13250
▁अजमेर	-13251
▁शासकीय	-13252
▁वर्चस्व	-13253
▁3:	-13254
▁टिम	-13255
स्तीन	-13256
▁वसीम	-13257
▁वॉटर	-13258
▁पसीने	-13259
▁प्रसव	-13260
▁व्हीकल	-13261
▁महाकुंभ	-13262
▁विवेकान	-13263
▁सुधारों	-13264
क्ड	-13265
फली	-13266
ाहे	-13267
▁वु	-13268
बच्च	-13269
▁रेसल	-13270
▁सिंड	-13271
▁सिडनी	-13272
गोर	-13273
हिर	-13274
▁अभूत	-13275
▁एंगल	-13276
▁कचरे	-13277
▁नामी	-13278
ड्रिंग	-13279
▁मोहल्ले	-13280
▁संग्रहालय	-13281
▁प्रतिबंधों	-13282
जूर	-13283
नाज	-13284
▁पुरूष	-13285
▁बचाना	-13286
▁कारकों	-13287
▁निष्ठा	-13288
▁सुदर्शन	-13289
▁सुपरहिट	-13290
word	-13291
▁केबल	-13292
▁डिब्बे	-13293
▁जायंट्स	-13294
▁प्रदाता	-13295
▁मिश्रित	-13296
▁विश्वसनीयता	-13297
-16	-13298
▁यों	-13299
▁हाय	-13300
▁ब्ले	-13301
▁लोहा	-13302
ks	-13303
मनी	-13304
ated	-13305
संगत	-13306
▁जोस	-13307
▁लिय	-13308
▁Loan	-13309
▁उर्फी	-13310
▁सृष्टि	-13311
▁ऑर	-13312
▁तुष	-13313
▁3000	-13314
▁गाजा	-13315
▁प्रज्ञा	-13316
7,	-13317
▁इल	-13318
▁भरें	-13319
ification	-13320
▁सेटिंग्स	-13321
चेरी	-13322
▁डालता	-13323
▁फ्यूल	-13324
▁नवाचार	-13325
▁ताल्लुक	-13326
▁सहारनपुर	-13327
49	-13328
ुअल	-13329
फेयर	-13330
▁छूने	-13331
▁पिंक	-13332
▁पीली	-13333
▁क़रीब	-13334
▁बीएसएफ	-13335
▁होस्टिंग	-13336
ुमा	-13337
▁यौ	-13338
▁भून	-13339
▁छिपे	-13340
▁खट्टर	-13341
▁ज़ाहिर	-13342
खला	-13343
शाक	-13344
समी	-13345
▁सूखी	-13346
▁असंतोष	-13347
▁एलआईसी	-13348
▁असदुद्दीन	-13349
▁Eng	-13350
▁यंग	-13351
▁वफा	-13352
लाइका	-13353
▁आजमा	-13354
▁नंदी	-13355
▁बचाओ	-13356
▁अभद्र	-13357
▁टेंडर	-13358
▁बंगला	-13359
▁स्टारर	-13360
▁उत्तीर्ण	-13361
▁अभूतपूर्व	-13362
▁बॉयफ्रेंड	-13363
".	-13364
धुनिक	-13365
▁कैप्	-13366
▁धीमा	-13367
▁पतली	-13368
▁जन्मे	-13369
▁जवाबी	-13370
▁ट्राइ	-13371
▁महबूबा	-13372
▁धर्मशाला	-13373
▁इस्लामाबाद	-13374
▁(10	-13375
▁घने	-13376
विन्द	-13377
▁तत्पर	-13378
▁अपर्चर	-13379
▁जिलाध्यक्ष	-13380
mm	-13381
टीय	-13382
दित	-13383
ज़ाम	-13384
पहले	-13385
▁वॉलेट	-13386
▁पीपुल्स	-13387
▁व्याप्त	-13388
▁हर्ट्ज़	-13389
▁स्वायत्त	-13390
ोटो	-13391
मिंग	-13392
▁जीन	-13393
▁डेन	-13394
▁नीद	-13395
▁मुन	-13396
▁होट	-13397
दियां	-13398
▁तबाह	-13399
▁फहरा	-13400
▁Sabha	-13401
▁रखेगा	-13402
▁इंटरनल	-13403
▁इम्यूनिटी	-13404
पेज	-13405
▁गन्ना	-13406
▁गिराने	-13407
▁पुस्तकों	-13408
▁बढ़ोत्तरी	-13409
▁ID	-13410
ाधिकार	-13411
▁Smart	-13412
▁निपटा	-13413
▁पक्षियों	-13414
।.	-13415
लग्न	-13416
▁रेन	-13417
▁खंडन	-13418
▁दरें	-13419
मुस्लिम	-13420
▁अनुसरण	-13421
▁अवमानना	-13422
▁डिपॉजिट	-13423
▁दुष्प्रभाव	-13424
.75	-13425
ous	-13426
स्फ	-13427
▁अबू	-13428
▁एसएस	-13429
▁सलाद	-13430
▁चार्जर	-13431
--	-13432
ॉफ्ट	-13433
▁शीट	-13434
▁गिरकर	-13435
▁सरफराज	-13436
▁सुर्खियां	-13437
आईएम	-13438
▁चित्त	-13439
▁टुकड़ा	-13440
▁प्रहार	-13441
▁फंडिंग	-13442
जनन	-13443
वाईसी	-13444
▁वर्ड	-13445
▁हौसला	-13446
▁रोहिणी	-13447
मुक	-13448
ेंग	-13449
▁एनसी	-13450
▁कैरी	-13451
▁चेतन	-13452
▁मोटो	-13453
▁श्रो	-13454
▁मित्त	-13455
▁वेबसाइटों	-13456
▁एंटरटेनमेंट	-13457
▁दुर्व्यवहार	-13458
▁मेटाबॉलिज्म	-13459
▁ठुक	-13460
▁मसूद	-13461
ration	-13462
▁जन्मा	-13463
▁बाइडेन	-13464
▁चिह्नित	-13465
TI	-13466
▁उग	-13467
▁असहज	-13468
▁गिरे	-13469
छात्राओं	-13470
3)	-13471
फन	-13472
pen	-13473
पदी	-13474
▁विजयी	-13475
▁महासंघ	-13476
▁फेडरेशन	-13477
▁साहित्यिक	-13478
छे	-13479
श्र	-13480
▁आसिफ	-13481
▁हमास	-13482
▁घटाकर	-13483
▁रॉकेट	-13484
▁download	-13485
व्यों	-13486
▁छत्र	-13487
▁मंथन	-13488
▁वरीय	-13489
▁खतरों	-13490
▁चौराहे	-13491
डान	-13492
▁(7	-13493
ैलेंट	-13494
▁पब्ल	-13495
▁स्ट्रॉ	-13496
▁एयरलाइन	-13497
फू	-13498
fer	-13499
▁देशी	-13500
▁खोलें	-13501
▁प्लेन	-13502
▁पर्यवे	-13503
▁गाइडलाइन	-13504
बदल	-13505
▁एएम	-13506
▁बगी	-13507
▁अमृता	-13508
▁OnePlus	-13509
▁सस्पेंड	-13510
.।	-13511
▁ढक	-13512
▁कथन	-13513
▁http	-13514
▁दाना	-13515
▁महोदय	-13516
▁हिजाब	-13517
▁मित्तल	-13518
▁रोमांच	-13519
▁अपेक्षाकृत	-13520
cc	-13521
arn	-13522
वाब	-13523
agram	-13524
▁इर्द	-13525
▁रीढ़	-13526
▁अवलोक	-13527
▁अपेक्षित	-13528
▁त्रिवेदी	-13529
▁इन्वेस्टमेंट	-13530
तून	-13531
▁वर्गी	-13532
▁उपरांत	-13533
▁बीएमसी	-13534
▁मलाइका	-13535
▁मुम्बई	-13536
▁समुचित	-13537
▁ठग	-13538
िडोर	-13539
▁चेंज	-13540
▁बंधक	-13541
▁वयस्क	-13542
▁प्रोड्यूसर	-13543
ife	-13544
एंड	-13545
रणीय	-13546
ंजस्य	-13547
प्रेस	-13548
सैनिक	-13549
▁परोस	-13550
▁हांग	-13551
▁कमाना	-13552
▁फ्लैग	-13553
▁इब्राह	-13554
▁लक्षित	-13555
55	-13556
▁पिघ	-13557
▁झांसी	-13558
▁ऑटोमैटिक	-13559
▁व्यवसायों	-13560
▁थ्र	-13561
▁2021:	-13562
▁सुचारू	-13563
ऐसा	-13564
▁Spe	-13565
▁निस	-13566
▁मॉइ	-13567
▁नस्ल	-13568
▁सोडा	-13569
▁ताज़ा	-13570
▁सावंत	-13571
▁एग्जिट	-13572
▁प्रणाल	-13573
▁बाधाओं	-13574
▁विनिमय	-13575
▁Website	-13576
▁हरियाली	-13577
ोनिक	-13578
▁अफेयर	-13579
▁व्यास	-13580
▁पहुंचता	-13581
▁राज्यमंत्री	-13582
mail	-13583
▁गजब	-13584
▁1993	-13585
▁कमिंस	-13586
▁जोसेफ	-13587
▁पड़ाव	-13588
▁लड्डू	-13589
▁सॉन्ग	-13590
▁डीएसपी	-13591
▁ब्राउन	-13592
▁महाराजा	-13593
टकर	-13594
▁शम	-13595
▁नवजोत	-13596
▁दिलाता	-13597
▁अफ्रीकी	-13598
▁अनूप	-13599
▁पीपल	-13600
▁फोरम	-13601
▁5,000	-13602
▁सीज़न	-13603
▁अमरीकी	-13604
▁टॉयलेट	-13605
▁पहलगाम	-13606
▁व्यतीत	-13607
चेन	-13608
बोध	-13609
जन्म	-13610
▁50%	-13611
puter	-13612
▁प्रच	-13613
▁बहने	-13614
▁राठौर	-13615
▁वारंट	-13616
▁भड़काने	-13617
ल्दी	-13618
ूतों	-13619
▁हाम	-13620
▁बाते	-13621
▁लॉन्ड्रिंग	-13622
▁प्लेटफ़ॉर्म	-13623
चलन	-13624
▁दाऊ	-13625
▁जाधव	-13626
▁घोड़े	-13627
▁दबदबा	-13628
▁भड़काऊ	-13629
▁विशेषताओं	-13630
▁दिशानिर्देशों	-13631
इये	-13632
सरी	-13633
▁जप	-13634
▁स्ला	-13635
▁रश्मि	-13636
प्टर	-13637
सफाई	-13638
▁पचा	-13639
▁बीबी	-13640
▁रावल	-13641
ंगाबाद	-13642
▁बोलती	-13643
▁रोकता	-13644
▁इलेक्ट्रॉनिक्स	-13645
An	-13646
पटा	-13647
▁Se	-13648
िश्व	-13649
▁ताइ	-13650
▁नीले	-13651
▁मर्द	-13652
▁अनुमो	-13653
▁मिडिल	-13654
▁शर्मि	-13655
▁अष्टमी	-13656
▁लड़ाकू	-13657
▁इब्राहिम	-13658
▁सामंजस्य	-13659
▁प्रतिरक्षा	-13660
▁यम	-13661
मान्य	-13662
enefits	-13663
▁जोड़ना	-13664
जॉन	-13665
▁अच	-13666
▁गड्ढ	-13667
▁देहा	-13668
फैक्चर	-13669
▁आठवें	-13670
▁माउंट	-13671
▁मलेशिया	-13672
AD	-13673
खिक	-13674
▁Sp	-13675
▁रं	-13676
िक्षा	-13677
▁1971	-13678
▁लिक्व	-13679
▁शिवकुमार	-13680
ोब	-13681
तनी	-13682
▁4:	-13683
▁Min	-13684
▁खुदा	-13685
▁दौलत	-13686
▁2022)	-13687
▁ड्रीम	-13688
▁संलग्न	-13689
▁सैर	-13690
▁Tata	-13691
▁मुखर	-13692
▁सीआई	-13693
▁गोदाम	-13694
▁तस्कर	-13695
▁सौंपने	-13696
कमिंग	-13697
बिल्ट	-13698
▁Modi	-13699
▁चिन्	-13700
▁विवश	-13701
▁आंदोल	-13702
▁सीरीज़	-13703
▁असु	-13704
▁विनेश	-13705
▁चटर्जी	-13706
▁विशेषताएं	-13707
▁ज़िम्मेदार	-13708
▁नाई	-13709
स्खलन	-13710
▁वांग	-13711
▁विगत	-13712
▁संधि	-13713
▁चुनते	-13714
▁तुमको	-13715
▁कोविंद	-13716
▁संरक्षक	-13717
tel	-13718
शॉट	-13719
▁ago	-13720
▁नाले	-13721
▁पुरे	-13722
▁विधा	-13723
▁काबिज	-13724
▁अवलोकन	-13725
▁नेगेटिव	-13726
▁रायबरेली	-13727
गिर	-13728
▁राख	-13729
▁केतु	-13730
▁उठाएं	-13731
कई	-13732
▁थका	-13733
▁नायर	-13734
▁बयां	-13735
▁भुना	-13736
▁क्लिन	-13737
▁बगावत	-13738
▁मार्ट	-13739
▁साधनों	-13740
▁अविवाहित	-13741
संहार	-13742
▁1989	-13743
▁घाटे	-13744
▁दामन	-13745
▁जिस्म	-13746
▁हटाना	-13747
▁निष्का	-13748
▁मानहानि	-13749
▁सम्बन्धित	-13750
▁करन	-13751
▁सईद	-13752
▁प्रजनन	-13753
▁रिक्शा	-13754
▁पहुँचने	-13755
▁सेक्रेटरी	-13756
▁पुनर्विचार	-13757
ितर	-13758
▁घुसा	-13759
▁घूमते	-13760
▁मद्रास	-13761
▁मिलाने	-13762
▁प्रवासियों	-13763
पों	-13764
वाइ	-13765
चिंग	-13766
▁टर्	-13767
▁रैप	-13768
न्नों	-13769
र्ड्स	-13770
▁रूचि	-13771
वर्गीय	-13772
▁मिलनी	-13773
▁एहतिया	-13774
▁पौष्टिक	-13775
air	-13776
त्स	-13777
▁युज	-13778
ियाला	-13779
▁जिता	-13780
टेलाइट	-13781
वेन्यू	-13782
▁अद्यतन	-13783
▁मैथ्यू	-13784
ere	-13785
खबरी	-13786
▁मुट	-13787
सायनिक	-13788
▁भत्ते	-13789
▁छानबीन	-13790
▁त्रासदी	-13791
▁बेटियां	-13792
▁विश्राम	-13793
बीच	-13794
फोर्स	-13795
मिक्स	-13796
▁टाउन	-13797
▁थर्ड	-13798
▁दबंग	-13799
▁जनसत्ता	-13800
▁मार्जिन	-13801
▁शार्दुल	-13802
▁उत्तरप्रदेश	-13803
rol	-13804
▁महम	-13805
▁रगड़	-13806
▁दाढ़ी	-13807
▁छिपाने	-13808
▁यूजीसी	-13809
▁im	-13810
▁कलश	-13811
▁आईजी	-13812
विमर्श	-13813
▁हंसते	-13814
▁भंडारण	-13815
▁कॉमेडियन	-13816
▁Tips	-13817
▁धनखड़	-13818
▁पहलवानों	-13819
िंद	-13820
▁le	-13821
वाकर	-13822
पुलिस	-13823
एनसीआर	-13824
▁वर्दी	-13825
▁सोचकर	-13826
▁ऋषिकेश	-13827
▁मिस्टर	-13828
लेन	-13829
lish	-13830
▁कंक	-13831
्रॉयड	-13832
▁जिंद	-13833
▁पायी	-13834
▁माधव	-13835
क्साइड	-13836
▁क्वाली	-13837
▁दिखाती	-13838
fal	-13839
anch	-13840
मानस	-13841
शर्ट	-13842
▁आरम्भ	-13843
▁काव्य	-13844
▁चूर्ण	-13845
▁जड़ों	-13846
▁विधिव	-13847
त्तियां	-13848
▁आवेदकों	-13849
टाला	-13850
▁चावला	-13851
▁भट्टा	-13852
▁असहमति	-13853
▁आजमगढ़	-13854
▁उद्यमी	-13855
▁कुरैशी	-13856
▁अपकमिंग	-13857
▁दवाइयों	-13858
हह	-13859
▁Ke	-13860
जोड़	-13861
▁छठी	-13862
िल्ला	-13863
▁इन्फ	-13864
▁लड़ी	-13865
▁हुयी	-13866
▁गवर्न	-13867
▁तुषार	-13868
▁मर्डर	-13869
▁राइफल	-13870
▁नीदरलैंड	-13871
▁रिटायर्ड	-13872
▁रिपोर्टों	-13873
▁Sk	-13874
▁जड़ा	-13875
▁Phone	-13876
▁जायें	-13877
▁बेटों	-13878
▁मनोबल	-13879
▁शुमार	-13880
▁न्यूरो	-13881
▁खेलेंगे	-13882
▁वैक्सीनेशन	-13883
AL	-13884
unch	-13885
▁हिद	-13886
च्छिक	-13887
▁लेडी	-13888
▁शायर	-13889
▁सोचे	-13890
▁लगाती	-13891
▁एकाग्र	-13892
▁खुलेआम	-13893
▁हमलावरों	-13894
▁सब्सक्रिप्शन	-13895
ater	-13896
डरूम	-13897
▁सैं	-13898
▁निस्त	-13899
▁कुत्ता	-13900
▁वॉर्नर	-13901
ंपर	-13902
ाइश	-13903
हांत	-13904
▁काटा	-13905
▁नजारा	-13906
▁चेहरों	-13907
▁तकनीकों	-13908
5,	-13909
OR	-13910
आरके	-13911
▁Par	-13912
▁कैट	-13913
▁रजा	-13914
▁रसी	-13915
▁बकरी	-13916
▁कमाते	-13917
▁फिल्टर	-13918
▁डॉक्टर्स	-13919
97	-13920
माह	-13921
बर्स	-13922
▁किम	-13923
▁बंस	-13924
रेक्स	-13925
▁निषे	-13926
▁ख़र्च	-13927
▁बर्बर	-13928
▁व्यंग्य	-13929
▁श्रीकांत	-13930
प्रधानमंत्री	-13931
▁अर्थशास्त्र	-13932
42	-13933
▁तमा	-13934
▁गवाही	-13935
▁रामनाथ	-13936
US	-13937
▁Dev	-13938
▁डकै	-13939
press	-13940
ystem	-13941
▁टीवीएस	-13942
▁भ्रामक	-13943
▁ग्रेजुएट	-13944
▁काउंसलिंग	-13945
▁EV	-13946
▁छे	-13947
भद्र	-13948
प्लेस	-13949
▁तबके	-13950
▁वज़न	-13951
▁लिफ्ट	-13952
▁पीएचडी	-13953
▁मेमोरी	-13954
▁चाहूंगा	-13955
गाट	-13956
▁परीक्ष	-13957
▁खुशखबरी	-13958
▁युजवेंद्र	-13959
दशा	-13960
aily	-13961
पांच	-13962
मैया	-13963
▁1,0	-13964
▁जाइए	-13965
▁पूरन	-13966
▁बचाता	-13967
▁वेंकट	-13968
▁सौहार्द	-13969
देना	-13970
सियत	-13971
▁Price	-13972
▁दसवीं	-13973
▁जाऊंगा	-13974
▁फ्यूचर	-13975
▁प्रोटेक्शन	-13976
UP	-13977
vest	-13978
▁चूह	-13979
▁Note	-13980
▁टूटे	-13981
▁महुआ	-13982
▁शाका	-13983
▁सेबी	-13984
▁परस्पर	-13985
▁बिल्ली	-13986
▁निःशुल्क	-13987
▁प्रसन्नता	-13988
▁सीटी	-13989
▁कौशिक	-13990
▁चौटाला	-13991
▁कविताओं	-13992
डॉ	-13993
ंबना	-13994
स्टे	-13995
▁ठेस	-13996
ैक्शन	-13997
▁टीजर	-13998
▁पालतू	-13999
▁कांस्य	-14000
▁पाण्डेय	-14001
ions	-14002
▁Gen	-14003
▁www	-14004
▁आवि	-14005
▁बिछा	-14006
▁निलंबन	-14007
▁लोकार्प	-14008
▁हिस्ट्री	-14009
▁लेफ्टिनेंट	-14010
▁1-	-14011
डियम	-14012
▁रत्	-14013
हमारी	-14014
▁कमाया	-14015
▁कैशबैक	-14016
▁बिगाड़	-14017
▁अँ	-14018
▁वोडा	-14019
▁बेचना	-14020
▁ब्लॉगर	-14021
▁वारंटी	-14022
▁ऐंड्रॉयड	-14023
46	-14024
िरे	-14025
irst	-14026
पीने	-14027
▁1.2	-14028
शिष्ट	-14029
▁कन्व	-14030
▁माकपा	-14031
▁मिनटों	-14032
▁अपमानित	-14033
▁निकालें	-14034
▁रासायनिक	-14035
▁संस्थागत	-14036
एमआर	-14037
क़ात	-14038
▁इम्	-14039
▁टोट	-14040
▁टूटी	-14041
▁ब्यो	-14042
प्रदान	-14043
▁चैत्र	-14044
▁जुबान	-14045
▁मूर्त	-14046
▁पहुंचाना	-14047
▁लाइब्रेरी	-14048
उज	-14049
गिर्द	-14050
▁यूनि	-14051
▁अड्डा	-14052
▁ताबड़	-14053
▁स्कॉट	-14054
▁तेलुगु	-14055
▁रिजवान	-14056
BS	-14057
ईसी	-14058
हुआ	-14059
▁उब	-14060
चुरी	-14061
▁Cup	-14062
▁कटे	-14063
▁झंडी	-14064
्यंत्र	-14065
▁Kaise	-14066
▁चैम्प	-14067
▁उन्नाव	-14068
शास्त्री	-14069
▁टर्मिनल	-14070
▁प्रभावों	-14071
किनार	-14072
सत्ता	-14073
▁उजाला	-14074
▁मेंबर	-14075
▁हाथरस	-14076
▁माल्या	-14077
▁वाड्रा	-14078
▁न्यूट्र	-14079
▁दुकानदारों	-14080
वकों	-14081
▁आदर	-14082
▁कसम	-14083
नीकरण	-14084
मानंद	-14085
लिस्ट	-14086
▁ख़ूब	-14087
▁मैडम	-14088
ech	-14089
साह	-14090
पकों	-14091
पूरी	-14092
▁नॉम	-14093
▁सटे	-14094
ब्रिड	-14095
▁फाड़	-14096
ानुसार	-14097
▁खटखटा	-14098
▁टॉक्स	-14099
▁online	-14100
▁गुजरना	-14101
▁मेडिसिन	-14102
▁सम्पर्क	-14103
▁सत्यापित	-14104
ंजा	-14105
onal	-14106
ower	-14107
आपको	-14108
ocial	-14109
▁ध्वज	-14110
आईपीएल	-14111
▁लाभों	-14112
▁सैनिट	-14113
▁माधुरी	-14114
▁मोटापे	-14115
▁साइटों	-14116
▁अभियोजन	-14117
▁बयानबाजी	-14118
▁अनुप्रयोग	-14119
▁मुख्यधारा	-14120
sp	-14121
किब	-14122
▁उस्	-14123
▁पेशा	-14124
▁योनि	-14125
▁दायरा	-14126
▁हंसने	-14127
▁उत्तराखण्ड	-14128
TE	-14129
नक	-14130
▁ke	-14131
▁साउंड	-14132
▁डीसीपी	-14133
▁सद्भाव	-14134
▁हिन्दुस्तान	-14135
ठन	-14136
बीस	-14137
ंधरा	-14138
▁Sha	-14139
▁पावन	-14140
▁मेधा	-14141
▁एकतरफा	-14142
▁टैलेंट	-14143
▁कोशिशें	-14144
▁श्रीदेवी	-14145
▁लख	-14146
पुत्र	-14147
▁होड़	-14148
लैंगिक	-14149
▁कराची	-14150
▁दूषित	-14151
▁2020-21	-14152
▁दरकिनार	-14153
▁रविचंद्रन	-14154
▁पाठ्यक्रमों	-14155
▁8.	-14156
सुबह	-14157
▁डीआर	-14158
▁थर्म	-14159
▁ब्लाक	-14160
निर्माण	-14161
▁जातिगत	-14162
▁बुलाकर	-14163
▁आलाकमान	-14164
▁बाहुबली	-14165
▁Cha	-14166
▁दंग	-14167
▁इसमे	-14168
▁किसकी	-14169
▁ट्रैवल	-14170
▁हिदायत	-14171
▁त्योहारों	-14172
एमई	-14173
जाल	-14174
जेट	-14175
▁फेज	-14176
ुलेशन	-14177
▁फ्रिज	-14178
रादित्य	-14179
▁देखिये	-14180
▁फ़ैसला	-14181
▁पाटीदार	-14182
▁पीढ़ियों	-14183
ann	-14184
टर्स	-14185
▁बूट	-14186
▁मंस	-14187
▁अभिया	-14188
▁शाओमी	-14189
ियोग्रा	-14190
▁क्लियर	-14191
▁वर्णित	-14192
▁गुजराती	-14193
▁प्रतिरोधक	-14194
▁एम्	-14195
▁लटक	-14196
लिप्त	-14197
्युलर	-14198
▁Serv	-14199
ामाजिक	-14200
▁ऐप्पल	-14201
▁गन्ने	-14202
▁शहीदों	-14203
▁स्टालिन	-14204
दीव	-14205
▁वहा	-14206
▁जंतर	-14207
▁कॉरिडोर	-14208
ौरा	-14209
▁बेग	-14210
▁ब्री	-14211
ान्वित	-14212
▁इच्छाओं	-14213
▁भरोसेमंद	-14214
▁रणनीतियों	-14215
OC	-14216
व्	-14217
▁Vir	-14218
▁प्यू	-14219
▁एनसीआर	-14220
▁रूटीन	-14221
▁सोर्स	-14222
▁प्यारा	-14223
▁सेलेक्ट	-14224
डिय	-14225
▁बिजन	-14226
▁लगाव	-14227
▁मानदंडों	-14228
िलर	-14229
ूमत	-14230
▁परख	-14231
फोर्ड	-14232
▁कद्द	-14233
▁तड़के	-14234
▁भांति	-14235
▁कंसल्ट	-14236
▁ढूंढने	-14237
▁ताबड़तोड़	-14238
हला	-14239
यनों	-14240
र्धा	-14241
▁अवा	-14242
▁जैव	-14243
▁थोक	-14244
▁ऑप्ट	-14245
▁ब्रेड	-14246
▁गलतियां	-14247
▁डिजाइनर	-14248
▁उंगलियों	-14249
▁फोटोग्राफी	-14250
काशी	-14251
न्हा	-14252
▁घटित	-14253
▁भैंस	-14254
▁बदलता	-14255
▁क्विंटल	-14256
▁शुभकामना	-14257
▁पड़ोसियों	-14258
-30	-14259
▁नमन	-14260
उत्तर	-14261
▁बसंत	-14262
▁बेबा	-14263
▁सुधर	-14264
▁चालीस	-14265
▁पंडितों	-14266
▁ज्योतिरादित्य	-14267
ुज	-14268
▁गयीं	-14269
▁एशियन	-14270
▁रूपों	-14271
▁अविश्व	-14272
▁डिवीजन	-14273
▁पिक्चर	-14274
▁ब्लास्ट	-14275
▁मूंगफली	-14276
ream	-14277
▁अभिम	-14278
▁पढाई	-14279
▁मापद	-14280
त्यक्ष	-14281
▁दीवान	-14282
▁वीआईपी	-14283
▁गर्भपात	-14284
▁टिप	-14285
harat	-14286
गार्ड	-14287
बिहार	-14288
स्कूल	-14289
▁क़दम	-14290
▁तड़प	-14291
▁पीवी	-14292
▁विदा	-14293
मोबाइल	-14294
▁बांटा	-14295
▁रंगीन	-14296
▁इनबिल्ट	-14297
▁इमारतों	-14298
▁प्रसंस्करण	-14299
वटी	-14300
ॉयस	-14301
▁विरू	-14302
▁खर्चा	-14303
▁स्पष्टता	-14304
IM	-14305
र्षि	-14306
▁चां	-14307
▁टिकी	-14308
▁पछता	-14309
▁जाओगे	-14310
▁ढेरों	-14311
▁दरगाह	-14312
▁अक्षरा	-14313
▁असुविधा	-14314
▁लोकार्पण	-14315
my	-14316
▁अछ	-14317
ense	-14318
ज्जन	-14319
undai	-14320
▁2023:	-14321
▁अनलॉक	-14322
▁मोक्ष	-14323
▁उपक्रम	-14324
▁वॉट्सऐप	-14325
ंछ	-14326
IVE	-14327
पसंद	-14328
▁डिक	-14329
▁करुण	-14330
▁बहार	-14331
▁लाइक	-14332
▁खालिद	-14333
▁शौकीन	-14334
▁परिसंप	-14335
▁हैसियत	-14336
▁एसिडिटी	-14337
▁मुरादाबाद	-14338
66	-14339
ron	-14340
पिन	-14341
विच	-14342
▁छिपी	-14343
▁दाएं	-14344
▁खेलकर	-14345
▁राक्ष	-14346
▁रितेश	-14347
▁ठिकाने	-14348
▁असमानता	-14349
▁व्यवसायी	-14350
oo	-14351
▁धनी	-14352
▁हैच	-14353
▁बसें	-14354
▁बेसन	-14355
▁चोरों	-14356
▁अविनाश	-14357
▁यात्राओं	-14358
▁मुख्यमंत्रियों	-14359
नास	-14360
▁1997	-14361
▁इलाय	-14362
▁थोडा	-14363
▁जॉनसन	-14364
▁उपासना	-14365
▁स्कूटी	-14366
85	-14367
kart	-14368
ित्री	-14369
▁इम्प	-14370
▁आश्रय	-14371
▁कल्चर	-14372
▁तबादला	-14373
▁res	-14374
▁अकसर	-14375
▁चटका	-14376
▁नाता	-14377
▁लुभा	-14378
▁वादों	-14379
▁एड्रेस	-14380
▁डीएमके	-14381
▁रामलीला	-14382
▁विडंबना	-14383
▁संकेतों	-14384
▁Rashifal	-14385
सात	-14386
▁यूथ	-14387
▁रोके	-14388
▁वसंत	-14389
▁पन्ना	-14390
▁एक्सपी	-14391
▁सबूतों	-14392
▁प्रॉब्लम	-14393
ताज	-14394
त्ल	-14395
▁तग	-14396
आरटी	-14397
▁इतर	-14398
▁रची	-14399
▁with	-14400
▁मौसी	-14401
▁सबने	-14402
▁मिशेल	-14403
▁अजवाइन	-14404
▁सुप्रिया	-14405
सबसे	-14406
▁कोठ	-14407
▁रंज	-14408
▁खेमे	-14409
▁पैंट	-14410
▁चोटें	-14411
▁सोचें	-14412
▁सिफारिशों	-14413
प्रण	-14414
▁गुंज	-14415
▁सुलभ	-14416
▁फोगाट	-14417
▁खींचने	-14418
▁श्रीनि	-14419
▁महामंत्री	-14420
ूलन	-14421
▁सरे	-14422
iaomi	-14423
▁सेंस	-14424
▁ठुकरा	-14425
▁रुद्र	-14426
▁सीपीआई	-14427
▁गुनगुने	-14428
▁रोज़गार	-14429
▁कार्यभार	-14430
▁दिक्कतों	-14431
▁जिम्मेदारियों	-14432
तृक	-14433
▁Flip	-14434
▁कुणाल	-14435
▁उपग्रह	-14436
▁दुबारा	-14437
▁षड्यंत्र	-14438
ger	-14439
ंगार	-14440
यहां	-14441
र्मू	-14442
ूल्य	-14443
▁Lok	-14444
▁माई	-14445
ology	-14446
स्क्यू	-14447
▁क्लाइ	-14448
▁शिल्प	-14449
▁स्वाति	-14450
▁मूवमेंट	-14451
▁दिक्कतें	-14452
वाड	-14453
▁Po	-14454
▁Vi	-14455
duct	-14456
▁धुआ	-14457
▁लुध	-14458
द्रिक	-14459
प्रेम	-14460
▁100%	-14461
▁cont	-14462
▁कर्ण	-14463
▁बिकने	-14464
▁संतों	-14465
▁वैष्णव	-14466
▁अस्थिरता	-14467
▁अविश्वसनीय	-14468
▁कतर	-14469
▁अपवाद	-14470
▁कानों	-14471
▁कैलकु	-14472
▁फ्लैश	-14473
▁सम्भव	-14474
▁क्लाउड	-14475
▁व्यंजन	-14476
▁वसुंधरा	-14477
ili	-14478
जरत	-14479
▁छप	-14480
▁तस	-14481
▁SEO	-14482
▁रास	-14483
▁हेन	-14484
दर्शी	-14485
▁नवनि	-14486
▁संगत	-14487
▁घुसने	-14488
▁फ्रेश	-14489
▁टोक्यो	-14490
▁रैलियों	-14491
▁वोडाफोन	-14492
रेड	-14493
▁घब	-14494
ट्रिक	-14495
▁गंदे	-14496
▁दाता	-14497
▁डिंपल	-14498
▁बहाली	-14499
▁कटाक्ष	-14500
▁छात्रावास	-14501
अभ	-14502
ars	-14503
▁High	-14504
▁चटनी	-14505
▁दाऊद	-14506
▁पथरी	-14507
▁धूमधाम	-14508
▁विधिवत	-14509
▁निराशाजनक	-14510
रोधी	-14511
▁पैग	-14512
▁पैतृक	-14513
▁संघीय	-14514
▁समझदार	-14515
78	-14516
स्स	-14517
▁ठप	-14518
▁उखा	-14519
▁चने	-14520
▁भूखे	-14521
▁सफ़र	-14522
▁माहिर	-14523
▁स्थितियां	-14524
ane	-14525
जीब	-14526
जुल	-14527
ैलरी	-14528
ौपदी	-14529
▁ढाल	-14530
▁अखरोट	-14531
▁धक्के	-14532
▁सट्टा	-14533
जै	-14534
लबे	-14535
▁गन	-14536
adha	-14537
▁450	-14538
▁एलजी	-14539
▁किला	-14540
▁डेमो	-14541
▁आईपीओ	-14542
▁हैप्पी	-14543
र्मी	-14544
▁भैर	-14545
ृद्धि	-14546
▁सरोज	-14547
▁सल्ल	-14548
तेश्वर	-14549
▁वायदा	-14550
▁अभिजीत	-14551
hy	-14552
▁पीएफ	-14553
▁फौरन	-14554
▁सेतु	-14555
▁मिलान	-14556
▁साजिद	-14557
▁बेडरूम	-14558
▁मिलाया	-14559
▁account	-14560
▁मलेरिया	-14561
▁कमर्शियल	-14562
-'	-14563
लन	-14564
▁Of	-14565
▁आजतक	-14566
▁घेरा	-14567
▁क्रीज	-14568
▁चन्नी	-14569
▁ज़िला	-14570
जतन	-14571
ोला	-14572
प्रथम	-14573
सेंजर	-14574
▁1995	-14575
▁नेगी	-14576
▁मादक	-14577
▁अरमान	-14578
▁योगेश	-14579
▁अरेस्ट	-14580
▁असफलता	-14581
▁नमूनों	-14582
▁अंग्रेज	-14583
गांठ	-14584
दौड़	-14585
भंगा	-14586
▁फ़र	-14587
▁लगन	-14588
▁मसला	-14589
▁रेणु	-14590
▁संक्रांति	-14591
▁डिजी	-14592
▁बदतर	-14593
▁मेलब	-14594
▁हारे	-14595
▁चौकों	-14596
▁बरतें	-14597
▁बेवकू	-14598
▁जिन्ना	-14599
▁लोकपाल	-14600
ड़ो	-14601
▁105	-14602
▁जले	-14603
▁वेणु	-14604
▁संगी	-14605
नारायण	-14606
▁20,000	-14607
ina	-14608
शूट	-14609
▁4-	-14610
▁गलतफ	-14611
▁टोकन	-14612
▁नोडल	-14613
▁मैरी	-14614
▁ओमेगा	-14615
▁बेचकर	-14616
▁2019-20	-14617
▁इंफ्रास्ट्रक्चर	-14618
asht	-14619
हारा	-14620
ैक्स	-14621
गाड़ी	-14622
▁आर्म	-14623
▁कैडर	-14624
▁माध्यमों	-14625
▁छात्रवृत्ति	-14626
गिस	-14627
पढ़	-14628
हीर	-14629
▁कंज	-14630
डमिंटन	-14631
▁कोयले	-14632
▁थानों	-14633
▁प्रेमचंद	-14634
ift	-14635
▁गुफा	-14636
▁फूंक	-14637
▁महमूद	-14638
▁नरसंहार	-14639
ami	-14640
▁गद्	-14641
▁धुन	-14642
▁पिएं	-14643
▁प्लग	-14644
▁अमाउंट	-14645
▁मांगें	-14646
▁रुद्रा	-14647
▁मुलाक़ात	-14648
▁संतुष्टि	-14649
▁कों	-14650
▁लश्	-14651
खेड़े	-14652
▁पीटर	-14653
▁सौंफ	-14654
▁सेल्फ	-14655
▁स्टोन	-14656
फेर	-14657
शब्	-14658
▁Ans	-14659
▁टहल	-14660
▁प्रप	-14661
▁सभ्य	-14662
▁2020:	-14663
▁कमलेश	-14664
▁कराता	-14665
▁जेलों	-14666
▁टेक्स्ट	-14667
शाम	-14668
दराज	-14669
▁काश	-14670
▁बाड़	-14671
▁अधूरी	-14672
▁गुनाह	-14673
▁इलायची	-14674
▁काफिले	-14675
▁गतिरोध	-14676
▁इंसानों	-14677
▁एकजुटता	-14678
▁एयरलाइंस	-14679
▁विक्रेताओं	-14680
बिर	-14681
isan	-14682
तीया	-14683
्रोम	-14684
▁बंसल	-14685
▁एडवाइ	-14686
▁कैम्प	-14687
▁तिहाड़	-14688
▁मूलभूत	-14689
▁मीडियाटेक	-14690
▁पार्टनरशिप	-14691
TV	-14692
▁se	-14693
adav	-14694
▁कांच	-14695
▁धारक	-14696
▁हुनर	-14697
कारिता	-14698
▁दंपति	-14699
▁मिलें	-14700
▁पीडीएफ	-14701
▁मिटाने	-14702
▁मुर्मू	-14703
▁लोहिया	-14704
▁बिगड़ने	-14705
▁संलिप्त	-14706
▁स्त्रोत	-14707
▁वेरिफिकेशन	-14708
▁मठ	-14709
िताओं	-14710
▁अर्न	-14711
▁एमडी	-14712
▁2,000	-14713
▁दर्जे	-14714
▁यशवंत	-14715
▁रस्सी	-14716
▁अमेरिकन	-14717
▁चर्चाओं	-14718
▁पेंटिंग	-14719
▁एजेंसियां	-14720
़ा	-14721
मिश	-14722
कार्य	-14723
बुद्ध	-14724
▁नंगे	-14725
▁कहावत	-14726
▁ट्रिप	-14727
▁बलराम	-14728
▁पन्नों	-14729
▁टेलीकॉम	-14730
▁हज़ारों	-14731
▁करोड़पति	-14732
▁(8	-14733
▁4,	-14734
▁इस्	-14735
▁छोड	-14736
न्नाथ	-14737
▁जांघ	-14738
▁साँस	-14739
▁भूलें	-14740
▁उद्यान	-14741
▁गवाहों	-14742
▁महापौर	-14743
▁हुकूमत	-14744
▁समलैंगिक	-14745
नाग	-14746
िनो	-14747
बाबू	-14748
▁बीर	-14749
ंबाकू	-14750
▁आगाज	-14751
▁हरमन	-14752
▁एजेंडे	-14753
▁स्ट्रे	-14754
▁द्रौपदी	-14755
▁मिलेंगी	-14756
▁मंथ	-14757
▁मौज	-14758
कानेर	-14759
▁अनवर	-14760
▁पतला	-14761
▁सुखा	-14762
▁ग्लेन	-14763
▁मौखिक	-14764
ोर्निया	-14765
▁ग्लैमर	-14766
▁वैलिडिटी	-14767
▁एक्सीडेंट	-14768
ुए	-14769
ंबे	-14770
पोल	-14771
्सन	-14772
▁5,	-14773
न्दन	-14774
सेंट	-14775
स्टा	-14776
▁1.0	-14777
▁कृष	-14778
▁गायों	-14779
▁एकेडमी	-14780
▁दोगुनी	-14781
overn	-14782
▁रणदीप	-14783
▁हंगामे	-14784
▁हैचबैक	-14785
▁उत्तेजित	-14786
ose	-14787
अर्	-14788
पना	-14789
रेल	-14790
▁मरे	-14791
▁साख	-14792
▁Coron	-14793
▁बढ़ाए	-14794
▁संकोच	-14795
▁विस्थापित	-14796
ick	-14797
ral	-14798
सिव	-14799
▁भली	-14800
▁भीख	-14801
क्रेट	-14802
श्यों	-14803
▁post	-14804
▁आईएस	-14805
▁कांव	-14806
▁बेनि	-14807
▁अटकलें	-14808
▁आवागमन	-14809
▁सॉफ़्ट	-14810
▁प्रीपेड	-14811
▁इंटीरियर	-14812
▁ज्योतिषी	-14813
▁धमाकेदार	-14814
▁रजनीकांत	-14815
▁जन्माष्टमी	-14816
आती	-14817
पैड	-14818
बरू	-14819
जीशन	-14820
शोधन	-14821
▁Form	-14822
▁हायर	-14823
▁भगदड़	-14824
▁हजारे	-14825
▁वांछित	-14826
▁उपयोगिता	-14827
▁अंग्रेज़ी	-14828
▁कॉरपोरेशन	-14829
▁घोषणापत्र	-14830
भन	-14831
कील	-14832
▁De	-14833
▁कफ	-14834
▁जनक	-14835
▁बेची	-14836
▁मनोक	-14837
▁लौंग	-14838
▁अंकुर	-14839
▁आईएसआई	-14840
▁प्रयत्न	-14841
▁अध्ययनों	-14842
गृह	-14843
▁IM	-14844
गामी	-14845
प्रे	-14846
▁उछल	-14847
▁चाहर	-14848
▁सरमा	-14849
्यूटिव	-14850
▁टीकों	-14851
▁सर्जन	-14852
▁2021-22	-14853
▁Bitcoin	-14854
▁or	-14855
icle	-14856
दयाल	-14857
हानी	-14858
▁Rel	-14859
▁mar	-14860
▁वीवी	-14861
▁छलांग	-14862
▁डीएनए	-14863
▁अपनाकर	-14864
▁उत्थान	-14865
▁कॉमर्स	-14866
▁बैठकें	-14867
▁क्रूरता	-14868
▁सर्जिकल	-14869
▁आंदोलनों	-14870
धम	-14871
िरोध	-14872
▁हिच	-14873
▁खीरी	-14874
▁खींचा	-14875
▁चप्पल	-14876
▁नतीजतन	-14877
▁नुस्खे	-14878
▁मुन्ना	-14879
▁राधिका	-14880
▁Hyundai	-14881
▁पांचवीं	-14882
▁;	-14883
▁घू	-14884
▁वीपी	-14885
एमआईएम	-14886
्रिक्ट	-14887
▁स्वरा	-14888
▁निजीकरण	-14889
▁रविशंकर	-14890
▁स्टेटमेंट	-14891
दह	-14892
LED	-14893
hani	-14894
▁मोइ	-14895
▁ईपीएफ	-14896
▁ओटीपी	-14897
▁इमोशनल	-14898
▁अनुभूति	-14899
▁गोलियों	-14900
▁पारिस्थित	-14901
▁सुब्रमण्यम	-14902
युद्ध	-14903
र्करा	-14904
विवाद	-14905
▁असीम	-14906
▁बाली	-14907
▁बिखर	-14908
▁सैंड	-14909
▁करुणा	-14910
▁जख्मी	-14911
▁बूढ़े	-14912
▁स्विंग	-14913
▁हिन्दुओं	-14914
मां	-14915
▁फ़ीस	-14916
▁अधूरा	-14917
▁एनसीबी	-14918
▁जिम्मा	-14919
▁प्रातः	-14920
▁फलदायी	-14921
▁ग्लूकोज	-14922
▁ब्रेस्ट	-14923
▁स्पर्धा	-14924
दौर	-14925
्रफ	-14926
▁Ind	-14927
कर्मा	-14928
▁UPSC	-14929
▁झुग्	-14930
▁लेबर	-14931
▁सवर्	-14932
▁अनोखा	-14933
▁जैकेट	-14934
▁सज्जन	-14935
▁गड़बड़	-14936
▁मनोकाम	-14937
▁मालदीव	-14938
▁चिकित्सालय	-14939
ging	-14940
▁टॉम	-14941
▁खोलना	-14942
▁ज्वेल	-14943
▁पकाने	-14944
▁बारात	-14945
▁जीपीएस	-14946
▁तृतीया	-14947
▁परंपराओं	-14948
▁विकासशील	-14949
▁हांगकांग	-14950
किर	-14951
जाद	-14952
डली	-14953
▁SUV	-14954
▁ज़ी	-14955
गोलिक	-14956
विलास	-14957
▁बरती	-14958
▁मलबे	-14959
▁मुल्	-14960
▁अनुपमा	-14961
▁जंक्शन	-14962
▁रेस्क्यू	-14963
विट	-14964
▁mov	-14965
▁घसी	-14966
▁पतन	-14967
▁सेरे	-14968
बीजेपी	-14969
▁बताइए	-14970
▁पटियाला	-14971
▁अनुपस्थिति	-14972
▁फौ	-14973
कुशी	-14974
▁नीच	-14975
▁नवरा	-14976
▁Uttar	-14977
▁स्कैल्प	-14978
▁वानखेड़े	-14979
▁अत्याधुनिक	-14980
▁कल्याणकारी	-14981
सपा	-14982
▁ग्रेट	-14983
▁सेलेब्स	-14984
▁टिप्पणियां	-14985
▁ब्राह्मणों	-14986
▁याचिकाकर्ताओं	-14987
-9	-14988
्ब	-14989
IPL	-14990
ama	-14991
ara	-14992
आईजी	-14993
▁खोली	-14994
▁मिर्	-14995
▁Share	-14996
▁एडिटर	-14997
▁Sup	-14998
▁नंगी	-14999
सरकारी	-15000
▁बीजों	-15001
▁लौटते	-15002
▁वीर्य	-15003
▁चेकिंग	-15004
▁डायमंड	-15005
▁तंबाकू	-15006
▁जगन्नाथ	-15007
▁सत्येंद्र	-15008
ैस	-15009
▁हीं	-15010
▁आरके	-15011
▁मीठे	-15012
▁शरार	-15013
▁निखिल	-15014
▁चाइल्ड	-15015
▁थेरेपी	-15016
▁मनमानी	-15017
row	-15018
फ़र	-15019
णायाम	-15020
▁Word	-15021
▁गोपी	-15022
रोजगार	-15023
▁निर्भ	-15024
▁मार्शल	-15025
▁ठोक	-15026
▁हेज	-15027
▁पहचाना	-15028
▁फैक्टर	-15029
▁दुश्मनी	-15030
8,	-15031
पश्चिम	-15032
▁नजरें	-15033
▁उदासीन	-15034
▁शर्करा	-15035
▁विरूद्ध	-15036
▁विवेकानंद	-15037
▁नें	-15038
ेगासस	-15039
▁क्रोम	-15040
▁स्प्रे	-15041
▁मनुष्यों	-15042
▁सॉफ़्टवेयर	-15043
ेह	-15044
बैग	-15045
सूरत	-15046
oogle	-15047
▁बैरल	-15048
▁कुपोषण	-15049
▁ट्रांज	-15050
्ठे	-15051
▁9.	-15052
▁शृ	-15053
gram	-15054
▁ऑब्	-15055
शांति	-15056
▁अनिय	-15057
▁करंट	-15058
▁प्रशास	-15059
▁ब्रेकअप	-15060
▁टेक्निकल	-15061
Sh	-15062
वियत	-15063
▁औरंग	-15064
▁काजू	-15065
▁अफवाहों	-15066
▁कार्मिक	-15067
▁नीतियां	-15068
▁प्रोसेसिंग	-15069
▁बैकग्राउंड	-15070
जेब	-15071
▁पेल	-15072
▁वॉर	-15073
▁मिया	-15074
▁प्रूफ	-15075
▁तपस्या	-15076
▁दृढ़ता	-15077
▁राजेन्द्र	-15078
▁प्रणालियों	-15079
ज़त	-15080
rypt	-15081
िक्रमा	-15082
▁अनगिन	-15083
▁कोहरा	-15084
▁बीएसई	-15085
▁संभवत	-15086
प्रणाली	-15087
▁अस्थमा	-15088
▁मुनाफे	-15089
▁पहचानने	-15090
▁परिस्थितियां	-15091
ुला	-15092
ान्त	-15093
▁फोर	-15094
▁गंदी	-15095
▁बुढ़	-15096
▁खेड़ा	-15097
▁टेंशन	-15098
▁भगवान्	-15099
▁सुनाते	-15100
▁महासागर	-15101
णि	-15102
शाद	-15103
▁टूटा	-15104
▁घटिया	-15105
समृद्धि	-15106
▁दरभंगा	-15107
▁तनावपूर्ण	-15108
▁रचनात्मकता	-15109
खारी	-15110
िहार	-15111
▁अशर	-15112
▁मची	-15113
▁डीजी	-15114
▁सुखी	-15115
▁धमाका	-15116
▁लौटना	-15117
▁बेकिंग	-15118
4)	-15119
▁Ag	-15120
ices	-15121
वेली	-15122
▁दीजिये	-15123
▁नेपाली	-15124
▁संप्रभु	-15125
हरि	-15126
गिंग	-15127
चाहे	-15128
र्ता	-15129
ोग्य	-15130
्वाह	-15131
▁डिश	-15132
▁शंक	-15133
▁टंडन	-15134
जेवाला	-15135
▁बैठना	-15136
▁अमीरात	-15137
▁उस्मान	-15138
▁ऋतुराज	-15139
▁मुट्ठी	-15140
▁मोहल्ला	-15141
▁प्रतिस्पर्धी	-15142
षदों	-15143
indra	-15144
ैशियम	-15145
▁गठिया	-15146
▁चढ़ने	-15147
▁स्थाई	-15148
▁प्रभात	-15149
▁पुरोहित	-15150
▁सूचनाओं	-15151
▁बांग्लादेशी	-15152
ट्टू	-15153
रीना	-15154
▁धोखे	-15155
▁नीरव	-15156
▁बीआर	-15157
▁क्वाड	-15158
▁लश्कर	-15159
▁तिब्बत	-15160
▁रिमांड	-15161
▁साहित्यकार	-15162
ीश	-15163
▁नस	-15164
ॉनिक	-15165
ोजपा	-15166
प्लीट	-15167
बहनों	-15168
▁कटाई	-15169
क्रमित	-15170
▁खर्चे	-15171
▁पहुंचाता	-15172
▁सब्सक्राइ	-15173
ंशी	-15174
रोधक	-15175
▁नमः	-15176
▁हफ़	-15177
▁अंधा	-15178
▁गुणा	-15179
▁मेनू	-15180
▁शक्ल	-15181
▁अपनाएं	-15182
▁बच्चियों	-15183
▁आमजन	-15184
▁काटे	-15185
▁झेलनी	-15186
▁ड्यूल	-15187
▁स्लिप	-15188
▁हेलमेट	-15189
▁प्रदूषित	-15190
ool	-15191
unj	-15192
जेज	-15193
ब्बर	-15194
स्टी	-15195
andhi	-15196
atest	-15197
riend	-15198
िंक्य	-15199
▁कलाम	-15200
▁टांग	-15201
▁विवाहित	-15202
▁मैक्सवेल	-15203
▁मध्यस्थता	-15204
41	-15205
SI	-15206
ऊंगी	-15207
नीचर	-15208
▁जैश	-15209
▁दबो	-15210
ालिया	-15211
▁मेहर	-15212
मीडिया	-15213
▁बांधकर	-15214
umb	-15215
दिय	-15216
ौड़ा	-15217
▁12:	-15218
▁भटका	-15219
▁वालो	-15220
▁इन्टर	-15221
▁कच्ची	-15222
▁किसका	-15223
▁नमूने	-15224
▁लचीला	-15225
▁नीतिगत	-15226
▁माओवादी	-15227
▁श्राद्ध	-15228
▁लुधियाना	-15229
▁अप्रत्यक्ष	-15230
NE	-15231
▁SC	-15232
केयर	-15233
िसिस	-15234
ृश्य	-15235
▁card	-15236
▁बाँध	-15237
▁मिल्क	-15238
▁कैमरों	-15239
▁ब्लाउज	-15240
▁मालवीय	-15241
▁सुनहरा	-15242
▁मार्किट	-15243
▁ब्लॉगिंग	-15244
▁द्	-15245
डिएट	-15246
समैन	-15247
हादत	-15248
▁थमा	-15249
▁साँ	-15250
▁ख़ुश	-15251
▁टर्बो	-15252
▁मियां	-15253
▁दवाइयां	-15254
▁बैडमिंटन	-15255
▁सशक्तिकरण	-15256
▁बुन	-15257
▁यूस	-15258
▁साठ	-15259
ष्ठान	-15260
▁खयाल	-15261
▁परदे	-15262
▁बैटर	-15263
क्षमता	-15264
▁तोहफा	-15265
▁Police	-15266
▁केआरके	-15267
▁भौगोलिक	-15268
69	-15269
avirus	-15270
▁करारा	-15271
▁उड़ाने	-15272
▁भूस्खलन	-15273
▁अतिथियों	-15274
क्कत	-15275
▁Col	-15276
▁Trans	-15277
▁जालंधर	-15278
▁हाइब्रिड	-15279
43	-15280
जक	-15281
चड़	-15282
डसे	-15283
क्कन	-15284
▁ढूँ	-15285
▁तीज	-15286
▁ऑक्स	-15287
▁रचने	-15288
▁खुदाई	-15289
▁तारों	-15290
▁गलियों	-15291
▁स्ट्रेस	-15292
▁उद्योगपति	-15293
ve	-15294
सह	-15295
les	-15296
श्रम	-15297
▁क्रूज	-15298
▁पोशाक	-15299
फेस	-15300
▁at	-15301
एचसी	-15302
▁छुआ	-15303
▁खराबी	-15304
▁मारते	-15305
▁पेगासस	-15306
▁बृजभूषण	-15307
▁असुरक्षित	-15308
eld	-15309
भगत	-15310
▁वड	-15311
मुखी	-15312
▁hai	-15313
▁करूँ	-15314
▁माफ़ी	-15315
हालांकि	-15316
▁टीआरपी	-15317
▁एचडीएफसी	-15318
▁चैम्पियन	-15319
▁निर्भरता	-15320
▁हार्डवेयर	-15321
▁घुल	-15322
पिछले	-15323
ोरिया	-15324
▁लाला	-15325
▁स्या	-15326
▁Kumar	-15327
▁अकादम	-15328
▁करवाए	-15329
▁मौसमी	-15330
▁विषाणु	-15331
▁गालियां	-15332
▁बीकानेर	-15333
▁मॉड्यूल	-15334
शिला	-15335
▁Const	-15336
▁सूखने	-15337
▁डिस्टेंसिंग	-15338
बाज़	-15339
िकता	-15340
▁NEET	-15341
समर्पण	-15342
▁जवानी	-15343
▁सुगंध	-15344
CP	-15345
कोष	-15346
फिन	-15347
ूकी	-15348
डीजल	-15349
वापी	-15350
ोलिक	-15351
▁इराक	-15352
▁रोमन	-15353
▁रंजीत	-15354
राजनीतिक	-15355
▁अराजकता	-15356
▁Le	-15357
▁ST	-15358
▁बेद	-15359
▁1994	-15360
▁LIVE	-15361
▁सभाग	-15362
▁गर्भा	-15363
▁अंदाज़	-15364
▁अजिंक्य	-15365
▁एक्स्ट्रा	-15366
ुमन	-15367
बैंड	-15368
▁पलक	-15369
▁6000	-15370
▁अवशेष	-15371
▁फेंका	-15372
▁मुकुल	-15373
▁विजयन	-15374
▁Series	-15375
▁लाभान्वित	-15376
▁खीर	-15377
▁रीजन	-15378
▁क्लेम	-15379
▁चालकों	-15380
▁पोटैशियम	-15381
▁सुरजेवाला	-15382
ैै	-15383
एमए	-15384
▁pr	-15385
▁दै	-15386
▁रपट	-15387
▁हेर	-15388
▁घुसकर	-15389
▁चलाकर	-15390
▁बनायी	-15391
▁अनगिनत	-15392
▁बनवाया	-15393
▁सरेंडर	-15394
▁इंस्टिट	-15395
▁क्वालकॉम	-15396
▁शाकाहारी	-15397
▁हस्तांतरण	-15398
उनके	-15399
▁काठ	-15400
▁बेगम	-15401
▁जरिया	-15402
▁मारना	-15403
▁सहजता	-15404
▁मानदंड	-15405
▁सामर्थ	-15406
eet	-15407
ike	-15408
▁नैन	-15409
ंपर्क	-15410
जेंडर	-15411
▁ऑल्ट	-15412
▁फिनिश	-15413
▁शिकस्त	-15414
▁स्कॉलर	-15415
▁लाठीचार्ज	-15416
▁स्मार्टफोन्स	-15417
.15	-15418
ंजर	-15419
▁Aut	-15420
▁वाट	-15421
▁एप्प	-15422
▁क्रैश	-15423
▁रेगुलर	-15424
▁होटलों	-15425
ंजस	-15426
▁जीप	-15427
▁बिच	-15428
▁खोया	-15429
▁महतो	-15430
▁आतिशी	-15431
▁कैप्स	-15432
▁रिमोट	-15433
▁लिविंग	-15434
▁टेलीफोन	-15435
adi	-15436
ows	-15437
काव	-15438
▁असी	-15439
▁स्लो	-15440
▁कराती	-15441
▁लॉटरी	-15442
▁कमियों	-15443
▁विशेषज्ञता	-15444
ैड	-15445
▁सज	-15446
ंतव्य	-15447
पर्टी	-15448
▁कोटे	-15449
ाहियों	-15450
ुरप्पा	-15451
▁रक्षक	-15452
▁ओमप्रकाश	-15453
▁निस्तारण	-15454
▁We	-15455
गंगा	-15456
ामाद	-15457
ूर्व	-15458
महिला	-15459
▁मवेश	-15460
▁हरित	-15461
▁Daily	-15462
▁करारी	-15463
▁पुराण	-15464
▁प्लीज	-15465
▁बेचैन	-15466
▁सिखाने	-15467
▁लिक्विड	-15468
fi	-15469
▁कोह	-15470
▁डराव	-15471
▁तंगी	-15472
▁लाउड	-15473
▁Admit	-15474
▁Court	-15475
▁कागजात	-15476
▁क्लर्क	-15477
▁नियोजन	-15478
▁कठिनाइयों	-15479
रेंस	-15480
▁रमा	-15481
ctric	-15482
िटेशन	-15483
▁कगार	-15484
▁रोहतक	-15485
▁समयान	-15486
▁जिज्ञा	-15487
reat	-15488
यूपी	-15489
▁चौबे	-15490
पंचायत	-15491
▁एनटीए	-15492
▁पाबंद	-15493
▁लिखें	-15494
▁साधने	-15495
▁पुस्तकाल	-15496
▁संतोषजनक	-15497
ंवै	-15498
िपथ	-15499
▁खिच	-15500
▁धमाल	-15501
▁पलों	-15502
▁उपभोग	-15503
▁मस्जि	-15504
▁सफ़ेद	-15505
▁सोवियत	-15506
▁माइक्रोस	-15507
ांध	-15508
▁सांग	-15509
▁चौड़ी	-15510
▁बनानी	-15511
▁चंद्रा	-15512
▁जहरीली	-15513
▁पिस्टल	-15514
▁राजकोट	-15515
▁राजभवन	-15516
▁जिज्ञासा	-15517
पत्य	-15518
▁गम्	-15519
▁Plan	-15520
▁उदित	-15521
▁कारी	-15522
▁जड़े	-15523
▁तेवर	-15524
▁विले	-15525
▁इंगित	-15526
▁प्रमोट	-15527
▁स्थानांतरण	-15528
RO	-15529
हेब	-15530
िमल	-15531
न्धी	-15532
▁फेम	-15533
▁सीज	-15534
▁पीकर	-15535
▁विजन	-15536
▁विशा	-15537
▁सादगी	-15538
▁जनादेश	-15539
▁निभाता	-15540
▁कमेंट्स	-15541
▁निगाहें	-15542
▁मार्गों	-15543
▁इंस्ट्रू	-15544
▁रजिस्ट्रार	-15545
मरन	-15546
िलो	-15547
▁IND	-15548
▁किय	-15549
▁चूच	-15550
▁आलेख	-15551
▁चाँद	-15552
▁विवि	-15553
▁शिरो	-15554
▁2024)	-15555
▁बेचते	-15556
▁सराहा	-15557
▁कोशिका	-15558
▁ग्रोवर	-15559
▁प्राणी	-15560
▁फर्नीचर	-15561
▁Flipkart	-15562
▁बहुसंख्य	-15563
▁As	-15564
▁एश	-15565
▁Sub	-15566
▁पुदी	-15567
▁हजरत	-15568
▁हारी	-15569
▁चढ़कर	-15570
▁झुर्र	-15571
▁दुष्य	-15572
▁अग्निहो	-15573
▁लैंडिंग	-15574
▁बुद्धिमान	-15575
▁व्हाट्सऐप	-15576
नेल	-15577
ण्डा	-15578
प्राइ	-15579
▁Link	-15580
▁Live	-15581
▁kaise	-15582
▁सिखों	-15583
▁खुराना	-15584
▁पहुँचे	-15585
▁लगवाने	-15586
ंवैधानिक	-15587
▁कार्यकार	-15588
ii	-15589
ठित	-15590
वाए	-15591
आरआई	-15592
▁Dig	-15593
▁घिर	-15594
▁राजग	-15595
▁वाइस	-15596
ष्णुता	-15597
▁अनदेखा	-15598
▁अशांति	-15599
प्रदायिक	-15600
▁बर्बादी	-15601
▁आविष्कार	-15602
▁जुर्माने	-15603
ैंट	-15604
▁Dr	-15605
फर्ट	-15606
▁आड़े	-15607
▁	-15608
ा	-15609
क	-15610
े	-15611
र	-15612
न	-15613
्	-15614
स	-15615
ी	-15616
ि	-15617
ं	-15618
ह	-15619
म	-15620
त	-15621
ल	-15622
ो	-15623
प	-15624
य	-15625
द	-15626
व	-15627
ज	-15628
ब	-15629
ै	-15630
ग	-15631
ु	-15632
ट	-15633
ए	-15634
।	-15635
श	-15636
च	-15637
अ	-15638
ड	-15639
भ	-15640
आ	-15641
ू	-15642
इ	-15643
,	-15644
थ	-15645
ख	-15646
उ	-15647
ध	-15648
फ	-15649
औ	-15650
़	-15651
ई	-15652
ष	-15653
.	-15654
ण	-15655
0	-15656
-	-15657
2	-15658
छ	-15659
1	-15660
ौ	-15661
ॉ	-15662
a	-15663
e	-15664
'	-15665
i	-15666
ठ	-15667
घ	-15668
ओ	-15669
n	-15670
o	-15671
t	-15672
r	-15673
ढ	-15674
5	-15675
)	-15676
(	-15677
3	-15678
s	-15679
झ	-15680
ृ	-15681
4	-15682
ऐ	-15683
9	-15684
"	-15685
l	-15686
:	-15687
6	-15688
8	-15689
7	-15690
ँ	-15691
h	-15692
d	-15693
c	-15694
ऑ	-15695
u	-15696
m	-15697
?	-15698
S	-15699
p	-15700
P	-15701
A	-15702
C	-15703
g	-15704
I	-15705
y	-15706
M	-15707
ऊ	-15708
B	-15709
T	-15710
R	-15711
k	-15712
ञ	-15713
b	-15714
D	-15715
!	-15716
E	-15717
f	-15718
w	-15719
v	-15720
/	-15721
N	-15722
G	-15723
H	-15724
|	-15725
L	-15726
O	-15727
F	-15728
K	-15729
V	-15730
W	-15731
U	-15732
ः	-15733
J	-15734
x	-15735
j	-15736
%	-15737
ऋ	-15738
;	-15739
