<pad>	0
<unk>	0
<s>	0
</s>	0
<0x00>	0
<0x01>	0
<0x02>	0
<0x03>	0
<0x04>	0
<0x05>	0
<0x06>	0
<0x07>	0
<0x08>	0
<0x09>	0
<0x0A>	0
<0x0B>	0
<0x0C>	0
<0x0D>	0
<0x0E>	0
<0x0F>	0
<0x10>	0
<0x11>	0
<0x12>	0
<0x13>	0
<0x14>	0
<0x15>	0
<0x16>	0
<0x17>	0
<0x18>	0
<0x19>	0
<0x1A>	0
<0x1B>	0
<0x1C>	0
<0x1D>	0
<0x1E>	0
<0x1F>	0
<0x20>	0
<0x21>	0
<0x22>	0
<0x23>	0
<0x24>	0
<0x25>	0
<0x26>	0
<0x27>	0
<0x28>	0
<0x29>	0
<0x2A>	0
<0x2B>	0
<0x2C>	0
<0x2D>	0
<0x2E>	0
<0x2F>	0
<0x30>	0
<0x31>	0
<0x32>	0
<0x33>	0
<0x34>	0
<0x35>	0
<0x36>	0
<0x37>	0
<0x38>	0
<0x39>	0
<0x3A>	0
<0x3B>	0
<0x3C>	0
<0x3D>	0
<0x3E>	0
<0x3F>	0
<0x40>	0
<0x41>	0
<0x42>	0
<0x43>	0
<0x44>	0
<0x45>	0
<0x46>	0
<0x47>	0
<0x48>	0
<0x49>	0
<0x4A>	0
<0x4B>	0
<0x4C>	0
<0x4D>	0
<0x4E>	0
<0x4F>	0
<0x50>	0
<0x51>	0
<0x52>	0
<0x53>	0
<0x54>	0
<0x55>	0
<0x56>	0
<0x57>	0
<0x58>	0
<0x59>	0
<0x5A>	0
<0x5B>	0
<0x5C>	0
<0x5D>	0
<0x5E>	0
<0x5F>	0
<0x60>	0
<0x61>	0
<0x62>	0
<0x63>	0
<0x64>	0
<0x65>	0
<0x66>	0
<0x67>	0
<0x68>	0
<0x69>	0
<0x6A>	0
<0x6B>	0
<0x6C>	0
<0x6D>	0
<0x6E>	0
<0x6F>	0
<0x70>	0
<0x71>	0
<0x72>	0
<0x73>	0
<0x74>	0
<0x75>	0
<0x76>	0
<0x77>	0
<0x78>	0
<0x79>	0
<0x7A>	0
<0x7B>	0
<0x7C>	0
<0x7D>	0
<0x7E>	0
<0x7F>	0
<0x80>	0
<0x81>	0
<0x82>	0
<0x83>	0
<0x84>	0
<0x85>	0
<0x86>	0
<0x87>	0
<0x88>	0
<0x89>	0
<0x8A>	0
<0x8B>	0
<0x8C>	0
<0x8D>	0
<0x8E>	0
<0x8F>	0
<0x90>	0
<0x91>	0
<0x92>	0
<0x93>	0
<0x94>	0
<0x95>	0
<0x96>	0
<0x97>	0
<0x98>	0
<0x99>	0
<0x9A>	0
<0x9B>	0
<0x9C>	0
<0x9D>	0
<0x9E>	0
<0x9F>	0
<0xA0>	0
<0xA1>	0
<0xA2>	0
<0xA3>	0
<0xA4>	0
<0xA5>	0
<0xA6>	0
<0xA7>	0
<0xA8>	0
<0xA9>	0
<0xAA>	0
<0xAB>	0
<0xAC>	0
<0xAD>	0
<0xAE>	0
<0xAF>	0
<0xB0>	0
<0xB1>	0
<0xB2>	0
<0xB3>	0
<0xB4>	0
<0xB5>	0
<0xB6>	0
<0xB7>	0
<0xB8>	0
<0xB9>	0
<0xBA>	0
<0xBB>	0
<0xBC>	0
<0xBD>	0
<0xBE>	0
<0xBF>	0
<0xC0>	0
<0xC1>	0
<0xC2>	0
<0xC3>	0
<0xC4>	0
<0xC5>	0
<0xC6>	0
<0xC7>	0
<0xC8>	0
<0xC9>	0
<0xCA>	0
<0xCB>	0
<0xCC>	0
<0xCD>	0
<0xCE>	0
<0xCF>	0
<0xD0>	0
<0xD1>	0
<0xD2>	0
<0xD3>	0
<0xD4>	0
<0xD5>	0
<0xD6>	0
<0xD7>	0
<0xD8>	0
<0xD9>	0
<0xDA>	0
<0xDB>	0
<0xDC>	0
<0xDD>	0
<0xDE>	0
<0xDF>	0
<0xE0>	0
<0xE1>	0
<0xE2>	0
<0xE3>	0
<0xE4>	0
<0xE5>	0
<0xE6>	0
<0xE7>	0
<0xE8>	0
<0xE9>	0
<0xEA>	0
<0xEB>	0
<0xEC>	0
<0xED>	0
<0xEE>	0
<0xEF>	0
<0xF0>	0
<0xF1>	0
<0xF2>	0
<0xF3>	0
<0xF4>	0
<0xF5>	0
<0xF6>	0
<0xF7>	0
<0xF8>	0
<0xF9>	0
<0xFA>	0
<0xFB>	0
<0xFC>	0
<0xFD>	0
<0xFE>	0
<0xFF>	0
▁क	-0
▁स	-1
▁ह	-2
▁म	-3
▁प	-4
ें	-5
▁है	-6
ने	-7
▁के	-8
▁ब	-9
ार	-10
▁ज	-11
्र	-12
या	-13
▁द	-14
▁ल	-15
▁अ	-16
▁में	-17
▁व	-18
▁र	-19
ों	-20
▁की	-21
▁आ	-22
▁न	-23
▁को	-24
ता	-25
▁कर	-26
र्	-27
▁से	-28
▁इ	-29
▁कि	-30
▁उ	-31
▁त	-32
ना	-33
▁ग	-34
▁का	-35
▁भ	-36
▁औ	-37
▁और	-38
ान	-39
िक	-40
्य	-41
▁पर	-42
ाल	-43
▁ए	-44
▁च	-45
▁इस	-46
▁ने	-47
▁हैं	-48
स्	-49
▁हो	-50
िल	-51
ही	-52
▁प्र	-53
▁श	-54
▁य	-55
क्	-56
ते	-57
▁थ	-58
िए	-59
ड़	-60
हा	-61
▁जा	-62
ित	-63
▁भी	-64
के	-65
▁ख	-66
▁फ	-67
▁सा	-68
िया	-69
िय	-70
ती	-71
वा	-72
से	-73
▁एक	-74
ंग	-75
हीं	-76
▁बा	-77
▁उन	-78
िन	-79
▁लिए	-80
▁स्	-81
री	-82
ला	-83
ले	-84
▁दे	-85
▁अप	-86
▁वि	-87
रा	-88
▁नहीं	-89
▁रा	-90
नी	-91
्या	-92
▁आप	-93
त्र	-94
ति	-95
गा	-96
सी	-97
▁ट	-98
कर	-99
▁सम	-100
▁ले	-101
ोग	-102
ाम	-103
▁सं	-104
्म	-105
का	-106
▁ही	-107
ेश	-108
िस	-109
▁मु	-110
ारी	-111
▁तो	-112
▁हु	-113
▁ड	-114
▁था	-115
▁2	-116
▁रह	-117
्ट	-118
▁किया	-119
्व	-120
▁1	-121
▁सक	-122
▁यह	-123
▁करने	-124
की	-125
्ह	-126
ली	-127
ुर	-128
क्ष	-129
ंद	-130
▁पह	-131
ाय	-132
▁साथ	-133
▁कहा	-134
ां	-135
▁गया	-136
▁हम	-137
▁नि	-138
▁कु	-139
सा	-140
▁या	-141
कार	-142
▁उस	-143
ियों	-144
रे	-145
▁उन्ह	-146
▁कार	-147
कि	-148
ैं	-149
▁घ	-150
ल्	-151
▁जो	-152
मा	-153
ाह	-154
▁पा	-155
▁(	-156
▁अन	-157
त्	-158
▁वाल	-159
▁बाद	-160
स्ट	-161
▁अपने	-162
िला	-163
▁पू	-164
▁सु	-165
िर	-166
▁रहे	-167
ढ़	-168
▁लोग	-169
▁थी	-170
दी	-171
भी	-172
गी	-173
िव	-174
भा	-175
▁अध	-176
दा	-177
▁ध	-178
्रे	-179
ुल	-180
ंड	-181
गे	-182
▁छ	-183
्री	-184
▁तक	-185
▁दो	-186
▁20	-187
ारा	-188
▁सी	-189
▁राज	-190
▁दिया	-191
को	-192
▁सि	-193
च्	-194
▁मा	-195
▁ऐ	-196
टी	-197
▁'	-198
▁चु	-199
▁मिल	-200
ंत्र	-201
▁मे	-202
जी	-203
ाइ	-204
में	-205
▁बी	-206
पी	-207
▁भार	-208
ओं	-209
गर	-210
▁रहा	-211
▁हुए	-212
किन	-213
तर	-214
▁सर	-215
▁बना	-216
ोंने	-217
▁बार	-218
▁थे	-219
▁जिस	-220
रो	-221
ंच	-222
▁-	-223
▁जी	-224
प्	-225
▁बता	-226
देश	-227
▁कुछ	-228
▁मह	-229
ेट	-230
▁लेकिन	-231
िश	-232
▁गई	-233
▁उन्होंने	-234
खा	-235
▁जब	-236
द्	-237
▁चाह	-238
▁कम	-239
ोज	-240
ानी	-241
▁इन	-242
वी	-243
▁वह	-244
▁बात	-245
▁भा	-246
टर	-247
पा	-248
▁तर	-249
ौर	-250
ेल	-251
▁रही	-252
▁सब	-253
जा	-254
वि	-255
▁पहले	-256
▁लगा	-257
▁अधिक	-258
▁ला	-259
ार्	-260
ूर	-261
ष्ट	-262
बर	-263
शन	-264
▁अब	-265
▁करते	-266
▁जाए	-267
▁दी	-268
▁बह	-269
स्थ	-270
ड़ा	-271
नों	-272
▁वे	-273
्स	-274
▁कोई	-275
▁करें	-276
▁इसके	-277
▁उप	-278
स्त	-279
िंग	-280
बा	-281
ैसे	-282
▁किसी	-283
र्ट	-284
ड़ी	-285
▁ये	-286
▁मैं	-287
ास	-288
▁होने	-289
▁सकते	-290
▁दिन	-291
▁लोगों	-292
▁रू	-293
▁अपनी	-294
▁जान	-295
▁सरकार	-296
मी	-297
हां	-298
्ष	-299
▁अनु	-300
▁स्थ	-301
▁गए	-302
▁बे	-303
्यों	-304
ंध	-305
▁समय	-306
▁मो	-307
ये	-308
्ल	-309
न्	-310
▁पी	-311
▁वाले	-312
▁कह	-313
ेंद	-314
▁सकता	-315
ुत	-316
▁ऑ	-317
▁टी	-318
▁देख	-319
क्र	-320
▁साल	-321
▁भारत	-322
ंत्री	-323
▁तरह	-324
ड़े	-325
▁आपको	-326
ज़	-327
▁बढ़	-328
मान	-329
वार	-330
▁मौ	-331
▁सो	-332
▁बि	-333
▁3	-334
▁कई	-335
ोट	-336
▁काम	-337
▁करना	-338
्यू	-339
ंट	-340
▁वर्	-341
ार्ट	-342
िट	-343
▁जाता	-344
ूस	-345
▁रूप	-346
▁माम	-347
▁देश	-348
00	-349
▁उनके	-350
▁रख	-351
म्म	-352
ोल	-353
▁ओ	-354
कों	-355
वे	-356
धान	-357
▁हि	-358
▁रु	-359
च्च	-360
▁विश	-361
▁उन्हें	-362
▁द्व	-363
ंप	-364
▁व्य	-365
हर	-366
▁निर्	-367
▁लेकर	-368
▁पुल	-369
▁स्ट	-370
▁क्या	-371
▁शुर	-372
ीन	-373
िप	-374
▁बहुत	-375
▁फिर	-376
च्छ	-377
जे	-378
▁लग	-379
▁मै	-380
▁जन	-381
क्षा	-382
बी	-383
▁दिल	-384
क्स	-385
▁"	-386
▁आज	-387
ोक	-388
▁होता	-389
▁पुलिस	-390
क्त	-391
योग	-392
ूल	-393
चार	-394
जन	-395
वन	-396
▁सभी	-397
द्ध	-398
▁लि	-399
▁हुआ	-400
्त	-401
नाव	-402
▁अं	-403
ाई	-404
▁प्रति	-405
▁दु	-406
▁202	-407
▁हुई	-408
▁फिल	-409
▁होगा	-410
▁हर	-411
कारी	-412
▁द्वारा	-413
▁उत्	-414
ंह	-415
ीड	-416
्रेस	-417
▁नाम	-418
चा	-419
ारे	-420
▁विक	-421
▁हाल	-422
▁5	-423
▁गु	-424
▁बताया	-425
र्व	-426
▁वो	-427
िका	-428
स्ता	-429
▁सबसे	-430
▁इं	-431
▁जर	-432
▁कार्य	-433
▁दि	-434
▁ना	-435
▁अगर	-436
▁चाहिए	-437
डी	-438
बंध	-439
▁बै	-440
▁क्यों	-441
वर	-442
▁दौर	-443
▁खु	-444
in	-445
▁खिला	-446
▁पि	-447
▁साम	-448
क्ट	-449
र्म	-450
वाल	-451
्यादा	-452
▁यू	-453
ोड़	-454
▁क्ष	-455
एं	-456
्ली	-457
▁फिल्म	-458
▁बन	-459
▁रुप	-460
▁।	-461
र्स	-462
▁पहु	-463
▁चल	-464
▁4	-465
मंत्री	-466
▁मुख	-467
ष्	-468
▁जु	-469
▁वा	-470
▁सू	-471
▁पार्ट	-472
िवार	-473
▁दूस	-474
▁ऐसे	-475
धार	-476
दि	-477
सान	-478
▁दर्	-479
▁सिंह	-480
र्थ	-481
▁मान	-482
फी	-483
▁पास	-484
▁चुनाव	-485
▁शाम	-486
▁अच्छ	-487
ोन	-488
एस	-489
ंस	-490
तीय	-491
▁घर	-492
▁दौरान	-493
एम	-494
▁बीच	-495
मे	-496
ोर	-497
क्ति	-498
▁ज्यादा	-499
ाने	-500
▁बु	-501
▁आई	-502
▁जाने	-503
▁उनकी	-504
▁पै	-505
ेंद्र	-506
▁करता	-507
भाव	-508
▁प्रा	-509
पर	-510
▁कारण	-511
श्	-512
▁ग्र	-513
▁पहुंच	-514
यर	-515
▁दिल्ली	-516
▁कै	-517
▁उसके	-518
▁शुरू	-519
झे	-520
जर	-521
सर	-522
ंबर	-523
दार	-524
हत	-525
त्म	-526
▁टीम	-527
▁होती	-528
▁लिया	-529
▁नी	-530
an	-531
ब्	-532
सार	-533
▁आपके	-534
▁वाली	-535
▁मामले	-536
▁दोनों	-537
ृत	-538
▁पार्टी	-539
आई	-540
▁मुख्य	-541
ोर्ट	-542
▁जि	-543
▁उसे	-544
▁201	-545
▁जिन	-546
दे	-547
▁बारे	-548
▁ठ	-549
▁सह	-550
▁ता	-551
▁अपना	-552
▁बच्च	-553
▁पु	-554
▁राज्य	-555
▁शिक	-556
▁हा	-557
▁कांग	-558
▁फै	-559
ंक	-560
▁बद	-561
▁क्र	-562
शी	-563
िज	-564
मार	-565
धी	-566
ून	-567
ेत्र	-568
ूर्	-569
▁अव	-570
ar	-571
▁निक	-572
▁कांग्रेस	-573
िम	-574
जू	-575
ेंगे	-576
▁आरो	-577
▁सकती	-578
▁शामिल	-579
▁भारतीय	-580
▁वहीं	-581
ियो	-582
▁झ	-583
▁जैसे	-584
▁समा	-585
▁अन्य	-586
लों	-587
ियां	-588
▁S	-589
▁अभ	-590
▁कंप	-591
दान	-592
र्ड	-593
▁ऐसा	-594
ेज	-595
▁हू	-596
जार	-597
▁इसे	-598
er	-599
▁क्षेत्र	-600
▁गां	-601
▁यहां	-602
▁शु	-603
▁खिलाफ	-604
्ञ	-605
प्त	-606
्रा	-607
▁कॉ	-608
▁मुझे	-609
पुर	-610
▁अल	-611
▁आय	-612
▁महिला	-613
▁रो	-614
सभा	-615
ताओं	-616
लिए	-617
▁6	-618
्रीय	-619
ध्य	-620
्ड	-621
ोजना	-622
▁रुपये	-623
ंत	-624
▁देने	-625
▁ई	-626
वल	-627
▁क्योंकि	-628
शि	-629
▁जानकारी	-630
ूम	-631
▁किए	-632
on	-633
▁स्वा	-634
▁खा	-635
िति	-636
ियम	-637
ुम	-638
▁काफी	-639
▁अग	-640
्न	-641
▁प्रदेश	-642
ैन	-643
▁इससे	-644
▁ट्र	-645
क्रम	-646
▁बो	-647
ंब	-648
▁स्व	-649
टना	-650
था	-651
▁यु	-652
▁जाएगा	-653
टा	-654
लो	-655
दर्	-656
हार	-657
णा	-658
▁तै	-659
▁वर्ष	-660
▁पिछ	-661
▁मन	-662
म्मी	-663
▁राष्ट	-664
▁10	-665
वाद	-666
▁अनुसार	-667
ेड	-668
▁जारी	-669
्ते	-670
▁पूरी	-671
▁इसलिए	-672
ेशन	-673
▁उठ	-674
▁सुर	-675
▁A	-676
ोष	-677
at	-678
ताब	-679
▁सामने	-680
▁गो	-681
▁समझ	-682
▁बैठ	-683
▁मद	-684
▁जाती	-685
धा	-686
▁होगी	-687
▁दें	-688
▁ली	-689
ाली	-690
मु	-691
▁मैच	-692
▁इंड	-693
निया	-694
▁स्क	-695
▁बल्	-696
▁छा	-697
▁याद	-698
म्मीद	-699
es	-700
रण	-701
▁19	-702
▁मार्	-703
▁C	-704
स्प	-705
▁उम्मीद	-706
▁मोदी	-707
ायर	-708
▁तीन	-709
वाई	-710
▁राशि	-711
▁आगे	-712
▁आरोप	-713
▁जीवन	-714
चित	-715
▁परि	-716
प्र	-717
▁इसी	-718
▁डॉ	-719
▁7	-720
फ़	-721
▁टे	-722
तिक	-723
स्था	-724
ेंट	-725
वं	-726
जपा	-727
▁हों	-728
▁शा	-729
त्रा	-730
▁ज़	-731
वास	-732
ेष	-733
ांकि	-734
▁योजना	-735
▁संबंध	-736
▁लाख	-737
▁दा	-738
▁हालांकि	-739
▁आए	-740
▁ओर	-741
इट	-742
म्	-743
▁होते	-744
▁तब	-745
▁अला	-746
▁पड़	-747
▁जग	-748
्ला	-749
श्य	-750
ीस	-751
▁करोड़	-752
इन	-753
▁इसमें	-754
▁जिसमें	-755
▁पढ़	-756
▁परिवार	-757
▁रिप	-758
कर्	-759
ुरु	-760
▁P	-761
▁वै	-762
क्टर	-763
▁भाजपा	-764
दन	-765
▁अभी	-766
धिक	-767
ुक	-768
or	-769
मेंट	-770
लय	-771
चना	-772
▁मांग	-773
▁एस	-774
▁अलावा	-775
▁व्यक्ति	-776
ज्ञ	-777
ची	-778
▁कप	-779
ूत	-780
▁चे	-781
फल	-782
▁तैय	-783
▁दिखा	-784
▁पद	-785
▁लोक	-786
▁एवं	-787
▁सुन	-788
▁मीड	-789
▁ऊ	-790
▁उनका	-791
▁मदद	-792
▁बेह	-793
▁आने	-794
स्तान	-795
▁8	-796
▁करे	-797
▁हमारे	-798
▁पिछले	-799
▁मेरे	-800
▁मीडिया	-801
▁जांच	-802
▁योग	-803
▁बॉ	-804
▁दर	-805
▁इत	-806
▁मत	-807
▁चौ	-808
।"	-809
▁कैसे	-810
▁अस	-811
▁कभी	-812
▁पूर्व	-813
▁स्प	-814
त्व	-815
▁मिले	-816
▁भर	-817
मत	-818
▁रिपोर्ट	-819
▁सीट	-820
▁मैंने	-821
al	-822
▁इसका	-823
▁बनाने	-824
▁ची	-825
▁जै	-826
▁अलग	-827
र्फ	-828
तार	-829
▁व्या	-830
र्क	-831
चे	-832
शा	-833
▁जीत	-834
ंगे	-835
वान	-836
जूद	-837
▁मंत्री	-838
▁श्री	-839
▁वीड	-840
▁दर्ज	-841
▁हूं	-842
▁जरूर	-843
▁बड़ी	-844
▁उपयोग	-845
▁प्रधान	-846
▁मही	-847
▁अध्य	-848
▁विशेष	-849
▁12	-850
ियर	-851
ोध	-852
गत	-853
▁पत्र	-854
▁पता	-855
▁लड़	-856
▁बैं	-857
▁रन	-858
▁डि	-859
माल	-860
▁ऑफ	-861
▁वीडियो	-862
प्ता	-863
▁आधार	-864
्यान	-865
▁उसकी	-866
▁अधिकार	-867
▁कंपनी	-868
▁पानी	-869
▁नेता	-870
जह	-871
▁बाहर	-872
▁तुम	-873
▁जबकि	-874
▁खेल	-875
िये	-876
▁कुमार	-877
▁नई	-878
▁परी	-879
▁घटना	-880
▁किसान	-881
▁दिए	-882
▁मुख्यमंत्री	-883
en	-884
▁M	-885
▁करती	-886
पूर्	-887
▁यदि	-888
वेश	-889
▁संग	-890
▁जाते	-891
▁महा	-892
▁प्रे	-893
▁शिक्ष	-894
▁केंद्र	-895
द्य	-896
▁पां	-897
ूरी	-898
ल्प	-899
आर	-900
▁जहां	-901
▁आर	-902
▁वाला	-903
▁विध	-904
ष्ठ	-905
भाग	-906
ैंड	-907
▁गिर	-908
▁मुताब	-909
▁B	-910
▁चला	-911
ियन	-912
▁वजह	-913
▁केवल	-914
▁मुताबिक	-915
▁तथा	-916
▁प्रो	-917
▁करके	-918
▁9	-919
▁हाथ	-920
▁लाभ	-921
▁मिला	-922
▁मज	-923
ूट	-924
▁सवाल	-925
जों	-926
▁नए	-927
पूर्ण	-928
▁इला	-929
▁करी	-930
स्या	-931
वरी	-932
स्क	-933
▁व्यव	-934
▁दूसरे	-935
▁आव	-936
▁विश्व	-937
ुआ	-938
ंदर	-939
▁ब्र	-940
▁गा	-941
▁कान	-942
ाइन	-943
▁जगह	-944
िता	-945
करण	-946
▁पे	-947
▁हिंद	-948
▁कोर्ट	-949
▁R	-950
रिक	-951
तों	-952
िटी	-953
ख्या	-954
▁ध्यान	-955
it	-956
▁फैस	-957
र्य	-958
▁एन	-959
▁चार	-960
▁आम	-961
▁खुद	-962
▁पूरा	-963
▁देते	-964
▁सिर्फ	-965
त्या	-966
▁हे	-967
▁राजनी	-968
▁आपकी	-969
▁आया	-970
▁स्थिति	-971
▁डाल	-972
ेंस	-973
▁पूछ	-974
▁पो	-975
▁,	-976
शल	-977
सल	-978
▁उत्तर	-979
▁पाकि	-980
▁दुनिया	-981
▁बड़े	-982
माण	-983
▁अम	-984
▁प्रश	-985
्ले	-986
▁I	-987
जेपी	-988
तन	-989
▁अमे	-990
▁प्रधानमंत्री	-991
▁दिनों	-992
▁अच्छा	-993
▁राम	-994
द्र	-995
▁विधान	-996
▁तहत	-997
▁नौ	-998
▁हमें	-999
▁समस्या	-1000
भव	-1001
▁तैयार	-1002
▁सद	-1003
पन	-1004
▁रे	-1005
ाइल	-1006
▁प्रभाव	-1007
क्षण	-1008
▁T	-1009
▁जिससे	-1010
हम	-1011
▁चाहते	-1012
ल्ड	-1013
▁खरी	-1014
▁उसने	-1015
्यालय	-1016
दर्शन	-1017
▁हिस्	-1018
▁शे	-1019
▁इस्ते	-1020
▁15	-1021
▁इस्तेमाल	-1022
▁बंद	-1023
▁जिसके	-1024
फ्त	-1025
ार्थ	-1026
▁प्राप्त	-1027
▁होना	-1028
पाल	-1029
.'	-1030
▁न्या	-1031
त्य	-1032
▁बीजेपी	-1033
▁नजर	-1034
श्यक	-1035
▁खे	-1036
▁कोश	-1037
▁डे	-1038
▁H	-1039
हित	-1040
▁बड़ा	-1041
ीर	-1042
▁डी	-1043
▁पहली	-1044
▁ट्रे	-1045
नि	-1046
ंगा	-1047
▁तरी	-1048
यी	-1049
▁लिखा	-1050
▁महीने	-1051
▁करेंगे	-1052
▁लेने	-1053
णी	-1054
▁ढ	-1055
▁पं	-1056
िले	-1057
▁एक्स	-1058
▁लॉ	-1059
▁अध्यक्ष	-1060
▁विकास	-1061
▁ऐसी	-1062
▁वहां	-1063
ॉल	-1064
▁जाना	-1065
बाद	-1066
ंगल	-1067
▁आस	-1068
▁ब्ल	-1069
▁आद	-1070
▁दूर	-1071
▁बस	-1072
▁सुरक्षा	-1073
▁पार	-1074
ic	-1075
▁तौर	-1076
▁रहने	-1077
▁करा	-1078
▁विधानसभा	-1079
▁परीक्षा	-1080
▁छोड़	-1081
▁आवश्यक	-1082
▁छात्र	-1083
शत	-1084
डे	-1085
ग्र	-1086
▁शर्	-1087
▁समाज	-1088
▁मेरी	-1089
ुट	-1090
िस्ट	-1091
▁लगे	-1092
मुख	-1093
▁खान	-1094
▁मौत	-1095
▁कुल	-1096
ायक	-1097
ुक्त	-1098
▁करीब	-1099
▁पाकिस्तान	-1100
▁कौ	-1101
▁कोशिश	-1102
▁बिना	-1103
▁बढ़ा	-1104
▁उठा	-1105
हन	-1106
र्च	-1107
िकेट	-1108
▁लिख	-1109
राज	-1110
▁पांच	-1111
▁बैंक	-1112
▁व्याप	-1113
▁तरफ	-1114
▁वेब	-1115
यान	-1116
20	-1117
एल	-1118
▁जवा	-1119
▁D	-1120
▁इसकी	-1121
▁संख्या	-1122
▁धन	-1123
▁पत्	-1124
ासन	-1125
▁राह	-1126
ध्यम	-1127
▁प्रकार	-1128
ैल	-1129
▁थीं	-1130
▁सेवा	-1131
▁बाल	-1132
▁फ़	-1133
▁उम्मीदवार	-1134
▁कृ	-1135
▁11	-1136
▁महत्व	-1137
▁खबर	-1138
▁घोष	-1139
▁सही	-1140
▁अधिकारी	-1141
▁विरो	-1142
हरा	-1143
स्थ्य	-1144
।'	-1145
▁बच्चों	-1146
▁प्रदर्शन	-1147
▁क्ल	-1148
भग	-1149
▁विभाग	-1150
▁जल्	-1151
▁बल्कि	-1152
▁कहना	-1153
st	-1154
▁कोरो	-1155
▁शुरुआ	-1156
र्ष	-1157
बह	-1158
टे	-1159
▁गांधी	-1160
राब	-1161
▁कहते	-1162
▁गेंद	-1163
▁:	-1164
▁यादव	-1165
स्थान	-1166
▁वाप	-1167
काल	-1168
▁ते	-1169
▁देखने	-1170
ब्ध	-1171
le	-1172
▁आदि	-1173
▁गांव	-1174
जय	-1175
तम	-1176
▁देखा	-1177
▁न्यू	-1178
▁भाव	-1179
▁स्वास्थ्य	-1180
ीक	-1181
दों	-1182
▁मिली	-1183
चान	-1184
हाँ	-1185
▁कोरोना	-1186
▁पेश	-1187
▁उसका	-1188
तु	-1189
▁जाएगी	-1190
▁भाग	-1191
▁माल	-1192
▁रात	-1193
▁उपल	-1194
▁राष्ट्र	-1195
▁विचार	-1196
▁वायर	-1197
क्शन	-1198
त्ता	-1199
लाइन	-1200
षा	-1201
▁शरी	-1202
ताल	-1203
▁फोन	-1204
▁ख़	-1205
यन	-1206
▁शिव	-1207
ायत	-1208
di	-1209
000	-1210
▁शादी	-1211
▁सदस	-1212
दारी	-1213
▁उपलब्ध	-1214
▁लगभग	-1215
▁कल	-1216
▁सच	-1217
▁लगता	-1218
▁हजार	-1219
▁स्तर	-1220
▁दल	-1221
▁N	-1222
▁स्कूल	-1223
▁अच्छी	-1224
र्चा	-1225
रों	-1226
▁पूरे	-1227
▁बनाए	-1228
▁अद	-1229
ीट	-1230
ंज	-1231
▁सौ	-1232
▁सफल	-1233
▁मंत्र	-1234
▁आयोज	-1235
▁मौजूद	-1236
▁कीमत	-1237
डा	-1238
▁जवाब	-1239
बार	-1240
▁माध्यम	-1241
न्न	-1242
श्म	-1243
वेदन	-1244
▁बदल	-1245
बल	-1246
▁इंटर	-1247
लब	-1248
▁मार	-1249
▁लें	-1250
▁होंगे	-1251
ुन	-1252
▁मां	-1253
▁मजब	-1254
▁दूसरी	-1255
▁नव	-1256
▁रोक	-1257
▁चि	-1258
▁पोस्ट	-1259
▁गै	-1260
▁कर्म	-1261
▁नंबर	-1262
्टी	-1263
राम	-1264
▁बज	-1265
▁जनता	-1266
▁बिल	-1267
▁स्थान	-1268
▁कार्यक्रम	-1269
▁खास	-1270
▁एम	-1271
षण	-1272
▁सर्	-1273
▁प्रतिशत	-1274
▁इंडिया	-1275
उन	-1276
▁लगाया	-1277
ion	-1278
▁सोशल	-1279
्हें	-1280
▁फीस	-1281
▁डा	-1282
ालय	-1283
▁मंद	-1284
▁गल	-1285
▁निय	-1286
▁लगातार	-1287
ॉप	-1288
am	-1289
▁राष्ट्रीय	-1290
लाई	-1291
ीय	-1292
▁थो	-1293
▁टेस्ट	-1294
▁लाइ	-1295
▁दिख	-1296
▁यही	-1297
साइट	-1298
▁शरीर	-1299
िफ	-1300
▁शहर	-1301
▁मूल	-1302
▁अर	-1303
संद	-1304
▁जिसे	-1305
▁अफ	-1306
बे	-1307
दम	-1308
▁बचा	-1309
▁क्रिकेट	-1310
▁रखने	-1311
▁कित	-1312
िन्न	-1313
▁संप	-1314
▁प्रमुख	-1315
▁बयान	-1316
▁समर्थ	-1317
पति	-1318
▁आपका	-1319
▁ट्व	-1320
▁पीछ	-1321
▁नियम	-1322
▁.	-1323
िश्	-1324
▁रखा	-1325
▁नर	-1326
▁चुके	-1327
▁गं	-1328
▁सुबह	-1329
▁सके	-1330
▁अंतर	-1331
ल्स	-1332
▁अस्प	-1333
▁चा	-1334
स्वी	-1335
ेंड	-1336
▁G	-1337
धि	-1338
▁परेश	-1339
ंदा	-1340
▁शिक्षा	-1341
▁घंट	-1342
co	-1343
त्मक	-1344
▁जरूरत	-1345
श्व	-1346
▁माना	-1347
श्च	-1348
▁स्म	-1349
▁रोज	-1350
ाला	-1351
▁किस	-1352
▁उम	-1353
्रीम	-1354
▁शर्मा	-1355
▁सम्म	-1356
▁प्रया	-1357
वाह	-1358
मारी	-1359
▁वेबसाइट	-1360
क्रिया	-1361
▁ठीक	-1362
▁सांस	-1363
▁गुरु	-1364
ूब	-1365
▁राहुल	-1366
सम	-1367
▁भूम	-1368
िकल	-1369
▁वित	-1370
▁पसंद	-1371
-1	-1372
▁खरीद	-1373
▁निर्देश	-1374
▁लगी	-1375
▁बच्चे	-1376
नाथ	-1377
▁धर्म	-1378
▁बिहार	-1379
▁सामान	-1380
▁देता	-1381
चर	-1382
▁सोच	-1383
▁कार्ड	-1384
▁मिलने	-1385
▁बजे	-1386
▁एज	-1387
▁वृ	-1388
काश	-1389
▁मि	-1390
ष्य	-1391
लाह	-1392
ेशा	-1393
कान	-1394
टक	-1395
रीज	-1396
▁मिन	-1397
▁ऑन	-1398
▁बनाया	-1399
ड़ों	-1400
▁बेहतर	-1401
▁आख	-1402
▁विदेश	-1403
▁मंदिर	-1404
▁ग्राम	-1405
ात	-1406
▁यात्रा	-1407
▁बच	-1408
▁200	-1409
▁निवेश	-1410
▁छोट	-1411
▁चुन	-1412
▁आदेश	-1413
▁L	-1414
र्न	-1415
मो	-1416
▁गिरफ्त	-1417
▁मुद्	-1418
▁सर्व	-1419
▁जे	-1420
्यो	-1421
▁विभ	-1422
▁हमारी	-1423
ूप	-1424
▁18	-1425
▁शुरुआत	-1426
▁अधिकारियों	-1427
एन	-1428
▁चुकी	-1429
▁बाजार	-1430
▁जिला	-1431
▁पीछे	-1432
▁प्ले	-1433
▁जरूरी	-1434
▁चर्चा	-1435
▁वर	-1436
▁आत	-1437
▁विरोध	-1438
▁प्रदान	-1439
▁अंत	-1440
▁प्रक्रिया	-1441
▁अभि	-1442
▁महत्वपूर्ण	-1443
▁14	-1444
ांत	-1445
▁हाई	-1446
्ज	-1447
▁पिता	-1448
त्री	-1449
▁प्य	-1450
▁सरकारी	-1451
ंख	-1452
▁रिक	-1453
▁फाय	-1454
▁जल	-1455
भर	-1456
्रम	-1457
▁बेट	-1458
▁जिले	-1459
▁तेज	-1460
▁स्थित	-1461
सिक	-1462
▁दोस्त	-1463
▁विप	-1464
▁F	-1465
दाय	-1466
▁निर्माण	-1467
▁नोट	-1468
▁30	-1469
▁हास	-1470
अल	-1471
▁ऊपर	-1472
▁फैसला	-1473
▁लाल	-1474
विधा	-1475
जरा	-1476
▁उच्च	-1477
ंद्र	-1478
▁जन्म	-1479
▁E	-1480
द्धि	-1481
▁शो	-1482
▁कार्र	-1483
▁शेयर	-1484
फा	-1485
ंबई	-1486
ing	-1487
▁संघ	-1488
िन्	-1489
▁मामला	-1490
त्ति	-1491
▁|	-1492
▁विकेट	-1493
▁सेवन	-1494
▁मेरा	-1495
▁25	-1496
▁विभिन्न	-1497
▁शाह	-1498
ad	-1499
▁बने	-1500
गल	-1501
▁वोट	-1502
▁देना	-1503
▁प्रयास	-1504
▁कमी	-1505
▁ड्र	-1506
▁हमेशा	-1507
बंधन	-1508
▁जानते	-1509
ंका	-1510
यू	-1511
re	-1512
र्या	-1513
▁कार्रवाई	-1514
▁फर	-1515
फे	-1516
▁अप्र	-1517
करी	-1518
▁बोल	-1519
▁कौन	-1520
ैक	-1521
▁हत्या	-1522
▁भग	-1523
▁हासिल	-1524
▁एक्ट	-1525
वादी	-1526
▁बैठक	-1527
▁पाए	-1528
▁अदाल	-1529
मता	-1530
भीर	-1531
▁निकल	-1532
तरा	-1533
क्षित	-1534
▁गर्	-1535
▁बदला	-1536
▁अख	-1537
मन	-1538
लर	-1539
▁कानून	-1540
▁संभाव	-1541
ित्र	-1542
लि	-1543
झा	-1544
ॉर्म	-1545
द्यालय	-1546
▁13	-1547
कु	-1548
▁रहते	-1549
ार्म	-1550
▁आवेदन	-1551
▁अस्पताल	-1552
▁पक्ष	-1553
▁अहम	-1554
▁हिस्सा	-1555
▁मुंबई	-1556
▁पेट	-1557
▁वापस	-1558
▁अंदर	-1559
ियल	-1560
▁इतना	-1561
▁बिज	-1562
▁संगठ	-1563
र्जी	-1564
▁उत्पा	-1565
▁पूर्	-1566
रिका	-1567
is	-1568
▁रुपए	-1569
धिकार	-1570
▁यानी	-1571
▁महिलाओं	-1572
िली	-1573
▁हमने	-1574
क्सी	-1575
▁किसानों	-1576
एफ	-1577
्क	-1578
▁गयी	-1579
▁व्यापार	-1580
▁वन	-1581
▁रि	-1582
्रोल	-1583
▁बल्ले	-1584
लिया	-1585
▁राजनीतिक	-1586
▁जय	-1587
▁भाई	-1588
म्मे	-1589
किल	-1590
र्ती	-1591
▁सुविधा	-1592
▁निकाल	-1593
ac	-1594
▁शी	-1595
▁तरीके	-1596
▁लेख	-1597
▁कमा	-1598
ड़क	-1599
▁जून	-1600
▁आइ	-1601
▁गंभीर	-1602
र्थिक	-1603
▁भु	-1604
▁पाल	-1605
▁नीचे	-1606
▁युवा	-1607
▁पीएम	-1608
▁16	-1609
▁गठ	-1610
तंत्र	-1611
ay	-1612
▁मार्च	-1613
▁बेहद	-1614
▁लक्ष	-1615
▁अति	-1616
▁लोकसभा	-1617
▁संक्रम	-1618
▁अमेरिका	-1619
▁पंजा	-1620
▁ऑनलाइन	-1621
▁24	-1622
▁हूँ	-1623
ेक	-1624
▁वक्त	-1625
▁एड	-1626
▁चुका	-1627
▁महारा	-1628
▁दावा	-1629
प्प	-1630
ro	-1631
▁तीस	-1632
▁मध्य	-1633
▁साब	-1634
▁कहीं	-1635
णाम	-1636
ेंसी	-1637
▁अदालत	-1638
▁दिव	-1639
▁चलते	-1640
गू	-1641
बाजी	-1642
▁ताकि	-1643
▁दू	-1644
तान	-1645
▁साफ	-1646
▁रंग	-1647
▁भे	-1648
▁आर्थिक	-1649
गार	-1650
▁जमा	-1651
▁टाइ	-1652
हाय	-1653
▁आत्म	-1654
▁तेल	-1655
▁50	-1656
▁वालों	-1657
▁सुप	-1658
▁अर्थ	-1659
फर	-1660
▁2022	-1661
▁पैसे	-1662
▁फ्र	-1663
▁सित	-1664
▁विकल्प	-1665
▁देव	-1666
ाप	-1667
किंग	-1668
▁केंद	-1669
as	-1670
िक्स	-1671
▁पक	-1672
ृति	-1673
▁बोर्ड	-1674
▁प्यार	-1675
▁नया	-1676
▁अर्	-1677
),	-1678
▁घंटे	-1679
ंटी	-1680
ंसा	-1681
▁मिनट	-1682
गढ़	-1683
लेज	-1684
▁शिकायत	-1685
▁व्यवस्था	-1686
▁लो	-1687
ज्ञान	-1688
▁K	-1689
▁पड़ा	-1690
▁सूचना	-1691
िड	-1692
▁मिश	-1693
▁आता	-1694
नेट	-1695
स्तव	-1696
▁उसी	-1697
▁टै	-1698
▁केंद्रीय	-1699
▁मंगल	-1700
▁पहचान	-1701
▁समु	-1702
▁आयोग	-1703
ांस	-1704
▁शुभ	-1705
▁मना	-1706
▁माह	-1707
▁W	-1708
▁पुर	-1709
कल	-1710
▁डाय	-1711
तिहा	-1712
▁तम	-1713
▁परिणाम	-1714
▁न्याया	-1715
▁लगाने	-1716
▁मई	-1717
▁डिज	-1718
▁शुक्र	-1719
तियों	-1720
लू	-1721
▁जल्द	-1722
वासी	-1723
▁रेल	-1724
▁सेना	-1725
▁सदस्य	-1726
▁उम्र	-1727
ur	-1728
▁नागर	-1729
कट	-1730
▁घोषणा	-1731
▁जैसी	-1732
ग्री	-1733
▁उससे	-1734
ॉर्ड	-1735
▁समर्थन	-1736
▁लौ	-1737
▁संबंधित	-1738
▁दिखाई	-1739
▁विष	-1740
et	-1741
▁नेताओं	-1742
क़	-1743
▁गति	-1744
▁जनवरी	-1745
▁सीमा	-1746
▁क्लिक	-1747
▁देखते	-1748
काब	-1749
▁सप	-1750
श्मीर	-1751
▁पंच	-1752
मति	-1753
▁पंजाब	-1754
il	-1755
ूह	-1756
िरा	-1757
टन	-1758
▁कदम	-1759
▁विधायक	-1760
▁मामलों	-1761
▁सुप्रीम	-1762
बाइल	-1763
▁अच्छे	-1764
तक	-1765
▁नुक	-1766
▁दौ	-1767
हरी	-1768
▁मजबूत	-1769
जिक	-1770
केट	-1771
मर	-1772
▁पड़े	-1773
▁संय	-1774
धे	-1775
▁प्रशासन	-1776
▁पत्नी	-1777
▁अगस्त	-1778
ष्ण	-1779
▁प्ल	-1780
▁भाषा	-1781
▁जुड़े	-1782
▁सहाय	-1783
मीन	-1784
खंड	-1785
▁खूब	-1786
बाज	-1787
▁सहित	-1788
व्य	-1789
▁तय	-1790
▁रहता	-1791
▁बुध	-1792
मिक	-1793
▁लिये	-1794
ोस	-1795
▁गिरफ्तार	-1796
ंभ	-1797
▁मॉ	-1798
▁अंग	-1799
▁सलाह	-1800
इस	-1801
▁तस्वी	-1802
पे	-1803
▁फीसदी	-1804
▁नागरिक	-1805
डल	-1806
▁खत्म	-1807
▁नरेंद्र	-1808
▁जिम्मे	-1809
▁नुकसान	-1810
▁मी	-1811
बू	-1812
▁बदलाव	-1813
▁मिलेगा	-1814
▁स्वी	-1815
ष्ट्र	-1816
शु	-1817
▁17	-1818
ुड	-1819
वीं	-1820
उट	-1821
▁बर	-1822
▁चीन	-1823
▁देर	-1824
सत	-1825
िशा	-1826
▁रहेगा	-1827
▁मंत्रालय	-1828
▁मोबाइल	-1829
ूं	-1830
ॉक	-1831
ांति	-1832
▁अवसर	-1833
▁देशों	-1834
▁दिस	-1835
▁रिश	-1836
▁छो	-1837
▁लागू	-1838
▁करेगा	-1839
▁उद्	-1840
▁साबित	-1841
▁यूपी	-1842
,000	-1843
▁उनसे	-1844
▁परिव	-1845
ियान	-1846
▁हार	-1847
▁विवाद	-1848
दू	-1849
वें	-1850
▁जेल	-1851
▁टिक	-1852
▁रण	-1853
ृह	-1854
▁जुलाई	-1855
इड	-1856
▁सम्मान	-1857
ॉन	-1858
▁ती	-1859
▁आवश्यकता	-1860
द्योग	-1861
▁पत्रकार	-1862
▁s	-1863
▁अप्रैल	-1864
रल	-1865
▁मोह	-1866
▁नही	-1867
▁सहयोग	-1868
चिका	-1869
▁खाने	-1870
▁एल	-1871
▁गण	-1872
ष्टि	-1873
▁गलत	-1874
साथ	-1875
▁मुकाब	-1876
अप	-1877
▁नगर	-1878
▁दृ	-1879
▁डॉक्टर	-1880
▁बंग	-1881
▁पट	-1882
▁प्रभावित	-1883
▁एक्सप	-1884
▁करवा	-1885
▁रव	-1886
सि	-1887
▁भगवान	-1888
▁जाएंगे	-1889
▁उत	-1890
▁सोम	-1891
धन	-1892
साय	-1893
▁अगले	-1894
▁सामान्य	-1895
▁O	-1896
▁बनी	-1897
▁p	-1898
▁प्रत	-1899
▁स्थाप	-1900
▁विषय	-1901
▁ग्रह	-1902
▁धो	-1903
▁सामना	-1904
▁असर	-1905
▁खो	-1906
▁याचिका	-1907
▁कंट	-1908
▁0	-1909
▁राजनीति	-1910
नीय	-1911
▁आंक	-1912
▁आतंक	-1913
ॉय	-1914
▁होकर	-1915
ठी	-1916
्रो	-1917
▁संभावना	-1918
चीत	-1919
▁राय	-1920
ूबर	-1921
▁पहला	-1922
ंडी	-1923
▁शाय	-1924
▁गुजरा	-1925
▁छात्रों	-1926
ोरी	-1927
▁वही	-1928
un	-1929
▁कहानी	-1930
▁राजस्थान	-1931
▁अपरा	-1932
▁मिलता	-1933
▁बातचीत	-1934
▁तुल	-1935
▁लेते	-1936
▁उद	-1937
▁कट	-1938
▁नौकरी	-1939
▁खुश	-1940
▁भेज	-1941
▁सिद्ध	-1942
▁शब्	-1943
▁वाह	-1944
▁प्रेम	-1945
▁आते	-1946
▁वास्तव	-1947
▁सीएम	-1948
▁छोटे	-1949
▁सें	-1950
▁निर्ण	-1951
▁स्पष्ट	-1952
▁भर्ती	-1953
ंगी	-1954
▁फी	-1955
कर्ता	-1956
el	-1957
▁आग	-1958
ाना	-1959
▁प्रकाश	-1960
ent	-1961
विष्य	-1962
▁पूजा	-1963
ायल	-1964
ूड	-1965
चन	-1966
▁भू	-1967
▁साह	-1968
चाल	-1969
ch	-1970
▁सांसद	-1971
▁बनने	-1972
शनल	-1973
▁दर्द	-1974
ंता	-1975
▁भविष्य	-1976
▁चिक	-1977
us	-1978
▁दुर्	-1979
▁कप्ता	-1980
▁विपक्ष	-1981
हाल	-1982
ग्	-1983
▁भूमिका	-1984
▁सारे	-1985
▁आदमी	-1986
सूस	-1987
न्द्र	-1988
▁सीरीज	-1989
▁चरण	-1990
विड	-1991
प्ताह	-1992
▁दिसंबर	-1993
असल	-1994
▁सफलता	-1995
ोजन	-1996
ार्ड	-1997
▁सात	-1998
खी	-1999
▁स्मार्ट	-2000
.5	-2001
▁रहती	-2002
▁आरोपी	-2003
दर	-2004
▁तेजी	-2005
सों	-2006
▁मृत	-2007
▁मुश्	-2008
▁आयोजित	-2009
ॉट	-2010
▁हमला	-2011
▁उल्	-2012
▁शान	-2013
▁यून	-2014
उंट	-2015
▁V	-2016
ृत्व	-2017
▁आती	-2018
▁बाव	-2019
क्षि	-2020
▁लंब	-2021
ड़ियों	-2022
▁दरअसल	-2023
फोन	-2024
िष्ठ	-2025
सद	-2026
▁पति	-2027
तृत्व	-2028
▁पुरा	-2029
ड़ने	-2030
▁जित	-2031
▁युव	-2032
▁ज्ञ	-2033
▁पाया	-2034
लिम	-2035
▁राज्यों	-2036
तिम	-2037
▁दबा	-2038
▁2021	-2039
▁ट्वीट	-2040
▁पैदा	-2041
हरे	-2042
▁2019	-2043
नेस	-2044
▁!	-2045
िरी	-2046
▁सुधार	-2047
ंदी	-2048
▁महसूस	-2049
▁ऋ	-2050
▁जिसका	-2051
▁राष्ट्रपति	-2052
▁जैसा	-2053
▁21	-2054
▁वी	-2055
▁पारी	-2056
▁जरिए	-2057
▁रखें	-2058
▁U	-2059
▁धी	-2060
▁देती	-2061
▁मौके	-2062
▁तला	-2063
▁खराब	-2064
▁परेशान	-2065
ैनिक	-2066
ार्ज	-2067
▁गे	-2068
▁गौर	-2069
▁2024	-2070
▁सै	-2071
▁व्यक्त	-2072
▁संक्रमण	-2073
▁न्याय	-2074
ुओं	-2075
वुड	-2076
▁ति	-2077
▁मतलब	-2078
▁गुजरात	-2079
▁कंपन	-2080
▁आन	-2081
▁मुश्किल	-2082
क्टूबर	-2083
ानीय	-2084
▁भारी	-2085
▁फरवरी	-2086
▁एयर	-2087
▁t	-2088
▁पश्च	-2089
्रीन	-2090
▁नेतृत्व	-2091
▁आईपी	-2092
▁कथ	-2093
▁वरिष्ठ	-2094
ण्ड	-2095
lo	-2096
▁मगर	-2097
▁तस्वीर	-2098
पु	-2099
▁?	-2100
▁सितंबर	-2101
▁सोमवार	-2102
▁In	-2103
▁अक्टूबर	-2104
▁2020	-2105
▁आसान	-2106
जरी	-2107
▁निर्णय	-2108
सन	-2109
▁बावजूद	-2110
▁शायद	-2111
▁जाये	-2112
▁विस्त	-2113
▁श्र	-2114
▁रोग	-2115
▁तारी	-2116
▁चले	-2117
▁ट्रेन	-2118
र्तन	-2119
षि	-2120
▁आवा	-2121
्होंने	-2122
▁स्थानीय	-2123
स्त्र	-2124
▁माता	-2125
▁ओवर	-2126
▁फे	-2127
क्ता	-2128
▁यहाँ	-2129
ed	-2130
▁नवंबर	-2131
▁पड़ता	-2132
▁पहुंचे	-2133
िश्चित	-2134
▁डेट	-2135
क्सर	-2136
▁इले	-2137
▁सामा	-2138
▁अनुभव	-2139
लोड	-2140
ौती	-2141
▁सार	-2142
ंदगी	-2143
▁पर्या	-2144
▁अंतिम	-2145
िद	-2146
▁रै	-2147
▁समिति	-2148
▁टि	-2149
टल	-2150
▁पूछा	-2151
▁हिंदी	-2152
▁महाराष्ट्र	-2153
चल	-2154
ंघ	-2155
▁कैं	-2156
कृत	-2157
ित्व	-2158
वरण	-2159
स्थित	-2160
▁लॉन्	-2161
ब्ल	-2162
स्ताव	-2163
ोलन	-2164
▁सामाजिक	-2165
▁इंग	-2166
▁रिज	-2167
▁रिकॉर्ड	-2168
▁वर्ग	-2169
▁सम्	-2170
ra	-2171
पास	-2172
▁एंड	-2173
स्ट्रे	-2174
▁100	-2175
कत	-2176
▁प्रस्ताव	-2177
▁प्रत्य	-2178
▁प्रवेश	-2179
▁कला	-2180
▁सुना	-2181
▁पैसा	-2182
उंड	-2183
स्ती	-2184
▁वायरल	-2185
▁छह	-2186
▁मू	-2187
▁इलाज	-2188
्यु	-2189
लीवुड	-2190
▁खिलाड़ी	-2191
▁मौका	-2192
ोद	-2193
oo	-2194
ेन	-2195
ul	-2196
▁गये	-2197
▁पीड़	-2198
सू	-2199
▁त्र	-2200
▁हिंदू	-2201
id	-2202
▁मुला	-2203
ज़ा	-2204
टने	-2205
▁मश	-2206
▁हमारा	-2207
▁बाइ	-2208
▁सूर्य	-2209
दीप	-2210
▁22	-2211
pp	-2212
ेत	-2213
▁गुण	-2214
▁लेना	-2215
▁आयु	-2216
्वास	-2217
▁2023	-2218
▁सड़क	-2219
विद्यालय	-2220
▁आंद	-2221
▁हल्	-2222
▁खर्च	-2223
▁बुधवार	-2224
▁बीते	-2225
स्ट्रेलिया	-2226
▁चीज	-2227
अलग	-2228
▁जाकर	-2229
▁आपने	-2230
रिया	-2231
ंतर	-2232
▁संगठन	-2233
▁शुक्रवार	-2234
▁रज	-2235
▁भावना	-2236
स्लिम	-2237
▁दक्षि	-2238
▁चाहता	-2239
▁अक्सर	-2240
▁सत्ता	-2241
▁संत	-2242
िटल	-2243
रीब	-2244
ोह	-2245
▁2025	-2246
▁प्रयोग	-2247
▁बेटी	-2248
▁मंगलवार	-2249
ानि	-2250
▁निजी	-2251
ष्ट्रीय	-2252
▁in	-2253
▁जमीन	-2254
▁टीवी	-2255
▁उसमें	-2256
ांड	-2257
▁मात्रा	-2258
्यता	-2259
कर्ताओं	-2260
िक्ष	-2261
▁समुदाय	-2262
▁बताते	-2263
यं	-2264
▁बंगाल	-2265
धर	-2266
ीत	-2267
▁सीटों	-2268
ूरत	-2269
▁पूर्ण	-2270
▁आसानी	-2271
ag	-2272
▁प्रव	-2273
तमान	-2274
धिकारिक	-2275
▁फैसले	-2276
तिहास	-2277
▁फोट	-2278
▁सिर	-2279
▁रिली	-2280
▁पाठ	-2281
▁शानदार	-2282
▁इंग्ल	-2283
▁बेटे	-2284
▁सप्ताह	-2285
▁समूह	-2286
▁अभियान	-2287
थि	-2288
▁शि	-2289
▁अनुमति	-2290
स्टम	-2291
▁पहुंचा	-2292
▁ज़र	-2293
▁विश्वास	-2294
▁कथित	-2295
▁इतिहास	-2296
▁आधिकारिक	-2297
▁अंक	-2298
▁वैसे	-2299
ील	-2300
▁रखते	-2301
तरी	-2302
▁लंबे	-2303
▁चिकित	-2304
▁ग्राह	-2305
▁अपराध	-2306
लेट	-2307
स्कार	-2308
▁दवा	-2309
▁दिशा	-2310
▁डाउन	-2311
▁नियंत्र	-2312
▁चुना	-2313
▁चिंता	-2314
▁तुर	-2315
▁मं	-2316
▁करनी	-2317
▁कराने	-2318
रु	-2319
मक	-2320
ेंज	-2321
ct	-2322
▁तकनी	-2323
▁चंद्र	-2324
र्ग	-2325
बीआई	-2326
▁दूसरा	-2327
▁कश्मीर	-2328
िनि	-2329
▁श्रे	-2330
▁शक्ति	-2331
▁वृद्धि	-2332
▁गृह	-2333
▁भुग	-2334
द्रा	-2335
▁शन	-2336
▁क्षेत्रों	-2337
ीण	-2338
▁खोल	-2339
▁इंत	-2340
▁मुस्लिम	-2341
मरा	-2342
मित	-2343
▁रविवार	-2344
▁भीतर	-2345
▁कब	-2346
शील	-2347
ाइट	-2348
▁40	-2349
ल्ट	-2350
▁सुरक्षित	-2351
▁सुनिश्चित	-2352
रिक्त	-2353
ha	-2354
▁क्षमता	-2355
▁बढ़ाने	-2356
▁तुम्ह	-2357
▁वर्तमान	-2358
▁m	-2359
▁भुगतान	-2360
र्जा	-2361
▁प्लान	-2362
▁थोड़ा	-2363
▁ज्यो	-2364
▁लगाए	-2365
रेट	-2366
▁सूची	-2367
▁समेत	-2368
दु	-2369
▁शनिवार	-2370
▁रखना	-2371
▁अतिरिक्त	-2372
99	-2373
▁बॉलीवुड	-2374
▁हरिया	-2375
▁संके	-2376
▁एजेंसी	-2377
▁जता	-2378
▁अका	-2379
ज़र	-2380
▁एफ	-2381
▁कराया	-2382
▁मिलती	-2383
▁किलो	-2384
▁अभिने	-2385
▁आंदोलन	-2386
▁साइ	-2387
▁देकर	-2388
यों	-2389
▁सचिव	-2390
▁सुपर	-2391
खन	-2392
▁उद्देश	-2393
▁23	-2394
▁b	-2395
▁प्रतिक	-2396
▁तभी	-2397
ौल	-2398
▁सुनवाई	-2399
▁ऑस्ट्रेलिया	-2400
▁इतनी	-2401
▁निभा	-2402
ot	-2403
▁स्वीकार	-2404
▁चैन	-2405
्वर	-2406
▁विश्वविद्यालय	-2407
hi	-2408
भार	-2409
▁तुलना	-2410
▁दिला	-2411
ुप	-2412
▁योगी	-2413
▁लॉन्च	-2414
ठा	-2415
धानी	-2416
▁जिसकी	-2417
▁अमेरिक	-2418
ut	-2419
साद	-2420
▁ग्रामीण	-2421
▁हमले	-2422
▁धारा	-2423
▁माइ	-2424
▁कोविड	-2425
▁ज्योति	-2426
▁संयुक्त	-2427
▁फाइन	-2428
▁तुरंत	-2429
▁कप्तान	-2430
▁डर	-2431
▁कॉलेज	-2432
▁कर्	-2433
▁मर	-2434
रान	-2435
▁इनमें	-2436
▁तत्	-2437
▁जाय	-2438
▁प्री	-2439
▁मल	-2440
जु	-2441
em	-2442
▁बल	-2443
▁आठ	-2444
वत	-2445
▁J	-2446
▁लड़की	-2447
मैं	-2448
▁चयन	-2449
▁दोस्तों	-2450
▁''	-2451
म्मू	-2452
▁बिजली	-2453
▁दुकान	-2454
मिट	-2455
म्प	-2456
▁हिंसा	-2457
ट्ट	-2458
ड्ड	-2459
वेद	-2460
▁f	-2461
▁मौसम	-2462
▁जोर	-2463
▁रिश्ते	-2464
पक	-2465
श्न	-2466
भाल	-2467
▁कठ	-2468
▁संस्था	-2469
▁रेलवे	-2470
▁करियर	-2471
कम	-2472
ूक	-2473
▁वायरस	-2474
न्या	-2475
▁उपाय	-2476
▁ठा	-2477
▁26	-2478
▁लं	-2479
ैया	-2480
▁आउट	-2481
ाब	-2482
▁मेड	-2483
▁बेच	-2484
os	-2485
▁पल	-2486
▁सिस्टम	-2487
▁बारिश	-2488
▁टिकट	-2489
▁स्वयं	-2490
▁चाहे	-2491
ुरुष	-2492
..	-2493
▁बजट	-2494
▁खाना	-2495
▁इंडियन	-2496
हली	-2497
▁आश	-2498
्रेट	-2499
▁शीर्ष	-2500
▁जम्मू	-2501
▁पाने	-2502
▁लड़ा	-2503
नर	-2504
▁मैदान	-2505
▁ट्रेड	-2506
▁इंग्लैंड	-2507
गम	-2508
ंव	-2509
▁इलाके	-2510
▁इंस्ट	-2511
▁फायदे	-2512
▁उम्मीदवारों	-2513
▁बातें	-2514
▁दक्षिण	-2515
फ्ट	-2516
▁तनाव	-2517
▁नेट	-2518
▁रक्षा	-2519
▁फ्ल	-2520
om	-2521
▁सुख	-2522
▁आखिर	-2523
▁विदेशी	-2524
ir	-2525
▁करेगी	-2526
▁संस्थान	-2527
▁समान	-2528
ामा	-2529
▁माँ	-2530
and	-2531
▁रहें	-2532
▁संभव	-2533
▁केस	-2534
▁जल्दी	-2535
्ती	-2536
▁पुरुष	-2537
▁यूजर	-2538
▁स्वतंत्र	-2539
ation	-2540
▁हटा	-2541
▁उनको	-2542
ूर्ति	-2543
▁संब	-2544
▁दश	-2545
▁शांति	-2546
▁दोष	-2547
▁प्लेट	-2548
▁मार्ग	-2549
▁क्व	-2550
▁धीरे	-2551
▁सजा	-2552
पू	-2553
▁संपर्क	-2554
▁लक्ष्य	-2555
▁गिरा	-2556
▁न्यायालय	-2557
▁सूत्र	-2558
खे	-2559
▁फिल्मों	-2560
▁विन	-2561
▁सिल	-2562
▁स्मार्टफोन	-2563
▁जाति	-2564
विध	-2565
ol	-2566
ियाँ	-2567
▁सारी	-2568
▁कृषि	-2569
▁चाल	-2570
स्ते	-2571
स्टर	-2572
▁तैयारी	-2573
▁सार्व	-2574
▁1.	-2575
ित्य	-2576
-2	-2577
▁बर्	-2578
▁सहायता	-2579
▁जिन्हें	-2580
▁रिलीज	-2581
▁विरा	-2582
▁हरियाणा	-2583
एच	-2584
चारियों	-2585
▁देंगे	-2586
ूनी	-2587
▁बिक	-2588
▁खाते	-2589
▁नीति	-2590
▁28	-2591
▁छोटी	-2592
ल्क	-2593
▁तु	-2594
▁पश्चिम	-2595
▁इलेक्ट	-2596
▁वर्षों	-2597
▁रोहित	-2598
सित	-2599
▁अमेरिकी	-2600
▁जस्ट	-2601
▁क़	-2602
वट	-2603
▁संचाल	-2604
▁आंख	-2605
▁पुन	-2606
िटर	-2607
▁पालन	-2608
▁संसद	-2609
▁2017	-2610
ैट	-2611
▁बीमारी	-2612
▁देखकर	-2613
▁जुड़ी	-2614
्रिया	-2615
नो	-2616
▁बनाकर	-2617
्रिक	-2618
▁आयोजन	-2619
▁उद्देश्य	-2620
▁कंपनियों	-2621
गु	-2622
▁फॉ	-2623
न्द	-2624
▁लिस्ट	-2625
▁आनंद	-2626
▁अश	-2627
▁कंट्रोल	-2628
▁फा	-2629
▁वर्ल्ड	-2630
▁कोहली	-2631
▁बाइक	-2632
जनिक	-2633
▁मुह	-2634
नल	-2635
▁हिन्	-2636
▁राहत	-2637
▁जिन्होंने	-2638
▁खुला	-2639
ov	-2640
▁कारो	-2641
जल	-2642
▁कवि	-2643
▁ऑफिस	-2644
har	-2645
▁फायदा	-2646
▁फल	-2647
्रेड	-2648
▁मिलेगी	-2649
▁कर्मचारियों	-2650
थमिक	-2651
▁कपूर	-2652
▁विजय	-2653
▁विशेषज्ञ	-2654
▁सालों	-2655
▁वजन	-2656
▁इच्छ	-2657
▁मुद्दे	-2658
▁दूध	-2659
pe	-2660
ैर	-2661
केश	-2662
▁प्राथमिक	-2663
ंडल	-2664
com	-2665
▁सार्वजनिक	-2666
मीटर	-2667
▁27	-2668
म्मद	-2669
▁31	-2670
▁आईपीएल	-2671
सेना	-2672
▁गठबंधन	-2673
▁कमज	-2674
▁निर्धार	-2675
▁समी	-2676
▁मार्केट	-2677
▁घु	-2678
▁स्थापित	-2679
रीन	-2680
▁आइए	-2681
सं	-2682
ri	-2683
बि	-2684
▁बैठे	-2685
-19	-2686
▁चाहती	-2687
▁घोषित	-2688
कात	-2689
▁रेड	-2690
▁भोजन	-2691
देव	-2692
वाही	-2693
▁नती	-2694
▁प्रत्येक	-2695
▁खुल	-2696
▁युद्ध	-2697
▁चेहरे	-2698
ेप	-2699
▁प्राइ	-2700
▁कार्यालय	-2701
▁रहेंगे	-2702
▁गुरुवार	-2703
▁बाकी	-2704
▁घा	-2705
राष्ट्रीय	-2706
▁लखन	-2707
ंकर	-2708
▁जाएं	-2709
कर्ष	-2710
▁प्रतिक्रिया	-2711
▁डाउनलोड	-2712
▁जस्टिस	-2713
उस	-2714
▁संकेत	-2715
▁कही	-2716
▁समाप्त	-2717
लेख	-2718
तीश	-2719
▁लोन	-2720
प्स	-2721
▁अली	-2722
▁एक्सप्रेस	-2723
▁अवधि	-2724
▁जिनमें	-2725
एँ	-2726
▁2018	-2727
▁खड़े	-2728
▁शै	-2729
▁विस्तार	-2730
▁अक्ष	-2731
▁बनाई	-2732
▁कितना	-2733
▁गाय	-2734
▁मुद्रा	-2735
▁दस्ता	-2736
▁किये	-2737
▁बीमार	-2738
▁c	-2739
▁शराब	-2740
▁प्रचार	-2741
टाने	-2742
▁टिप्प	-2743
फाई	-2744
▁टाइम	-2745
ाहरण	-2746
▁तीसरे	-2747
▁परिवर्तन	-2748
त्त	-2749
शिया	-2750
षद	-2751
▁थाना	-2752
नु	-2753
▁उनमें	-2754
▁पौ	-2755
ार्क	-2756
एक	-2757
▁फोटो	-2758
50	-2759
▁सल	-2760
▁लंड	-2761
ew	-2762
▁फिलहाल	-2763
▁गैर	-2764
▁आखिरी	-2765
indi	-2766
▁मूल्य	-2767
ंडा	-2768
जरीवाल	-2769
त्ती	-2770
▁त्व	-2771
▁अखिल	-2772
▁भ्र	-2773
विधान	-2774
▁ज्ञान	-2775
▁सदस्यों	-2776
▁नार	-2777
र्प	-2778
▁चुनौती	-2779
▁गौ	-2780
▁तमाम	-2781
शिप	-2782
▁व्	-2783
वधान	-2784
▁ऊर्जा	-2785
30	-2786
▁पॉ	-2787
▁मुझ	-2788
ियार	-2789
▁केजरीवाल	-2790
ंकी	-2791
▁हल	-2792
▁लखनऊ	-2793
दर्श	-2794
▁रिट	-2795
फ्र	-2796
लैंड	-2797
▁वित्त	-2798
▁मानसिक	-2799
▁बुला	-2800
▁बढ़ने	-2801
ँच	-2802
▁प्रतिनि	-2803
टो	-2804
▁साध	-2805
▁देवी	-2806
सीसी	-2807
क्षक	-2808
▁प्रण	-2809
▁पढ़ें	-2810
▁डेटा	-2811
▁संघर्ष	-2812
▁खिलाड़ियों	-2813
▁परेशानी	-2814
▁सेट	-2815
▁संर	-2816
▁मरी	-2817
▁खोज	-2818
▁तोड़	-2819
▁पीड़ित	-2820
▁लै	-2821
ab	-2822
▁उद्योग	-2823
▁गेम	-2824
▁अंग्रे	-2825
▁साझा	-2826
नियर	-2827
▁हरा	-2828
▁उत्तरा	-2829
▁प्रसाद	-2830
▁जिंदगी	-2831
▁उदाहरण	-2832
▁मुकाबले	-2833
▁चली	-2834
▁पृ	-2835
चानक	-2836
जीत	-2837
▁एक्ट्रेस	-2838
कोर	-2839
ग्रह	-2840
▁दस्तावे	-2841
▁h	-2842
▁देखें	-2843
▁त्वचा	-2844
▁अकाउंट	-2845
स्व	-2846
गो	-2847
▁मैने	-2848
▁जोड़	-2849
▁पुराने	-2850
▁स्टेशन	-2851
▁आधारित	-2852
▁अचानक	-2853
ैंप	-2854
ार्मिक	-2855
▁ज़्यादा	-2856
▁पहन	-2857
▁टा	-2858
▁सीख	-2859
जूदा	-2860
▁होनी	-2861
▁असम	-2862
वै	-2863
▁धार्मिक	-2864
ेंशन	-2865
▁कॉल	-2866
▁पहल	-2867
▁तत्काल	-2868
▁मस	-2869
िकेशन	-2870
▁इंटरनेट	-2871
▁शब्द	-2872
▁मिलकर	-2873
▁मुलाकात	-2874
ंग्ला	-2875
▁प्रभ	-2876
▁हेल्	-2877
▁संजय	-2878
▁गर्म	-2879
▁इतने	-2880
▁दबाव	-2881
चारी	-2882
▁हथ	-2883
ियोजना	-2884
काम	-2885
िनी	-2886
▁अमित	-2887
▁29	-2888
ोधित	-2889
▁विद्य	-2890
▁पकड़	-2891
▁हिस्से	-2892
▁व्यवसाय	-2893
▁निशा	-2894
▁इनके	-2895
ोप	-2896
▁दम	-2897
▁भीड़	-2898
ियत	-2899
▁रणनी	-2900
▁परियोजना	-2901
ess	-2902
▁इंजन	-2903
▁मौजूदा	-2904
▁(1	-2905
▁वकी	-2906
▁नारा	-2907
▁किताब	-2908
सु	-2909
▁199	-2910
▁पीठ	-2911
दूर	-2912
▁तारीख	-2913
▁सपा	-2914
ोधन	-2915
▁दस	-2916
▁अय	-2917
▁रेट	-2918
▁मेडिकल	-2919
द्द	-2920
▁बॉडी	-2921
ग्राम	-2922
▁स्क्रीन	-2923
ायी	-2924
▁बालों	-2925
▁रहना	-2926
▁खड़ा	-2927
र्श	-2928
▁घरे	-2929
▁मस्	-2930
जिए	-2931
▁संपत्ति	-2932
कोर्ट	-2933
▁मतदान	-2934
डर	-2935
▁रखी	-2936
▁गरीब	-2937
▁री	-2938
▁चढ़	-2939
▁फॉर्म	-2940
वस्था	-2941
प्शन	-2942
▁छुट	-2943
▁राजा	-2944
▁प्रश्न	-2945
▁ब्रे	-2946
▁बिग	-2947
▁भरो	-2948
▁इन्हें	-2949
▁प्रेर	-2950
▁थोड़ी	-2951
्कुल	-2952
▁रोड	-2953
▁ऐप	-2954
▁कब्	-2955
▁अनुर	-2956
▁पदों	-2957
▁छूट	-2958
्टर	-2959
घा	-2960
▁वनडे	-2961
▁2026	-2962
▁लाने	-2963
ow	-2964
▁जिम्मेदारी	-2965
▁रोकने	-2966
▁Re	-2967
▁मेहन	-2968
▁डिजिटल	-2969
▁डॉलर	-2970
▁कड़ी	-2971
थी	-2972
डेट	-2973
▁बांग्ला	-2974
▁प्रमाण	-2975
ौन	-2976
▁किन	-2977
▁संविधान	-2978
▁लिंक	-2979
▁मानव	-2980
▁भेजा	-2981
िक्र	-2982
्याज	-2983
▁प्रिय	-2984
वाला	-2985
▁कोल	-2986
यक	-2987
▁बिल्कुल	-2988
▁अपील	-2989
खर	-2990
▁तलाश	-2991
▁रजिस्ट	-2992
कारा	-2993
▁निर्धारित	-2994
श्चित	-2995
▁तरीका	-2996
▁/	-2997
जनक	-2998
▁एंटी	-2999
हान	-3000
▁सीधे	-3001
▁टॉप	-3002
▁पढ़ाई	-3003
▁राशिफल	-3004
टरी	-3005
od	-3006
▁2.	-3007
▁चोट	-3008
▁घायल	-3009
ॉग	-3010
▁चूत	-3011
▁संकट	-3012
▁खरीदने	-3013
▁मॉडल	-3014
्तीय	-3015
▁चलता	-3016
▁जम	-3017
▁घरेलू	-3018
▁o	-3019
▁सत्र	-3020
▁नो	-3021
▁मैचों	-3022
वर्	-3023
▁क्ला	-3024
▁दलों	-3025
▁मोहम्मद	-3026
यल	-3027
▁सत	-3028
▁अके	-3029
▁दिवस	-3030
▁चैनल	-3031
ाइड	-3032
▁रहेगी	-3033
▁1,	-3034
▁दर्श	-3035
▁समाचार	-3036
▁बल्लेबाज	-3037
▁हाईकोर्ट	-3038
▁निश्चित	-3039
▁निदेश	-3040
धरी	-3041
न्ना	-3042
▁पढ़ने	-3043
▁स्टार	-3044
▁बू	-3045
▁विराट	-3046
▁सामग्री	-3047
▁काल	-3048
चु	-3049
▁बजाय	-3050
▁अग्र	-3051
▁विकसित	-3052
▁जवान	-3053
ेद	-3054
▁अंतरराष्ट्रीय	-3055
मेल	-3056
सलमान	-3057
▁निर	-3058
▁आसपास	-3059
▁पटेल	-3060
▁देखना	-3061
▁आध	-3062
▁सलमान	-3063
▁वित्तीय	-3064
▁वाहन	-3065
▁शव	-3066
▁हिस	-3067
▁वाय	-3068
▁देगा	-3069
जब	-3070
▁प्रार	-3071
▁सिक	-3072
▁हॉ	-3073
▁60	-3074
▁बेहत	-3075
▁भूल	-3076
द्व	-3077
दिन	-3078
▁पेट्रोल	-3079
ेर	-3080
▁प्रबंधन	-3081
▁कहां	-3082
त्कार	-3083
ig	-3084
▁निशाना	-3085
▁ग्रुप	-3086
▁धार	-3087
विंद	-3088
▁बांग्लादेश	-3089
ुण	-3090
प्रिय	-3091
ज्ञा	-3092
▁गईं	-3093
्मी	-3094
▁ब्लड	-3095
▁मरीजों	-3096
▁प्रती	-3097
▁इंतजार	-3098
▁गैस	-3099
▁गोली	-3100
▁आदित्य	-3101
▁खतरा	-3102
▁दोप	-3103
दिक	-3104
iv	-3105
▁राजधानी	-3106
▁निष्	-3107
▁कोच	-3108
इज	-3109
▁ट्विटर	-3110
▁नियमित	-3111
▁धर	-3112
चर्स	-3113
▁ज्योतिष	-3114
▁हाथों	-3115
▁सीजन	-3116
▁अध्ययन	-3117
▁शासन	-3118
जित	-3119
्रत	-3120
ामिन	-3121
▁कारोबार	-3122
तः	-3123
▁चेक	-3124
▁किलोमीटर	-3125
▁जात	-3126
▁संस्क	-3127
▁चौधरी	-3128
▁विट	-3129
▁मंच	-3130
फॉर्म	-3131
▁आवाज	-3132
▁कमजोर	-3133
▁आराम	-3134
▁महान	-3135
प्ति	-3136
▁फूल	-3137
han	-3138
▁मेहनत	-3139
▁दलित	-3140
▁w	-3141
▁संदेश	-3142
ेंडर	-3143
▁बनाना	-3144
▁डिस्	-3145
्राम	-3146
ter	-3147
दाता	-3148
बो	-3149
लान	-3150
▁झू	-3151
ट्स	-3152
मेश	-3153
▁सेहत	-3154
राह	-3155
▁आलो	-3156
▁आजा	-3157
ोषण	-3158
▁सुनी	-3159
▁लगती	-3160
▁प्रतिबंध	-3161
▁उत्पाद	-3162
द्दी	-3163
▁तिथि	-3164
▁स्वामी	-3165
नाक	-3166
▁सीटें	-3167
▁प्रेस	-3168
um	-3169
पान	-3170
▁तत्व	-3171
▁कक्षा	-3172
▁चार्ज	-3173
▁बाबा	-3174
▁सकें	-3175
रद	-3176
▁इन्	-3177
▁भूमि	-3178
ांक	-3179
▁फाइनल	-3180
ानों	-3181
▁रस	-3182
▁नदी	-3183
▁सच्च	-3184
▁हफ	-3185
▁नियंत्रण	-3186
▁महामारी	-3187
ेक्ट	-3188
ष्टा	-3189
▁उत्पादन	-3190
▁प्रशिक्ष	-3191
प्ले	-3192
▁उचित	-3193
▁फ्री	-3194
्रिय	-3195
▁करो	-3196
▁बेहतरीन	-3197
▁मुसलमान	-3198
पूर	-3199
▁समस्याओं	-3200
▁सूत्रों	-3201
▁आर्ट	-3202
▁सभा	-3203
▁हवा	-3204
▁नीतीश	-3205
िवर्स	-3206
▁d	-3207
▁पूछता	-3208
▁पाई	-3209
रेज	-3210
स्म	-3211
▁इंसान	-3212
▁बोला	-3213
▁हाद	-3214
▁लाइन	-3215
▁रवि	-3216
▁निवासी	-3217
▁कहने	-3218
▁भले	-3219
यह	-3220
▁व्यवहार	-3221
्यूटर	-3222
जाम	-3223
▁स्कोर	-3224
▁नोटिस	-3225
▁तीनों	-3226
▁चुनावों	-3227
▁शनि	-3228
▁पर्याप्त	-3229
.1	-3230
र्डर	-3231
▁खी	-3232
▁आँ	-3233
ैंस	-3234
▁रोजगार	-3235
▁कितनी	-3236
▁k	-3237
▁प्रस्त	-3238
नाटक	-3239
▁दोपहर	-3240
▁कर्मचारी	-3241
शान	-3242
मंद	-3243
▁चीजों	-3244
▁बें	-3245
est	-3246
▁अरब	-3247
▁सक्रिय	-3248
▁कितने	-3249
चक	-3250
▁वार्	-3251
▁मालिक	-3252
▁2014	-3253
िनियम	-3254
▁मिट	-3255
▁स्पी	-3256
▁किर	-3257
्वा	-3258
▁बिजनेस	-3259
धिकारी	-3260
▁लाइफ	-3261
▁हिसाब	-3262
▁अपडेट	-3263
▁जिसने	-3264
▁वॉ	-3265
स्ट्री	-3266
▁संश	-3267
तलब	-3268
▁टिप्पणी	-3269
▁अंतर्	-3270
माने	-3271
▁खाली	-3272
▁निप	-3273
▁डिग्री	-3274
▁सीबीआई	-3275
्सा	-3276
▁डिजाइन	-3277
▁पोर्ट	-3278
▁दैनिक	-3279
▁मनु	-3280
▁मुक	-3281
▁युवाओं	-3282
▁लड़ाई	-3283
▁रोम	-3284
▁ग्ल	-3285
▁टॉ	-3286
▁समाधान	-3287
ल्ल	-3288
▁रखे	-3289
▁बातों	-3290
▁Y	-3291
्प	-3292
▁खुशी	-3293
▁अखिलेश	-3294
▁पावर	-3295
▁पहुंचने	-3296
थे	-3297
▁समझौ	-3298
▁हफ्ते	-3299
▁प्रभा	-3300
▁जिम्मेदार	-3301
ज़ार	-3302
▁बढ़ती	-3303
▁उल्लेख	-3304
▁नै	-3305
त्तीस	-3306
▁युवक	-3307
▁गणेश	-3308
▁साथी	-3309
▁चुनावी	-3310
▁इस्ती	-3311
गन	-3312
▁ड्राइ	-3313
▁कर्नाटक	-3314
क्कर	-3315
▁यूज	-3316
▁बहन	-3317
िलों	-3318
▁अफ्री	-3319
▁वर्षीय	-3320
ाले	-3321
कर्म	-3322
im	-3323
वां	-3324
▁परिषद	-3325
बद्ध	-3326
शाली	-3327
▁रॉय	-3328
▁लोकप्रिय	-3329
▁पहुंची	-3330
ate	-3331
व्यू	-3332
▁टैक्स	-3333
▁विटामिन	-3334
▁खि	-3335
▁गू	-3336
▁बोली	-3337
he	-3338
कृति	-3339
देन	-3340
▁किश	-3341
▁वापसी	-3342
▁अवै	-3343
▁तू	-3344
▁नेशनल	-3345
▁डिप	-3346
▁ज्यादातर	-3347
."	-3348
धीश	-3349
▁अधिनियम	-3350
▁लक्षण	-3351
▁मानना	-3352
शे	-3353
▁सॉ	-3354
▁प्रोड	-3355
▁कैंसर	-3356
पोर्ट	-3357
▁इच्छा	-3358
त्रियों	-3359
▁रिजल्ट	-3360
्यास	-3361
▁संबंधी	-3362
ारोह	-3363
िशन	-3364
पिता	-3365
▁निगम	-3366
▁बहा	-3367
▁गौरतलब	-3368
▁पड़ेगा	-3369
▁नियमों	-3370
बाल	-3371
▁पड़ी	-3372
व्यवस्था	-3373
▁एका	-3374
ोत्	-3375
▁शौ	-3376
▁गोल	-3377
▁अथ	-3378
▁टूट	-3379
▁उतार	-3380
▁ट्रै	-3381
▁पंड	-3382
▁होटल	-3383
▁मित्र	-3384
श्वर	-3385
▁भरपूर	-3386
▁मध	-3387
▁उतर	-3388
▁समारोह	-3389
▁डो	-3390
▁चलने	-3391
▁लव	-3392
ज्ञानिक	-3393
▁वकील	-3394
▁ब्रिट	-3395
टका	-3396
▁उसको	-3397
सेस	-3398
▁फंड	-3399
वाले	-3400
▁शख	-3401
▁लड़क	-3402
एंगे	-3403
▁खेलने	-3404
▁विद्यालय	-3405
▁मनी	-3406
क्षम	-3407
▁गाड़ी	-3408
▁गतिविध	-3409
▁दिखाया	-3410
▁इंद	-3411
त्तीसगढ़	-3412
▁विमान	-3413
▁चीनी	-3414
▁उत्तराखंड	-3415
राव	-3416
▁जिनके	-3417
▁आकर	-3418
▁प्ला	-3419
▁मेह	-3420
▁कमरे	-3421
ंदे	-3422
▁वार	-3423
▁श्रद्ध	-3424
▁उपकरण	-3425
▁हालत	-3426
ढ़ी	-3427
▁धम	-3428
ठे	-3429
▁व्रत	-3430
ak	-3431
▁प्रवक्ता	-3432
▁तमिल	-3433
▁विवाह	-3434
▁आरोपियों	-3435
▁पंचायत	-3436
▁सख	-3437
हि	-3438
.2	-3439
▁व्यक्तिगत	-3440
▁सिने	-3441
▁उठाया	-3442
ंदन	-3443
▁कपड़े	-3444
▁पुष्टि	-3445
▁सुझा	-3446
▁अने	-3447
▁चिकित्सा	-3448
▁तैना	-3449
▁दाम	-3450
कृ	-3451
ूँ	-3452
▁संवाद	-3453
th	-3454
▁अवैध	-3455
▁कार्यों	-3456
▁35	-3457
▁शोध	-3458
यम	-3459
▁सुंदर	-3460
▁ऐलान	-3461
ेस	-3462
ियोग	-3463
▁कार्यकर्ताओं	-3464
नतम	-3465
▁सोने	-3466
▁कृष्ण	-3467
▁एक्टर	-3468
वर्क	-3469
▁कमाई	-3470
बादी	-3471
▁परिस	-3472
▁कैमरा	-3473
▁माहौल	-3474
▁छि	-3475
▁नज़र	-3476
▁रास्ते	-3477
▁एच	-3478
आप	-3479
▁बल्लेबाजी	-3480
हित्य	-3481
▁सक्षम	-3482
कू	-3483
ब्र	-3484
▁लौट	-3485
▁आकर्ष	-3486
▁जातकों	-3487
▁मिलते	-3488
▁स्ट्र	-3489
पत्र	-3490
▁लगने	-3491
ंजी	-3492
ज़ी	-3493
▁छत्तीसगढ़	-3494
डु	-3495
पूर्व	-3496
ारात्मक	-3497
कुमार	-3498
▁जू	-3499
▁ट्रांस	-3500
▁स्किन	-3501
लिंग	-3502
ायण	-3503
▁मृत्यु	-3504
ce	-3505
▁उल	-3506
▁पूछताछ	-3507
▁नम	-3508
▁जुड़ा	-3509
▁होम	-3510
▁मुंह	-3511
ग्न	-3512
▁ओपन	-3513
▁बचाने	-3514
माग	-3515
▁कने	-3516
▁एशिया	-3517
▁अनुमान	-3518
▁बिक्री	-3519
नाम	-3520
▁खूबस	-3521
▁मिस	-3522
▁आये	-3523
▁प्रणाली	-3524
▁हित	-3525
▁एसिड	-3526
▁सत्य	-3527
▁मिलाकर	-3528
दरा	-3529
▁साइट	-3530
▁उपचार	-3531
▁सेंटर	-3532
▁आवास	-3533
▁लॉक	-3534
▁अंदा	-3535
▁स्टो	-3536
▁पैर	-3537
िंट	-3538
बारा	-3539
▁मिश्रा	-3540
▁बढ़ावा	-3541
▁वास्तविक	-3542
जो	-3543
▁जीव	-3544
ंजन	-3545
्याण	-3546
▁ग्राहकों	-3547
चि	-3548
▁सेक	-3549
▁फैला	-3550
स्थिति	-3551
▁सारा	-3552
▁श्रम	-3553
▁जहाँ	-3554
जिद	-3555
ment	-3556
वरूप	-3557
▁बचाव	-3558
▁स्कू	-3559
▁मंजू	-3560
▁बोले	-3561
▁किरदार	-3562
ॉम	-3563
▁फीचर्स	-3564
्वी	-3565
▁योगदान	-3566
▁इंटरव्यू	-3567
▁सर्वे	-3568
▁St	-3569
▁गाँ	-3570
ाये	-3571
ल्ला	-3572
दियों	-3573
▁न्यायाधीश	-3574
खिम	-3575
▁ट्रंप	-3576
▁मुद्दों	-3577
▁दाख	-3578
▁शिकार	-3579
▁भरोसा	-3580
नगर	-3581
▁आलोचना	-3582
▁मजदूर	-3583
▁अन्	-3584
▁दायर	-3585
▁समीक्षा	-3586
ष्टाचार	-3587
▁कानूनी	-3588
▁साहित्य	-3589
▁चाय	-3590
▁सन	-3591
▁वेर	-3592
मानत	-3593
हल	-3594
▁फाइ	-3595
▁पदार्थ	-3596
▁इसको	-3597
▁शख्स	-3598
▁पटना	-3599
▁चैंप	-3600
▁सकारात्मक	-3601
▁केरल	-3602
▁समझा	-3603
▁हालात	-3604
▁शुल्क	-3605
थर	-3606
▁लीग	-3607
▁पंजी	-3608
▁Hindi	-3609
▁जोखिम	-3610
▁रद्द	-3611
▁जागर	-3612
स्ट्र	-3613
ुरा	-3614
▁2016	-3615
▁खेले	-3616
▁शुरुआती	-3617
▁198	-3618
▁पुरस्कार	-3619
▁इस्ला	-3620
वीर	-3621
▁चर	-3622
▁गुप्ता	-3623
क्का	-3624
▁जिलों	-3625
ूंगा	-3626
कुर	-3627
▁ताकत	-3628
बीर	-3629
▁अंड	-3630
▁जॉ	-3631
▁कॉन्	-3632
ंतु	-3633
▁लगाई	-3634
क्के	-3635
▁वस्त	-3636
ांश	-3637
▁पर्य	-3638
ताव	-3639
▁अत्य	-3640
eb	-3641
एसपी	-3642
▁स्वागत	-3643
ंटर	-3644
कीय	-3645
▁पुरानी	-3646
द्योगिक	-3647
.4	-3648
▁रक्त	-3649
▁कहती	-3650
▁ममता	-3651
▁भरा	-3652
▁आंकड़ों	-3653
▁परीक्षण	-3654
',	-3655
▁सिनेमा	-3656
▁मुक्त	-3657
▁रचना	-3658
▁निरा	-3659
▁छोटा	-3660
▁कैप	-3661
▁दुख	-3662
▁अफ्रीका	-3663
▁रोल	-3664
रासत	-3665
वासियों	-3666
टीन	-3667
▁फिट	-3668
▁जीतने	-3669
▁उड़	-3670
▁हथियार	-3671
▁छोड़कर	-3672
कारों	-3673
सव	-3674
▁शतक	-3675
लंका	-3676
▁वैश्व	-3677
▁यूनिवर्स	-3678
▁कले	-3679
▁लंबी	-3680
▁इनकी	-3681
▁निम	-3682
न्तु	-3683
उथ	-3684
▁शूट	-3685
▁सुझाव	-3686
▁सफाई	-3687
कल्प	-3688
▁प्रकाशित	-3689
म्ब	-3690
▁रास्ता	-3691
▁हिरासत	-3692
थम	-3693
्रेशन	-3694
▁घूम	-3695
▁विपक्षी	-3696
स्तानी	-3697
▁पुस्त	-3698
▁क्रम	-3699
ध्यक्ष	-3700
▁प्रत्या	-3701
▁निर्भर	-3702
▁इलाकों	-3703
▁विरोधी	-3704
ub	-3705
मैन	-3706
▁हां	-3707
▁आना	-3708
▁निर्मा	-3709
सप	-3710
▁रिस	-3711
िटीज	-3712
्वे	-3713
▁जायेगा	-3714
▁80	-3715
▁गुस्	-3716
▁डायरे	-3717
हिर	-3718
आईआर	-3719
.7	-3720
▁लागत	-3721
▁विधाय	-3722
ारिज	-3723
ज्ज	-3724
▁70	-3725
▁बुरा	-3726
▁शुगर	-3727
up	-3728
▁खुलासा	-3729
▁प्रतिनिध	-3730
▁कल्याण	-3731
▁लगते	-3732
▁(2	-3733
िको	-3734
▁फैंस	-3735
▁ऊंच	-3736
▁दिमाग	-3737
▁मुझसे	-3738
▁of	-3739
▁नवी	-3740
▁स्ना	-3741
▁इनकार	-3742
▁डिट	-3743
▁नाराज	-3744
▁बहु	-3745
▁दरवा	-3746
बत	-3747
▁सीमित	-3748
▁मान्यता	-3749
▁प्रावधान	-3750
एमसी	-3751
▁Hor	-3752
ard	-3753
▁कराई	-3754
▁भो	-3755
▁गंगा	-3756
▁थाने	-3757
▁न्यूज	-3758
▁श्रीलंका	-3759
cope	-3760
▁टू	-3761
छा	-3762
▁काट	-3763
▁संबोधित	-3764
▁कविता	-3765
▁प्रस्तुत	-3766
▁व्यापक	-3767
▁वेतन	-3768
▁हेतु	-3769
▁मशीन	-3770
▁वैश्विक	-3771
▁वर्मा	-3772
▁शिक्षक	-3773
▁खाता	-3774
वेयर	-3775
▁विज्ञान	-3776
▁कंप्यूटर	-3777
▁खेला	-3778
▁अट	-3779
▁लु	-3780
ुनिक	-3781
▁जितना	-3782
oscope	-3783
▁v	-3784
▁दूरी	-3785
▁आतंकवाद	-3786
▁कार्यकर्ता	-3787
▁अब्	-3788
▁विल	-3789
▁मारे	-3790
ार्थियों	-3791
av	-3792
▁मरीज	-3793
▁ट्रेडिंग	-3794
▁बैटरी	-3795
▁जानने	-3796
▁प्रदू	-3797
▁भ्रष्टाचार	-3798
▁निदेशक	-3799
ail	-3800
वत्ता	-3801
▁घरों	-3802
▁गुला	-3803
ंधे	-3804
▁पेज	-3805
ers	-3806
▁पाते	-3807
▁विश्ले	-3808
▁Horoscope	-3809
▁पॉल	-3810
▁अनेक	-3811
▁बताने	-3812
▁स्वस्थ	-3813
▁पीने	-3814
▁प्रता	-3815
वाना	-3816
ine	-3817
णे	-3818
▁योजनाओं	-3819
▁जीबी	-3820
▁स्कूलों	-3821
▁ऑफर	-3822
▁मंजूरी	-3823
▁फें	-3824
काता	-3825
▁स्वतंत्रता	-3826
हे	-3827
िमा	-3828
▁मात्र	-3829
▁पुत्र	-3830
▁बदलने	-3831
▁आगा	-3832
▁अंतर्गत	-3833
▁शास्त्र	-3834
ार्थी	-3835
▁रूस	-3836
▁दशक	-3837
▁फुट	-3838
▁गहरा	-3839
▁टेक्	-3840
पन्न	-3841
संग	-3842
▁चीजें	-3843
▁गिरावट	-3844
▁जला	-3845
▁जिक्र	-3846
.6	-3847
▁प्रसार	-3848
डाउन	-3849
म्बर	-3850
▁प्रीम	-3851
्यूट	-3852
चार्य	-3853
▁उल्ल	-3854
▁बढ़कर	-3855
▁रणनीति	-3856
▁महिलाएं	-3857
तौर	-3858
केशन	-3859
▁भाषण	-3860
▁झार	-3861
▁वहाँ	-3862
▁आंखों	-3863
▁नागरिकों	-3864
▁संगीत	-3865
▁घट	-3866
▁फ़िल	-3867
-20	-3868
▁किंग	-3869
खों	-3870
ly	-3871
▁आबादी	-3872
▁ब्याज	-3873
▁अर्थव्यवस्था	-3874
▁गर	-3875
▁जमानत	-3876
▁यूरो	-3877
बारी	-3878
ap	-3879
▁अभिनेता	-3880
▁वैक्सी	-3881
▁स्टेट	-3882
▁ताप	-3883
▁संस्कृति	-3884
▁साउथ	-3885
▁कमेंट	-3886
वाने	-3887
▁गुणवत्ता	-3888
▁अमर	-3889
▁इंडस्ट्री	-3890
▁नेटवर्क	-3891
▁प्रोज	-3892
▁जमकर	-3893
▁आतंकी	-3894
▁पेंशन	-3895
one	-3896
▁नींद	-3897
▁बहस	-3898
▁37	-3899
▁फो	-3900
▁ठाकुर	-3901
फ्	-3902
▁भवन	-3903
▁आएगा	-3904
▁खुले	-3905
▁यूजर्स	-3906
्यूब	-3907
▁विधायकों	-3908
▁एनडी	-3909
▁संभाल	-3910
ult	-3911
▁प्लेटफॉर्म	-3912
▁शहरों	-3913
दर्भ	-3914
.3	-3915
▁90	-3916
▁प्रतिष्ठ	-3917
षेक	-3918
▁मनो	-3919
▁शारी	-3920
▁सैनिक	-3921
▁महीनों	-3922
▁आदित्यनाथ	-3923
▁ब्लॉग	-3924
दराबाद	-3925
▁खारिज	-3926
▁समाजवादी	-3927
्डी	-3928
▁गुजर	-3929
▁लाइव	-3930
▁पाएंगे	-3931
▁इंजी	-3932
▁उल्लंघ	-3933
धीरे	-3934
▁गर्मी	-3935
▁लगाकर	-3936
▁बढ़े	-3937
बंदी	-3938
▁दान	-3939
बाजों	-3940
पो	-3941
र्ण	-3942
▁बनर्जी	-3943
ोग्राम	-3944
नेशनल	-3945
निक	-3946
दाबाद	-3947
▁लोगो	-3948
िफिकेशन	-3949
▁अनुरोध	-3950
▁तथ	-3951
▁निर्वा	-3952
▁मुकाबला	-3953
पाद	-3954
▁अफग	-3955
▁मुफ्त	-3956
▁सहायक	-3957
कूल	-3958
तें	-3959
शियों	-3960
▁एक्	-3961
▁दौरे	-3962
▁बढ़ो	-3963
▁शब्दों	-3964
▁जानें	-3965
▁कोलकाता	-3966
▁वैज्ञानिक	-3967
वती	-3968
▁तकनीक	-3969
▁सर्वा	-3970
▁शारीरिक	-3971
▁छात्रा	-3972
▁मानते	-3973
▁साहब	-3974
▁अंब	-3975
▁अरविंद	-3976
▁रहीं	-3977
▁हाउस	-3978
▁अल्	-3979
▁रिल	-3980
▁अह	-3981
दूस	-3982
मतौर	-3983
▁ग़	-3984
▁गाने	-3985
दाताओं	-3986
िप्ट	-3987
▁स्थापना	-3988
▁दर्शन	-3989
▁योग्य	-3990
▁पहा	-3991
▁प्रशिक्षण	-3992
▁New	-3993
▁हैदराबाद	-3994
▁जनरल	-3995
वाय	-3996
▁उत्सा	-3997
दय	-3998
▁बढ़ते	-3999
▁नक	-4000
ोई	-4001
▁2015	-4002
▁फूड	-4003
hat	-4004
▁दाय	-4005
▁चोरी	-4006
▁हटाने	-4007
गंज	-4008
▁गिल	-4009
▁बढ़ोतरी	-4010
▁वीर	-4011
▁रखता	-4012
▁जताई	-4013
▁उल्लंघन	-4014
▁रेखा	-4015
गज	-4016
ंख्य	-4017
▁उपा	-4018
▁गेंदबाज	-4019
▁मालूम	-4020
▁लिमिट	-4021
▁आमतौर	-4022
▁नाग	-4023
▁हवाई	-4024
▁यूनिवर्सिटी	-4025
▁कहता	-4026
▁दृष्टि	-4027
▁राजी	-4028
वेट	-4029
▁32	-4030
▁खून	-4031
▁अजय	-4032
▁मीटर	-4033
म्मच	-4034
▁सौं	-4035
▁मजा	-4036
▁आशी	-4037
▁बरा	-4038
▁अनिवार	-4039
▁सड़	-4040
कृतिक	-4041
▁ऑटो	-4042
▁समझने	-4043
▁दोबारा	-4044
▁लाखों	-4045
▁तैनात	-4046
▁ग्रे	-4047
▁चम्मच	-4048
.8	-4049
िक्क	-4050
▁अशोक	-4051
▁उठाने	-4052
रोज	-4053
ेंट्स	-4054
▁गतिविधियों	-4055
भू	-4056
इंट	-4057
▁चलाने	-4058
▁इंजीनियर	-4059
▁टूर्	-4060
न्नई	-4061
ist	-4062
▁मुकद	-4063
पट	-4064
सिद्ध	-4065
▁)	-4066
िग	-4067
क्रो	-4068
▁संगठनों	-4069
▁बिता	-4070
▁ब्रा	-4071
▁राव	-4072
▁गी	-4073
नामेंट	-4074
▁डायब	-4075
▁उपस्थित	-4076
▁प्रोजेक्ट	-4077
जिट	-4078
▁कठिन	-4079
▁खाद्य	-4080
▁धमकी	-4081
।''	-4082
दारों	-4083
▁राज्यसभा	-4084
▁बंध	-4085
सेट	-4086
▁बजा	-4087
र्द	-4088
▁डाइट	-4089
▁डिवा	-4090
▁परिवारों	-4091
▁पार्	-4092
▁अनुकूल	-4093
▁अधिकांश	-4094
▁दर्शकों	-4095
▁टूर्नामेंट	-4096
▁दिलच	-4097
▁वेस्ट	-4098
▁महज	-4099
▁इंच	-4100
▁दीप	-4101
▁किस्	-4102
▁अहमद	-4103
▁सेक्स	-4104
,5	-4105
▁दूसरों	-4106
▁हेड	-4107
ेलन	-4108
▁बनाते	-4109
▁मुद्दा	-4110
्रेन	-4111
ोध्या	-4112
▁आरोपों	-4113
▁आल	-4114
▁ख़ु	-4115
बु	-4116
▁नियुक्त	-4117
▁मिश्र	-4118
▁सैन	-4119
▁तृ	-4120
▁शिवसेना	-4121
▁सेवाओं	-4122
यात	-4123
लाल	-4124
▁लेता	-4125
▁फायदेमंद	-4126
▁शह	-4127
▁परिसर	-4128
राग	-4129
▁मेगा	-4130
▁मजबूर	-4131
जीव	-4132
▁पेपर	-4133
▁वायु	-4134
ैंक	-4135
▁मस्जिद	-4136
▁गलती	-4137
▁गूगल	-4138
नाडु	-4139
▁चित्र	-4140
▁चेन्नई	-4141
▁36	-4142
ैक्ट	-4143
▁बॉक्स	-4144
▁झारखंड	-4145
▁औसत	-4146
▁45	-4147
▁इलेक्ट्रिक	-4148
▁एप	-4149
▁ग्राहक	-4150
▁अंग्रेजी	-4151
धारा	-4152
▁कामया	-4153
▁गुर	-4154
िवारी	-4155
,1	-4156
▁l	-4157
▁अकेले	-4158
▁देखी	-4159
▁टेली	-4160
इंग	-4161
दूसरे	-4162
िना	-4163
घटना	-4164
▁प्रभारी	-4165
▁खींच	-4166
▁गेंदबाजी	-4167
▁आशा	-4168
▁काउ	-4169
▁तिवारी	-4170
▁जाहिर	-4171
▁पात्र	-4172
▁श्रेणी	-4173
ंपरा	-4174
▁लोकतंत्र	-4175
न्स	-4176
▁संसा	-4177
▁लड़ने	-4178
▁तकनीकी	-4179
.0	-4180
पथ	-4181
ानिस्तान	-4182
▁व्हा	-4183
▁आरक्षण	-4184
▁प्राकृतिक	-4185
▁ईरान	-4186
art	-4187
▁स्टेड	-4188
▁सपोर्ट	-4189
▁टीका	-4190
▁शांत	-4191
▁चैंपियन	-4192
▁सिया	-4193
▁हार्	-4194
गति	-4195
▁सेल	-4196
ुलर	-4197
ex	-4198
कश्मीर	-4199
बान	-4200
ेड़	-4201
▁सकेंगे	-4202
▁प्रदूषण	-4203
▁प्रतियोग	-4204
▁बचने	-4205
क्ल	-4206
dia	-4207
▁बीमा	-4208
▁स्टेडियम	-4209
▁घटनाओं	-4210
▁इजा	-4211
▁सेक्टर	-4212
▁अभिषेक	-4213
▁इंटरनेशनल	-4214
▁मनुष्य	-4215
▁हेल्थ	-4216
▁अयोध्या	-4217
▁दिक्क	-4218
▁उन्	-4219
एसएस	-4220
▁जैन	-4221
▁इंस्टा	-4222
▁अनिवार्य	-4223
▁अध्या	-4224
▁पर्व	-4225
▁विभा	-4226
▁प्रभावी	-4227
▁लेखक	-4228
▁a	-4229
▁गठन	-4230
▁तमिलनाडु	-4231
▁इस्तीफा	-4232
▁आधुनिक	-4233
▁स्थल	-4234
gle	-4235
▁इश	-4236
ज्ञापन	-4237
▁खतर	-4238
सास	-4239
स्कर	-4240
▁पत्रकारों	-4241
▁होंगी	-4242
▁इम	-4243
युक्त	-4244
गरानी	-4245
▁परंपरा	-4246
त्रि	-4247
पुट	-4248
▁500	-4249
▁रैली	-4250
सीबी	-4251
▁किरा	-4252
िश्वास	-4253
▁विधे	-4254
▁साव	-4255
if	-4256
▁गीत	-4257
▁मिथ	-4258
तावनी	-4259
ारों	-4260
▁अल्प	-4261
▁पव	-4262
▁फैल	-4263
कुल	-4264
▁अथवा	-4265
▁App	-4266
▁सफर	-4267
▁स्थानों	-4268
,4	-4269
▁कू	-4270
ुति	-4271
▁तंत्र	-4272
▁खूबसूरत	-4273
▁कार्यवाही	-4274
िजनों	-4275
▁नज	-4276
▁स्टेप	-4277
▁दीपक	-4278
▁तस्वीरें	-4279
▁संग्र	-4280
▁पांडे	-4281
▁हस्त	-4282
▁सां	-4283
ियंस	-4284
▁लेन	-4285
▁कमे	-4286
▁निगरानी	-4287
▁चेतावनी	-4288
▁एफआईआर	-4289
मल	-4290
हत्या	-4291
▁एग	-4292
ूनों	-4293
tt	-4294
▁वैक्सीन	-4295
▁चारों	-4296
ोने	-4297
टिल	-4298
▁अनिल	-4299
▁कौशल	-4300
ह्म	-4301
▁चीज़	-4302
▁सम्मेलन	-4303
पुरी	-4304
▁खेली	-4305
▁ऑल	-4306
▁विधि	-4307
ांच	-4308
▁लेंगे	-4309
▁इनका	-4310
गण	-4311
वाली	-4312
▁काले	-4313
▁डायबिटीज	-4314
दास	-4315
▁ऑप्शन	-4316
▁विज्ञापन	-4317
▁ग्रहण	-4318
▁स्टूड	-4319
▁हरी	-4320
िएंट	-4321
▁बदले	-4322
िक्सल	-4323
▁अधिकतम	-4324
दायिक	-4325
▁लगाते	-4326
▁यात्रियों	-4327
▁परिजनों	-4328
▁कमेटी	-4329
ब्ल्यू	-4330
▁खासकर	-4331
▁इका	-4332
जीलैंड	-4333
हीन	-4334
)।	-4335
पक्ष	-4336
त्मा	-4337
▁स्पेश	-4338
▁खड़ी	-4339
भूम	-4340
बीसी	-4341
▁नवा	-4342
एसटी	-4343
▁डाला	-4344
धारण	-4345
▁रुक	-4346
▁बराम	-4347
▁सपना	-4348
▁मण	-4349
▁लुक	-4350
▁कैम	-4351
▁गिरफ्तारी	-4352
oogle	-4353
▁मनाया	-4354
▁197	-4355
▁यश	-4356
रुख	-4357
▁तुम्हें	-4358
द्दीन	-4359
▁चक्र	-4360
▁पृथ	-4361
▁सोचा	-4362
▁ठहरा	-4363
▁क्रेड	-4364
बिल	-4365
ction	-4366
▁माने	-4367
▁पर्यावरण	-4368
▁तर्क	-4369
▁दुर्घटना	-4370
ast	-4371
▁आह	-4372
▁लड़कियों	-4373
ps	-4374
log	-4375
▁प्रथम	-4376
दल	-4377
▁बनाम	-4378
फ्रेंस	-4379
▁Res	-4380
प्ल	-4381
▁फिल्में	-4382
▁अखबार	-4383
▁संतुल	-4384
▁दावे	-4385
तल	-4386
▁लीटर	-4387
रत	-4388
करे	-4389
▁शास	-4390
▁एंट	-4391
▁बच्चा	-4392
▁आकार	-4393
▁महास	-4394
▁हादसे	-4395
दो	-4396
aj	-4397
▁बुरी	-4398
ाफ	-4399
▁डिवाइस	-4400
▁उपभ	-4401
▁चिकित्स	-4402
▁नौकर	-4403
▁स्रो	-4404
▁अज	-4405
▁हनु	-4406
▁फीसद	-4407
▁असली	-4408
▁स्टी	-4409
वो	-4410
▁बीमारियों	-4411
ंथ	-4412
नेश	-4413
ीप	-4414
▁बैंकों	-4415
ढ़े	-4416
▁संशोधन	-4417
▁जीता	-4418
▁इमर	-4419
▁लक्ष्मी	-4420
एससी	-4421
▁मीट	-4422
▁न्यूजीलैंड	-4423
ांसी	-4424
▁सड़कों	-4425
िष्ट	-4426
▁संक्रमित	-4427
▁अफगानिस्तान	-4428
स्य	-4429
▁अभिन	-4430
▁न्यूनतम	-4431
▁जंग	-4432
परेशन	-4433
▁शाहरुख	-4434
ढ़ा	-4435
▁इंस्टाग्राम	-4436
भारत	-4437
▁पर्	-4438
न्ध	-4439
हूर	-4440
▁प्रसिद्ध	-4441
▁दोषी	-4442
▁भि	-4443
▁घोट	-4444
▁बीज	-4445
▁सर्वाधिक	-4446
▁यौन	-4447
▁संदर्भ	-4448
▁परिस्थित	-4449
▁धोनी	-4450
▁लिमिटेड	-4451
▁सोन	-4452
▁जिनकी	-4453
▁हजारों	-4454
▁खंड	-4455
ेक्षा	-4456
▁बला	-4457
▁जानी	-4458
र्ज	-4459
▁विवरण	-4460
दाई	-4461
▁ज़ि	-4462
▁सांप	-4463
▁ढंग	-4464
▁आपूर्ति	-4465
▁धन्य	-4466
▁विवे	-4467
▁उठाए	-4468
▁तुम्हारे	-4469
▁माय	-4470
▁कैसी	-4471
▁निकालने	-4472
कीन	-4473
▁खबरों	-4474
म्मत	-4475
▁खेती	-4476
▁मकान	-4477
▁चू	-4478
▁सुनील	-4479
ृत्ति	-4480
▁बताई	-4481
▁संचालन	-4482
▁हद	-4483
▁खबरें	-4484
▁उत्पन्न	-4485
▁प्रियंका	-4486
▁पशु	-4487
▁पाकिस्तानी	-4488
▁बध	-4489
▁सख्त	-4490
▁तापमान	-4491
▁झा	-4492
▁रोजाना	-4493
टीआई	-4494
▁स्टोर	-4495
▁बाग	-4496
▁छोड़ने	-4497
ोलॉ	-4498
▁जज	-4499
▁अक्षय	-4500
▁जगहों	-4501
▁सुल	-4502
नै	-4503
▁रुख	-4504
▁अवश्य	-4505
▁आपत्ति	-4506
▁ब्लॉक	-4507
तिहासिक	-4508
्मण	-4509
▁आजादी	-4510
▁अपमान	-4511
▁चौहान	-4512
▁दाखिल	-4513
सीपी	-4514
▁मशहूर	-4515
▁प्रगति	-4516
ोड	-4517
▁स्पेशल	-4518
▁भाभी	-4519
▁सचिन	-4520
▁तिल	-4521
▁गाँव	-4522
▁संभावित	-4523
▁एग्ज	-4524
▁आपसे	-4525
मेट	-4526
▁बच्चन	-4527
स्वा	-4528
▁पंडित	-4529
▁राज्यपाल	-4530
▁अना	-4531
▁सैम	-4532
▁विधेयक	-4533
▁निधन	-4534
▁ब्लैक	-4535
▁विशाल	-4536
▁बरामद	-4537
▁बांध	-4538
▁लॉकडाउन	-4539
▁असल	-4540
▁कार्यकाल	-4541
▁व्याव	-4542
▁अभिनेत्री	-4543
ice	-4544
ष्णु	-4545
िएशन	-4546
odi	-4547
शाला	-4548
हाज	-4549
जात	-4550
पित	-4551
▁हिमा	-4552
▁अश्व	-4553
▁भक्त	-4554
▁खत	-4555
▁देगी	-4556
▁सरल	-4557
▁कपिल	-4558
▁किशोर	-4559
▁पर्स	-4560
पेट	-4561
▁हनुमान	-4562
▁आशंका	-4563
ant	-4564
▁लिखी	-4565
▁प्रोटीन	-4566
▁अस्थ	-4567
▁मिशन	-4568
▁सीधा	-4569
▁दिग्	-4570
▁हैंड	-4571
▁कन्या	-4572
▁अमी	-4573
ुक्ति	-4574
िफ्ट	-4575
▁बढ़ता	-4576
▁Pro	-4577
▁रिसर्च	-4578
▁देखे	-4579
▁व्यक्तियों	-4580
कता	-4581
भूमि	-4582
और	-4583
▁लाया	-4584
▁विश्लेषण	-4585
▁गले	-4586
▁निम्न	-4587
▁प्राप्ति	-4588
स्तर	-4589
▁साज	-4590
▁जबरद	-4591
▁सहमति	-4592
▁कोड	-4593
कर्मियों	-4594
▁बेटा	-4595
▁नतीजे	-4596
▁सर्विस	-4597
▁पार्टनर	-4598
विंग	-4599
▁सपने	-4600
▁स्थिर	-4601
▁तारीफ	-4602
▁जागरूक	-4603
▁संरक्षण	-4604
▁काला	-4605
▁प्रारंभ	-4606
▁प्रेरित	-4607
▁सिव	-4608
▁तीसरी	-4609
▁वाहनों	-4610
▁हृ	-4611
▁कर्ज	-4612
▁ब्रांड	-4613
,7	-4614
,8	-4615
▁गार	-4616
▁हार्दिक	-4617
▁भरे	-4618
पद	-4619
▁ऋण	-4620
ंडली	-4621
▁उतना	-4622
निर्	-4623
साई	-4624
▁बराबर	-4625
▁जीते	-4626
▁शूटिंग	-4627
▁भरी	-4628
▁पेड़	-4629
▁बहुम	-4630
▁अग्रवाल	-4631
संख्य	-4632
▁जुड़	-4633
▁प्रत्याशी	-4634
oc	-4635
▁n	-4636
▁कं	-4637
▁इरा	-4638
▁गोचर	-4639
साइ	-4640
▁गोर	-4641
▁फ़िल्म	-4642
▁सदन	-4643
▁पाचन	-4644
▁स्टोरेज	-4645
▁बैक	-4646
▁जिनका	-4647
▁इंट	-4648
▁पेशे	-4649
ity	-4650
▁आएंगे	-4651
यां	-4652
▁पोल	-4653
▁निकलने	-4654
▁एक्सपर्ट	-4655
घर	-4656
▁बचपन	-4657
.9	-4658
▁शर्म	-4659
कभी	-4660
▁An	-4661
-3	-4662
▁आर्टिकल	-4663
▁बाय	-4664
▁दाल	-4665
बिनेट	-4666
▁दौरा	-4667
▁ब्रह्म	-4668
वरों	-4669
▁क्रेडिट	-4670
▁चमक	-4671
▁अफसर	-4672
ुरी	-4673
▁प्रबंध	-4674
▁बॉस	-4675
▁कां	-4676
▁राजीव	-4677
▁कथा	-4678
▁समर्प	-4679
▁इसीलिए	-4680
10	-4681
वर्ड	-4682
स्कृत	-4683
▁अक	-4684
▁मुस्क	-4685
▁चुप	-4686
▁बजकर	-4687
▁मांगी	-4688
▁ऐतिहासिक	-4689
▁सब्	-4690
▁दृष्ट	-4691
▁पहुँच	-4692
ूर्त	-4693
▁ब्रेक	-4694
▁काली	-4695
श्रे	-4696
ep	-4697
ंगाई	-4698
ंडे	-4699
▁स्कूटर	-4700
▁जियो	-4701
▁संबंधों	-4702
▁बेस्ट	-4703
▁निरी	-4704
▁लालू	-4705
प्रदेश	-4706
▁हस्ता	-4707
?'	-4708
गरी	-4709
▁ट्रॉ	-4710
दायक	-4711
गाह	-4712
जान	-4713
▁कार्	-4714
▁विचारों	-4715
▁मास	-4716
▁सौंप	-4717
▁आत्महत्या	-4718
▁गोल्ड	-4719
ff	-4720
स्फ	-4721
▁बधाई	-4722
वेदनशील	-4723
▁नामक	-4724
त्सा	-4725
▁सबूत	-4726
▁दास	-4727
षभ	-4728
▁प्रताप	-4729
▁तह	-4730
▁33	-4731
न्ट	-4732
▁सफे	-4733
,2	-4734
▁भाग्य	-4735
▁कारणों	-4736
▁केन्द्र	-4737
देह	-4738
▁धोखा	-4739
▁कमल	-4740
▁एसोस	-4741
ंखला	-4742
▁सिटी	-4743
▁चेहरा	-4744
▁34	-4745
op	-4746
▁अगली	-4747
▁वादा	-4748
▁फार्म	-4749
▁सका	-4750
▁बुनिया	-4751
▁मिट्टी	-4752
▁मुसलमानों	-4753
▁सश	-4754
िताभ	-4755
▁पत	-4756
▁टुक	-4757
ारिश	-4758
▁मोटर	-4759
िमी	-4760
गांव	-4761
▁हिस्सों	-4762
▁शही	-4763
षिक	-4764
▁डालकर	-4765
▁निर्वाचन	-4766
प्ली	-4767
▁चौथे	-4768
पात	-4769
▁सवार	-4770
सेंस	-4771
?"	-4772
▁कैबिनेट	-4773
कीम	-4774
रोध	-4775
ब्लिक	-4776
स्करण	-4777
क्षर	-4778
हारी	-4779
▁बलात्कार	-4780
▁छवि	-4781
▁प्रकृति	-4782
▁लहर	-4783
िकोण	-4784
▁i	-4785
▁माया	-4786
पत	-4787
▁लंबा	-4788
▁हिमाचल	-4789
गेट	-4790
भाग्य	-4791
▁धन्यवाद	-4792
▁नियुक्ति	-4793
िश्ता	-4794
▁आतंकियों	-4795
क्की	-4796
पीट	-4797
▁सिलस	-4798
▁फ्रंट	-4799
▁ध्व	-4800
माना	-4801
▁दस्तावेज	-4802
▁श्रृ	-4803
▁लिखे	-4804
▁बेरोज	-4805
▁भावनाओं	-4806
▁इजरा	-4807
▁सहयोगी	-4808
▁बच्ची	-4809
▁एसपी	-4810
▁देखभाल	-4811
▁फसल	-4812
▁पड़ती	-4813
वानी	-4814
▁मोहन	-4815
डिया	-4816
▁सॉफ्ट	-4817
▁पिछली	-4818
▁बनाता	-4819
िब	-4820
फ़ी	-4821
▁खतरनाक	-4822
▁लड़के	-4823
▁यूट	-4824
्यूल	-4825
▁Google	-4826
▁ऑड	-4827
▁आगामी	-4828
रानी	-4829
▁छु	-4830
▁आदर्श	-4831
▁निर्माता	-4832
▁पवार	-4833
रक	-4834
▁न्यूज़	-4835
टीवी	-4836
▁ज़रूरत	-4837
▁पृथ्वी	-4838
▁हक	-4839
र्त	-4840
फिया	-4841
▁अर्ध	-4842
▁विशिष्ट	-4843
▁सफेद	-4844
▁प्रोत्सा	-4845
▁News	-4846
▁चतु	-4847
▁गुना	-4848
▁उत्पादों	-4849
▁पाउ	-4850
▁हैरान	-4851
▁कैसा	-4852
▁निकाला	-4853
▁ऑपरेशन	-4854
समा	-4855
▁पाता	-4856
▁अमिताभ	-4857
▁चीफ	-4858
▁दिये	-4859
▁मनोज	-4860
श्रेष्ठ	-4861
▁रियल	-4862
आउट	-4863
▁सिखा	-4864
▁साजिश	-4865
िलास	-4866
▁करार	-4867
▁दां	-4868
▁सेंट	-4869
▁ईमेल	-4870
▁अभ्यास	-4871
,3	-4872
▁कुर्	-4873
▁बसपा	-4874
▁उधर	-4875
विश्वास	-4876
ग्ध	-4877
भाष	-4878
लाइ	-4879
▁सिफ	-4880
▁स्वच्छ	-4881
▁अभ्य	-4882
क्षेप	-4883
,"	-4884
▁साझे	-4885
▁आयुक्त	-4886
▁बुलाया	-4887
ya	-4888
▁बेंगल	-4889
▁रिश्ता	-4890
▁आर्	-4891
▁राशन	-4892
SC	-4893
▁विस्तृत	-4894
्तों	-4895
सब	-4896
▁वर्क	-4897
▁आंकड़ा	-4898
▁भौ	-4899
ोकर	-4900
▁बनता	-4901
▁स्पीड	-4902
▁कस	-4903
▁हृदय	-4904
▁सुनने	-4905
ाइम	-4906
स्टिक	-4907
▁भागी	-4908
ल्पना	-4909
▁Yo	-4910
सिंह	-4911
▁सैन्य	-4912
▁चै	-4913
▁अर्ज	-4914
▁कच्च	-4915
▁कुंभ	-4916
चारिक	-4917
▁झु	-4918
▁राजेश	-4919
डनी	-4920
▁लगाना	-4921
▁पुस्तक	-4922
▁नमक	-4923
सो	-4924
▁स्टॉक	-4925
▁उपभो	-4926
▁रूम	-4927
▁विद	-4928
▁शिक्षकों	-4929
▁टाटा	-4930
,6	-4931
▁आजकल	-4932
▁डेब	-4933
▁बनकर	-4934
▁गेंदों	-4935
▁ताल	-4936
▁कंग	-4937
▁आयुर्	-4938
▁सुविधाओं	-4939
▁भोपाल	-4940
ध्या	-4941
▁एक्शन	-4942
▁75	-4943
▁जयपुर	-4944
▁रजिस्ट्रेशन	-4945
एक्स	-4946
▁g	-4947
▁लेती	-4948
▁राकेश	-4949
▁सीसी	-4950
▁फर्जी	-4951
▁जानकार	-4952
▁मक	-4953
ड्डा	-4954
▁प्रोडक्ट	-4955
सीय	-4956
oday	-4957
▁पार्क	-4958
▁सिफारिश	-4959
सनीय	-4960
▁चम	-4961
▁लेवल	-4962
ेंगी	-4963
▁दौड़	-4964
▁पढ़ा	-4965
▁एकदम	-4966
▁जोड़ा	-4967
▁फायर	-4968
▁मारने	-4969
ies	-4970
▁यूर	-4971
▁रेंज	-4972
▁पायल	-4973
▁इलेक्ट्र	-4974
▁हाइ	-4975
▁बताए	-4976
▁म्यू	-4977
▁नु	-4978
▁बुल	-4979
▁सब्स	-4980
क्षी	-4981
्यूटी	-4982
▁मैन	-4983
ru	-4984
▁प्रमो	-4985
▁आदिवासी	-4986
ेबल	-4987
▁बौ	-4988
▁कोर्स	-4989
▁महाराज	-4990
कां	-4991
▁मैसे	-4992
▁राशियों	-4993
▁रॉ	-4994
▁शपथ	-4995
12	-4996
▁जरुर	-4997
खार	-4998
▁निल	-4999
▁मुकेश	-5000
▁48	-5001
▁मूवी	-5002
▁इनपुट	-5003
▁सला	-5004
▁लिव	-5005
▁प्राइवेट	-5006
▁सम्ब	-5007
▁क्लास	-5008
त्न	-5009
पूर्वक	-5010
घु	-5011
▁ठाकरे	-5012
▁परा	-5013
▁2013	-5014
▁महंगाई	-5015
चिव	-5016
ॉर्ट	-5017
▁पोष	-5018
▁ईमान	-5019
▁आंकड़े	-5020
▁नारायण	-5021
मती	-5022
▁बट	-5023
▁उद्ध	-5024
▁लूट	-5025
▁हंस	-5026
▁दिखाने	-5027
▁टो	-5028
▁मज़	-5029
end	-5030
▁ओल	-5031
▁जाओ	-5032
▁प्रतिभा	-5033
▁फॉलो	-5034
▁सर्वश्रेष्ठ	-5035
▁गौतम	-5036
▁रोमां	-5037
▁लगेगा	-5038
ज़न	-5039
▁नियंत्रित	-5040
र्ख	-5041
▁गारंटी	-5042
▁पोर्टल	-5043
▁पूछे	-5044
▁छू	-5045
▁संस्थानों	-5046
नन	-5047
▁मेट	-5048
▁सर्वो	-5049
▁रानी	-5050
▁ताजा	-5051
▁पथ	-5052
▁पृष्ठ	-5053
▁केंद्रित	-5054
ht	-5055
▁आएगी	-5056
रीत	-5057
▁संभ	-5058
श्त	-5059
▁त्या	-5060
▁टीमों	-5061
▁नकारा	-5062
▁पड़ने	-5063
▁डायरेक्टर	-5064
्रमण	-5065
▁ऑक्सी	-5066
▁संकल्प	-5067
▁क्रिप्ट	-5068
▁सुनकर	-5069
▁बाढ़	-5070
▁पहुंचाने	-5071
▁and	-5072
▁भरने	-5073
ob	-5074
मेश्वर	-5075
▁दीवार	-5076
क्या	-5077
ंद्रा	-5078
▁संचालित	-5079
कर्मी	-5080
▁माफी	-5081
▁सबको	-5082
▁माइलेज	-5083
▁अध्यक्षता	-5084
याल	-5085
▁किनारे	-5086
rad	-5087
▁Result	-5088
ंत्रिक	-5089
्रीत	-5090
▁बेचने	-5091
▁मैसेज	-5092
बन	-5093
▁सिन्	-5094
▁मधु	-5095
▁दुरु	-5096
वारी	-5097
▁दोहरा	-5098
▁पाठ्य	-5099
,9	-5100
धानिक	-5101
▁अधी	-5102
io	-5103
राधिक	-5104
▁एक्टिव	-5105
▁गैंग	-5106
▁क्लब	-5107
त्ते	-5108
▁मंज	-5109
▁दिलचस्प	-5110
ंश	-5111
▁जरिये	-5112
▁हाला	-5113
▁सबके	-5114
मात्र	-5115
▁आकाश	-5116
ोलॉजी	-5117
▁अधिकतर	-5118
▁सोना	-5119
▁अंजाम	-5120
▁फेंक	-5121
▁महत्	-5122
▁कमाल	-5123
ia	-5124
ort	-5125
काने	-5126
▁ब्रिटेन	-5127
▁प्रतीक	-5128
▁खतरे	-5129
▁सम्मानित	-5130
▁पूंजी	-5131
▁गह	-5132
▁विपरीत	-5133
तो	-5134
पिक्सल	-5135
||	-5136
▁आग्रह	-5137
▁छक्के	-5138
▁एकाद	-5139
▁बांट	-5140
▁संवेदनशील	-5141
▁2012	-5142
▁ट्रॉफी	-5143
▁कन	-5144
▁मंडल	-5145
ड़न	-5146
ूंकि	-5147
▁जोड़ी	-5148
मूल	-5149
▁re	-5150
▁नारे	-5151
▁जानना	-5152
▁प्रोग्राम	-5153
▁पाउडर	-5154
▁लाइसेंस	-5155
▁देरी	-5156
▁बटन	-5157
▁अमृत	-5158
▁जंगल	-5159
▁38	-5160
▁स्पिन	-5161
19	-5162
▁लगाएं	-5163
▁डालें	-5164
रेन	-5165
▁निच	-5166
▁गांवों	-5167
दीय	-5168
र्में	-5169
▁तथ्य	-5170
िवारिक	-5171
्योर	-5172
▁अग्न	-5173
▁मीन	-5174
▁संतोष	-5175
ide	-5176
▁196	-5177
▁क्ली	-5178
▁कीमतों	-5179
▁निश	-5180
▁अंडर	-5181
▁खोलने	-5182
▁परिस्थितियों	-5183
िसी	-5184
▁चावल	-5185
esh	-5186
▁सैक	-5187
▁बारी	-5188
▁सुनाई	-5189
▁मचा	-5190
▁फाइबर	-5191
▁ढूं	-5192
▁सेंसर	-5193
ोटे	-5194
▁बुनियादी	-5195
▁रिपोर्ट्स	-5196
▁मेक	-5197
▁सरकारों	-5198
▁नेपाल	-5199
▁पत्थर	-5200
विक	-5201
▁स्त्री	-5202
▁मिलेंगे	-5203
▁आधा	-5204
▁प्रौ	-5205
▁मैनेज	-5206
▁मिलियन	-5207
ानु	-5208
▁Ad	-5209
वाणी	-5210
▁भट्ट	-5211
आईटी	-5212
ार्थना	-5213
स्थल	-5214
▁पीड़िता	-5215
दगी	-5216
▁दिग्गज	-5217
घाटन	-5218
धारी	-5219
▁कलर	-5220
▁ईडी	-5221
▁निकले	-5222
▁बैठा	-5223
▁संस्कार	-5224
शियम	-5225
▁इधर	-5226
▁सवालों	-5227
जुर्ग	-5228
▁तत्कालीन	-5229
▁टेक्न	-5230
JP	-5231
pt	-5232
हो	-5233
▁नित	-5234
▁अड	-5235
▁ढां	-5236
▁टाइम्स	-5237
▁पारिवारिक	-5238
▁सुश	-5239
▁बोलने	-5240
▁मतदाता	-5241
मराह	-5242
▁ख्या	-5243
▁विजे	-5244
▁जानता	-5245
कुछ	-5246
▁प्रस	-5247
,0	-5248
▁हिंदु	-5249
ite	-5250
▁लीड	-5251
ंती	-5252
▁सिंध	-5253
▁अजी	-5254
▁हाँ	-5255
▁अनुसू	-5256
हिता	-5257
▁पंत	-5258
▁समृ	-5259
▁अपेक्षा	-5260
▁तीसरा	-5261
▁घंटों	-5262
ांकन	-5263
▁दृष्टिकोण	-5264
▁धा	-5265
▁वितरण	-5266
▁स्टाइल	-5267
▁हिन्दू	-5268
▁बेल	-5269
शनी	-5270
▁नेहर	-5271
▁परिवहन	-5272
श्चर्य	-5273
स्त्री	-5274
▁पारित	-5275
age	-5276
▁मनोर	-5277
िकाओं	-5278
▁डालने	-5279
ank	-5280
बॉल	-5281
▁व्यापारी	-5282
▁Today	-5283
▁स्पोर्ट	-5284
फान	-5285
▁प्रार्थना	-5286
▁एनडीए	-5287
▁गुस्सा	-5288
▁पुरुषों	-5289
▁अभ्यर्थ	-5290
▁किंग्स	-5291
▁रिजर्व	-5292
▁चिप	-5293
▁ब्ला	-5294
▁रिया	-5295
▁वाक	-5296
▁रैम	-5297
▁सुर्ख	-5298
▁नकारात्मक	-5299
▁डांस	-5300
▁सिविल	-5301
▁जवानों	-5302
▁कम्प	-5303
▁दर्शा	-5304
▁रिटर्न	-5305
▁महासचिव	-5306
ीकरण	-5307
▁स्वाद	-5308
▁गेट	-5309
▁रिहा	-5310
▁लम्	-5311
▁यानि	-5312
▁प्राथमिकता	-5313
▁आश्चर्य	-5314
ai	-5315
▁बहुमत	-5316
सेज	-5317
▁सौर	-5318
▁कवर	-5319
▁क्यू	-5320
▁जितनी	-5321
▁मुक्ति	-5322
▁सटी	-5323
न्ड	-5324
▁ग्रीन	-5325
▁स्कीम	-5326
▁जाया	-5327
▁डु	-5328
▁एयरपोर्ट	-5329
▁पदा	-5330
ंसक	-5331
्तिक	-5332
▁जबरदस्त	-5333
ंपिक	-5334
▁शोर	-5335
▁यूट्यूब	-5336
▁विफल	-5337
▁दिक्कत	-5338
▁प्रदर्श	-5339
▁परमेश्वर	-5340
ari	-5341
▁फं	-5342
िपुर	-5343
▁फर्	-5344
▁मकर	-5345
▁हिन्दी	-5346
▁रखकर	-5347
▁स्वरूप	-5348
40	-5349
▁चूंकि	-5350
▁आतंकवादी	-5351
▁रोज़	-5352
वों	-5353
▁जोशी	-5354
▁फॉर	-5355
वीय	-5356
▁निपटने	-5357
शाह	-5358
▁टक	-5359
▁बाधा	-5360
मुझे	-5361
▁अभिय	-5362
▁निलंब	-5363
▁लीजिए	-5364
▁संचार	-5365
▁अधीक्षक	-5366
▁पूर्वी	-5367
▁डॉक्टरों	-5368
▁Ch	-5369
▁पदक	-5370
▁सूजन	-5371
▁द्र	-5372
▁पंजीकरण	-5373
▁श्रेय	-5374
▁समक्ष	-5375
▁कल्पना	-5376
ाइक	-5377
▁सराह	-5378
▁डिस्प्ले	-5379
▁बुजुर्ग	-5380
▁तिर	-5381
▁लंदन	-5382
▁अल्पसंख्य	-5383
ud	-5384
▁बनना	-5385
▁वार्ड	-5386
इयों	-5387
▁आपराधिक	-5388
▁त्यो	-5389
▁संहिता	-5390
▁आयुर्वेद	-5391
▁संस	-5392
▁व्ही	-5393
▁बाहरी	-5394
ज्	-5395
▁एंट्री	-5396
▁तेजस्वी	-5397
▁पश्चिमी	-5398
▁300	-5399
▁मेगापिक्सल	-5400
▁आंध	-5401
▁Con	-5402
▁यूनिट	-5403
▁लापर	-5404
▁चिंत	-5405
▁पैमाने	-5406
लीय	-5407
▁हंग	-5408
▁सिन्हा	-5409
ww	-5410
▁छुट्टी	-5411
▁स्पेस	-5412
दुल	-5413
्ठा	-5414
▁जगत	-5415
▁रावत	-5416
कालीन	-5417
▁संपाद	-5418
ोसी	-5419
▁आजम	-5420
फेसर	-5421
कृष्ण	-5422
▁सेमी	-5423
कै	-5424
▁बिंद	-5425
▁एजेंस	-5426
ec	-5427
सुर	-5428
▁घुस	-5429
▁प्रेरणा	-5430
▁फुल	-5431
ंडीज	-5432
वर्ती	-5433
▁कंपनियां	-5434
''	-5435
▁आकर्षित	-5436
ट्र	-5437
िश्न	-5438
▁तलाक	-5439
रन	-5440
चीन	-5441
धिकरण	-5442
▁मनीष	-5443
▁मुकदमा	-5444
एगा	-5445
▁बनाएं	-5446
▁प्रौद्योगिक	-5447
▁हट	-5448
▁जुर्	-5449
▁सब्ज	-5450
▁एसोसिएशन	-5451
वासन	-5452
▁जन्मदिन	-5453
मार्	-5454
िंस	-5455
नाएं	-5456
▁भूख	-5457
▁विशेषज्ञों	-5458
▁राजद	-5459
▁पैरों	-5460
▁श्रृंखला	-5461
▁बोलते	-5462
▁कानूनों	-5463
▁प्रतिनिधित्व	-5464
▁42	-5465
▁समस्याएं	-5466
▁सर्वोच्च	-5467
न्यास	-5468
▁एकमात्र	-5469
▁मानी	-5470
क्षेत्र	-5471
ड़ब	-5472
▁रकम	-5473
टिंग	-5474
▁मुना	-5475
▁मरने	-5476
▁वेरिएंट	-5477
▁रनों	-5478
▁स्रोत	-5479
▁कॉन्फ्रेंस	-5480
▁सहारा	-5481
चार्ज	-5482
▁पवित्र	-5483
स्पी	-5484
▁अस्त	-5485
एडा	-5486
कीपर	-5487
▁सूर	-5488
▁बतौर	-5489
▁बम	-5490
स्कृतिक	-5491
▁कमाने	-5492
▁विष्णु	-5493
▁गौरव	-5494
▁प्रोफेसर	-5495
▁मेल	-5496
▁अनुप	-5497
वक	-5498
▁संस्करण	-5499
▁कुंडली	-5500
▁भेद	-5501
ord	-5502
▁गंभीरता	-5503
▁क्षेत्रीय	-5504
▁धूम	-5505
▁दिखे	-5506
▁त्रि	-5507
▁वक़	-5508
▁यात्री	-5509
पि	-5510
▁जनस	-5511
▁पार्टियों	-5512
ईओ	-5513
▁उद्य	-5514
▁आत्मा	-5515
▁उड़ा	-5516
▁शहरी	-5517
▁बुक	-5518
▁पेमेंट	-5519
▁अधिकारों	-5520
ost	-5521
▁क्वाल	-5522
▁कना	-5523
▁लीक	-5524
▁हेल्दी	-5525
▁समझौते	-5526
▁On	-5527
hone	-5528
▁लिखने	-5529
भाषा	-5530
▁शरण	-5531
▁सोनिया	-5532
िएट	-5533
▁शिल	-5534
▁लह	-5535
हाबाद	-5536
क्चर	-5537
▁पैट	-5538
▁लिखित	-5539
▁उत्साह	-5540
▁तत्वों	-5541
▁खेलते	-5542
▁हर्ष	-5543
▁तुम्हारी	-5544
▁विचारधारा	-5545
▁दिखने	-5546
▁मिथुन	-5547
▁झूठ	-5548
▁आहार	-5549
▁जमी	-5550
▁उद्घाटन	-5551
क्यू	-5552
11	-5553
▁स्ल	-5554
▁साझेदारी	-5555
र्फ़	-5556
ंगों	-5557
▁अनुश	-5558
▁संग्रह	-5559
▁जाल	-5560
▁समझौता	-5561
▁रिश्तों	-5562
▁डिटेल	-5563
टीएम	-5564
▁ओम	-5565
▁प्रोफ	-5566
▁ठे	-5567
▁आवाज़	-5568
▁तुलसी	-5569
स्ड	-5570
▁बढ़ी	-5571
म्भ	-5572
्मा	-5573
▁मास्क	-5574
▁शुद्ध	-5575
तालों	-5576
▁कामयाब	-5577
ड्र	-5578
▁to	-5579
▁सन्	-5580
▁पोषक	-5581
एसई	-5582
स्फोट	-5583
ॉक्स	-5584
▁कहान	-5585
▁रवाना	-5586
▁गार्ड	-5587
▁झटका	-5588
▁करोड़ों	-5589
गैर	-5590
▁3.	-5591
▁एग्जाम	-5592
▁पुराना	-5593
ेशर	-5594
▁व्यापारियों	-5595
▁टाइप	-5596
▁नेहरू	-5597
बरा	-5598
▁भेजे	-5599
▁मोटा	-5600
▁पुनर्	-5601
आत	-5602
लाइट	-5603
▁ग्रामीणों	-5604
माश	-5605
▁तार	-5606
▁यहीं	-5607
ख़	-5608
▁कप्तानी	-5609
आइ	-5610
▁अंदाज	-5611
▁अदा	-5612
▁उत्पी	-5613
▁टक्कर	-5614
▁दोस्ती	-5615
ँह	-5616
▁शहीद	-5617
▁बेंगलुरु	-5618
▁पाठ्यक्रम	-5619
कोट	-5620
▁धरती	-5621
▁हीरो	-5622
रुद्ध	-5623
▁योग्यता	-5624
▁मुआ	-5625
▁जड़	-5626
वाड़ा	-5627
▁ग्लो	-5628
▁हिट	-5629
▁अरुण	-5630
▁फ्ला	-5631
▁मणिपुर	-5632
▁भोज	-5633
▁चलती	-5634
▁चुने	-5635
िकता	-5636
▁कहाँ	-5637
▁ब्राह	-5638
च्छेद	-5639
▁नोएडा	-5640
▁अस्पतालों	-5641
िने	-5642
▁ऑप	-5643
▁सत्	-5644
▁ख़िला	-5645
▁दुश्म	-5646
▁सेवाएं	-5647
ric	-5648
कॉम	-5649
▁जाम	-5650
▁आदत	-5651
▁कोले	-5652
▁पापा	-5653
▁कार्तिक	-5654
▁निवेशकों	-5655
आरपी	-5656
▁श्रमिक	-5657
▁एकादशी	-5658
▁परन्तु	-5659
▁ऑक्सीजन	-5660
▁जॉब	-5661
▁सीनियर	-5662
▁नीर	-5663
▁आवंट	-5664
▁भंड	-5665
▁रिफ	-5666
▁मोड	-5667
▁वार्ता	-5668
▁आत्मविश्वास	-5669
▁कब्जा	-5670
▁स्टाफ	-5671
ोगे	-5672
▁एह	-5673
▁वर्ण	-5674
▁काउंस	-5675
▁विस्फोट	-5676
odiac	-5677
▁स्मृति	-5678
▁नाइट	-5679
▁सच्चाई	-5680
ind	-5681
▁करण	-5682
▁विद्यार्थियों	-5683
ive	-5684
▁नजदी	-5685
कश	-5686
▁वाता	-5687
इंडीज	-5688
▁बुद्धि	-5689
▁इकाई	-5690
▁मजदूरों	-5691
▁मारा	-5692
वह	-5693
ress	-5694
▁उपस्थिति	-5695
▁डीजल	-5696
ish	-5697
▁तल	-5698
▁55	-5699
ark	-5700
▁जोड़ने	-5701
▁अत्यधिक	-5702
▁हुईं	-5703
▁for	-5704
▁परंतु	-5705
ष्क	-5706
▁जूझ	-5707
▁मिलना	-5708
▁दब	-5709
▁2011	-5710
▁त्योहार	-5711
स्पति	-5712
चुनाव	-5713
र्वाद	-5714
▁फीचर	-5715
▁यूक	-5716
▁Ele	-5717
▁जिसमे	-5718
me	-5719
स्टार	-5720
ाइयों	-5721
▁भय	-5722
our	-5723
▁चालू	-5724
▁बचे	-5725
▁ईश्वर	-5726
▁इमरान	-5727
▁चोप	-5728
▁मारपीट	-5729
रात्रि	-5730
▁वातावरण	-5731
चय	-5732
ेश्वर	-5733
▁अंबानी	-5734
▁कैमरे	-5735
▁सकी	-5736
▁रखती	-5737
▁भेजने	-5738
ss	-5739
▁जर्म	-5740
▁कैश	-5741
▁नष्ट	-5742
▁इस्लाम	-5743
▁Pl	-5744
सारी	-5745
▁नये	-5746
▁जानिए	-5747
▁रूपये	-5748
यत	-5749
▁हल्दी	-5750
▁गहरी	-5751
▁Sh	-5752
▁कहे	-5753
▁बढ	-5754
ang	-5755
ॉड	-5756
ik	-5757
▁IP	-5758
▁वक़्त	-5759
▁प्रतियोगिता	-5760
फिक	-5761
▁देशभर	-5762
ामक	-5763
▁भड़	-5764
▁सैल	-5765
▁प्रसन्न	-5766
▁पराम	-5767
▁शेष	-5768
▁कनेक्ट	-5769
▁राजस्व	-5770
▁मृतक	-5771
▁अर्जुन	-5772
▁उल्लेखनीय	-5773
▁ख़िलाफ़	-5774
▁वस्तु	-5775
▁इंदिरा	-5776
ंबू	-5777
गीय	-5778
▁द्वार	-5779
▁सिम	-5780
लेस	-5781
▁गाना	-5782
▁उन्हीं	-5783
▁चलिए	-5784
प्पल	-5785
▁बढ़ाया	-5786
ana	-5787
ाराण	-5788
पल	-5789
▁पैन	-5790
▁गोरख	-5791
▁गणेशजी	-5792
▁सर्च	-5793
▁गोवा	-5794
▁प्रयासों	-5795
▁मुख्यालय	-5796
se	-5797
▁गायब	-5798
▁किमी	-5799
▁वेस्टइंडीज	-5800
▁विश्वसनीय	-5801
▁सहज	-5802
▁ज़रूरी	-5803
▁मछ	-5804
▁इसने	-5805
करार	-5806
▁दुष्	-5807
ाराणसी	-5808
▁करीबी	-5809
▁हस्ताक्षर	-5810
▁ढूंढ	-5811
▁रमेश	-5812
▁स्थायी	-5813
▁आकर्षक	-5814
▁निशान	-5815
▁मेर	-5816
▁बचें	-5817
मण	-5818
▁चक्कर	-5819
▁हवाला	-5820
▁दिलाने	-5821
▁मान्य	-5822
▁स्नान	-5823
▁हल्का	-5824
▁युग	-5825
▁निरंतर	-5826
▁युवती	-5827
िमंडल	-5828
▁नक्स	-5829
▁सांस्कृतिक	-5830
▁टीएमसी	-5831
ram	-5832
▁धाम	-5833
▁शिश	-5834
▁चुनौ	-5835
▁आशीर्वाद	-5836
▁कटौती	-5837
▁पैक	-5838
▁करवाया	-5839
▁फाइल	-5840
डब्ल्यू	-5841
तू	-5842
▁विजेता	-5843
▁39	-5844
▁छापे	-5845
▁शुभकाम	-5846
अर	-5847
संध	-5848
BI	-5849
▁भारती	-5850
▁बलों	-5851
▁चौक	-5852
पं	-5853
▁गोद	-5854
▁वाई	-5855
▁प्रतिबद्ध	-5856
▁उन्न	-5857
▁कैंड	-5858
▁व्यस्त	-5859
ack	-5860
▁PM	-5861
▁परामर्श	-5862
ारण	-5863
▁लापरवाही	-5864
▁जीएसटी	-5865
▁मिर्च	-5866
▁सावधानी	-5867
▁मेट्रो	-5868
अगर	-5869
▁समझते	-5870
कांत	-5871
नाल्ड	-5872
▁चोपड़ा	-5873
▁आपात	-5874
▁अनुसूचित	-5875
▁घाट	-5876
▁शिविर	-5877
▁प्राइम	-5878
रात	-5879
▁रोका	-5880
▁सत्या	-5881
▁खिल	-5882
▁ट्रांसफर	-5883
▁पहुँ	-5884
ितीय	-5885
िंक	-5886
▁जॉन	-5887
▁सांसदों	-5888
▁शुरु	-5889
▁विरुद्ध	-5890
▁आंस	-5891
ंगाना	-5892
▁ऑफ़	-5893
▁पुणे	-5894
▁सकेगा	-5895
▁हराया	-5896
▁सैनिकों	-5897
पुरा	-5898
▁इकट	-5899
▁सीर	-5900
▁शाखा	-5901
केज	-5902
▁44	-5903
▁इमार	-5904
▁स्टोरी	-5905
▁Ex	-5906
ाइनल	-5907
▁धारण	-5908
▁मलिक	-5909
▁तरीकों	-5910
▁उदय	-5911
पया	-5912
ांग	-5913
श्री	-5914
िक्	-5915
दिग्ध	-5916
फ्तार	-5917
▁खेत	-5918
▁किडनी	-5919
▁नामांकन	-5920
▁मेष	-5921
ायंस	-5922
▁कनेक्शन	-5923
▁राणा	-5924
▁हवाले	-5925
डीपी	-5926
▁समर्पित	-5927
▁कलाकार	-5928
▁पायलट	-5929
▁धूप	-5930
▁मकसद	-5931
▁ट्रैक	-5932
▁सिर्फ़	-5933
िसू	-5934
▁चिल	-5935
▁मीटिंग	-5936
▁संदिग्ध	-5937
▁India	-5938
▁प्रौद्योगिकी	-5939
ain	-5940
सीसीआई	-5941
▁निर्द	-5942
▁मद्	-5943
▁बचत	-5944
▁उपयोगी	-5945
li	-5946
ँकि	-5947
▁एकता	-5948
▁संसदीय	-5949
समाचार	-5950
▁मंत्रियों	-5951
line	-5952
▁साढ़े	-5953
▁मास्टर	-5954
▁आरएसएस	-5955
ेडकर	-5956
▁मोर्चा	-5957
र्टी	-5958
▁194	-5959
▁पीढ़ी	-5960
▁अर्धशत	-5961
▁मुहूर्त	-5962
लिख	-5963
▁UP	-5964
▁मुलायम	-5965
▁वाराणसी	-5966
▁प्रीमियम	-5967
गणना	-5968
▁धनु	-5969
▁अनुच्छेद	-5970
▁कुर	-5971
▁फर्क	-5972
▁प्रशांत	-5973
▁हार्ट	-5974
▁पाप	-5975
▁प्राधिकरण	-5976
▁पॉलिसी	-5977
▁इलाहाबाद	-5978
own	-5979
//	-5980
ial	-5981
▁सॉफ्टवेयर	-5982
अब	-5983
▁झेल	-5984
णु	-5985
ष्म	-5986
▁समन	-5987
ंत्रित	-5988
▁कंगना	-5989
▁दृश्य	-5990
und	-5991
जिये	-5992
-4	-5993
▁ट्रेनिंग	-5994
▁ओलंपिक	-5995
▁मायावती	-5996
द्दा	-5997
▁आईडी	-5998
▁सूरज	-5999
▁दस्तावेजों	-6000
▁बेंच	-6001
▁एडमिट	-6002
वाया	-6003
▁ख्याल	-6004
ंपरिक	-6005
्याम	-6006
▁डाटा	-6007
▁डिप्टी	-6008
▁कव	-6009
▁संदेह	-6010
क्ला	-6011
▁अगु	-6012
▁उत्पीड़न	-6013
GB	-6014
ब्दी	-6015
▁मतदाताओं	-6016
फार्म	-6017
▁अपलोड	-6018
▁विवेक	-6019
lic	-6020
सीआर	-6021
▁बृह	-6022
संधान	-6023
▁एक्सच	-6024
://	-6025
रियर	-6026
▁चंद	-6027
▁शर्त	-6028
▁मद्देन	-6029
तीत	-6030
▁शंकर	-6031
याम	-6032
मस	-6033
▁रियर	-6034
▁ड्राइवर	-6035
▁दंड	-6036
▁घे	-6037
▁दह	-6038
▁होली	-6039
▁नींबू	-6040
▁व्हाट्स	-6041
ear	-6042
▁मूर्ति	-6043
▁तेलंगाना	-6044
▁आवेद	-6045
मुख्य	-6046
▁कार्यक्रमों	-6047
दृ	-6048
ore	-6049
▁अपर	-6050
▁तंज	-6051
▁बनाये	-6052
र्नर	-6053
▁डीएम	-6054
▁उड़ान	-6055
▁सिंगल	-6056
▁प्रेशर	-6057
लक	-6058
▁सतर्क	-6059
▁सर्दी	-6060
18	-6061
डम	-6062
▁गव	-6063
▁चढ़ा	-6064
ांज	-6065
▁साधारण	-6066
▁ताला	-6067
▁आपदा	-6068
▁धु	-6069
▁पर्यटन	-6070
▁150	-6071
▁पड़ोसी	-6072
▁कानपुर	-6073
▁पढ	-6074
▁बाबू	-6075
▁ऑर्डर	-6076
▁गुट	-6077
गारी	-6078
▁पवन	-6079
▁यकीन	-6080
▁सब्जी	-6081
।।	-6082
चरण	-6083
▁st	-6084
▁समझना	-6085
▁स्पोर्ट्स	-6086
▁डेढ़	-6087
▁पोषण	-6088
▁लाइट	-6089
राज्य	-6090
▁मध्यप्रदेश	-6091
श्चा	-6092
▁अनुसंधान	-6093
▁फ्रांस	-6094
प्पी	-6095
▁कृपा	-6096
▁विंड	-6097
▁दिनेश	-6098
▁ट्रस्ट	-6099
▁ब्राह्मण	-6100
▁पॉप	-6101
▁गोपाल	-6102
▁पारंपरिक	-6103
▁पंचांग	-6104
▁ब्रिटिश	-6105
▁प्रिंट	-6106
▁आश्	-6107
खल	-6108
▁आईटी	-6109
▁अहमदाबाद	-6110
▁मुँह	-6111
▁पाना	-6112
्टन	-6113
▁वार्षिक	-6114
▁प्रतिनिधि	-6115
all	-6116
चुर	-6117
ड्स	-6118
्हे	-6119
▁चेयर	-6120
▁छिपा	-6121
▁जटिल	-6122
▁इंदौर	-6123
ma	-6124
▁गुल	-6125
▁पैनल	-6126
▁क्रिकेटर	-6127
ालों	-6128
▁खरीदा	-6129
▁मासिक	-6130
▁कैल	-6131
▁अडानी	-6132
▁पेशकश	-6133
▁कोरिया	-6134
▁फरार	-6135
राय	-6136
▁एडम	-6137
इल	-6138
▁इलेक्ट्रॉन	-6139
▁स्टैंड	-6140
▁मुआव	-6141
▁एकत्र	-6142
स्वरूप	-6143
▁कमांड	-6144
ev	-6145
▁पढ़े	-6146
▁प्रतिमा	-6147
▁खुरा	-6148
▁साफ़	-6149
टके	-6150
▁वोटों	-6151
▁करवाने	-6152
▁विषयों	-6153
पचारिक	-6154
ड़िया	-6155
▁ओटी	-6156
▁सागर	-6157
▁जाएंगी	-6158
▁सिक्	-6159
are	-6160
ber	-6161
▁कायम	-6162
▁टीकाकरण	-6163
60	-6164
अपने	-6165
▁कृपया	-6166
ड़प	-6167
दुर	-6168
▁आजाद	-6169
▁चलाया	-6170
▁सियासी	-6171
▁कलेक्टर	-6172
▁घी	-6173
▁उर्	-6174
स्वामी	-6175
▁हालाँकि	-6176
ोग्रा	-6177
▁इव	-6178
▁मेन	-6179
ुत्व	-6180
▁किस्मत	-6181
▁सीखने	-6182
▁घाटी	-6183
क्ताओं	-6184
▁बैंकिंग	-6185
णमूल	-6186
▁निकट	-6187
▁65	-6188
▁तट	-6189
▁पुष्	-6190
▁बताती	-6191
▁हैंडल	-6192
▁यूक्रेन	-6193
ंचित	-6194
▁घटनाएं	-6195
▁कर्क	-6196
▁साइड	-6197
▁कमर	-6198
आज	-6199
ame	-6200
ेयर	-6201
िडी	-6202
▁दुबे	-6203
▁रोशनी	-6204
ET	-6205
▁सैकड़ों	-6206
िपल	-6207
▁आयर	-6208
▁अधिव	-6209
▁उर्फ	-6210
▁प्रतिदिन	-6211
▁4.	-6212
▁गड़ब	-6213
▁सृ	-6214
ंकन	-6215
▁इंजीनियरिंग	-6216
ंतरिक	-6217
▁47	-6218
▁दही	-6219
▁हिम्मत	-6220
ल्लाह	-6221
▁कराए	-6222
▁गर्व	-6223
▁ट्रक	-6224
▁बनती	-6225
▁प्रशासनिक	-6226
▁डील	-6227
▁विज	-6228
▁जितने	-6229
▁किशन	-6230
▁निलंबित	-6231
▁दवाओं	-6232
▁खाम	-6233
▁सिस	-6234
▁हुये	-6235
▁नवीन	-6236
15	-6237
▁नागरिकता	-6238
▁झग	-6239
▁क्षति	-6240
आईए	-6241
▁डेब्यू	-6242
▁मुहैया	-6243
बैक	-6244
▁जापान	-6245
्राष्ट्रीय	-6246
क्षत्र	-6247
▁मरा	-6248
▁खेलों	-6249
▁हिंदुस्तान	-6250
▁हल्के	-6251
▁चाहिये	-6252
▁बोन	-6253
▁निरीक्षण	-6254
▁यूरिक	-6255
मह	-6256
ook	-6257
▁बिलकुल	-6258
▁Com	-6259
▁बैल	-6260
▁आर्य	-6261
▁महात्मा	-6262
रीबी	-6263
▁स्क्र	-6264
वास्तव	-6265
▁इक	-6266
फो	-6267
▁आरंभ	-6268
▁इनकम	-6269
▁लाभकारी	-6270
25	-6271
ah	-6272
िंदर	-6273
▁मात	-6274
▁शिंदे	-6275
▁सीन	-6276
▁अजीब	-6277
▁आमिर	-6278
▁तृणमूल	-6279
▁आखिरकार	-6280
▁स्टार्ट	-6281
▁अधिसू	-6282
▁पदार्थों	-6283
▁आपस	-6284
▁आईं	-6285
▁पलट	-6286
▁निंदा	-6287
,99	-6288
▁चिन	-6289
▁प्रकट	-6290
▁राजयोग	-6291
▁ज्व	-6292
▁बृहस्पति	-6293
▁फ़ोन	-6294
▁बढ़त	-6295
▁कैंप	-6296
▁उपचुनाव	-6297
▁बंट	-6298
▁आंध्र	-6299
सील	-6300
्रल	-6301
▁ठंड	-6302
ance	-6303
▁कनाडा	-6304
यूवी	-6305
▁दीदी	-6306
▁जुर्माना	-6307
▁शिखर	-6308
▁निर्यात	-6309
▁जीती	-6310
▁घेर	-6311
▁वाइ	-6312
▁वैभव	-6313
▁तेंद	-6314
▁रुचि	-6315
▁ख़बर	-6316
▁विविध	-6317
▁इन्हीं	-6318
▁न्यायिक	-6319
▁रिलायंस	-6320
▁समर्थक	-6321
▁आंतरिक	-6322
▁बदमाश	-6323
पाई	-6324
आईपी	-6325
▁ड्रेस	-6326
▁लिखते	-6327
80	-6328
▁नॉ	-6329
▁शहद	-6330
▁यो	-6331
डेंट	-6332
▁आश्वासन	-6333
▁शरद	-6334
▁शक	-6335
▁नैतिक	-6336
▁उपाध्यक्ष	-6337
▁मध्यम	-6338
▁निकाय	-6339
▁मनाने	-6340
▁ड्यूटी	-6341
▁उपयुक्त	-6342
▁चालक	-6343
▁अत्या	-6344
▁दिवाली	-6345
▁चोर	-6346
▁अन्दर	-6347
▁सोचने	-6348
▁195	-6349
ख्	-6350
▁बिल्ड	-6351
टिक	-6352
▁शुरूआत	-6353
▁सिख	-6354
▁कराना	-6355
▁प्रभु	-6356
▁सराहना	-6357
जाति	-6358
▁गढ़	-6359
▁सुविधाएं	-6360
▁टन	-6361
SE	-6362
तना	-6363
जिटिव	-6364
तियां	-6365
▁एंड्र	-6366
▁सांप्र	-6367
▁ठोस	-6368
ृत्य	-6369
▁सेल्	-6370
▁दुब	-6371
▁नाय	-6372
ारू	-6373
▁चोद	-6374
▁बुमराह	-6375
▁शिवराज	-6376
ॉइन	-6377
▁हस्तक्षेप	-6378
▁उक्त	-6379
▁साधा	-6380
मोहन	-6381
▁बुर	-6382
ग्रस्त	-6383
▁चरणों	-6384
▁पिट	-6385
वेल	-6386
▁चर्	-6387
▁शेर	-6388
▁मजाक	-6389
▁सर्क	-6390
▁प्लेइंग	-6391
साथी	-6392
ीदा	-6393
वायर	-6394
▁वोटर	-6395
▁सांप्रदायिक	-6396
▁2000	-6397
▁खिताब	-6398
▁43	-6399
▁मजे	-6400
▁मानस	-6401
ियस	-6402
▁व्यावसाय	-6403
बै	-6404
वाड़	-6405
▁स्वि	-6406
▁बैठकर	-6407
जिन	-6408
जत	-6409
ेय	-6410
▁घोटाले	-6411
unt	-6412
▁लॉग	-6413
▁बताना	-6414
धीन	-6415
ॉस	-6416
▁पाठक	-6417
▁व्यक्तित्व	-6418
▁अवि	-6419
्यांकन	-6420
▁आईसीसी	-6421
▁हज़ार	-6422
स्पर्	-6423
):	-6424
▁मच	-6425
▁शैली	-6426
▁समुद्र	-6427
▁शेख	-6428
▁2010	-6429
▁पकड़ा	-6430
▁एक्सचेंज	-6431
सैन	-6432
▁आँखों	-6433
जुए	-6434
▁रोटी	-6435
डीएम	-6436
▁क्षण	-6437
▁निकला	-6438
▁मद्देनजर	-6439
▁एहसास	-6440
▁सेल्स	-6441
▁नक्षत्र	-6442
▁रफ्तार	-6443
▁जूस	-6444
▁पब्लिक	-6445
काया	-6446
स्ट्रॉल	-6447
▁संतुलन	-6448
▁संसाधन	-6449
पालिका	-6450
▁खुलकर	-6451
▁सुरेश	-6452
▁46	-6453
▁आईए	-6454
▁अमीर	-6455
▁गड	-6456
▁गाइड	-6457
▁कर्मियों	-6458
▁धमा	-6459
पंच	-6460
▁64	-6461
▁सावधान	-6462
▁स्वभाव	-6463
22	-6464
पूत	-6465
आईसी	-6466
्यूरो	-6467
▁1000	-6468
▁बुद्ध	-6469
▁वें	-6470
▁कहकर	-6471
▁तुला	-6472
▁फाउंड	-6473
▁मनोरंजन	-6474
जागर	-6475
▁कामका	-6476
▁जताया	-6477
▁नाबाल	-6478
कारियों	-6479
▁किरण	-6480
▁बरकरार	-6481
▁समर्थकों	-6482
▁छेड़	-6483
▁नयी	-6484
▁सिद्धांत	-6485
ब्बत	-6486
फाइनल	-6487
जपे	-6488
्रीट	-6489
सीन	-6490
▁पसंदीदा	-6491
ूहिक	-6492
▁रिव	-6493
▁ओड	-6494
िज्म	-6495
▁पोस्टर	-6496
ise	-6497
▁पाय	-6498
▁तालि	-6499
▁छुटकारा	-6500
▁2009	-6501
▁अनुरूप	-6502
▁लक	-6503
▁यूनियन	-6504
▁बीसीसीआई	-6505
▁डिज़	-6506
▁चिट	-6507
▁अज्ञ	-6508
▁असफल	-6509
ौली	-6510
▁पाती	-6511
ग्रा	-6512
▁सर्वेक्षण	-6513
्यर	-6514
▁पत्रकारिता	-6515
▁नरे	-6516
ह्न	-6517
▁प्रीमियर	-6518
आरसी	-6519
ेक्टर	-6520
▁बेस	-6521
▁एजेंसियों	-6522
धित	-6523
▁कच	-6524
▁पैकेज	-6525
बरी	-6526
तांत्रिक	-6527
▁नारियल	-6528
चुअल	-6529
▁इत्या	-6530
सवाल	-6531
लोत	-6532
▁घुट	-6533
▁दीपिका	-6534
▁टेक्नोलॉजी	-6535
बंद	-6536
ans	-6537
▁श्रद्धाल	-6538
▁साई	-6539
▁कोर	-6540
ैश	-6541
▁अर्धशतक	-6542
▁अत	-6543
▁चुदाई	-6544
िशियल	-6545
▁दुर्गा	-6546
▁बैग	-6547
▁चार्ट	-6548
यु	-6549
▁फेल	-6550
▁मिड	-6551
▁देनी	-6552
▁माध	-6553
▁मानें	-6554
▁जिसको	-6555
▁कोलेस्ट्रॉल	-6556
कन	-6557
ुलकर	-6558
▁यूरोप	-6559
▁htt	-6560
रसा	-6561
▁आयात	-6562
ंधा	-6563
▁बल्लेबाजों	-6564
ंगिक	-6565
डेजा	-6566
▁दायरे	-6567
▁वस्तुओं	-6568
▁औष	-6569
▁प्लस	-6570
▁प्रतिस्पर्	-6571
▁नाथ	-6572
▁2008	-6573
▁स्थाना	-6574
ile	-6575
मुख्यमंत्री	-6576
बेट	-6577
▁पहना	-6578
▁स्वर्ण	-6579
वाज	-6580
▁उपकरणों	-6581
▁सम्बन्ध	-6582
▁जेट	-6583
▁मुठ	-6584
▁औद्योगिक	-6585
जैसे	-6586
▁400	-6587
▁चूस	-6588
▁सिंग	-6589
ायतों	-6590
▁माइक्रो	-6591
▁स्ट्राइक	-6592
न्त	-6593
▁संतु	-6594
नाश	-6595
▁फैक्ट	-6596
▁समूहों	-6597
ऊंगा	-6598
▁नर्स	-6599
▁जीवनसाथी	-6600
▁हॉस्प	-6601
▁प्रदर्शित	-6602
▁कोय	-6603
▁टीमें	-6604
▁निराशा	-6605
▁व्यावसायिक	-6606
▁रत्न	-6607
▁नाकाम	-6608
रू	-6609
▁नाबाद	-6610
▁देखता	-6611
▁चट	-6612
▁आयी	-6613
▁सामूहिक	-6614
पीय	-6615
ेंच	-6616
मैंने	-6617
वैधानिक	-6618
जुट	-6619
्यून	-6620
▁पिच	-6621
▁शुक्ला	-6622
साइड	-6623
▁अतिथि	-6624
▁प्लांट	-6625
▁अस्तित्व	-6626
▁राजपूत	-6627
ूद	-6628
▁मददगार	-6629
प्तान	-6630
▁प्रेमी	-6631
▁नाराजगी	-6632
क्टी	-6633
▁कॉम	-6634
▁सोनी	-6635
▁केंद्रों	-6636
▁गणना	-6637
▁मेहता	-6638
▁बर्बाद	-6639
▁संरचना	-6640
▁गहलोत	-6641
▁इत्यादि	-6642
गित	-6643
▁अत्यंत	-6644
▁चंडी	-6645
ेन्द्र	-6646
ok	-6647
▁बोझ	-6648
▁रॉयल	-6649
पै	-6650
जिया	-6651
▁परियोजनाओं	-6652
▁मोड़	-6653
▁अभिनय	-6654
▁डाले	-6655
▁नीतियों	-6656
▁उपयोगकर्ता	-6657
साम	-6658
▁संवैधानिक	-6659
▁इकट्ठा	-6660
वली	-6661
सला	-6662
▁डिली	-6663
▁गोरखपुर	-6664
▁पॉजिटिव	-6665
ass	-6666
▁आफ	-6667
▁उभर	-6668
▁अरे	-6669
▁गांड	-6670
कलन	-6671
▁बिगड़	-6672
्ठी	-6673
▁अभिव	-6674
▁एव	-6675
▁पौधे	-6676
ंसी	-6677
णियों	-6678
लेशन	-6679
▁सिलेंडर	-6680
▁जडेजा	-6681
चंद्र	-6682
▁लिहाज	-6683
gov	-6684
फ्ल	-6685
▁लिप	-6686
क्षणिक	-6687
▁तहसील	-6688
▁उच्चतम	-6689
▁52	-6690
▁BJP	-6691
▁प्रॉ	-6692
▁एकजुट	-6693
▁तोड़ने	-6694
▁संदीप	-6695
ार्टमेंट	-6696
▁विभागों	-6697
▁अवस्था	-6698
भूत	-6699
▁आज़ा	-6700
▁बनते	-6701
▁साड़ी	-6702
▁on	-6703
▁vs	-6704
▁ड्रग	-6705
▁पेशेवर	-6706
▁उत्स	-6707
चंद	-6708
▁जीने	-6709
▁उतारा	-6710
▁एसयूवी	-6711
▁साइन	-6712
▁इशारा	-6713
▁जिंदा	-6714
लिखित	-6715
▁उतनी	-6716
▁सेले	-6717
▁लिखकर	-6718
वाहा	-6719
▁पर्सनल	-6720
ोजित	-6721
▁मैनेजमेंट	-6722
▁जरा	-6723
बाई	-6724
▁लेटे	-6725
▁नाबालिग	-6726
भाविक	-6727
▁रायपुर	-6728
ूती	-6729
▁सौंपा	-6730
▁शोषण	-6731
▁Election	-6732
▁कीजिए	-6733
▁कुलदीप	-6734
▁वंचित	-6735
मेर	-6736
ुणा	-6737
▁उछ	-6738
▁गरीबी	-6739
▁अभाव	-6740
▁विनोद	-6741
लिक	-6742
▁कॉपी	-6743
▁मानने	-6744
▁तीर्थ	-6745
▁वैदिक	-6746
▁गर्भ	-6747
▁भूप	-6748
▁पहनने	-6749
▁प्राय	-6750
▁कॉर	-6751
▁निर्देशक	-6752
बली	-6753
▁जिलाधिकारी	-6754
▁ढेर	-6755
▁चलेगा	-6756
▁फास्ट	-6757
▁ग्रो	-6758
▁मूल्यांकन	-6759
्तर	-6760
▁खन्ना	-6761
▁जयंती	-6762
ल्ले	-6763
▁परम	-6764
▁शौच	-6765
▁हमलों	-6766
▁49	-6767
▁ज़रूर	-6768
▁बढ़िया	-6769
▁अंतर्राष्ट्रीय	-6770
▁चरित्र	-6771
▁सोचते	-6772
▁लल	-6773
▁हमे	-6774
▁विद्या	-6775
▁विद्यार्थी	-6776
▁हॉट	-6777
▁नोटिफिकेशन	-6778
शक्ति	-6779
▁हुसैन	-6780
पीएस	-6781
▁वैध	-6782
तिष्क	-6783
▁जोड़े	-6784
▁AI	-6785
▁पच	-6786
load	-6787
▁उद्यम	-6788
मानी	-6789
▁आधे	-6790
▁गरीबों	-6791
फ्रेंड	-6792
▁सहमत	-6793
▁सुशांत	-6794
▁पठ	-6795
▁पित	-6796
▁असिस्ट	-6797
▁अटल	-6798
▁खाल	-6799
▁सेमीफाइनल	-6800
▁दस्त	-6801
पाठी	-6802
▁सदा	-6803
▁दरवाजे	-6804
▁ब्यूरो	-6805
▁डोनाल्ड	-6806
▁Rec	-6807
▁अय्यर	-6808
▁डेविड	-6809
▁पोस्टम	-6810
भि	-6811
▁संपन्न	-6812
▁शेड	-6813
पता	-6814
ोदय	-6815
▁अंधे	-6816
▁41	-6817
्युन	-6818
▁हंगामा	-6819
ॉयड	-6820
मूर्ति	-6821
▁मुज	-6822
▁नीला	-6823
▁लायक	-6824
▁हिंदुओं	-6825
:-	-6826
घ्र	-6827
वाहिक	-6828
▁आचार्य	-6829
▁टेबल	-6830
▁श्रीवास्तव	-6831
▁हाइड	-6832
ष्णा	-6833
▁गेह	-6834
▁आरती	-6835
▁कड़ा	-6836
-0	-6837
▁इजरायल	-6838
▁यूएस	-6839
▁जीतकर	-6840
▁मार्केटिंग	-6841
▁चंद्रमा	-6842
▁विड	-6843
दून	-6844
्तार	-6845
▁स्ट्रीम	-6846
▁तस्वीरों	-6847
▁मांगा	-6848
ॉर	-6849
मेज	-6850
▁मल्टी	-6851
▁रेड्डी	-6852
कालिक	-6853
▁त्याग	-6854
मै	-6855
▁उज्ज	-6856
▁चौके	-6857
▁रच	-6858
▁किन्तु	-6859
ax	-6860
▁महत्त्व	-6861
जपेयी	-6862
▁ख़ास	-6863
इंड	-6864
▁भौतिक	-6865
▁मजबूती	-6866
▁बौद्ध	-6867
▁ब्लू	-6868
▁डेस्क	-6869
▁सलाहकार	-6870
▁पहुंचाया	-6871
▁भागीदारी	-6872
▁बेरोजगारी	-6873
▁En	-6874
▁मिश्रण	-6875
▁गेंदबाजों	-6876
▁बीत	-6877
▁धवन	-6878
▁खेलना	-6879
▁दरवाजा	-6880
▁प्रतिष्ठा	-6881
ोगी	-6882
▁वेट	-6883
टेक	-6884
जाने	-6885
▁मज़ा	-6886
▁मारुति	-6887
पटॉप	-6888
शिंग	-6889
▁हॉल	-6890
anc	-6891
▁वोटिंग	-6892
▁बेड	-6893
▁भेदभाव	-6894
भुत	-6895
▁इंफ	-6896
▁फंस	-6897
क्ले	-6898
▁क्रिया	-6899
▁चिकित्सक	-6900
▁दुर्भाग्य	-6901
ंची	-6902
मार्ग	-6903
▁वास	-6904
रस	-6905
ash	-6906
▁आँख	-6907
▁शैक्षणिक	-6908
▁नफर	-6909
▁गठित	-6910
कप्तान	-6911
रीय	-6912
▁आध्या	-6913
झकर	-6914
▁पश्चा	-6915
▁मम्मी	-6916
्रु	-6917
स्तु	-6918
▁पीछा	-6919
▁संसार	-6920
▁थोड़े	-6921
▁डिज़ाइन	-6922
▁सूचित	-6923
▁राजकुमार	-6924
हरादून	-6925
त्तियों	-6926
▁तुम्हारा	-6927
▁मिठ	-6928
▁राजन	-6929
▁करेंगी	-6930
िरो	-6931
▁पैसों	-6932
▁ईवी	-6933
▁ठहराया	-6934
▁परीक्षाओं	-6935
▁चैंपियनशिप	-6936
▁जाग	-6937
▁प्राचीन	-6938
▁प्लास्टिक	-6939
▁कौर	-6940
▁रूट	-6941
▁इवेंट	-6942
▁गिन	-6943
▁सीता	-6944
यें	-6945
▁साथियों	-6946
▁सेंट्रल	-6947
हाद	-6948
▁लिवर	-6949
▁ओडिशा	-6950
▁विवादित	-6951
▁सिद्धार्थ	-6952
▁r	-6953
▁गहराई	-6954
▁केएल	-6955
▁तेरे	-6956
▁शिशु	-6957
्वेस्ट	-6958
▁प्रारंभिक	-6959
▁प्रोत्साहित	-6960
गमेंट	-6961
▁कठोर	-6962
▁रेप	-6963
▁साइबर	-6964
orm	-6965
▁पक्षों	-6966
▁स्थगित	-6967
▁चार्जिंग	-6968
लोनी	-6969
लील	-6970
ure	-6971
▁गोप	-6972
▁देखिए	-6973
▁निष्कर्ष	-6974
चाप	-6975
▁टैब	-6976
▁एक्टिंग	-6977
ुसार	-6978
▁बिटक	-6979
ey	-6980
▁कहें	-6981
▁सर्ट	-6982
▁सेकंड	-6983
पंथी	-6984
प्पा	-6985
माही	-6986
▁उठाते	-6987
▁विकल्पों	-6988
म्स	-6989
▁आध्यात्म	-6990
▁जागरूकता	-6991
ry	-6992
▁एथ	-6993
▁गर्भव	-6994
▁स्वाभाविक	-6995
▁हिल	-6996
▁अलर्ट	-6997
▁मार्क	-6998
▁चंडीगढ़	-6999
▁स्थानांतर	-7000
समय	-7001
▁काबू	-7002
▁शत्र	-7003
▁घात	-7004
कर्षण	-7005
▁सीबी	-7006
▁कामों	-7007
▁एनर्जी	-7008
सुन	-7009
▁अपराधी	-7010
नाल	-7011
▁बोनस	-7012
▁सर्जरी	-7013
▁रवी	-7014
ug	-7015
▁कुशल	-7016
▁नाटक	-7017
सीम	-7018
▁कॉमे	-7019
▁कमीशन	-7020
▁कारों	-7021
▁भावनात्मक	-7022
वंत	-7023
▁कैसीनो	-7024
▁आलू	-7025
▁डेवल	-7026
्वान	-7027
▁साक्षा	-7028
▁उजागर	-7029
▁प्रोसेस	-7030
ड़ताल	-7031
▁वरुण	-7032
▁क्रिस	-7033
ैर्य	-7034
▁टर्म	-7035
बस	-7036
ोम	-7037
▁अनाज	-7038
▁मैनेजर	-7039
16	-7040
ूली	-7041
▁डूब	-7042
स्टेबल	-7043
ष्कार	-7044
▁दशकों	-7045
र्मेंद्र	-7046
▁जोन	-7047
▁हमसे	-7048
▁ओबीसी	-7049
▁प्याज	-7050
प्लाई	-7051
▁जब्त	-7052
▁जहा	-7053
▁बनाती	-7054
▁सना	-7055
▁मानक	-7056
▁सीपी	-7057
▁संस्थाओं	-7058
भूषण	-7059
▁pro	-7060
▁दिखता	-7061
माणु	-7062
▁प्रोसे	-7063
▁प्रस्तावित	-7064
▁अरो	-7065
24	-7066
▁छत	-7067
▁बरसा	-7068
▁होंठ	-7069
▁महीना	-7070
▁बिटकॉइन	-7071
▁शुभकामनाएं	-7072
▁निधि	-7073
क्रामक	-7074
▁नतीजा	-7075
▁शासित	-7076
▁ऋषभ	-7077
▁वाम	-7078
.)	-7079
AI	-7080
▁रिए	-7081
▁कब्जे	-7082
▁फु	-7083
▁छोड़ा	-7084
▁निराश	-7085
▁विशेषता	-7086
▁हैंडसेट	-7087
▁अपराधियों	-7088
स्को	-7089
▁नाक	-7090
▁सिद्धू	-7091
▁इजाजत	-7092
▁आपसी	-7093
▁अभिव्य	-7094
▁साइकिल	-7095
राष्ट्र	-7096
▁रेटिंग	-7097
▁लैपटॉप	-7098
▁छापेमारी	-7099
विधि	-7100
▁ससुर	-7101
▁1.5	-7102
िमांड	-7103
▁उद्धव	-7104
▁बताता	-7105
▁बढ़ाकर	-7106
▁कर्त	-7107
▁ज़ोर	-7108
ata	-7109
व्या	-7110
▁चैट	-7111
▁पहने	-7112
▁5.	-7113
प्ताहिक	-7114
▁गर्भवती	-7115
▁आधी	-7116
ड़ियां	-7117
ारक	-7118
▁मॉड	-7119
इए	-7120
▁मेघ	-7121
ary	-7122
फना	-7123
▁बादल	-7124
▁धैर्य	-7125
▁अज्ञात	-7126
▁धर्मेंद्र	-7127
▁मंग	-7128
▁ग्लोबल	-7129
▁बुकिंग	-7130
▁जीवित	-7131
▁निभाई	-7132
▁उन्होने	-7133
▁त्रिपाठी	-7134
▁काफ़ी	-7135
▁परिचय	-7136
▁देहरादून	-7137
▁अन्त	-7138
▁शेयरों	-7139
▁सुर्खियों	-7140
बों	-7141
▁निर्मित	-7142
uk	-7143
hats	-7144
▁डिस	-7145
▁कॉन्ट	-7146
▁बाजारों	-7147
▁:-	-7148
▁रैं	-7149
काउंट	-7150
फ्टी	-7151
▁ठंडा	-7152
▁भक्ति	-7153
▁संतान	-7154
▁ट्रेंड	-7155
धिकारियों	-7156
ef	-7157
▁टोक	-7158
▁120	-7159
▁छीन	-7160
▁मस्तिष्क	-7161
श्चिक	-7162
▁अश्विन	-7163
▁बैठने	-7164
▁श्रद्धा	-7165
▁खर	-7166
▁हॉस्पिटल	-7167
▁मंड	-7168
▁अंतरिक्ष	-7169
▁सीसीटीवी	-7170
▁हिम	-7171
▁ट्रेलर	-7172
स्पेक्टर	-7173
रिस	-7174
▁परिप	-7175
▁युक्त	-7176
▁जाएँ	-7177
▁एंकर	-7178
▁परमाणु	-7179
▁डिलीवरी	-7180
सीए	-7181
▁भैया	-7182
▁गवाह	-7183
वाधिकार	-7184
▁Al	-7185
▁तन	-7186
▁तेरी	-7187
बिन	-7188
▁लोकतांत्रिक	-7189
▁अद्	-7190
▁चैल	-7191
▁भ्रम	-7192
प्लीकेशन	-7193
▁चेयरमैन	-7194
▁रचनात्मक	-7195
ानिक	-7196
▁लिंग	-7197
▁गुस्से	-7198
▁जायेंगे	-7199
▁राउंड	-7200
▁औपचारिक	-7201
▁पारदर्	-7202
▁Ka	-7203
▁सदस्यता	-7204
▁अधिसूचना	-7205
▁हरे	-7206
संख्या	-7207
▁जरुरी	-7208
िवे	-7209
▁Te	-7210
शुल्क	-7211
▁रूसी	-7212
▁बेश	-7213
▁इच्छुक	-7214
▁प्रारूप	-7215
▁उपभोक्ता	-7216
आईएम	-7217
एप	-7218
▁फेस	-7219
▁उत्सव	-7220
▁तालिबान	-7221
जिस	-7222
▁कोत	-7223
ebs	-7224
▁अधीन	-7225
▁चाहें	-7226
▁बुखार	-7227
ब्स	-7228
▁आलिया	-7229
▁दिव्या	-7230
द्रोह	-7231
▁जाप	-7232
▁नफरत	-7233
▁तेंदुलकर	-7234
▁कार्यकारी	-7235
'।	-7236
ंगन	-7237
फ्यू	-7238
▁ऋषि	-7239
▁वसू	-7240
▁वृश्चिक	-7241
ove	-7242
▁नशे	-7243
▁सीईओ	-7244
▁उत्तरी	-7245
In	-7246
▁उपायों	-7247
कंप	-7248
▁अफवाह	-7249
▁पैटर्न	-7250
▁प्रशंसा	-7251
▁ट्रैफिक	-7252
न्नी	-7253
▁बैठी	-7254
▁होस्ट	-7255
झी	-7256
▁56	-7257
▁ढांचे	-7258
▁भोजपुरी	-7259
किट	-7260
वैसी	-7261
▁पीस	-7262
फिट	-7263
नम	-7264
हरण	-7265
-5	-7266
▁54	-7267
▁जोश	-7268
▁सूरत	-7269
▁जूनियर	-7270
IC	-7271
सीना	-7272
23	-7273
जीवन	-7274
▁हसन	-7275
▁भारतीयों	-7276
act	-7277
▁रहकर	-7278
▁आयकर	-7279
▁गुड़	-7280
्रेम	-7281
▁बीएस	-7282
सपेश	-7283
्यूशन	-7284
तरह	-7285
रिय	-7286
▁आस्था	-7287
▁घूमने	-7288
▁चो	-7289
▁इंडियंस	-7290
ँस	-7291
▁चूक	-7292
▁समुदायों	-7293
▁app	-7294
्ढ	-7295
मला	-7296
▁वस	-7297
ड्डी	-7298
▁नाश्	-7299
▁ग्रहों	-7300
खु	-7301
धड़ी	-7302
▁चांद	-7303
▁अर्थात	-7304
▁कुर्सी	-7305
▁सटीक	-7306
▁काटने	-7307
▁फिटनेस	-7308
▁लाए	-7309
▁अब्दु	-7310
▁वारदा	-7311
▁लौटने	-7312
▁मौजूदगी	-7313
▁साप्ताहिक	-7314
▁संस्थापक	-7315
▁स्टूडेंट्स	-7316
▁अंश	-7317
िविटी	-7318
▁संज्ञान	-7319
▁आमंत्रित	-7320
ोरम	-7321
▁खुली	-7322
▁बचना	-7323
शिक	-7324
▁एपिस	-7325
▁तुमने	-7326
▁नोटबंदी	-7327
▁अल्पसंख्यक	-7328
▁सऊ	-7329
▁बाई	-7330
▁सिलसिले	-7331
व्र	-7332
लाना	-7333
▁पहलू	-7334
▁गिरने	-7335
िथ	-7336
▁मुर	-7337
▁प्राण	-7338
▁बिस्तर	-7339
▁हल्की	-7340
▁दलितों	-7341
▁शक्तिशाली	-7342
▁चौंका	-7343
▁कुश	-7344
्योरिटी	-7345
▁बॉर्डर	-7346
▁मानवाधिकार	-7347
अंदा	-7348
ID	-7349
▁शॉर्ट	-7350
थल	-7351
▁थकान	-7352
न्यू	-7353
▁एप्लीकेशन	-7354
ैत	-7355
▁मांसपेश	-7356
▁डिस्काउंट	-7357
दिल	-7358
▁जौ	-7359
▁जश्न	-7360
▁दत्त	-7361
▁पासवर्ड	-7362
▁आतंकवादियों	-7363
▁समस्त	-7364
▁अद्भुत	-7365
▁जनपद	-7366
ोश	-7367
▁कच्चे	-7368
▁दुनियाभर	-7369
गें	-7370
फ्तर	-7371
▁काग	-7372
▁चपेट	-7373
▁फैलाने	-7374
▁चौकी	-7375
▁शुक्ल	-7376
मिली	-7377
वानिव	-7378
▁मेले	-7379
▁उठाना	-7380
▁संजीव	-7381
▁सालाना	-7382
▁(3	-7383
वायु	-7384
la	-7385
ue	-7386
ण्य	-7387
त्तर	-7388
▁लेनदेन	-7389
ोज़	-7390
▁बेव	-7391
▁यूं	-7392
▁अंसारी	-7393
▁आह्वान	-7394
बड़े	-7395
▁पाइ	-7396
▁वैसा	-7397
▁दिलीप	-7398
▁एपिसोड	-7399
17	-7400
▁बिन	-7401
▁दीजिए	-7402
▁जाँच	-7403
▁Card	-7404
▁दुकानों	-7405
▁काशी	-7406
▁मायने	-7407
मेन	-7408
▁(20	-7409
▁ख़ुद	-7410
▁ट्रेनों	-7411
ach	-7412
कांग	-7413
▁गीता	-7414
▁करूंगा	-7415
▁कलाकारों	-7416
▁ch	-7417
ड्डे	-7418
▁भव्य	-7419
▁नरेन्द्र	-7420
▁अटैक	-7421
▁क़ान	-7422
▁गंवा	-7423
▁दर्जा	-7424
▁चिल्ला	-7425
धनों	-7426
▁मेहमान	-7427
्की	-7428
▁प्रतिरोध	-7429
विश	-7430
▁लड़का	-7431
▁गेहूं	-7432
▁जेडी	-7433
▁ओवैसी	-7434
▁खाद	-7435
count	-7436
िडेट	-7437
ियमित	-7438
▁पत्रिका	-7439
▁फिज	-7440
राउंड	-7441
▁शक्त	-7442
▁लंबित	-7443
शेखर	-7444
▁फांसी	-7445
▁पड़ेगी	-7446
▁शमी	-7447
म्मा	-7448
▁प्रत्यक्ष	-7449
▁पत्ते	-7450
डू	-7451
प्ट	-7452
▁फट	-7453
कृष्ट	-7454
▁मेडल	-7455
▁दफ्तर	-7456
▁कामकाज	-7457
▁जायेगी	-7458
▁पंक	-7459
▁बहादुर	-7460
टू	-7461
▁स्त	-7462
▁शीघ्र	-7463
▁निवास	-7464
▁शास्त्री	-7465
भूति	-7466
▁कसा	-7467
▁अमरी	-7468
क्ष्य	-7469
▁खोला	-7470
▁ष	-7471
जि	-7472
▁राखी	-7473
▁चांदी	-7474
क्सीडेंट	-7475
भाजपा	-7476
▁उमर	-7477
▁अमा	-7478
▁गुलाब	-7479
▁मुखिया	-7480
लत	-7481
ईडी	-7482
▁कृष्णा	-7483
िस्ट्रेट	-7484
▁लेट	-7485
▁शुभमन	-7486
▁केश	-7487
▁टैग	-7488
दिष्ट	-7489
▁आंत	-7490
▁खनन	-7491
▁हेम	-7492
▁घटा	-7493
▁प्रमोशन	-7494
▁प्रवृत्ति	-7495
14	-7496
ath	-7497
छाड़	-7498
▁महेंद्र	-7499
▁मुठभ	-7500
वालों	-7501
▁दुबई	-7502
▁मेजब	-7503
▁उपलब्धि	-7504
▁कलेक्शन	-7505
क्व	-7506
खाने	-7507
▁स्टे	-7508
ड़की	-7509
ST	-7510
रेली	-7511
▁खातों	-7512
▁यूरोपीय	-7513
▁आशीष	-7514
▁चाचा	-7515
ownload	-7516
▁कोचिंग	-7517
▁रिटायर	-7518
▁गतिविधि	-7519
▁सशक्त	-7520
▁आसमान	-7521
▁चैलेंज	-7522
▁जनसंख्या	-7523
▁अधि	-7524
▁साहस	-7525
▁सेगमेंट	-7526
ust	-7527
▁महेश	-7528
▁फील्ड	-7529
▁रिक्त	-7530
ोर्	-7531
▁डिफ	-7532
▁जद	-7533
▁फैट	-7534
▁लैंड	-7535
▁मांगने	-7536
SS	-7537
परी	-7538
राने	-7539
ौज	-7540
▁बनेगा	-7541
▁सैलरी	-7542
▁दादा	-7543
▁अंकों	-7544
डीएफ	-7545
▁बहर	-7546
▁मान्यताओं	-7547
ोकस	-7548
▁चुनौतियों	-7549
▁प्रयाग	-7550
▁पैं	-7551
▁सत्तार	-7552
▁कार्यक्षेत्र	-7553
▁हेयर	-7554
डो	-7555
विदा	-7556
▁स्पीकर	-7557
फेक्ट	-7558
▁तकली	-7559
र्चे	-7560
▁कैद	-7561
▁बाह	-7562
▁53	-7563
▁जुट	-7564
▁बाला	-7565
▁जर्मनी	-7566
▁इलेवन	-7567
ऑफ	-7568
यो	-7569
्यौ	-7570
ee	-7571
▁घबरा	-7572
▁हितों	-7573
श्मी	-7574
▁पुज	-7575
▁ओटीटी	-7576
▁बृ	-7577
▁नक्सल	-7578
▁संबोधन	-7579
फ़ा	-7580
▁स्वर	-7581
:30	-7582
▁सेन	-7583
▁हार्म	-7584
▁धोखाधड़ी	-7585
▁नहा	-7586
▁गर्ल	-7587
ree	-7588
लोक	-7589
ूढ़	-7590
टेन	-7591
aily	-7592
ंचाई	-7593
▁हिस्सेदारी	-7594
▁लेखन	-7595
ैली	-7596
▁सऊदी	-7597
▁उतरे	-7598
▁काउंसिल	-7599
लेकिन	-7600
wit	-7601
▁मोट	-7602
▁ज्ञा	-7603
▁वरना	-7604
▁खुराक	-7605
▁कारोबारी	-7606
केल	-7607
▁प्रतिष्ठित	-7608
▁खरीदना	-7609
▁सेक्शन	-7610
▁इट	-7611
▁पेय	-7612
▁राउ	-7613
▁लेटेस्ट	-7614
▁शॉट	-7615
▁बिंदु	-7616
▁the	-7617
▁राजने	-7618
▁महि	-7619
दाश्त	-7620
▁हरकत	-7621
वादियों	-7622
▁भाषाओं	-7623
▁विक्रम	-7624
▁जैक	-7625
गुरु	-7626
▁डाक	-7627
▁डिव	-7628
▁2007	-7629
▁परेशानियों	-7630
▁फैशन	-7631
▁फ्लैट	-7632
▁हड़ताल	-7633
▁58	-7634
▁टेल	-7635
ोत्सव	-7636
▁डाली	-7637
▁51	-7638
▁गायक	-7639
▁समन्व	-7640
▁अभिभाव	-7641
▁प्रिंस	-7642
▁विभाजन	-7643
▁इंस्टीट	-7644
▁ईमानदारी	-7645
▁बैक्टी	-7646
▁सेक्सी	-7647
▁नमा	-7648
▁विज्ञ	-7649
▁कमिश्न	-7650
▁कैंडिडेट	-7651
शीट	-7652
▁59	-7653
नाइट	-7654
ून्य	-7655
▁निष्पक्ष	-7656
पने	-7657
ashi	-7658
टिया	-7659
▁एनसीपी	-7660
▁प्रोसेसर	-7661
रि	-7662
▁बया	-7663
▁कैलो	-7664
21	-7665
णिज	-7666
▁सब्सिडी	-7667
▁रोगियों	-7668
▁सेकेंड	-7669
▁साक्षात्कार	-7670
▁कंस	-7671
▁अनुवाद	-7672
▁सभ	-7673
▁एसी	-7674
▁बर्फ	-7675
▁मुनाफा	-7676
▁रेडियो	-7677
▁संसाधनों	-7678
म्बे	-7679
▁सनी	-7680
▁टिप्स	-7681
▁मंत्रिमंडल	-7682
▁लाई	-7683
ार्टम	-7684
▁संपूर्ण	-7685
▁सुभाष	-7686
ple	-7687
▁लू	-7688
जेडी	-7689
▁कब्ज	-7690
▁फाउंडेशन	-7691
▁नीरज	-7692
ink	-7693
माटर	-7694
▁औरत	-7695
▁निम्नलिखित	-7696
▁हज	-7697
,999	-7698
ruit	-7699
▁अनुबंध	-7700
▁पन	-7701
▁हिला	-7702
▁मंडी	-7703
पालन	-7704
▁सर्टिफ	-7705
▁संतुलित	-7706
▁दुल	-7707
▁प्रोट	-7708
ंधन	-7709
▁पला	-7710
तायात	-7711
▁धीमी	-7712
▁शिफ्ट	-7713
▁अल्लाह	-7714
▁प्रवासी	-7715
▁बेन	-7716
िंग्स	-7717
मेह	-7718
▁इंतजाम	-7719
फिर	-7720
▁कपड़ों	-7721
▁जरुरत	-7722
▁ज़मीन	-7723
▁तिमाही	-7724
रसाइज	-7725
▁देखो	-7726
▁मांगे	-7727
▁प्रसारण	-7728
देशक	-7729
▁कठिना	-7730
▁संपादक	-7731
▁एक्सरसाइज	-7732
▁पदाधिकारी	-7733
▁व्यायाम	-7734
णिज्य	-7735
गठ	-7736
▁कॉफी	-7737
ार्स	-7738
▁सुनते	-7739
गाम	-7740
▁टॉस	-7741
▁साधन	-7742
▁अन्यथा	-7743
▁पासपोर्ट	-7744
▁न्यायमूर्ति	-7745
जीपी	-7746
▁विराज	-7747
▁अधिवक्ता	-7748
▁फलों	-7749
▁रोगों	-7750
ory	-7751
बीन	-7752
▁भला	-7753
▁बोर	-7754
▁खाएं	-7755
▁झटके	-7756
भु	-7757
▁गुणों	-7758
ideo	-7759
▁मछली	-7760
ंठ	-7761
▁छाया	-7762
▁अंदाजा	-7763
▁स्थलों	-7764
▁निर्देशन	-7765
ंडों	-7766
टेल	-7767
वर्ष	-7768
्वार	-7769
▁रंजन	-7770
▁हेल	-7771
▁एकड़	-7772
▁अरोड़ा	-7773
▁इंस	-7774
▁फ्लाइट	-7775
▁बहरहाल	-7776
▁हिंसक	-7777
▁सूर्यकुमार	-7778
▁जलवायु	-7779
▁असिस्टेंट	-7780
▁राजू	-7781
▁विरासत	-7782
▁ग्रा	-7783
▁तिलक	-7784
▁जानकारियां	-7785
ुली	-7786
▁वैल	-7787
▁पंजीकृत	-7788
▁बाप	-7789
▁मारकर	-7790
▁पासवान	-7791
▁पूजन	-7792
▁पुलिसकर्मियों	-7793
▁खैर	-7794
▁संजू	-7795
▁मामूली	-7796
▁इजाफा	-7797
▁मैक्स	-7798
▁सैमसंग	-7799
▁शर्तों	-7800
अन	-7801
▁घातक	-7802
▁निशाने	-7803
पयोग	-7804
▁कष्ट	-7805
▁मुखर्जी	-7806
▁उपयोगकर्ताओं	-7807
राइज	-7808
▁तीव्र	-7809
▁पेस्ट	-7810
90	-7811
AP	-7812
▁प्रदर्शनकारियों	-7813
जना	-7814
▁ट्रां	-7815
▁गोपनीय	-7816
▁रैंकिंग	-7817
▁जिन्	-7818
▁ऑफिसर	-7819
▁भिन्न	-7820
▁रणवीर	-7821
▁मजिस्ट्रेट	-7822
प्रीत	-7823
▁पकड़ने	-7824
▁शिम	-7825
▁कारक	-7826
शास्त्र	-7827
▁57	-7828
▁होश	-7829
▁आगरा	-7830
▁फंसे	-7831
▁बोतल	-7832
कड़	-7833
▁जुटा	-7834
▁मेरठ	-7835
▁आकलन	-7836
▁गर्दन	-7837
▁चिंतित	-7838
▁विद्युत	-7839
ND	-7840
▁जुल	-7841
▁अनंत	-7842
▁एंज	-7843
▁एंटीऑ	-7844
▁जिनसे	-7845
▁जायसवाल	-7846
ज्य	-7847
ग्रहण	-7848
▁यातायात	-7849
भाई	-7850
▁टमाटर	-7851
▁इलेक्ट्रॉनिक	-7852
▁एमपी	-7853
▁2022:	-7854
▁कैलोरी	-7855
▁दुश्मन	-7856
▁फर्म	-7857
▁भेजी	-7858
▁निचले	-7859
▁मुठभेड़	-7860
▁सेवानिव	-7861
काउ	-7862
▁डाइ	-7863
▁हादसा	-7864
ingh	-7865
▁फाइनेंस	-7866
uc	-7867
▁रेस	-7868
▁पांड	-7869
▁ख़त्म	-7870
▁अब्दुल	-7871
▁तरक्की	-7872
▁प्रतिबंधित	-7873
भवी	-7874
ंचल	-7875
▁Love	-7876
▁हड्ड	-7877
▁मूर्	-7878
45	-7879
लांग	-7880
▁बलि	-7881
न्ग	-7882
वर्धन	-7883
▁बादाम	-7884
▁बाज़ार	-7885
ैम	-7886
कांड	-7887
ebsite	-7888
▁दुखी	-7889
▁72	-7890
▁आश्रम	-7891
ओल	-7892
▁बैन	-7893
▁एजेंट	-7894
▁दुरुस्त	-7895
▁गुप्त	-7896
स्टाइल	-7897
लीम	-7898
▁राइड	-7899
ब्बे	-7900
▁एमएस	-7901
▁पोस्टमार्टम	-7902
▁com	-7903
▁कहला	-7904
▁पहलवान	-7905
ायती	-7906
▁प्रभावशाली	-7907
▁बरत	-7908
▁किसे	-7909
▁उपहार	-7910
og	-7911
▁जातक	-7912
▁पूछने	-7913
▁ट्रायल	-7914
▁इन्होंने	-7915
▁आकर्षण	-7916
▁अवगत	-7917
▁Daily	-7918
▁मुस्कुरा	-7919
▁रघु	-7920
शिंगटन	-7921
ॉर्क	-7922
▁लेनी	-7923
▁क्रमश	-7924
▁ज्ञात	-7925
ोरेंस	-7926
▁अफसरों	-7927
न्दर	-7928
▁विवादों	-7929
▁Ac	-7930
ग़	-7931
▁चुनने	-7932
मैट	-7933
▁अपहरण	-7934
▁बिहारी	-7935
▁पंकज	-7936
▁आईएएस	-7937
▁Me	-7938
▁आला	-7939
▁अनुराग	-7940
ill	-7941
▁शर	-7942
▁इंस्पेक्टर	-7943
डिंग	-7944
▁राधा	-7945
▁मौर्य	-7946
▁सप्लाई	-7947
▁फायरिंग	-7948
रित	-7949
▁शिक्षण	-7950
▁बढ़ेगा	-7951
▁ऑयल	-7952
▁डबल	-7953
ध्याय	-7954
रेशन	-7955
▁लाना	-7956
▁कश्मी	-7957
▁सफ़	-7958
▁जाट	-7959
▁ठेके	-7960
▁मेटा	-7961
▁अब्दुल्ला	-7962
▁अतः	-7963
▁फोकस	-7964
▁संस्कृत	-7965
▁कुत्ते	-7966
▁दिवसीय	-7967
▁अल्ट	-7968
▁रोगी	-7969
▁क्रांति	-7970
CC	-7971
▁प्रवाह	-7972
▁हालिया	-7973
▁कोट	-7974
▁प्लेयर	-7975
ase	-7976
▁फ्रेंच	-7977
▁उत्कृष्ट	-7978
कॉ	-7979
▁सबका	-7980
▁शत्रु	-7981
▁पीटीआई	-7982
ुष	-7983
▁ऑडियो	-7984
▁फूड्स	-7985
▁रणबीर	-7986
एमएस	-7987
▁पागल	-7988
तीन	-7989
▁कैच	-7990
▁नितिन	-7991
▁आध्यात्मिक	-7992
▁आर्मी	-7993
▁ऊंचाई	-7994
▁निवेशक	-7995
▁फि	-7996
▁रौ	-7997
▁एडवा	-7998
▁स्नातक	-7999
▁रेज	-8000
▁वेल	-8001
ांजलि	-8002
▁चुनें	-8003
वेज	-8004
शियल	-8005
▁पकड़े	-8006
▁चैनलों	-8007
▁दिखाते	-8008
▁ब्रोकर	-8009
▁डू	-8010
रेटर	-8011
ांतर	-8012
वाहित	-8013
▁गोयल	-8014
▁पठान	-8015
▁बिज़	-8016
▁प्रकरण	-8017
▁मिसाइल	-8018
▁उनपर	-8019
▁फंसा	-8020
70	-8021
विजन	-8022
witter	-8023
▁इर	-8024
able	-8025
▁चरम	-8026
▁मतभ	-8027
▁परिचित	-8028
▁श्रेयस	-8029
▁रोमांटिक	-8030
▁अटक	-8031
▁मेकअप	-8032
ेली	-8033
▁टेक	-8034
▁कट्टर	-8035
▁आईसी	-8036
▁कमान	-8037
▁सत्तारूढ़	-8038
ैग	-8039
▁j	-8040
▁दोग	-8041
▁अक्षर	-8042
▁सब्जियों	-8043
▁ज़िंदगी	-8044
▁वाणिज्य	-8045
▁पर्दे	-8046
▁शौचालय	-8047
▁ईरानी	-8048
▁सेल्फी	-8049
▁एंटर	-8050
▁बगैर	-8051
▁भगत	-8052
▁कमजोरी	-8053
13	-8054
▁उठाकर	-8055
▁नजदीक	-8056
▁आरबीआई	-8057
तुम	-8058
किसी	-8059
लपुर	-8060
▁सीए	-8061
▁सुक	-8062
▁सुब	-8063
▁हार्मोन	-8064
डि	-8065
ेस्ट	-8066
▁पैदल	-8067
▁प्लेटफार्म	-8068
▁गरम	-8069
खण्ड	-8070
पिंग	-8071
ोदिया	-8072
▁निकली	-8073
▁अभ्यर्थी	-8074
▁डायरेक्ट	-8075
आम	-8076
ृत्त	-8077
एसआई	-8078
▁हिंदुत्व	-8079
उड	-8080
ेटर	-8081
शंकर	-8082
▁बाबर	-8083
▁लिहा	-8084
▁शून्य	-8085
ect	-8086
घरों	-8087
▁आंटी	-8088
▁कोने	-8089
काउंटर	-8090
▁स्तरी	-8091
▁याचिकाकर्ता	-8092
शियन	-8093
▁जिम	-8094
▁उठता	-8095
▁श्याम	-8096
▁भास्कर	-8097
ोजक	-8098
▁पौध	-8099
▁ऑलराउंड	-8100
▁कमिश्नर	-8101
▁पहुँचा	-8102
▁सर्दियों	-8103
▁ड्रोन	-8104
▁सिलसिला	-8105
▁धरना	-8106
मुना	-8107
एनयू	-8108
▁पीड़ा	-8109
▁जरूरतों	-8110
▁वाजपेयी	-8111
▁लोकप्रियता	-8112
▁साइंस	-8113
▁ज़िम्मे	-8114
▁योजनाएं	-8115
▁इनको	-8116
▁अदरक	-8117
ल्शियम	-8118
▁मानवीय	-8119
▁कार्यरत	-8120
म्बा	-8121
वंशी	-8122
▁बदलते	-8123
▁दायित्व	-8124
▁बालक	-8125
टकों	-8126
मेरे	-8127
सम्म	-8128
▁बहाने	-8129
▁स्तरीय	-8130
▁पारियों	-8131
▁एसटी	-8132
▁खोजने	-8133
"।	-8134
▁पेंट	-8135
▁रुका	-8136
▁आंखें	-8137
▁किस्त	-8138
▁सौंपी	-8139
ruitment	-8140
▁नतीजों	-8141
▁उपन्यास	-8142
▁स्थिरता	-8143
aw	-8144
जग	-8145
▁श्रीनगर	-8146
▁बताएं	-8147
▁बॉन्ड	-8148
▁दर्जन	-8149
▁प्रका	-8150
▁व्हाइट	-8151
▁प्रयागराज	-8152
▁अशु	-8153
▁रसोई	-8154
लोग	-8155
▁क्रू	-8156
▁रहस्य	-8157
राशि	-8158
▁दुः	-8159
▁खासतौर	-8160
ोंक	-8161
▁हरि	-8162
▁iP	-8163
▁अगला	-8164
▁दृढ़	-8165
▁मधुमेह	-8166
जनों	-8167
▁भोग	-8168
▁एबी	-8169
▁श्रा	-8170
▁सदी	-8171
▁सीतार	-8172
▁चतुर्थ	-8173
णिक	-8174
स्टल	-8175
▁फैमिली	-8176
▁कोतवाली	-8177
AT	-8178
▁एटीएम	-8179
▁श्रमिकों	-8180
शय	-8181
ित्त	-8182
▁मनोहर	-8183
▁मानसून	-8184
▁स्वयंसे	-8185
▁जोड़ों	-8186
▁उपमुख्यमंत्री	-8187
▁मौतें	-8188
रीबन	-8189
▁कोटा	-8190
कांक्षा	-8191
▁मूल्यों	-8192
▁पुत	-8193
▁बड़	-8194
▁बिज़नेस	-8195
▁केयर	-8196
▁रामदेव	-8197
▁लकी	-8198
▁अनुभवी	-8199
▁मनमोहन	-8200
▁ढाई	-8201
▁टाइट	-8202
▁संवेद	-8203
mp	-8204
▁370	-8205
▁जोरदार	-8206
षित	-8207
▁जेपी	-8208
▁रुके	-8209
▁चिराग	-8210
▁फस	-8211
▁बघ	-8212
▁चलो	-8213
▁डेवलप	-8214
▁ड्राइव	-8215
▁समृद्धि	-8216
ेक्स	-8217
▁फ़ै	-8218
▁शौक	-8219
▁सीधी	-8220
हाई	-8221
▁वैवाहिक	-8222
▁ग्ला	-8223
▁पांडेय	-8224
▁कश्मीरी	-8225
▁फर्स्ट	-8226
ube	-8227
▁हानिक	-8228
जवान	-8229
किस्तान	-8230
काय	-8231
▁फैन	-8232
▁नवीनतम	-8233
▁जानवरों	-8234
▁सर्टिफिकेट	-8235
ोंग	-8236
▁तकलीफ	-8237
▁असरदार	-8238
▁ताज	-8239
▁वारदात	-8240
▁पूर्णिमा	-8241
च्छा	-8242
बानी	-8243
▁स्ने	-8244
▁चलाते	-8245
▁भरोसे	-8246
▁लक्षणों	-8247
हेज	-8248
ूर्ण	-8249
▁जना	-8250
▁ईंधन	-8251
▁पुलिसकर्मी	-8252
फ्फर	-8253
मर्श	-8254
▁पोट	-8255
▁इमारत	-8256
▁एजु	-8257
▁छिप	-8258
▁बजर	-8259
▁दरों	-8260
▁कैल्शियम	-8261
िटल्स	-8262
▁अनदे	-8263
▁नामों	-8264
▁मेला	-8265
प्रकाश	-8266
▁एससी	-8267
▁बेटियों	-8268
▁250	-8269
द्दाख	-8270
▁अवॉर्ड	-8271
▁सिसोदिया	-8272
▁मार्गदर्शन	-8273
▁बीपी	-8274
▁रोशन	-8275
▁मानो	-8276
33	-8277
द्धा	-8278
▁सूच	-8279
▁अभिव्यक्ति	-8280
▁दाग	-8281
▁मदर	-8282
ोली	-8283
▁स्वच्छता	-8284
ल्ली	-8285
▁राघ	-8286
▁स्थितियों	-8287
▁नील	-8288
▁शॉप	-8289
▁रांची	-8290
▁हानिकारक	-8291
▁राहु	-8292
▁मानता	-8293
्वयन	-8294
▁परे	-8295
▁शोक	-8296
▁जावेद	-8297
▁दर्शक	-8298
▁सदस्यीय	-8299
ith	-8300
▁कबीर	-8301
▁हौ	-8302
▁वॉल	-8303
▁ध्रु	-8304
▁परिणामस्वरूप	-8305
ट्टे	-8306
arket	-8307
थाम	-8308
िकी	-8309
▁गहरे	-8310
दाद	-8311
्ज़	-8312
▁धूल	-8313
▁अतीत	-8314
▁धारणा	-8315
पेक्ष	-8316
▁अकेला	-8317
AN	-8318
▁रविंद्र	-8319
▁लौटे	-8320
▁निभाने	-8321
▁इन्वेस्ट	-8322
▁देवेंद्र	-8323
▁गज	-8324
▁स्नै	-8325
ib	-8326
वीस	-8327
▁गहन	-8328
▁रूपए	-8329
▁कारगर	-8330
▁विकेटकीपर	-8331
▁चलना	-8332
▁सोल	-8333
▁एम्स	-8334
▁समग्र	-8335
▁पूर्वा	-8336
▁संतुष्ट	-8337
▁निपट	-8338
▁निकाली	-8339
▁भूत	-8340
▁देखेंगे	-8341
▁माध्यमिक	-8342
▁बीस	-8343
▁गुर्	-8344
▁स्टेज	-8345
▁राइ	-8346
▁चौथी	-8347
▁फार	-8348
▁अपनाने	-8349
▁स्पिनर	-8350
▁विराजमान	-8351
ूँगा	-8352
iness	-8353
▁ऐश्व	-8354
क्लेमर	-8355
▁किस्म	-8356
▁आरसीबी	-8357
▁झलक	-8358
िनल	-8359
▁मंदिरों	-8360
पह	-8361
▁एरिया	-8362
▁करवाई	-8363
म्र	-8364
झाने	-8365
▁माला	-8366
तेश	-8367
▁खरीदारी	-8368
▁लाश	-8369
ge	-8370
ight	-8371
मपुर	-8372
ेशनल	-8373
▁ट्रोल	-8374
▁ड्राई	-8375
▁देवता	-8376
▁निजात	-8377
▁कैप्टन	-8378
▁प्रतिद्व	-8379
▁बहू	-8380
▁सिंघ	-8381
चौ	-8382
▁con	-8383
ांतिक	-8384
▁छुट्ट	-8385
▁महानि	-8386
▁पहाड़ी	-8387
▁ऑफिशियल	-8388
▁गि	-8389
▁डिस्क	-8390
▁ज्ञापन	-8391
▁बयानों	-8392
▁बैक्टीरिया	-8393
▁अनाव	-8394
▁hindi	-8395
IM	-8396
▁दया	-8397
▁शेट	-8398
▁बारह	-8399
▁अर्पित	-8400
▁ग्रेजुए	-8401
▁व्हाट्सएप	-8402
नेशन	-8403
▁एकल	-8404
िवेदी	-8405
▁दोगु	-8406
▁इंस्टीट्यूट	-8407
▁अंध	-8408
▁बहाल	-8409
▁दर्शाता	-8410
▁परिणामों	-8411
▁व्यावहार	-8412
▁जादू	-8413
▁पड़ोस	-8414
▁रखेंगे	-8415
▁मित्रों	-8416
▁परिस्थिति	-8417
ैठ	-8418
ट्टा	-8419
▁न्यूय	-8420
▁श्रीराम	-8421
▁वैज्ञानिकों	-8422
शुदा	-8423
▁अंडे	-8424
जियाबाद	-8425
▁निर्देशित	-8426
app	-8427
▁क्रिप्टो	-8428
धाम	-8429
▁85	-8430
▁घो	-8431
क्रोश	-8432
▁एनकाउंटर	-8433
▁धान	-8434
जेक्शन	-8435
▁संयोग	-8436
▁हथियारों	-8437
दूरी	-8438
▁छठे	-8439
▁बॉय	-8440
अंदाज	-8441
▁जवाहर	-8442
▁मांगों	-8443
▁गाड़ियों	-8444
▁ईद	-8445
▁चक	-8446
▁असं	-8447
▁गिनती	-8448
ूरती	-8449
▁लद्दाख	-8450
▁Recruitment	-8451
erv	-8452
्वल	-8453
▁उठे	-8454
वश	-8455
ert	-8456
दरी	-8457
सपैठ	-8458
▁एके	-8459
▁शता	-8460
▁इसपर	-8461
▁And	-8462
IP	-8463
▁क्राइम	-8464
▁बिर	-8465
▁नेहा	-8466
35	-8467
▁नायक	-8468
▁लकड़ी	-8469
▁बढ़ेगी	-8470
▁घटनाक्रम	-8471
▁चलाई	-8472
इं	-8473
▁इको	-8474
▁किल	-8475
▁नकली	-8476
गठबंधन	-8477
▁युवकों	-8478
▁लेगा	-8479
ष्टमी	-8480
▁बाधित	-8481
▁फुटबॉल	-8482
▁असह	-8483
पीएफ	-8484
▁उल्ट	-8485
▁पिटाई	-8486
जेंसी	-8487
▁पाये	-8488
▁परहेज	-8489
▁हकी	-8490
▁प्रकाशन	-8491
▁नवरात्रि	-8492
▁टाल	-8493
▁हानि	-8494
▁दुरुपयोग	-8495
▁बंदर	-8496
▁बुरे	-8497
MP	-8498
▁Up	-8499
▁दलील	-8500
ंकार	-8501
▁क्लीन	-8502
▁रॉयल्स	-8503
▁घड़ी	-8504
IR	-8505
पण	-8506
रह	-8507
▁मथ	-8508
▁कर्तव्य	-8509
▁जबरन	-8510
▁त्रिप	-8511
▁e	-8512
▁मय	-8513
ियंट	-8514
▁पाक	-8515
▁दीर्	-8516
▁शिवा	-8517
▁एक्सेस	-8518
▁प्रदीप	-8519
▁तेज़	-8520
▁टुकड़े	-8521
▁लाभदायक	-8522
▁मांसपेशियों	-8523
ऊँ	-8524
गाव	-8525
ED	-8526
द्री	-8527
र्की	-8528
▁सिरे	-8529
▁अंतरिम	-8530
▁विक्रे	-8531
▁रिलेशन	-8532
▁राजेंद्र	-8533
बाय	-8534
▁रहमान	-8535
▁चन्द्र	-8536
▁रजिस्टर	-8537
▁मानसिकता	-8538
75	-8539
▁आरा	-8540
▁बिलियन	-8541
सिस	-8542
िस्टर	-8543
▁दांव	-8544
▁निवार	-8545
▁लापता	-8546
▁हार्ड	-8547
▁रणनीतिक	-8548
▁विद्व	-8549
▁आक	-8550
▁कूल	-8551
▁सरदार	-8552
▁खट	-8553
▁डिस्ट	-8554
▁दमदार	-8555
दायी	-8556
▁आलोक	-8557
ऊं	-8558
▁मोर	-8559
स्वती	-8560
▁गौरी	-8561
▁डालते	-8562
▁पाएगा	-8563
▁प्रॉप	-8564
▁पीड़ितों	-8565
▁भूषण	-8566
टीसी	-8567
▁कंटेंट	-8568
▁रिश्तेदार	-8569
▁इंद्र	-8570
▁स्वीकृति	-8571
▁पांचवें	-8572
▁लड़कियां	-8573
▁कक्ष	-8574
िद्वार	-8575
▁जनगणना	-8576
▁सपनों	-8577
▁उग्र	-8578
▁मासूम	-8579
▁सहयोगियों	-8580
▁जहाज	-8581
▁फोर्स	-8582
▁सिक्योरिटी	-8583
▁गाल	-8584
▁नसी	-8585
▁निर्दलीय	-8586
▁2005	-8587
▁नज़	-8588
▁मूड	-8589
चित्र	-8590
▁इनसे	-8591
▁पुनः	-8592
▁जानती	-8593
ाइजी	-8594
▁खरीदी	-8595
▁साधना	-8596
▁राजनाथ	-8597
▁गाजियाबाद	-8598
डेन	-8599
▁सदर	-8600
▁वृषभ	-8601
▁सम्प	-8602
▁ढा	-8603
प्रति	-8604
▁उर्दू	-8605
▁किराए	-8606
▁पढ़ते	-8607
▁गेम्स	-8608
▁पहाड़	-8609
सेल	-8610
▁भूकंप	-8611
क्यूमेंट	-8612
डीए	-8613
▁वर्षा	-8614
▁पीट	-8615
फुल	-8616
▁125	-8617
▁बॉल	-8618
▁संभालने	-8619
▁आक्रामक	-8620
▁द्वितीय	-8621
▁कूद	-8622
▁एजें	-8623
▁आंसू	-8624
▁सीजे	-8625
साइकिल	-8626
▁कैपिटल्स	-8627
▁प्राथमिकी	-8628
चू	-8629
▁Whats	-8630
▁हैरानी	-8631
ign	-8632
▁जलन	-8633
▁यूए	-8634
गोल	-8635
लाभ	-8636
▁उज	-8637
usiness	-8638
▁टिकैत	-8639
एनजी	-8640
▁Ass	-8641
▁देओल	-8642
Ah	-8643
ेंशियल	-8644
▁बृज	-8645
▁मसल	-8646
▁घाय	-8647
सप्रीत	-8648
न्द्रीय	-8649
▁नग	-8650
▁कस्ट	-8651
▁टीचर	-8652
▁सोचना	-8653
▁खुफिया	-8654
▁ऑलराउंडर	-8655
▁चश्म	-8656
▁अड्डे	-8657
▁प्रजा	-8658
▁छुपा	-8659
▁बाँ	-8660
▁सतह	-8661
▁कॉले	-8662
▁y	-8663
enc	-8664
लिये	-8665
▁परिजन	-8666
▁शीर्षक	-8667
पत्	-8668
▁घुसपैठ	-8669
▁मजेदार	-8670
▁दोषियों	-8671
शिता	-8672
▁छान	-8673
▁लहसुन	-8674
▁महिंद्रा	-8675
ंगली	-8676
न्ने	-8677
▁अनो	-8678
▁वादे	-8679
▁वीजा	-8680
WE	-8681
▁एशियाई	-8682
▁म्यूजिक	-8683
र्निंग	-8684
▁वेद	-8685
▁अत्याचार	-8686
▁गम	-8687
कास्ट	-8688
▁कामयाबी	-8689
▁घटाने	-8690
▁जमाने	-8691
▁समानता	-8692
फिल	-8693
ौड़	-8694
▁सैफ	-8695
▁भक्तों	-8696
▁शेट्टी	-8697
▁पहुंचकर	-8698
ुलेंस	-8699
▁भड़क	-8700
▁स्थानांतरित	-8701
थन	-8702
धारणा	-8703
▁बोल्ड	-8704
▁समृद्ध	-8705
▁उपभोक्ताओं	-8706
▁सबक	-8707
▁सस्प	-8708
▁कनेक्टिविटी	-8709
छोटे	-8710
▁सेटअप	-8711
▁जसप्रीत	-8712
▁परिवर्त	-8713
▁फूलों	-8714
▁संवाददाता	-8715
▁कस्	-8716
▁कैला	-8717
▁दूंगा	-8718
▁मुजफ्फर	-8719
▁निदेशालय	-8720
▁खड़	-8721
▁नॉन	-8722
▁जेब	-8723
▁करीना	-8724
▁हरिद्वार	-8725
मिन	-8726
फोड़	-8727
ष्ठा	-8728
▁ज़िन्	-8729
▁वसूली	-8730
▁उत्साहित	-8731
▁ट्रैक्टर	-8732
बूझकर	-8733
▁पाकर	-8734
EO	-8735
▁सेव	-8736
▁नाते	-8737
▁सामु	-8738
▁तकरीबन	-8739
चलित	-8740
▁सोनू	-8741
▁श्रद्धांजलि	-8742
▁66	-8743
▁2004	-8744
▁https	-8745
▁भाइयों	-8746
▁केम	-8747
▁2002	-8748
▁प्रतिस्पर्धा	-8749
▁67	-8750
▁नजरअंदाज	-8751
▁चंद्रशेखर	-8752
▁आड	-8753
▁अगुवाई	-8754
▁पश्चात	-8755
▁अजित	-8756
▁शिमला	-8757
▁हटाया	-8758
▁आक्रोश	-8759
▁बेरोजगार	-8760
▁किंतु	-8761
▁स्कैन	-8762
▁गिरी	-8763
▁सुखद	-8764
▁वर्गों	-8765
▁श्रीमती	-8766
बहुत	-8767
▁दुआ	-8768
AR	-8769
ंबा	-8770
▁कालेज	-8771
▁पॉइंट	-8772
मंडल	-8773
्वाल	-8774
▁वीक	-8775
▁गुरू	-8776
▁भेंट	-8777
▁प्रॉपर्टी	-8778
▁99	-8779
पीए	-8780
स्टेट	-8781
▁बैलेंस	-8782
▁केके	-8783
▁सिंचाई	-8784
▁बहि	-8785
▁भीषण	-8786
▁लाठी	-8787
▁मिक्स	-8788
mi	-8789
कौन	-8790
लेश	-8791
▁68	-8792
▁बघेल	-8793
▁आवंटित	-8794
▁घायलों	-8795
▁प्रावधानों	-8796
नव	-8797
▁रम	-8798
tern	-8799
▁बर्तन	-8800
▁पाँच	-8801
▁कामना	-8802
▁रिलीज़	-8803
▁इक्	-8804
▁डेम	-8805
▁इमेज	-8806
▁सतीश	-8807
र्नल	-8808
▁टूर	-8809
▁निया	-8810
▁पेशाब	-8811
▁पॉपुलर	-8812
▁राजमार्ग	-8813
दमी	-8814
सेन	-8815
▁तप	-8816
न्त्र	-8817
▁हेल्प	-8818
▁पहुंचाना	-8819
▁केन्द्रीय	-8820
▁मील	-8821
▁अहसास	-8822
▁वृक्ष	-8823
▁कटा	-8824
▁टार	-8825
▁दंगों	-8826
▁सबकुछ	-8827
▁मुआवजा	-8828
▁सब्सक्र	-8829
▁आलम	-8830
▁पीना	-8831
▁सुहा	-8832
▁सरस्वती	-8833
elhi	-8834
▁खरा	-8835
▁कुमारी	-8836
▁मुकदमे	-8837
▁आरक्षित	-8838
out	-8839
बोर्ड	-8840
▁बंधन	-8841
▁क्रे	-8842
▁सीएस	-8843
▁वास्तु	-8844
▁संशोधित	-8845
▁भंग	-8846
▁ब्राउ	-8847
▁भावुक	-8848
तला	-8849
▁चाली	-8850
▁हेली	-8851
▁ग्राउंड	-8852
▁सम्बंध	-8853
▁..	-8854
स्सी	-8855
▁अग्नि	-8856
लभ	-8857
▁गाली	-8858
▁स्टडी	-8859
▁बताएंगे	-8860
ौत	-8861
ption	-8862
▁अतिक	-8863
▁छेड़छाड़	-8864
एनएस	-8865
भावना	-8866
▁जनजाति	-8867
▁अस्थायी	-8868
जली	-8869
▁उभ	-8870
▁Singh	-8871
▁अरुणा	-8872
▁सावन	-8873
▁आवेदक	-8874
▁उत्तम	-8875
▁वर्णन	-8876
▁दक्षिणी	-8877
▁एल्	-8878
▁ओपनर	-8879
ॉप्टर	-8880
हमने	-8881
्टा	-8882
▁Pol	-8883
▁सूबे	-8884
▁गुन	-8885
▁माफ	-8886
▁प्राइमरी	-8887
▁62	-8888
नीत	-8889
▁128	-8890
▁पका	-8891
▁Bank	-8892
▁निर्देशों	-8893
▁मले	-8894
▁क्यो	-8895
प्लिकेशन	-8896
▁प्रसारित	-8897
ोत्तर	-8898
▁नुस्	-8899
▁लगीं	-8900
▁बगल	-8901
▁सौदा	-8902
▁व्हील	-8903
जेक्ट	-8904
▁हकीकत	-8905
नीर	-8906
▁गली	-8907
वायरस	-8908
कल्पिक	-8909
88	-8910
ोत	-8911
बुक	-8912
▁मारी	-8913
▁ईयर	-8914
▁स्तन	-8915
▁धक्का	-8916
ख्त	-8917
्लाई	-8918
▁गिफ्ट	-8919
▁चिन्ह	-8920
▁वैकल्पिक	-8921
nic	-8922
▁राइट	-8923
▁अभ्यर्थियों	-8924
ऐप	-8925
▁69	-8926
▁आयरन	-8927
▁अवधारणा	-8928
ायें	-8929
▁गर्मियों	-8930
▁सॉल	-8931
▁गृहमंत्री	-8932
हाइड	-8933
ूंगी	-8934
▁जया	-8935
▁दावों	-8936
▁सीरियल	-8937
▁गोलीबारी	-8938
▁तरफ़	-8939
▁गिरोह	-8940
▁आदिवासियों	-8941
▁लघु	-8942
▁रैंक	-8943
णों	-8944
▁बैच	-8945
▁खोले	-8946
▁बारा	-8947
▁iPhone	-8948
▁IPL	-8949
▁बाइन	-8950
▁गुलाम	-8951
▁महंगा	-8952
▁वकीलों	-8953
▁सरकारें	-8954
▁क्वालिटी	-8955
mit	-8956
क्ष्म	-8957
नैतिक	-8958
▁अजीत	-8959
▁रजत	-8960
ोटा	-8961
▁प्रश्	-8962
▁नीलामी	-8963
▁अनियमित	-8964
▁सद्	-8965
▁माफिया	-8966
▁(19	-8967
iss	-8968
▁प्रबंधक	-8969
na	-8970
शैली	-8971
▁धीर	-8972
▁पहलुओं	-8973
▁चक्रवर्ती	-8974
दिव	-8975
▁असा	-8976
▁अनिश्चित	-8977
रेगा	-8978
▁समापन	-8979
▁वस्त्र	-8980
-6	-8981
▁चाइ	-8982
▁अन्न	-8983
▁कैटे	-8984
▁प्रतीत	-8985
▁आंगन	-8986
▁गणित	-8987
▁मस्त	-8988
▁कॉर्प	-8989
▁नृत्य	-8990
▁प्रोत्साहन	-8991
▁विश्वविद्यालयों	-8992
▁यथ	-8993
▁कृत	-8994
▁नागपुर	-8995
▁महागठबंधन	-8996
ual	-8997
▁बकाया	-8998
ens	-8999
नायक	-9000
▁झड़प	-9001
▁अवतार	-9002
▁गर्भाव	-9003
पोषण	-9004
स्करी	-9005
▁प्रथा	-9006
ईई	-9007
▁प्रको	-9008
ोरेशन	-9009
▁बाइनरी	-9010
▁एजुकेशन	-9011
िस्तान	-9012
▁अपराधों	-9013
▁वेरियंट	-9014
▁पृष्ठभूमि	-9015
▁डिल	-9016
▁दिग	-9017
▁केदार	-9018
▁सिंधिया	-9019
AS	-9020
▁Pay	-9021
▁सिराज	-9022
▁अनुशासन	-9023
▁पंप	-9024
▁लौटा	-9025
निर	-9026
▁63	-9027
▁वाकई	-9028
र्जन	-9029
▁सख्ती	-9030
▁रिएक्शन	-9031
▁श्रेष्ठ	-9032
▁खूबसूरती	-9033
शोर	-9034
▁ऊंची	-9035
फेक्शन	-9036
बुल	-9037
▁बढ़ाना	-9038
▁व्यावहारिक	-9039
▁77	-9040
▁गाँधी	-9041
▁किताबें	-9042
▁बूथ	-9043
▁रोमांचक	-9044
▁co	-9045
▁डाक्टर	-9046
▁सुपरस्टार	-9047
▁सिनेमाघरों	-9048
▁गत	-9049
ihar	-9050
▁दुःख	-9051
▁अवसरों	-9052
▁जातियों	-9053
▁घटनास्थल	-9054
ोटी	-9055
चालित	-9056
▁गिलास	-9057
▁जोड़कर	-9058
▁आसार	-9059
▁दिखती	-9060
▁पंजाबी	-9061
ell	-9062
▁राठ	-9063
▁Shar	-9064
हू	-9065
एसी	-9066
▁बनेंगे	-9067
▁आभार	-9068
▁लाइफस्टाइल	-9069
बर्ग	-9070
यर्स	-9071
▁आंव	-9072
▁प्रशंस	-9073
IV	-9074
फॉ	-9075
यिक	-9076
▁डायल	-9077
▁कांस्टेबल	-9078
▁कन्न	-9079
▁चाकू	-9080
▁पीसी	-9081
▁यमुना	-9082
▁हराकर	-9083
▁व्याख्या	-9084
ल्तान	-9085
▁उबाल	-9086
▁डब्ल्यू	-9087
▁टाइगर	-9088
▁अतिक्रमण	-9089
▁रोकथाम	-9090
▁फोटोग्रा	-9091
-10	-9092
श्यप	-9093
राबरी	-9094
▁मोटरसाइकिल	-9095
र्देश	-9096
▁क्रीम	-9097
▁मंजिल	-9098
▁अनुपात	-9099
▁रात्रि	-9100
▁2.5	-9101
▁आसन	-9102
दित्य	-9103
▁कीमतें	-9104
ोजर	-9105
▁फीट	-9106
▁फेर	-9107
ebook	-9108
णीय	-9109
एमआई	-9110
▁पटा	-9111
▁5000	-9112
▁असंत	-9113
▁ऊपरी	-9114
▁ज़िले	-9115
▁कॉलेजों	-9116
▁निकालकर	-9117
▁95	-9118
▁कैफ	-9119
▁फेड	-9120
▁सूख	-9121
▁लिखना	-9122
▁रग	-9123
▁प्रैक्ट	-9124
▁विश्वसनीयता	-9125
सेक्स	-9126
ियर्स	-9127
▁माध्यमों	-9128
▁ड्राइविंग	-9129
▁di	-9130
चुरल	-9131
ोषित	-9132
▁गंग	-9133
▁सक्	-9134
▁त्वर	-9135
ood	-9136
▁अफ़	-9137
▁यार	-9138
▁नमी	-9139
▁वसा	-9140
▁गंदगी	-9141
है	-9142
थित	-9143
▁पेन	-9144
▁साहिब	-9145
▁गर्भावस्था	-9146
26	-9147
ta	-9148
ंगत	-9149
ाइज	-9150
▁अवश	-9151
▁फसलों	-9152
sc	-9153
▁2006	-9154
▁दिखाता	-9155
▁अमल	-9156
▁मथुरा	-9157
▁टारगेट	-9158
ld	-9159
▁सीमाओं	-9160
▁पढ़ना	-9161
▁हलफना	-9162
▁Mar	-9163
▁ईसाई	-9164
▁रेश	-9165
▁खरीदते	-9166
गाई	-9167
बड़ी	-9168
स्पद	-9169
▁उधार	-9170
▁डिमांड	-9171
▁नीम	-9172
▁चलकर	-9173
▁इस्तीफे	-9174
किस	-9175
▁माओ	-9176
▁लड़कों	-9177
▁आपत्तिजनक	-9178
बूत	-9179
▁मानद	-9180
▁तथ्यों	-9181
eal	-9182
▁मधुर	-9183
▁भागने	-9184
▁तुझे	-9185
▁पौधों	-9186
▁फुटेज	-9187
▁इंडेक्स	-9188
ire	-9189
क्रमण	-9190
▁बेकार	-9191
▁सहारे	-9192
▁त्वरित	-9193
▁प्रवर्तन	-9194
▁टच	-9195
▁चहल	-9196
▁गैले	-9197
ani	-9198
जाब	-9199
िकरण	-9200
▁पड़ते	-9201
▁वितरित	-9202
▁अल्ट्रा	-9203
▁पुण्य	-9204
▁न्यूयॉर्क	-9205
ँग	-9206
▁खन	-9207
जहां	-9208
▁साधते	-9209
▁पात्रता	-9210
विटी	-9211
▁लैस	-9212
▁ज़िन्दगी	-9213
▁नास	-9214
ख्यात	-9215
▁निगाह	-9216
ुलिन	-9217
▁जेटली	-9218
▁परवाह	-9219
▁सुशील	-9220
▁धाराओं	-9221
▁निकाले	-9222
▁छात्राओं	-9223
ंडन	-9224
ष्का	-9225
▁गड़बड़ी	-9226
ज़ल	-9227
▁देसी	-9228
▁स्मिथ	-9229
▁क़ानून	-9230
्लील	-9231
▁तलाशी	-9232
▁बढ़ाता	-9233
▁बदमाशों	-9234
▁मैथ	-9235
▁जिनको	-9236
▁Sp	-9237
ांतों	-9238
▁ड्रग्स	-9239
▁मजदूरी	-9240
▁टकराव	-9241
▁वय	-9242
▁छाप	-9243
क्षिक	-9244
▁ऑस्ट्रेलियाई	-9245
शाही	-9246
▁महानिदेशक	-9247
ोत्तम	-9248
▁कॉमेडी	-9249
▁ख़ुशी	-9250
so	-9251
dit	-9252
ल्डर	-9253
▁मीना	-9254
▁सीने	-9255
▁अनुदान	-9256
▁सत्यापन	-9257
▁भरत	-9258
निस्ट	-9259
▁चार्	-9260
▁महत्त्वपूर्ण	-9261
▁6.	-9262
्यार	-9263
▁सुनाया	-9264
ैनी	-9265
▁सशस्त्र	-9266
obile	-9267
▁नौकरियों	-9268
▁ऋतु	-9269
▁टॉर्क	-9270
App	-9271
▁is	-9272
देवी	-9273
▁पीएस	-9274
▁अंकित	-9275
▁तस्करी	-9276
▁राजकीय	-9277
▁जर्	-9278
▁कमलनाथ	-9279
▁प्रेग्न	-9280
▁त्रिपुरा	-9281
▁पान	-9282
▁कारा	-9283
▁सार्थ	-9284
जिकल	-9285
्वती	-9286
▁दीर्घ	-9287
▁नॉर्म	-9288
सरत	-9289
,500	-9290
▁मसले	-9291
▁आयुर्वेदिक	-9292
▁Un	-9293
चढ़ा	-9294
▁सौंद	-9295
▁किसने	-9296
▁रुपया	-9297
▁नौजवान	-9298
▁WWE	-9299
▁गुड	-9300
▁दशा	-9301
▁कड़े	-9302
▁बाथर	-9303
▁अख्तर	-9304
▁अंग्रेजों	-9305
राइ	-9306
्हन	-9307
▁Fac	-9308
▁ग्रोथ	-9309
▁उठने	-9310
▁दवाई	-9311
▁आवंटन	-9312
▁शेड्यूल	-9313
jana	-9314
ष्मान	-9315
▁बीवी	-9316
▁विदेशों	-9317
.''	-9318
▁तालाब	-9319
▁श्रद्धालुओं	-9320
ल्हा	-9321
▁किट	-9322
▁भंडार	-9323
▁मौलिक	-9324
▁अर्जित	-9325
▁पाटिल	-9326
िंगर	-9327
▁रोचक	-9328
▁सेलि	-9329
▁जुड़ने	-9330
▁मिलाएं	-9331
▁बर्दाश्त	-9332
sh	-9333
▁(5	-9334
▁उठी	-9335
▁स्टील	-9336
:00	-9337
ल्फ	-9338
▁सिंगर	-9339
▁बिल्डिंग	-9340
▁Ar	-9341
ence	-9342
▁लेफ्ट	-9343
▁Pr	-9344
णवीस	-9345
्वित	-9346
▁स्वाम	-9347
▁अवार्ड	-9348
▁हत्याकांड	-9349
,'	-9350
▁नदियों	-9351
▁उपलब्धता	-9352
▁दिश	-9353
▁सास	-9354
▁कंधे	-9355
▁ईवीएम	-9356
▁कोयला	-9357
dian	-9358
▁सबकी	-9359
▁रेस्ट	-9360
▁आज़ादी	-9361
▁राजनैतिक	-9362
▁दोनो	-9363
▁कश्यप	-9364
▁धमाके	-9365
▁टेलीविजन	-9366
र्वे	-9367
▁Sam	-9368
▁दीं	-9369
▁रावण	-9370
▁सीआरपी	-9371
एगी	-9372
▁जूते	-9373
कला	-9374
▁ग्रंथ	-9375
▁पार्षद	-9376
मय	-9377
▁सीजेआई	-9378
ock	-9379
▁हिमाल	-9380
▁चर्चित	-9381
!"	-9382
लॉ	-9383
▁शत	-9384
▁निश्च	-9385
▁ऐश्वर्या	-9386
▁वर्जन	-9387
▁पंड्या	-9388
▁उछाल	-9389
▁बृहस्पतिवार	-9390
▁अप्लाई	-9391
▁मार्क्स	-9392
्वत	-9393
स्टिव	-9394
▁कांड	-9395
▁ग्लै	-9396
▁पद्ध	-9397
▁मुसी	-9398
▁दिलाई	-9399
▁बढ़ाते	-9400
▁हमलावर	-9401
ंपल	-9402
▁रसाय	-9403
्हा	-9404
▁चौथा	-9405
▁उक	-9406
▁Jio	-9407
▁पाइप	-9408
▁पीक	-9409
▁मांस	-9410
▁पाठकों	-9411
▁दुष्कर्म	-9412
▁गला	-9413
▁कुकी	-9414
▁सूखे	-9415
▁कैलाश	-9416
▁बजरंग	-9417
▁भागवत	-9418
▁झुक	-9419
▁महल	-9420
▁जदयू	-9421
▁लाकर	-9422
IT	-9423
रेख	-9424
िणी	-9425
▁फेफ	-9426
▁झुका	-9427
▁AM	-9428
▁पीरिय	-9429
▁सस्ते	-9430
▁चुप्पी	-9431
ph	-9432
▁सेब	-9433
विचार	-9434
▁मौतों	-9435
▁बराबरी	-9436
▁आरजेडी	-9437
▁प्राइस	-9438
▁मोटापा	-9439
▁आब	-9440
▁मरम्मत	-9441
▁तैयारियों	-9442
एचडी	-9443
▁मैक	-9444
▁एक्सपर्ट्स	-9445
माया	-9446
▁संप्र	-9447
श्योरेंस	-9448
▁प्रदेशों	-9449
▁व्यापारिक	-9450
▁निर्माताओं	-9451
▁मैग्	-9452
▁महंगे	-9453
▁अश्लील	-9454
▁बाथरूम	-9455
▁अधिग्रहण	-9456
मंड	-9457
हमारे	-9458
निर्भर	-9459
▁प्रतिबद्धता	-9460
▁टीके	-9461
▁विनय	-9462
▁एलो	-9463
▁तेरा	-9464
▁जौहर	-9465
▁बेशक	-9466
▁मतभेद	-9467
▁फिल्मी	-9468
▁यशस्वी	-9469
▁प्रमाणित	-9470
मंत्र	-9471
▁आश्व	-9472
▁जनहित	-9473
▁सस्ती	-9474
▁एसडीएम	-9475
▁सूक्ष्म	-9476
▁इमो	-9477
▁चयनित	-9478
27	-9479
धीर	-9480
▁प्रोफाइल	-9481
▁78	-9482
▁टकरा	-9483
▁बर्थ	-9484
▁बसों	-9485
▁वाणी	-9486
ैव	-9487
org	-9488
▁कपल	-9489
▁लाह	-9490
▁द्वि	-9491
▁साहू	-9492
▁ससुराल	-9493
▁गैलेक्सी	-9494
ational	-9495
रिफ	-9496
▁हड्डियों	-9497
▁प्रोडक्शन	-9498
▁आवश्यकताओं	-9499
निस	-9500
▁स्क्	-9501
▁us	-9502
सागर	-9503
▁उलट	-9504
वाड़ी	-9505
क्षीय	-9506
▁बॉम्बे	-9507
चालन	-9508
▁मूला	-9509
▁अन्ना	-9510
▁शाहिद	-9511
▁सस्ता	-9512
▁धनराशि	-9513
▁फिन	-9514
▁चिह्न	-9515
▁सबमिट	-9516
pur	-9517
▁टूल	-9518
▁आइये	-9519
ुद्दीन	-9520
▁आईफोन	-9521
▁एडमिशन	-9522
▁शताब्दी	-9523
शीलता	-9524
▁पिला	-9525
▁बुलंद	-9526
▁कॉम्	-9527
▁ब्लॉ	-9528
▁संभल	-9529
▁ka	-9530
▁आएं	-9531
▁झूठे	-9532
▁बहनों	-9533
▁प्रतीक्षा	-9534
ft	-9535
mAh	-9536
परा	-9537
हमें	-9538
्रेसी	-9539
▁लम्बे	-9540
▁प्रामा	-9541
शिव	-9542
▁जजों	-9543
▁बायो	-9544
विकेट	-9545
▁जनसभा	-9546
▁बढ़ना	-9547
▁सैमसन	-9548
िकासी	-9549
▁खाया	-9550
▁दिना	-9551
▁सिंद	-9552
▁उन्नत	-9553
▁कूट	-9554
▁शाही	-9555
▁जताते	-9556
▁फ्रेंड	-9557
▁किलोग्राम	-9558
▁इसलिये	-9559
▁शैक्षिक	-9560
कपा	-9561
▁लक्ष्यों	-9562
▁मैट	-9563
▁रिम	-9564
जिस्ट	-9565
▁दिलाया	-9566
▁रिचार्ज	-9567
29	-9568
▁पार्किंग	-9569
▁74	-9570
आधार	-9571
बॉक्स	-9572
▁प्रांत	-9573
लाइका	-9574
▁पद्म	-9575
▁जानवर	-9576
▁ईमानदार	-9577
सें	-9578
▁प्रवी	-9579
▁निर्मला	-9580
▁उपाध्याय	-9581
▁जेडीयू	-9582
▁मोटी	-9583
▁युति	-9584
▁आयुष्मान	-9585
ific	-9586
▁नंद	-9587
▁केशव	-9588
▁उतरने	-9589
▁उत्ते	-9590
▁टैबलेट	-9591
▁सियासत	-9592
▁स्पेसिफिकेशन	-9593
▁फू	-9594
▁अपनाया	-9595
▁खानपान	-9596
▁विविधता	-9597
▁डॉक्यूमेंट	-9598
▁डॉट	-9599
ंगुली	-9600
▁टोल	-9601
▁वां	-9602
ांकित	-9603
▁किराया	-9604
टकी	-9605
ेशनों	-9606
▁घंटा	-9607
लेटर	-9608
कानूनी	-9609
▁कम्पनी	-9610
वण	-9611
▁राश	-9612
▁दीपा	-9613
▁खेतों	-9614
oard	-9615
▁सील	-9616
▁बेबी	-9617
ूफ	-9618
▁मलाइका	-9619
▁मृतकों	-9620
▁कोशिकाओं	-9621
▁दिलचस्पी	-9622
▁प्रतिनिधियों	-9623
▁CO	-9624
इयां	-9625
▁बादशाह	-9626
▁एंब	-9627
पीठ	-9628
▁उपज	-9629
रोक्त	-9630
▁बेसिक	-9631
घाट	-9632
▁फड	-9633
गेटिव	-9634
▁राउत	-9635
▁गडकरी	-9636
▁स्त्र	-9637
▁आचार	-9638
बाग	-9639
▁उंगली	-9640
▁तोड़ा	-9641
▁फ्लिप	-9642
िएटर	-9643
▁टैंक	-9644
▁सौंदर्य	-9645
▁सूचीबद्ध	-9646
▁2025:	-9647
▁जानकर	-9648
▁अशुभ	-9649
▁देशभ	-9650
▁न्यायपालिका	-9651
▁शरीफ	-9652
▁Video	-9653
▁जातीय	-9654
▁मस्ती	-9655
प्ला	-9656
▁जुटे	-9657
▁बिताने	-9658
▁गोलियां	-9659
▁76	-9660
▁मसू	-9661
सनी	-9662
▁थर	-9663
▁बैंड	-9664
▁बरसात	-9665
▁सौभाग्य	-9666
▁वचन	-9667
▁चर्च	-9668
▁जन्मे	-9669
▁उदार	-9670
▁अस्वी	-9671
▁शिर	-9672
▁ग्वाल	-9673
▁सातवें	-9674
▁Blog	-9675
▁गरिमा	-9676
▁सामुदायिक	-9677
▁जर्नल	-9678
1,	-9679
ौदा	-9680
▁भटक	-9681
▁दिशानि	-9682
▁शिकायतें	-9683
दनी	-9684
ुद्ध	-9685
▁तोह	-9686
▁नाज	-9687
▁मुर्	-9688
▁खांसी	-9689
▁प्रतिद्वंद	-9690
्ति	-9691
▁डां	-9692
▁पदो	-9693
▁बवाल	-9694
▁जितेंद्र	-9695
▁शार	-9696
▁बनार	-9697
▁सनातन	-9698
बिया	-9699
▁ताना	-9700
्टे	-9701
▁किले	-9702
▁प्रश्नों	-9703
▁ललित	-9704
वारे	-9705
▁पैरा	-9706
▁मल्ल	-9707
कांक	-9708
oin	-9709
▁मिठाई	-9710
ork	-9711
▁फरी	-9712
▁फाल	-9713
पोरेट	-9714
्वाइंट	-9715
▁दीक्षित	-9716
▁उकसा	-9717
▁निकासी	-9718
▁शांतिपूर्ण	-9719
▁लॉस	-9720
▁अकादमी	-9721
▁मौलाना	-9722
▁गांगुली	-9723
SP	-9724
िडेंट	-9725
▁कागज	-9726
▁रंगों	-9727
▁निकलते	-9728
▁ब्रांच	-9729
▁लक्ष्मण	-9730
▁निवासियों	-9731
▁दिशानिर्देश	-9732
isc	-9733
ब्रे	-9734
▁बूब	-9735
▁युवराज	-9736
▁स्वचालित	-9737
▁यूजी	-9738
▁उसमे	-9739
▁दलाल	-9740
▁राशिद	-9741
रियल	-9742
▁प्रास	-9743
विड़	-9744
▁इरादा	-9745
▁आईपीएस	-9746
▁लोकल	-9747
▁पर्वत	-9748
▁शिकायतों	-9749
▁इंश्योरेंस	-9750
▁आर्यन	-9751
▁दिखते	-9752
विज्ञान	-9753
▁मोती	-9754
▁समझाने	-9755
▁पार्वती	-9756
▁दस्तावेज़	-9757
इसके	-9758
▁एआई	-9759
▁सिग	-9760
▁जोकि	-9761
▁शिल्	-9762
▁बदलना	-9763
▁बहिष्कार	-9764
▁शशि	-9765
▁एमबी	-9766
▁एप्लिकेशन	-9767
▁सम्पूर्ण	-9768
▁Raj	-9769
▁नकद	-9770
▁चेतना	-9771
▁सुन्दर	-9772
▁संवेदना	-9773
▁स्वादिष्ट	-9774
▁क्रिप्टोकर	-9775
हद	-9776
फरी	-9777
▁नींव	-9778
▁तुर्की	-9779
▁लिहाजा	-9780
▁परिभाषा	-9781
37	-9782
low	-9783
▁असुर	-9784
▁उन्हे	-9785
▁ad	-9786
▁एडी	-9787
▁तड़	-9788
▁इंतज़ार	-9789
▁चौंकाने	-9790
▁84	-9791
दर्द	-9792
▁कम्	-9793
▁बाएं	-9794
▁स्लॉट	-9795
▁मृ	-9796
▁वंश	-9797
▁कॉमन	-9798
▁इंसुलिन	-9799
▁प्रताड़	-9800
▁सूचकांक	-9801
▁वाशिंगटन	-9802
▁अख़	-9803
कार्ट	-9804
▁अवकाश	-9805
▁चाहेंगे	-9806
▁कहानियों	-9807
▁हफ्त	-9808
▁प्रबल	-9809
▁बुलेट	-9810
एचओ	-9811
▁नकदी	-9812
▁प्रय	-9813
नाइटेड	-9814
▁माननीय	-9815
▁एचडी	-9816
▁घोटाला	-9817
▁गियर	-9818
▁जं	-9819
▁पुरी	-9820
कुम	-9821
▁जुटी	-9822
▁असमर्थ	-9823
▁समीकरण	-9824
▁गुम	-9825
▁हंसी	-9826
▁जनरेट	-9827
▁समुद्री	-9828
eg	-9829
▁बहुजन	-9830
▁अस्थिर	-9831
▁आइडिया	-9832
▁स्टूडेंट	-9833
नामा	-9834
earch	-9835
▁निवारण	-9836
▁सेल्सियस	-9837
सरे	-9838
ंत्रण	-9839
▁तैनाती	-9840
!!	-9841
प्न	-9842
▁देह	-9843
▁पिन	-9844
▁नारी	-9845
▁गवर्नर	-9846
▁बाघ	-9847
▁राग	-9848
▁बेचा	-9849
▁2003	-9850
▁Prad	-9851
▁Read	-9852
▁इटली	-9853
▁तलवार	-9854
राइजर्स	-9855
▁उत्सुक	-9856
▁ग्लैमर	-9857
▁दांतों	-9858
▁जगा	-9859
ali	-9860
▁पूछते	-9861
िं	-9862
ौरी	-9863
▁उलझ	-9864
▁मशी	-9865
स्मिक	-9866
▁मोर्चे	-9867
▁समन्वय	-9868
उन्होंने	-9869
▁क्रोध	-9870
OS	-9871
ान्य	-9872
▁हरीश	-9873
▁हफ्तों	-9874
▁गोस्वामी	-9875
▁पदाधिकारियों	-9876
▁बस्ती	-9877
पाकिस्तान	-9878
बोट	-9879
▁(4	-9880
▁अमन	-9881
▁बनवा	-9882
▁सौरभ	-9883
▁एएन	-9884
▁मसा	-9885
▁बजाज	-9886
▁जमीनी	-9887
▁पिछड़ा	-9888
▁आभा	-9889
▁पलायन	-9890
पार	-9891
सिल	-9892
्रय	-9893
▁लीला	-9894
▁दबाने	-9895
▁पदोन्न	-9896
6,	-9897
पाही	-9898
राष्ट्रपति	-9899
घात	-9900
▁क्रूर	-9901
▁पट्टी	-9902
▁कंटेस्ट	-9903
▁प्रोटोक	-9904
▁प्रतिक्रियाएं	-9905
छित	-9906
▁जहर	-9907
▁कैटेगरी	-9908
▁पहुंचाई	-9909
▁भविष्यवाणी	-9910
खू	-9911
▁Day	-9912
▁एनटी	-9913
▁डेमोक	-9914
▁एयरटेल	-9915
▁पड़ताल	-9916
▁रहेंगी	-9917
▁सब्जियां	-9918
लीन	-9919
▁उदा	-9920
द्वाज	-9921
▁सोनम	-9922
▁नॉर्मल	-9923
▁रिकार्ड	-9924
ini	-9925
▁ईस्ट	-9926
▁दांत	-9927
▁संयोजक	-9928
▁जानबूझकर	-9929
▁मसाला	-9930
▁हिन्दु	-9931
▁उपरोक्त	-9932
▁हाश	-9933
▁साधु	-9934
▁खिड़की	-9935
राइड	-9936
लाने	-9937
▁सैय	-9938
▁महंगी	-9939
▁ऐप्स	-9940
▁स्वामित्व	-9941
.50	-9942
▁लड़े	-9943
▁अन्या	-9944
▁सर्वि	-9945
स्क्रीन	-9946
तिया	-9947
▁शुभार	-9948
▁मूलांक	-9949
▁रिपब्लिक	-9950
▁आरटीआई	-9951
▁चिद	-9952
▁सीखा	-9953
▁क्रॉस	-9954
▁तूफान	-9955
▁संन्यास	-9956
PS	-9957
▁2'	-9958
▁मसी	-9959
▁आयुष	-9960
▁इशान	-9961
▁नमाज	-9962
oy	-9963
▁फेस्टिव	-9964
चारा	-9965
▁बाज	-9966
▁उतरी	-9967
).	-9968
खड़	-9969
मोह	-9970
▁टु	-9971
▁उमेश	-9972
▁रिश्तेदारों	-9973
क्य	-9974
र्पण	-9975
▁मेयर	-9976
▁प्रिया	-9977
▁गणतंत्र	-9978
▁वायुसेना	-9979
▁अमाव	-9980
▁जागरण	-9981
▁सच्चे	-9982
लीट	-9983
हेल	-9984
▁आगमन	-9985
▁खनिज	-9986
▁देवगन	-9987
▁एसबीआई	-9988
▁किताबों	-9989
▁राघव	-9990
▁सिले	-9991
▁स्टेटस	-9992
ार्जुन	-9993
▁ग्रेड	-9994
▁वैल्यू	-9995
▁इज़	-9996
▁तहरी	-9997
▁रजनी	-9998
▁बूब्स	-9999
▁रिश्वत	-10000
▁सान	-10001
▁लीडर	-10002
▁नड्डा	-10003
▁इम्यून	-10004
▁पहुंचते	-10005
34	-10006
▁तब्दी	-10007
▁फैक्ट्री	-10008
▁सनराइजर्स	-10009
▁वास्तविकता	-10010
सेफ	-10011
abha	-10012
▁मैनु	-10013
▁छोड़ना	-10014
▁फडणवीस	-10015
देशी	-10016
▁गाव	-10017
▁चुक	-10018
▁पों	-10019
▁ग्राफ	-10020
▁उद्योगों	-10021
▁एकनाथ	-10022
▁अर्चना	-10023
▁कपड़ा	-10024
▁सिग्न	-10025
ौलत	-10026
धर्म	-10027
▁मस्क	-10028
▁प्रवीण	-10029
▁सफलतापूर्वक	-10030
eo	-10031
डन	-10032
cess	-10033
▁कांट	-10034
बिलिटी	-10035
▁यी	-10036
▁एनजी	-10037
▁दिग्व	-10038
▁बदनाम	-10039
▁दुर्लभ	-10040
",	-10041
ele	-10042
▁The	-10043
▁आचरण	-10044
▁एसएसपी	-10045
▁ओपनिंग	-10046
ond	-10047
पादन	-10048
▁बताओ	-10049
▁कॉलोनी	-10050
नान	-10051
▁घटकर	-10052
▁कराते	-10053
▁मानकों	-10054
▁मालिकों	-10055
▁सीतारमण	-10056
▁स्टेशनों	-10057
ूथ	-10058
▁थक	-10059
▁दिखी	-10060
▁बारीक	-10061
▁सिपाही	-10062
its	-10063
क्री	-10064
▁अपार	-10065
▁मीरा	-10066
िन्द	-10067
▁बची	-10068
▁उठकर	-10069
▁कमाए	-10070
▁मालिश	-10071
▁मानवता	-10072
फेल	-10073
orld	-10074
▁अभय	-10075
नेश्वर	-10076
▁विलियम	-10077
▁अरुणाचल	-10078
फु	-10079
exam	-10080
▁सरा	-10081
▁सुग	-10082
व्यापी	-10083
▁ऑपरेट	-10084
▁टूटने	-10085
▁द्रविड़	-10086
38	-10087
roid	-10088
▁भजन	-10089
▁दिखाए	-10090
▁फ्लोर	-10091
▁बोलना	-10092
▁जल्दबाजी	-10093
उल	-10094
ंकि	-10095
▁बदन	-10096
▁रुझ	-10097
ग्रेड	-10098
्यूम	-10099
▁निर्धारण	-10100
▁नगरी	-10101
▁बजाए	-10102
▁खड़गे	-10103
▁सिंगा	-10104
▁जेएनयू	-10105
▁स्वर्ग	-10106
AM	-10107
▁घृ	-10108
▁कीं	-10109
▁गिरफ़	-10110
▁कार्बन	-10111
▁फैटी	-10112
▁चिट्ठी	-10113
▁विनम्र	-10114
:5	-10115
डोर	-10116
नीतिक	-10117
▁धातु	-10118
▁गुनगु	-10119
▁निरस्त	-10120
▁विंडो	-10121
▁पिछड़े	-10122
ल्लू	-10123
तावास	-10124
▁जहरी	-10125
कांग्रेस	-10126
▁मोहब्बत	-10127
▁भारद्वाज	-10128
put	-10129
▁पालिका	-10130
▁सुल्तान	-10131
▁ग्वालियर	-10132
आरएस	-10133
चूड़	-10134
▁खासा	-10135
▁कास्ट	-10136
▁प्रशंसकों	-10137
महा	-10138
ॉरिटी	-10139
▁अलगाव	-10140
▁इनाम	-10141
▁कुलपति	-10142
सिम	-10143
तिथि	-10144
सीडी	-10145
▁पीयू	-10146
यात्रा	-10147
▁अंततः	-10148
▁देखती	-10149
▁हेमंत	-10150
▁ड्रिंक	-10151
▁शिवलिंग	-10152
िजय	-10153
▁भती	-10154
▁इमरजेंसी	-10155
▁वीरेंद्र	-10156
▁जीभ	-10157
▁अमान	-10158
▁भिगो	-10159
▁डिबेट	-10160
फ्लिक्स	-10161
▁तरल	-10162
▁मर्	-10163
▁सौदे	-10164
▁उल्टा	-10165
▁राजभर	-10166
▁विश्लेष	-10167
एड	-10168
बास	-10169
▁तले	-10170
▁कार्यस्थल	-10171
ime	-10172
▁Sc	-10173
▁सिंदूर	-10174
ांतरण	-10175
▁चंदन	-10176
▁हाईवे	-10177
ुरू	-10178
▁भड़का	-10179
▁आकस्मिक	-10180
▁दंप	-10181
▁मोटे	-10182
▁up	-10183
▁रेग	-10184
▁फॉर्मेट	-10185
▁स्टार्स	-10186
शंस	-10187
तोड़	-10188
त्तों	-10189
▁वाटर	-10190
र्मेंस	-10191
ल्थ	-10192
प्लो	-10193
▁Mot	-10194
▁दादी	-10195
▁प्रमोद	-10196
▁चैलेंजर्स	-10197
▁पूर्वोत्तर	-10198
रेपी	-10199
▁इंकार	-10200
▁खरीदे	-10201
▁रोकना	-10202
▁पर्यटकों	-10203
ॉइड	-10204
▁गुज	-10205
▁Online	-10206
▁आडवाणी	-10207
दोष	-10208
▁समझाया	-10209
▁सैनी	-10210
▁ख़राब	-10211
कार्ड	-10212
▁दक्ष	-10213
▁बचाया	-10214
▁साक्षी	-10215
▁सार्थक	-10216
▁पर्दा	-10217
▁गों	-10218
विकेटकीपर	-10219
▁अमावस्या	-10220
प्रो	-10221
▁दूतावास	-10222
36	-10223
ईटी	-10224
सोस	-10225
▁उबर	-10226
▁Inst	-10227
ढ़ियों	-10228
▁निभाया	-10229
▁बरस	-10230
▁राशियां	-10231
वेरा	-10232
▁One	-10233
▁खाई	-10234
िनेशन	-10235
▁ठिका	-10236
▁रोने	-10237
▁असंभव	-10238
▁आक्रमण	-10239
▁कहेंगे	-10240
ie	-10241
ंडर	-10242
िंटन	-10243
▁एपी	-10244
▁लाज	-10245
▁अहंकार	-10246
जील	-10247
मुच	-10248
▁अंतराल	-10249
▁नजदीकी	-10250
▁खुशियां	-10251
▁मुस्कान	-10252
विन	-10253
स्ला	-10254
▁लांच	-10255
▁सकेगी	-10256
▁Yojana	-10257
▁आईआईटी	-10258
▁महानगर	-10259
▁स्वीकृत	-10260
ाव	-10261
ड्डू	-10262
▁स्कूली	-10263
▁सुधारने	-10264
old	-10265
▁पड	-10266
▁पूर्ति	-10267
▁आत्मनिर्भर	-10268
हिया	-10269
▁आख़	-10270
खास्त	-10271
भाषित	-10272
▁एनएम	-10273
▁किचन	-10274
▁आँखें	-10275
▁सच्चा	-10276
▁स्मार	-10277
▁महोत्सव	-10278
मिया	-10279
▁दखल	-10280
▁मराठी	-10281
▁प्रत्याशियों	-10282
▁छठ	-10283
बेस	-10284
ंबरम	-10285
▁डिटे	-10286
▁दुल्हन	-10287
eng	-10288
▁झील	-10289
तिर	-10290
▁नैनी	-10291
ung	-10292
यानक	-10293
्यां	-10294
ंताओं	-10295
▁ग्री	-10296
▁94	-10297
▁blog	-10298
▁पद्धति	-10299
परि	-10300
▁ध्वनि	-10301
▁सरसों	-10302
▁बैनर	-10303
▁मसाले	-10304
▁प्रोड्यू	-10305
▁अन्याय	-10306
▁वर्चुअल	-10307
lick	-10308
▁कमरा	-10309
▁शोरूम	-10310
▁सर्वर	-10311
ज़े	-10312
▁दिग्विजय	-10313
-8	-10314
▁हता	-10315
चढ़ाव	-10316
▁सोया	-10317
पतियों	-10318
▁इरादे	-10319
▁संयंत्र	-10320
DA	-10321
▁परत	-10322
▁बिगा	-10323
▁एलईडी	-10324
▁जॉर्ज	-10325
▁अनावश्यक	-10326
▁चंद्रचूड़	-10327
आन	-10328
▁दुर्ग	-10329
▁शादीशुदा	-10330
▁सिंगापुर	-10331
2,	-10332
यदि	-10333
्ढा	-10334
▁सीओ	-10335
स्थापित	-10336
▁उपर	-10337
▁सृजन	-10338
▁प्रोटोकॉल	-10339
-7	-10340
CB	-10341
▁डै	-10342
▁दूँ	-10343
▁नस्	-10344
▁दुकानें	-10345
▁61	-10346
प्रद	-10347
▁हाथी	-10348
▁हेमा	-10349
▁इंग्लिश	-10350
▁बदलकर	-10351
▁बिश्न	-10352
▁नेटफ्लिक्स	-10353
2)	-10354
www	-10355
▁उदयपुर	-10356
▁गोपनीयता	-10357
▁परेशानियां	-10358
rat	-10359
▁मूंग	-10360
▁तैयारियां	-10361
▁नल	-10362
▁डिपार्टमेंट	-10363
-15	-10364
धना	-10365
स्पर	-10366
▁कोष	-10367
▁अकबर	-10368
emb	-10369
शित	-10370
ency	-10371
▁Off	-10372
▁ठहर	-10373
▁केले	-10374
▁माँग	-10375
▁द्वीप	-10376
▁आरोपित	-10377
▁तब्दील	-10378
▁अनुष्का	-10379
मेरी	-10380
▁1990	-10381
▁त्यौ	-10382
▁झगड़ा	-10383
TC	-10384
ंधर	-10385
▁जोध	-10386
▁प्रोफेशनल	-10387
ंजलि	-10388
ाहिर	-10389
चर्या	-10390
▁उर्व	-10391
▁नरेश	-10392
▁दिखाना	-10393
28	-10394
man	-10395
▁लेगी	-10396
▁रोमांस	-10397
ical	-10398
कथित	-10399
▁नमू	-10400
▁बरी	-10401
दृश्य	-10402
रेस्ट	-10403
साइटी	-10404
▁Exam	-10405
▁कंडी	-10406
ेंटी	-10407
▁द्विप	-10408
▁एलर्जी	-10409
यरी	-10410
▁आहत	-10411
▁भयानक	-10412
▁यंत्र	-10413
▁नेचुरल	-10414
ck	-10415
▁71	-10416
▁TV	-10417
िप्शन	-10418
▁जगदी	-10419
▁पचास	-10420
▁अल्पसंख्यकों	-10421
.20	-10422
▁बक	-10423
▁करेंसी	-10424
▁राजनेता	-10425
राई	-10426
▁तौ	-10427
▁नायडू	-10428
▁For	-10429
▁कहानियां	-10430
पुरम	-10431
ारायण	-10432
▁ईएमआई	-10433
▁सचमुच	-10434
▁सम्बंधित	-10435
पाली	-10436
▁खपत	-10437
▁मल्ह	-10438
▁डालना	-10439
▁बिश्नोई	-10440
▁रिलेशनशिप	-10441
▁स्पेन	-10442
▁करवाना	-10443
लै	-10444
▁दीन	-10445
▁शायरी	-10446
▁सोचता	-10447
▁त्यागी	-10448
िवेश	-10449
▁रोह	-10450
क्टर्स	-10451
▁फैलने	-10452
▁गोविंद	-10453
▁ध्वस्त	-10454
▁जनसत्ता	-10455
iew	-10456
▁भया	-10457
▁बाध्य	-10458
▁10,000	-10459
▁स्वयंसेवक	-10460
de	-10461
▁तुमसे	-10462
▁दस्तक	-10463
▁आओ	-10464
▁घन	-10465
▁Not	-10466
▁भुव	-10467
▁डेली	-10468
▁सोसाइटी	-10469
वैज्ञानिक	-10470
31	-10471
▁शाल	-10472
▁छाती	-10473
▁नौसेना	-10474
▁110	-10475
▁2024:	-10476
▁स्पॉट	-10477
▁डीजीपी	-10478
दक	-10479
▁कर्मी	-10480
▁जोधपुर	-10481
▁सिद्दी	-10482
▁एंटीऑक्सीडेंट	-10483
▁फीड	-10484
▁घुटने	-10485
▁मुसीबत	-10486
▁लता	-10487
▁टिका	-10488
▁फ्यू	-10489
▁हुड्डा	-10490
फॉर्मेंस	-10491
▁चिदंबरम	-10492
▁सेवानिवृत्त	-10493
IS	-10494
ाराम	-10495
▁चलें	-10496
▁सैंप	-10497
▁खुलने	-10498
पीजी	-10499
▁मूव	-10500
▁चैंपियंस	-10501
▁पारदर्शिता	-10502
▁क्रिप्टोकरेंसी	-10503
यास	-10504
▁05	-10505
▁क्री	-10506
▁भरना	-10507
▁हिन्द	-10508
खाव	-10509
▁कड़	-10510
▁सूट	-10511
▁हनी	-10512
▁क्रिस्ट	-10513
▁शक्तियों	-10514
▁डोज	-10515
▁क्ले	-10516
रोन	-10517
ल्चर	-10518
▁Air	-10519
▁आति	-10520
▁थीम	-10521
▁समित	-10522
twitter	-10523
▁व्यवस्थित	-10524
देही	-10525
नामी	-10526
्मिक	-10527
▁अंगू	-10528
▁मंशा	-10529
▁पुष्प	-10530
प्लस	-10531
▁बसा	-10532
▁रहो	-10533
▁मुक़	-10534
▁रिहाई	-10535
▁रामपुर	-10536
▁सीरिया	-10537
▁उपायुक्त	-10538
NG	-10539
मू	-10540
IVE	-10541
सिन	-10542
वाइड	-10543
▁हाफ	-10544
स्तरीय	-10545
▁लगेगी	-10546
निर्देश	-10547
▁मैनुअल	-10548
▁पार्टियां	-10549
शर	-10550
ीकृत	-10551
▁कोमल	-10552
▁डुअल	-10553
▁सरपंच	-10554
ांशु	-10555
गोपाल	-10556
▁व्यय	-10557
▁होंडा	-10558
▁क्योकि	-10559
ong	-10560
डीओ	-10561
▁निः	-10562
▁गोला	-10563
सम्मान	-10564
▁ड्रा	-10565
्राज्य	-10566
▁वैष्ण	-10567
▁सीखना	-10568
▁सोरेन	-10569
▁त्यौहार	-10570
▁परिचालन	-10571
'.	-10572
▁चीख	-10573
▁आन्द	-10574
▁शिवम	-10575
▁अनुचित	-10576
▁इक्विटी	-10577
▁बर्खास्त	-10578
▁विद्यालयों	-10579
छोटी	-10580
सिपी	-10581
▁अनू	-10582
▁फ्ले	-10583
▁साइज	-10584
▁कर्फ्यू	-10585
टाइम	-10586
▁छिल	-10587
▁पीले	-10588
▁समझता	-10589
्राट	-10590
▁Red	-10591
▁दुखद	-10592
▁हावी	-10593
क्तूबर	-10594
▁एनआईए	-10595
▁स्नेह	-10596
▁गतिविधियां	-10597
तमंद	-10598
मेरा	-10599
▁चलन	-10600
▁लैब	-10601
▁ढांचा	-10602
▁क्रांतिक	-10603
▁86	-10604
▁इंटी	-10605
राहट	-10606
▁जीना	-10607
▁उन्नति	-10608
▁पत्रों	-10609
▁डेमोक्रेट	-10610
काई	-10611
▁विभाजित	-10612
ंकू	-10613
माइ	-10614
▁सिगरेट	-10615
▁परिभाषित	-10616
प्रत	-10617
बर्ट	-10618
▁Sch	-10619
▁ac	-10620
▁वॉट	-10621
▁गिरि	-10622
▁नर्म	-10623
▁ब्रह्मा	-10624
PF	-10625
पेन	-10626
श्ती	-10627
▁विडियो	-10628
बड़	-10629
रूप	-10630
▁600	-10631
▁नहर	-10632
▁हर्	-10633
▁फेमस	-10634
▁मतों	-10635
▁सितारों	-10636
घन	-10637
▁रेफर	-10638
▁चूसने	-10639
▁यादगार	-10640
ंबल	-10641
▁NE	-10642
▁आटा	-10643
▁सुजु	-10644
▁कैदियों	-10645
ख्ता	-10646
▁Sabha	-10647
▁खुजली	-10648
्युनिटी	-10649
▁आईपीसी	-10650
▁बीमारियां	-10651
.30	-10652
▁मेघालय	-10653
▁संभावनाओं	-10654
ics	-10655
▁वान	-10656
▁लग्न	-10657
▁धनिया	-10658
▁पांड्या	-10659
▁फ्लिपकार्ट	-10660
वरकर	-10661
▁Rashi	-10662
▁धनलाभ	-10663
▁सच्ची	-10664
▁पत्तों	-10665
▁मेकर्स	-10666
▁अक्तूबर	-10667
▁नाच	-10668
▁रैल	-10669
धारकों	-10670
▁जुलूस	-10671
▁निहित	-10672
▁प्रशिक्षित	-10673
uj	-10674
आधारी	-10675
▁आमने	-10676
दिल्ली	-10677
वाहाटी	-10678
▁लाभार्थियों	-10679
▁रतन	-10680
▁ड्रामा	-10681
▁स्रोतों	-10682
हानि	-10683
▁अधू	-10684
▁प्लानिंग	-10685
▁मुश्किलें	-10686
▁परफॉर्मेंस	-10687
lus	-10688
▁चाट	-10689
पीसी	-10690
▁You	-10691
▁अंज	-10692
▁शिवपाल	-10693
▁उद्देश्यों	-10694
▁सप्त	-10695
▁जलाने	-10696
क्फ	-10697
वाग	-10698
▁शॉ	-10699
▁मिनी	-10700
▁योगा	-10701
▁रेसिपी	-10702
▁सुजुकी	-10703
स्की	-10704
▁सिग्नल	-10705
▁इस्लामिक	-10706
▁निरीक्षक	-10707
form	-10708
▁अकाली	-10709
▁सनसनी	-10710
िस्ट्री	-10711
▁Pre	-10712
▁चतुर्थी	-10713
▁फ्रेंचाइजी	-10714
पुरुष	-10715
▁पाएं	-10716
▁दिनांक	-10717
▁79	-10718
▁रेत	-10719
▁आएंगी	-10720
▁समर्पण	-10721
बिज	-10722
र्चर	-10723
▁बनारस	-10724
▁खुशियों	-10725
ामे	-10726
कतों	-10727
▁लगेंगे	-10728
रक्षा	-10729
▁भरकर	-10730
▁सेशन	-10731
▁हॉकी	-10732
▁अग्रिम	-10733
▁सिद्धांतों	-10734
▁350	-10735
▁आमदनी	-10736
▁द्विआधारी	-10737
दत्त	-10738
▁ख्वा	-10739
▁सोलर	-10740
▁Delhi	-10741
▁सीबीएसई	-10742
धियों	-10743
▁नोटों	-10744
▁अध्याय	-10745
▁महाविद्यालय	-10746
▁खिंच	-10747
▁वसूल	-10748
▁सलामी	-10749
▁प्रतिभाग	-10750
ital	-10751
▁मौन	-10752
नियों	-10753
▁पीते	-10754
प्रिंट	-10755
▁चुपचाप	-10756
▁निफ्टी	-10757
▁सभ्यता	-10758
▁प्रतिकूल	-10759
▁मिच	-10760
▁हलचल	-10761
क्टेयर	-10762
▁प्रखंड	-10763
▁Download	-10764
थियों	-10765
▁उतने	-10766
▁कंड	-10767
▁डें	-10768
मुक्त	-10769
▁सोते	-10770
▁कठिनाई	-10771
ho	-10772
साफ	-10773
▁ढी	-10774
▁बिछ	-10775
▁सज़ा	-10776
▁भत्ता	-10777
▁क्वार्ट	-10778
▁याचिकाओं	-10779
te	-10780
लें	-10781
▁होल	-10782
▁सटीकता	-10783
▁ब्रेकिंग	-10784
▁क्लिप	-10785
▁द्विपक्षीय	-10786
▁शू	-10787
रखाव	-10788
▁भीम	-10789
▁दवाएं	-10790
▁पेरिस	-10791
्युनिस्ट	-10792
गर्	-10793
▁Tr	-10794
अपनी	-10795
▁शिप	-10796
▁चार्जशीट	-10797
गि	-10798
▁पटरी	-10799
▁कवरेज	-10800
▁खुदरा	-10801
▁चलेगी	-10802
▁Market	-10803
▁हैक	-10804
▁परेड	-10805
▁बंदूक	-10806
ंट्स	-10807
वामा	-10808
▁अमृतसर	-10809
▁बैटिंग	-10810
▁वीं	-10811
▁मंजूर	-10812
▁73	-10813
▁MP	-10814
▁Sm	-10815
▁उठाई	-10816
▁पनीर	-10817
▁महादेव	-10818
▁सितम्बर	-10819
▁परीक्षाएं	-10820
▁गोग	-10821
▁लिट	-10822
▁मेथी	-10823
▁निखार	-10824
▁एसआईटी	-10825
वला	-10826
▁ag	-10827
र्मा	-10828
वहार	-10829
▁सलीम	-10830
छात्रा	-10831
▁बदौलत	-10832
▁दिवंगत	-10833
▁स्वप्न	-10834
▁आकांक्षा	-10835
ip	-10836
खाना	-10837
▁रवैया	-10838
हाउस	-10839
ोरेंट	-10840
▁असाम	-10841
▁हत्य	-10842
▁पहनकर	-10843
▁उगा	-10844
▁तबी	-10845
▁नाश्ते	-10846
सले	-10847
▁चौथ	-10848
▁अदालतों	-10849
▁WhatsApp	-10850
▁तेलु	-10851
▁मिसाल	-10852
ंवर	-10853
म्परा	-10854
▁वंदे	-10855
▁विनाश	-10856
▁सुकून	-10857
▁कंडीशन	-10858
▁US	-10859
▁नशा	-10860
पत्नी	-10861
▁गार्डन	-10862
▁अखबारों	-10863
▁सेंसेक्स	-10864
▁pic	-10865
ंबेडकर	-10866
▁नम्बर	-10867
▁गुलाबी	-10868
▁शॉपिंग	-10869
MS	-10870
ूण	-10871
▁रथ	-10872
किता	-10873
▁रनौत	-10874
▁रैना	-10875
▁समझे	-10876
▁टैरिफ	-10877
▁उतारने	-10878
▁सदियों	-10879
▁सुरेंद्र	-10880
संच	-10881
▁क्वा	-10882
▁खासी	-10883
▁संकेतक	-10884
बेल	-10885
▁मोन	-10886
▁अद्व	-10887
▁फ़ाइल	-10888
▁अंबेडकर	-10889
ome	-10890
्रास	-10891
▁महार	-10892
▁भागों	-10893
▁रोबोट	-10894
▁हेलीक	-10895
▁विमानों	-10896
कने	-10897
ैगन	-10898
▁अंकल	-10899
▁कन्ह	-10900
▁लालच	-10901
▁बनेगी	-10902
▁फते	-10903
▁रिंग	-10904
▁स्नैप	-10905
▁गर्लफ्रेंड	-10906
:0	-10907
ne	-10908
णन	-10909
वर्स	-10910
▁आइट	-10911
▁सहन	-10912
▁Cont	-10913
▁पीटा	-10914
▁भुगत	-10915
▁सूर्या	-10916
riv	-10917
ोटो	-10918
▁मसाज	-10919
▁चिंताओं	-10920
▁दुष्प्र	-10921
▁लाभार्थी	-10922
mer	-10923
एफआई	-10924
▁ऐंड	-10925
▁फटकार	-10926
▁डिप्लो	-10927
▁अनुपालन	-10928
▁Facebook	-10929
▁शोधकर्ताओं	-10930
▁लड	-10931
प्पू	-10932
क्रिय	-10933
▁पितृ	-10934
ox	-10935
्यूर	-10936
▁ठंडे	-10937
▁अभियुक्त	-10938
▁बरेली	-10939
TM	-10940
वारा	-10941
कॉमर्स	-10942
▁लॉगिन	-10943
▁सूखा	-10944
▁अवसाद	-10945
▁लटका	-10946
▁लंबाई	-10947
▁सुप्र	-10948
▁कैप्शन	-10949
▁क्रियान	-10950
▁विश्वनाथ	-10951
ोर्टर	-10952
▁कैंडिडेट्स	-10953
ैय	-10954
▁जख	-10955
▁800	-10956
▁देन	-10957
▁अर्श	-10958
प्रतिनि	-10959
▁मतगणना	-10960
▁तथाकथित	-10961
पेड	-10962
▁छोड़ी	-10963
▁पक्का	-10964
रेखा	-10965
योग्य	-10966
▁फ्रेम	-10967
त्याशित	-10968
▁सावरकर	-10969
नहीं	-10970
▁गुहार	-10971
▁शिक्षित	-10972
▁नाल	-10973
▁विक्की	-10974
कोण	-10975
▁98	-10976
▁संगम	-10977
▁तबीयत	-10978
▁मज़बूत	-10979
▁राइडर्स	-10980
▁गुवाहाटी	-10981
▁ha	-10982
माला	-10983
▁पिल	-10984
निंदा	-10985
▁थिएटर	-10986
▁लोकेशन	-10987
▁आपातकाल	-10988
▁चुरा	-10989
▁कमांडर	-10990
▁मशीनों	-10991
▁प्रिंसिपल	-10992
गिन	-10993
▁दाह	-10994
▁पिताजी	-10995
▁पदोन्नति	-10996
▁89	-10997
▁LIVE	-10998
▁झूठी	-10999
▁परिश	-11000
▁पहचा	-11001
▁विद्रोह	-11002
▁प्रतियोगी	-11003
▁वक्फ	-11004
▁शुभारंभ	-11005
▁दिनचर्या	-11006
मि	-11007
कुश	-11008
▁01	-11009
▁झड़	-11010
▁नबी	-11011
▁नोक	-11012
▁तबाद	-11013
ीडी	-11014
▁विलय	-11015
▁डेयरी	-11016
▁आश्वस्त	-11017
▁तोड़फोड़	-11018
▁पते	-11019
▁फिस	-11020
बाड़ी	-11021
▁झंडा	-11022
▁फिंगर	-11023
▁अग्रणी	-11024
▁फूट	-11025
ेलियन	-11026
्रपान	-11027
▁विभागीय	-11028
▁मातृ	-11029
्रैक्ट	-11030
▁बलिदान	-11031
▁समझदारी	-11032
77	-11033
धु	-11034
▁नीट	-11035
▁औषधि	-11036
▁देवर	-11037
▁फिरोज	-11038
▁राफेल	-11039
ips	-11040
रेप	-11041
पीएम	-11042
ोरेट	-11043
▁चेन	-11044
▁स्टीव	-11045
▁Business	-11046
▁पेयजल	-11047
▁अख़बार	-11048
▁निकालना	-11049
▁फैसलों	-11050
▁आन्दोलन	-11051
▁पुलवामा	-11052
▁निर्णायक	-11053
▁पत्तियों	-11054
▁नक्सलियों	-11055
▁मुस्लिमों	-11056
षाद	-11057
विंदर	-11058
▁एनएस	-11059
▁अर्जी	-11060
वात	-11061
्लो	-11062
▁छी	-11063
▁झां	-11064
▁मोम	-11065
▁तेज़ी	-11066
▁केकेआर	-11067
▁चॉक	-11068
▁इरफान	-11069
▁संभाला	-11070
▁सर्विसेज	-11071
मौ	-11072
िलाई	-11073
▁जुन	-11074
▁बोस	-11075
▁अनदेखी	-11076
▁प्रैक्टिस	-11077
▁चिकित्सकों	-11078
▁क्षतिग्रस्त	-11079
फोल	-11080
▁कैरियर	-11081
▁प्रक्रियाओं	-11082
aur	-11083
▁06	-11084
▁मन्द	-11085
▁दिलों	-11086
▁फ्रूट	-11087
▁बेस्ड	-11088
▁स्किल	-11089
▁Account	-11090
▁दंगे	-11091
▁रश्म	-11092
▁विहार	-11093
▁प्रकोप	-11094
▁प्रस्तुति	-11095
.25	-11096
ठों	-11097
▁समीर	-11098
▁उल्टी	-11099
▁एसएमएस	-11100
▁डिफेंस	-11101
▁कार्यान	-11102
▁एनडीटीवी	-11103
▁कम्युनिस्ट	-11104
▁108	-11105
▁दरबार	-11106
af	-11107
हिंद	-11108
▁इमाम	-11109
▁चिंतन	-11110
▁भुवनेश्वर	-11111
▁साम्राज्य	-11112
वित	-11113
ज़ोर	-11114
ज्जा	-11115
्रेश	-11116
▁उर्म	-11117
▁बूंद	-11118
▁कच्चा	-11119
▁मानती	-11120
▁भ्रष्ट	-11121
▁सहकारी	-11122
▁कुशवाहा	-11123
▁अप्रत्याशित	-11124
र्ति	-11125
वासीय	-11126
▁मामा	-11127
▁मीणा	-11128
▁चोटिल	-11129
▁त्रुट	-11130
▁प्रीति	-11131
▁साक्ष्य	-11132
▁अखा	-11133
▁पादु	-11134
▁डार्क	-11135
▁अलीगढ़	-11136
▁उंगल	-11137
▁अगुआई	-11138
▁चीज़ों	-11139
रां	-11140
▁(6	-11141
लेवा	-11142
▁एन्	-11143
▁सुध	-11144
▁घेरे	-11145
▁परम्परा	-11146
्ता	-11147
पश्च	-11148
ेटेड	-11149
▁रेख	-11150
िरोधी	-11151
▁समाय	-11152
▁बढ़ाई	-11153
▁अंकिता	-11154
▁सीआरपीएफ	-11155
▁चुनी	-11156
▁लेंस	-11157
▁शार्	-11158
▁भ्रमण	-11159
▁मुबार	-11160
▁जंगलों	-11161
▁तालमेल	-11162
▁उपराष्ट्रपति	-11163
IA	-11164
िनर	-11165
▁केन	-11166
▁पशुओं	-11167
▁हेक्टेयर	-11168
अनु	-11169
▁वकाल	-11170
▁अनुप्र	-11171
▁मिर्जा	-11172
▁दुकानदार	-11173
bh	-11174
▁नाना	-11175
▁सेवक	-11176
▁किसके	-11177
▁सहवाग	-11178
▁अंधेरे	-11179
▁अमरीका	-11180
▁शिल्पा	-11181
hot	-11182
▁82	-11183
▁केक	-11184
▁मुरा	-11185
▁मिज	-11186
▁पिक्	-11187
ेक्षित	-11188
▁ग्लास	-11189
▁चलाना	-11190
▁डोमेन	-11191
▁सुविधाएँ	-11192
ौफ	-11193
नें	-11194
▁चुकाने	-11195
▁गुरुग्राम	-11196
▁संवाददाताओं	-11197
मर्रा	-11198
▁ग्ले	-11199
▁डेवलपमेंट	-11200
पुल	-11201
ज्जत	-11202
▁भगा	-11203
▁बुलड	-11204
▁सदैव	-11205
▁कस्टम	-11206
▁एडवांस	-11207
▁ऑफलाइन	-11208
▁श्रीकृष्ण	-11209
3,	-11210
नपुर	-11211
▁पुजारी	-11212
▁pl	-11213
र्गत	-11214
लाइंस	-11215
▁जिहाद	-11216
▁ट्रांसम	-11217
▁न्यायाधीशों	-11218
NC	-11219
▁सैयद	-11220
▁पकड़कर	-11221
▁सचिवालय	-11222
▁ऊँ	-11223
▁ब्लूट	-11224
▁रिंकू	-11225
▁पवेलियन	-11226
▁शर्मनाक	-11227
गान	-11228
▁HD	-11229
enef	-11230
बलों	-11231
▁नरम	-11232
▁सता	-11233
▁सिंधु	-11234
▁ट्रम्प	-11235
▁कन्हैया	-11236
विद	-11237
▁इज	-11238
सिया	-11239
जोत	-11240
▁नू	-11241
▁इंटेल	-11242
▁ग्रैंड	-11243
▁यूनाइटेड	-11244
▁स्टार्टअप	-11245
गना	-11246
रोट	-11247
डीएस	-11248
्ह्ह	-11249
▁नान	-11250
▁संचालक	-11251
निरपेक्ष	-11252
▁बुजुर्गों	-11253
▁स्ट्रीमिंग	-11254
47	-11255
▁ख़री	-11256
▁चिकन	-11257
▁जगदीश	-11258
▁चुनिंदा	-11259
▁दिसम्बर	-11260
जीर	-11261
▁लची	-11262
▁1999	-11263
▁निचे	-11264
▁पौधा	-11265
▁पढ़कर	-11266
▁परिदृश्य	-11267
वृ	-11268
डकर	-11269
तरफा	-11270
▁विनि	-11271
▁हमको	-11272
▁कार्बो	-11273
मणि	-11274
▁धड़क	-11275
▁प्या	-11276
▁उपवास	-11277
ॉल्ट	-11278
▁निदान	-11279
▁Pradesh	-11280
▁संभावनाएं	-11281
णाल	-11282
name	-11283
▁कहर	-11284
िशंकर	-11285
▁तीखी	-11286
▁मंदी	-11287
▁अंगों	-11288
▁विशेषकर	-11289
ब्वे	-11290
पादित	-11291
▁ठंडी	-11292
▁संयम	-11293
▁प्रासंगिक	-11294
▁नॉर्थ	-11295
▁सितारे	-11296
▁अभिभावकों	-11297
▁me	-11298
▁भिड़	-11299
▁नौकरियां	-11300
▁पंचायतों	-11301
▁ठिक	-11302
▁दयाल	-11303
क्षकों	-11304
▁ट्राई	-11305
▁बताकर	-11306
▁बुलाई	-11307
▁रामायण	-11308
▁बान	-11309
▁मक्	-11310
embly	-11311
▁अखंड	-11312
▁डिलीट	-11313
▁यूपीएससी	-11314
▁प्रमाणपत्र	-11315
▁शोभा	-11316
देख	-11317
राल	-11318
▁महंत	-11319
ोही	-11320
▁शैल	-11321
▁क्रमशः	-11322
▁पेड़ों	-11323
्ग	-11324
पंथ	-11325
▁Lo	-11326
▁सई	-11327
▁श्व	-11328
▁हर्ट	-11329
▁स्वराज	-11330
विल	-11331
▁92	-11332
▁पीयूष	-11333
▁वकालत	-11334
▁निकलकर	-11335
▁ओपी	-11336
▁हड्डी	-11337
▁जुटाने	-11338
▁अनुभवों	-11339
▁प्रोडक्ट्स	-11340
ool	-11341
▁दिव्य	-11342
▁भयावह	-11343
▁आंबेडकर	-11344
▁सिद्दीकी	-11345
39	-11346
ूला	-11347
▁घटक	-11348
▁सुमन	-11349
▁पाण्ड	-11350
▁जीडीपी	-11351
खिल	-11352
▁बसे	-11353
▁सुष	-11354
▁छिड़	-11355
▁तादाद	-11356
▁आवासीय	-11357
▁संगठित	-11358
▁सुसाइड	-11359
▁निर्दोष	-11360
सूसी	-11361
▁मुल्क	-11362
▁रहाणे	-11363
▁मेजबानी	-11364
ानंद	-11365
क्ष्मी	-11366
▁निवेदन	-11367
▁प्रारम्भ	-11368
55	-11369
▁सुमित	-11370
▁गेमिंग	-11371
▁आपातकालीन	-11372
नॉ	-11373
▁साय	-11374
▁बेसब	-11375
राज्यपाल	-11376
▁ब्लूटूथ	-11377
फै	-11378
ारोप	-11379
▁अनी	-11380
आधारित	-11381
▁बनाएंगे	-11382
VID	-11383
मोल	-11384
कमान	-11385
▁धरने	-11386
▁पूनम	-11387
ix	-11388
नाई	-11389
▁।।	-11390
▁आटे	-11391
ोत्रा	-11392
▁फिलि	-11393
▁ब्रॉड	-11394
▁यूपीए	-11395
▁नवम्बर	-11396
▁Man	-11397
▁श्वे	-11398
▁आंवला	-11399
▁निर्व	-11400
▁एकीकृत	-11401
▁97	-11402
▁Vir	-11403
▁कुंजी	-11404
▁दर्जनों	-11405
▁टिप्पणियों	-11406
्यूमर	-11407
▁तोमर	-11408
▁पूछना	-11409
▁डिटेल्स	-11410
राना	-11411
▁ऑडिट	-11412
▁परमा	-11413
▁यूएई	-11414
▁पत्ता	-11415
▁कॉलिंग	-11416
▁टेस्टिंग	-11417
▁पीजी	-11418
▁बनें	-11419
मोदी	-11420
▁अती	-11421
▁पूल	-11422
▁अतुल	-11423
▁ब्रि	-11424
▁मीठा	-11425
▁पार्थ	-11426
▁मनरेगा	-11427
▁सम्राट	-11428
▁जानलेवा	-11429
▁इंजेक्शन	-11430
प्पड़	-11431
▁फ़िर	-11432
▁शेखर	-11433
वृत्ति	-11434
▁क्वार्टर	-11435
▁रजिस्टर्ड	-11436
ull	-11437
णिकता	-11438
▁Real	-11439
▁खुशबू	-11440
▁बीबीसी	-11441
▁विंडोज	-11442
▁नैनीताल	-11443
▁सुविधाजनक	-11444
धू	-11445
▁कन्	-11446
जीपुर	-11447
▁ग्लू	-11448
▁वहीँ	-11449
▁शर्ट	-11450
▁एक्सट	-11451
▁पसीना	-11452
▁मुबारक	-11453
ंडई	-11454
रीज़	-11455
वादा	-11456
▁व्यू	-11457
▁आंतों	-11458
▁पॉलिट	-11459
▁धूम्रपान	-11460
▁CM	-11461
▁समू	-11462
▁ख़ान	-11463
▁देखरेख	-11464
▁निकलता	-11465
▁पिक्सल	-11466
▁सिखाया	-11467
▁संपत्तियों	-11468
ायन	-11469
क्यों	-11470
▁अमेजन	-11471
▁रिटेल	-11472
एब	-11473
-21	-11474
▁वैसी	-11475
▁प्यारी	-11476
▁महत्वा	-11477
▁परिवर्तित	-11478
बिग	-11479
irst	-11480
▁मॉल	-11481
▁सवा	-11482
▁मेजर	-11483
▁तिरंगा	-11484
▁घाव	-11485
▁घास	-11486
▁सूर्यवंशी	-11487
du	-11488
कोई	-11489
याँ	-11490
▁lo	-11491
▁कदर	-11492
▁करिश	-11493
▁मनाई	-11494
▁कीजिये	-11495
▁प्रशंसक	-11496
▁उम्मीदें	-11497
▁समीप	-11498
▁रवींद्र	-11499
▁वैचारिक	-11500
▁सर्वोत्तम	-11501
टीएस	-11502
▁Ama	-11503
रलैंड	-11504
▁डेंगू	-11505
णियां	-11506
▁दहशत	-11507
▁एप्पल	-11508
▁चालान	-11509
▁मजबूरी	-11510
▁उर्मिला	-11511
▁रिपोर्टर	-11512
▁88	-11513
▁औस	-11514
ष्ठी	-11515
▁नकल	-11516
▁औरतों	-11517
▁कुत्तों	-11518
▁कैलेंडर	-11519
▁स्पष्टीकरण	-11520
धक	-11521
पेशा	-11522
▁काफ	-11523
▁पहनी	-11524
▁मच्छ	-11525
▁दत्ता	-11526
▁Android	-11527
▁नारेबाजी	-11528
▁प्रामाणिकता	-11529
rit	-11530
एनए	-11531
▁!!	-11532
नीति	-11533
▁256	-11534
▁घुमा	-11535
▁तीर	-11536
▁हक़	-11537
▁बताये	-11538
▁दर्दनाक	-11539
▁अस्वीकार	-11540
▁कांग्रेसी	-11541
▁धरा	-11542
▁चंदा	-11543
▁बागी	-11544
दिवसीय	-11545
ंहा	-11546
ोरा	-11547
फील्ड	-11548
▁उठते	-11549
▁पादुकोण	-11550
▁81	-11551
▁बदली	-11552
▁ध्रुव	-11553
▁श्वेता	-11554
▁अमरिंदर	-11555
थान	-11556
▁टाई	-11557
▁दमन	-11558
▁वैन	-11559
▁मुड़	-11560
▁छक्का	-11561
▁किस्सा	-11562
।)	-11563
▁तंग	-11564
▁रक्तचाप	-11565
ॉर्	-11566
▁शवों	-11567
र्शियल	-11568
विरोधी	-11569
▁कदमों	-11570
▁पायदान	-11571
▁सुलझाने	-11572
ER	-11573
षी	-11574
▁जस	-11575
▁भुला	-11576
▁गैरकानूनी	-11577
▁ऐड	-11578
▁मुहर	-11579
मेंट्स	-11580
▁जैविक	-11581
▁बैंगल	-11582
एलए	-11583
▁तारा	-11584
▁लोहे	-11585
▁चॉकलेट	-11586
▁रिव्यू	-11587
▁अपग्रेड	-11588
▁रिफ्रेश	-11589
▁Assembly	-11590
▁हेलीकॉप्टर	-11591
▁टायर	-11592
▁पुतिन	-11593
▁अंग्रेज़ी	-11594
ग्रंथ	-11595
ियाना	-11596
▁रसायन	-11597
▁मल्लिक	-11598
▁लीजिये	-11599
▁सीएनजी	-11600
▁नक्	-11601
▁क्षमा	-11602
▁चुटकी	-11603
▁मानकर	-11604
▁मोहित	-11605
▁यथार्थ	-11606
▁ठिकानों	-11607
ala	-11608
अमे	-11609
▁96	-11610
ासित	-11611
▁पपी	-11612
▁ट्रिपल	-11613
▁एकत्रित	-11614
▁मल्होत्रा	-11615
अभी	-11616
▁09	-11617
वियों	-11618
▁2024)	-11619
▁बरतने	-11620
▁साबुन	-11621
▁असाधारण	-11622
▁द्विवेदी	-11623
▁87	-11624
▁2001	-11625
▁चाची	-11626
▁फैली	-11627
▁बंगाली	-11628
▁सिल्वर	-11629
▁केदारनाथ	-11630
oh	-11631
किम	-11632
▁एले	-11633
▁सुचार	-11634
▁श्रद्धालु	-11635
ओवर	-11636
र्माण	-11637
▁ट्रीट	-11638
िलासपुर	-11639
▁खर्चों	-11640
▁पाबंदी	-11641
▁अध्यापक	-11642
▁दीपावली	-11643
48	-11644
ंझ	-11645
▁सचे	-11646
भारतीय	-11647
▁दीवारों	-11648
▁नमस्कार	-11649
स्ट्रक्चर	-11650
▁ट्रांसमिशन	-11651
▁रिपोर्टिंग	-11652
िजन	-11653
ings	-11654
▁चित	-11655
▁नाट	-11656
▁रमन	-11657
▁आंसर	-11658
▁तहरीर	-11659
▁बंटवारे	-11660
ूष	-11661
्शा	-11662
▁षड	-11663
फायर	-11664
▁टैं	-11665
▁महक	-11666
▁ट्यूब	-11667
▁पहनना	-11668
▁लाहौर	-11669
मेड	-11670
▁औसतन	-11671
▁बन्द	-11672
▁सुनना	-11673
ंदवाड़ा	-11674
▁लेखकों	-11675
▁स्वार्थ	-11676
TP	-11677
-12	-11678
kar	-11679
▁स्पर्श	-11680
▁स्मारक	-11681
फ्ती	-11682
ोड़ा	-11683
वेस्ट	-11684
▁संयोजन	-11685
▁स्ट्रीट	-11686
▁प्रतिपक्ष	-11687
सेप्ट	-11688
▁धामी	-11689
प्रधान	-11690
▁शाहीन	-11691
▁कैपिटल	-11692
arius	-11693
▁अबतक	-11694
▁चुनना	-11695
▁इश्	-11696
▁एनाल	-11697
▁तर्ज	-11698
▁लाते	-11699
▁हटाए	-11700
शहर	-11701
▁पिए	-11702
▁स्ली	-11703
▁पलटवार	-11704
atch	-11705
▁Upd	-11706
ानुभूति	-11707
▁विमर्श	-11708
▁जनप्रतिनि	-11709
▁प्रयोगशाला	-11710
ember	-11711
▁कवाय	-11712
▁चलाए	-11713
▁इकाइयों	-11714
बेर	-11715
कुंभ	-11716
▁एडिट	-11717
▁पालक	-11718
▁जयराम	-11719
▁निषाद	-11720
▁भूपेश	-11721
▁सवारी	-11722
▁शिकायतकर्ता	-11723
4,	-11724
दीन	-11725
▁टैप	-11726
▁विजिट	-11727
▁07	-11728
▁आंच	-11729
▁कतार	-11730
▁हॉलीवुड	-11731
orn	-11732
संघ	-11733
क्कड़	-11734
▁मनोवैज्ञानिक	-11735
/20	-11736
ताप	-11737
▁पग	-11738
▁मूर्ख	-11739
▁83	-11740
▁Ma	-11741
बीटी	-11742
▁वॉक	-11743
▁यूज़	-11744
▁लहरा	-11745
▁इज्जत	-11746
▁काटकर	-11747
▁अधिकृत	-11748
▁दोस्तो	-11749
▁प्रचलित	-11750
ज़ों	-11751
▁असमान	-11752
▁गुजार	-11753
▁बुराई	-11754
▁मोटर्स	-11755
▁एलोवेरा	-11756
▁गावस्कर	-11757
▁आंश	-11758
नात्मक	-11759
स्ट्रा	-11760
▁दुसरे	-11761
▁तालिका	-11762
▁आयरलैंड	-11763
▁7.	-11764
जाही	-11765
▁वृष	-11766
▁आईएम	-11767
▁मयंक	-11768
▁सुने	-11769
▁चौराह	-11770
▁फंक्शन	-11771
no	-11772
fal	-11773
चीनी	-11774
जाना	-11775
▁2-3	-11776
▁ग़लत	-11777
▁डेरा	-11778
▁जासूसी	-11779
करीब	-11780
लीला	-11781
जीविका	-11782
▁सुनीता	-11783
▁पेट्रोलियम	-11784
▁नाख	-11785
हाइड्रेट	-11786
▁चमत्कार	-11787
▁विकलांग	-11788
लु	-11789
▁मुम	-11790
▁औषधी	-11791
▁विंग	-11792
▁चीज़ें	-11793
▁जयशंकर	-11794
▁निश्चय	-11795
ँद	-11796
▁काय	-11797
▁लगवा	-11798
▁गोगोई	-11799
▁मुहिम	-11800
▁मौकों	-11801
▁नाश्ता	-11802
▁मैग्नी	-11803
▁विक्रेता	-11804
▁रेस्टोरेंट	-11805
▁वीवो	-11806
▁काबिल	-11807
▁स्टाल	-11808
▁वनप्लस	-11809
▁विज्ञाप	-11810
ttar	-11811
ेरों	-11812
ealth	-11813
▁सोसाय	-11814
▁पर्यटक	-11815
▁कमला	-11816
▁चाहा	-11817
▁लीवर	-11818
▁लेटर	-11819
▁टास्क	-11820
▁अलविदा	-11821
▁मन्दिर	-11822
▁रखरखाव	-11823
शो	-11824
▁डोर	-11825
▁प्रवास	-11826
-18	-11827
orp	-11828
ँसी	-11829
वनि	-11830
वड़ा	-11831
▁डेड	-11832
▁विस	-11833
▁सेठ	-11834
द्यपि	-11835
▁बांस	-11836
▁विपणन	-11837
▁इंस्टॉल	-11838
▁देवताओं	-11839
▁विरोधियों	-11840
ancer	-11841
▁घृणा	-11842
▁कांफ्रेंस	-11843
▁धमक	-11844
▁भगवा	-11845
▁सुधीर	-11846
▁शिवाजी	-11847
▁प्रदर्शनों	-11848
alax	-11849
▁हटने	-11850
▁स्विच	-11851
▁जबलपुर	-11852
▁निभाते	-11853
▁महासभा	-11854
जोल	-11855
यली	-11856
▁Th	-11857
▁पाटी	-11858
▁समझें	-11859
▁इफेक्ट	-11860
▁प्रोटे	-11861
-25	-11862
मोट	-11863
▁लुट	-11864
▁हँस	-11865
▁कार्ट	-11866
▁website	-11867
▁सतर्कता	-11868
▁संग्रहित	-11869
राइट	-11870
▁नकार	-11871
▁बीएच	-11872
▁म्यां	-11873
1)	-11874
निटर	-11875
▁चुत	-11876
▁तिरु	-11877
▁कंटेन	-11878
▁पथराव	-11879
▁हसीना	-11880
▁टाइटंस	-11881
▁प्यारे	-11882
▁होंठों	-11883
▁जानेंगे	-11884
▁प्वाइंट	-11885
▁160	-11886
▁700	-11887
वोकेट	-11888
▁फ़ाय	-11889
▁रुकने	-11890
▁दुर्भाग्यपूर्ण	-11891
ओसी	-11892
मेगा	-11893
क्षिप्त	-11894
▁चूम	-11895
▁नाव	-11896
▁अध्यादेश	-11897
्ठ	-11898
धाना	-11899
▁गंध	-11900
▁शीत	-11901
eries	-11902
▁एलान	-11903
त्रिम	-11904
▁डेबिट	-11905
▁मुकाम	-11906
▁प्रसंग	-11907
▁आवाजाही	-11908
ere	-11909
coin	-11910
▁उदास	-11911
▁छापा	-11912
र्वेदी	-11913
▁अमेठी	-11914
▁निचली	-11915
▁थप्पड़	-11916
गमन	-11917
▁नूर	-11918
▁पढ़ी	-11919
▁पारदर्शी	-11920
▁पोज	-11921
▁रिच	-11922
▁ताज़ा	-11923
▁सहानुभूति	-11924
ace	-11925
द्वीप	-11926
▁कब्र	-11927
▁डिप्लोमा	-11928
▁उसपर	-11929
▁फ्लू	-11930
▁यीशु	-11931
▁एंबुलेंस	-11932
▁फरीदाबाद	-11933
▁1947	-11934
▁बाजी	-11935
▁अनजान	-11936
▁बिलासपुर	-11937
बॉ	-11938
ष्यों	-11939
▁खाकर	-11940
▁विषा	-11941
▁पाएगी	-11942
▁किराये	-11943
▁अद्वितीय	-11944
▁ज्योतिषियों	-11945
बेन	-11946
मेंस	-11947
▁दहेज	-11948
▁धोने	-11949
▁वन्य	-11950
▁दीर्घकालिक	-11951
ँव	-11952
कक्ष	-11953
▁हुक	-11954
सरकार	-11955
▁बहुल	-11956
▁कवायद	-11957
▁जायजा	-11958
▁बौद्धिक	-11959
▁x	-11960
क़े	-11961
▁टेनिस	-11962
▁हारने	-11963
▁काउंटर	-11964
▁ग्रस्त	-11965
▁फेस्टिवल	-11966
▁शास्त्रों	-11967
▁प्रतिनिधिमंडल	-11968
▁दार	-11969
▁रीड	-11970
▁लोड	-11971
umber	-11972
▁Play	-11973
▁नेत्र	-11974
▁प्लेऑफ	-11975
▁बांटने	-11976
▁ब्यूटी	-11977
▁मुमकिन	-11978
▁समाप्ति	-11979
▁सफ	-11980
▁किफ	-11981
ालैंड	-11982
▁कुचल	-11983
▁ज्वा	-11984
▁1:	-11985
ड्ढा	-11986
alaxy	-11987
▁नवजात	-11988
▁एस्टेट	-11989
▁संबद्ध	-11990
▁चतुर्वेदी	-11991
▁भाग्यशाली	-11992
eme	-11993
urr	-11994
▁गुर्जर	-11995
ick	-11996
बदल	-11997
ॉन्स	-11998
▁इन्स	-11999
▁गाजर	-12000
▁पेटीएम	-12001
▁महावीर	-12002
▁टुकड़ों	-12003
▁डिसक्लेमर	-12004
per	-12005
िसा	-12006
स्टन	-12007
▁180	-12008
▁दूं	-12009
▁1991	-12010
▁करूं	-12011
▁गिना	-12012
asthan	-12013
▁आंशिक	-12014
▁एग्री	-12015
▁बस्तर	-12016
▁लम्बी	-12017
▁आदेशों	-12018
▁सेफ्टी	-12019
रूम	-12020
रोल	-12021
सीमा	-12022
▁पिक	-12023
▁अतीक	-12024
▁एफडी	-12025
खीमपुर	-12026
▁स्टूडियो	-12027
▁स्त्रियों	-12028
▁आरटी	-12029
▁जीवा	-12030
▁पहाड़ों	-12031
▁पहुंचना	-12032
▁प्रेग्नेंसी	-12033
▁मल्लिकार्जुन	-12034
port	-12035
▁Mov	-12036
▁YouT	-12037
▁पैकेट	-12038
▁खासियत	-12039
▁रिटायरमेंट	-12040
95	-12041
मिल	-12042
▁डीए	-12043
▁थ्र	-12044
▁यथा	-12045
▁डिनर	-12046
▁एएनआई	-12047
▁जेम्स	-12048
▁उपलब्धियों	-12049
▁चाहत	-12050
▁ज्योतिषी	-12051
▁राष्ट्रवादी	-12052
)-	-12053
।.	-12054
▁दामों	-12055
▁विधवा	-12056
▁किशोरी	-12057
▁दाखिला	-12058
▁पुनर्वास	-12059
▁निष्क्रिय	-12060
32	-12061
▁कण	-12062
▁आज़	-12063
▁हिर	-12064
ब्राह	-12065
▁सक्सेना	-12066
pr	-12067
सस	-12068
▁IC	-12069
▁कृत्य	-12070
▁पढ़िए	-12071
▁टैक्सी	-12072
II	-12073
जाज	-12074
ब्बल	-12075
म्बई	-12076
▁प्ली	-12077
▁गेस्ट	-12078
▁चुद	-12079
▁ज़रिए	-12080
▁तृतीय	-12081
्रास्ट्रक्चर	-12082
पिछ	-12083
यानी	-12084
रांत	-12085
▁Fin	-12086
▁जेन	-12087
▁1996	-12088
▁Date	-12089
▁रेस्त	-12090
▁तुम्हे	-12091
सामने	-12092
ission	-12093
▁नियामक	-12094
रर	-12095
▁टॉय	-12096
▁बदबू	-12097
▁स्वत	-12098
▁आजीविका	-12099
▁मैग्नीशियम	-12100
44	-12101
▁Hot	-12102
▁आइटम	-12103
▁आज़ाद	-12104
▁भेजना	-12105
▁एंटरटेन	-12106
▁ठेकेदार	-12107
सरण	-12108
प्रश	-12109
▁अंप	-12110
मताओं	-12111
▁1980	-12112
example	-12113
▁हिमालय	-12114
▁इंफेक्शन	-12115
दानी	-12116
ement	-12117
▁त्रास	-12118
▁एलपीजी	-12119
▁विफलता	-12120
▁सोसायटी	-12121
▁संक्षिप्त	-12122
▁धर्मनिरपेक्ष	-12123
ern	-12124
हरों	-12125
हार्	-12126
्रार	-12127
▁Cre	-12128
▁जिया	-12129
▁महाप	-12130
▁वृद्ध	-12131
▁सुरंग	-12132
तृ	-12133
ॉफ	-12134
▁मैर	-12135
▁दरार	-12136
▁रणजी	-12137
▁दिनभर	-12138
▁ऑपरेटर	-12139
▁सर्किट	-12140
▁एडवोकेट	-12141
▁गलतियों	-12142
ण्डल	-12143
▁छेद	-12144
▁शोएब	-12145
▁अनुपम	-12146
!'	-12147
uti	-12148
ोवा	-12149
▁नन	-12150
बीएस	-12151
▁घोल	-12152
▁चिर	-12153
▁डरा	-12154
टरीना	-12155
चाराधीन	-12156
▁उपेक्षा	-12157
▁सुंदरता	-12158
बामा	-12159
▁IND	-12160
▁मीर	-12161
▁यूके	-12162
▁थरूर	-12163
▁ग्यार	-12164
▁Rashifal	-12165
UV	-12166
▁Hy	-12167
▁सट्टे	-12168
▁कारावास	-12169
▁उपराज्यपाल	-12170
हु	-12171
▁08	-12172
▁कचरा	-12173
ग्राउंड	-12174
▁यद्यपि	-12175
▁अर्शदीप	-12176
▁कैटरीना	-12177
शीद	-12178
▁भोले	-12179
▁ग्लूको	-12180
▁संध्या	-12181
▁सम्मिल	-12182
▁सत्ताधारी	-12183
िफाई	-12184
ुतोष	-12185
▁झगड़े	-12186
▁वक्री	-12187
▁साकार	-12188
▁संभवतः	-12189
▁अवध	-12190
▁ईशा	-12191
▁योन	-12192
▁नवाज	-12193
▁ब्रेन	-12194
▁सुषमा	-12195
▁मेजबान	-12196
िटेड	-12197
▁कलक	-12198
▁जीरो	-12199
▁इलेक्शन	-12200
ब्ब	-12201
▁मदन	-12202
कुमारी	-12203
संत	-12204
▁How	-12205
▁ह्यू	-12206
▁कराएं	-12207
▁पतंजलि	-12208
▁स्क्रीनिंग	-12209
▁बग	-12210
word	-12211
▁नीलम	-12212
▁मिचेल	-12213
▁मेहंदी	-12214
▁रुकावट	-12215
▁किफायती	-12216
क़ा	-12217
▁थम	-12218
▁अवर	-12219
▁चबा	-12220
▁अकेली	-12221
▁लगाये	-12222
▁बैठकों	-12223
▁दिव्यांग	-12224
▁एलन	-12225
▁1998	-12226
▁जिसपर	-12227
▁एजेंडा	-12228
▁मेटाबॉल	-12229
▁जन्मभूमि	-12230
ंद्रह	-12231
▁झूठा	-12232
▁लण्ड	-12233
▁रिस्प	-12234
▁ब्राजील	-12235
▁कोरोनावायरस	-12236
कप	-12237
बूल	-12238
माता	-12239
▁गेल	-12240
▁अभिनव	-12241
▁सुलझा	-12242
▁Galaxy	-12243
▁सिद्धि	-12244
▁मुख्तार	-12245
▁ज़िम्मेदारी	-12246
▁पस	-12247
▁मसीह	-12248
▁पीरियड	-12249
▁जरूरतमंद	-12250
ुलन	-12251
▁ओह	-12252
इजेशन	-12253
▁हस्तांतर	-12254
▁खां	-12255
▁सरो	-12256
▁बिठा	-12257
▁50,000	-12258
▁गिराया	-12259
▁मॉनिटर	-12260
▁मुहम्मद	-12261
PSC	-12262
raj	-12263
▁माली	-12264
▁नौकरीपेशा	-12265
जद	-12266
▁04	-12267
स्फी	-12268
▁माथे	-12269
▁लाता	-12270
▁कीर्ति	-12271
▁बीएमसी	-12272
AC	-12273
▁आजीवन	-12274
ोनेशिया	-12275
▁क्रिएट	-12276
ews	-12277
ors	-12278
गिल	-12279
▁राध	-12280
▁झाड़	-12281
▁निकलना	-12282
▁दावेदार	-12283
▁क्रांतिकारी	-12284
ेब	-12285
▁रिकॉर्डिंग	-12286
्नल	-12287
▁खल	-12288
▁FIR	-12289
चंद्रन	-12290
▁जोड़ो	-12291
▁व्यंग	-12292
▁डायलॉग	-12293
▁व्यर्थ	-12294
▁गाड़ियां	-12295
▁ग्रेजुएशन	-12296
▁चुनौतीपूर्ण	-12297
eat	-12298
बाप	-12299
लेखक	-12300
▁पसी	-12301
▁Step	-12302
▁धकेल	-12303
▁बेहोश	-12304
▁मुरली	-12305
▁फिजिकल	-12306
▁हॉस्टल	-12307
yst	-12308
▁कत	-12309
▁जनजा	-12310
▁Indian	-12311
▁बेसब्री	-12312
नाह	-12313
▁समर	-12314
▁एम्ब	-12315
▁सिंड	-12316
▁निर्वाचित	-12317
डीसी	-12318
▁उमा	-12319
▁यूँ	-12320
▁खुलासे	-12321
▁बुलडोजर	-12322
▁लखीमपुर	-12323
▁सेलिब्र	-12324
▁भूपेंद्र	-12325
▁प्रतिभागियों	-12326
ॉलर	-12327
▁लत	-12328
ड्रा	-12329
▁केला	-12330
▁सम्भव	-12331
▁स्तंभ	-12332
▁जिम्बा	-12333
▁इस्लामी	-12334
बाह	-12335
logy	-12336
िसिन	-12337
▁रवै	-12338
▁कृति	-12339
▁खोने	-12340
▁प्यास	-12341
▁हलफनामे	-12342
▁ऑपरेटिंग	-12343
▁डेमोक्रेटिक	-12344
ुख	-12345
ंटा	-12346
▁वसु	-12347
▁ज्वाइन	-12348
▁नक्सली	-12349
▁समावेश	-12350
▁कृत्रिम	-12351
▁भव	-12352
▁Eng	-12353
▁बोध	-12354
▁सैंपल	-12355
▁एनआरसी	-12356
▁कद	-12357
ंहार	-12358
▁ago	-12359
▁लेखा	-12360
▁मूत्र	-12361
▁म्यूचुअल	-12362
▁पेड	-12363
▁ऊंचा	-12364
▁औषधीय	-12365
▁गैंगस्टर	-12366
▁जानकारों	-12367
ोच	-12368
hip	-12369
▁प्रोमो	-12370
▁इंटेलिज	-12371
▁क्रिसमस	-12372
▁आरामदायक	-12373
▁स्टाइलिश	-12374
49	-12375
▁काजल	-12376
▁कैदी	-12377
▁अंकुश	-12378
▁देंगी	-12379
▁सीएसके	-12380
▁सुरक्षाबलों	-12381
▁Cour	-12382
▁डायरी	-12383
▁पप्पू	-12384
▁छुट्टियों	-12385
रीदी	-12386
▁वरदान	-12387
▁हुंडई	-12388
मंत्रियों	-12389
हिट	-12390
▁गाया	-12391
▁अफसोस	-12392
▁चड्ढा	-12393
▁अश्विनी	-12394
▁असामान्य	-12395
धव	-12396
ोव	-12397
-22	-12398
▁किस्से	-12399
▁सम्मिलित	-12400
ईस	-12401
्यम	-12402
endra	-12403
▁ताल्ल	-12404
▁तोड़कर	-12405
वादास्पद	-12406
▁धर्मग्रंथ	-12407
उप	-12408
ीजन	-12409
ृता	-12410
▁पैड	-12411
▁फेफड़ों	-12412
▁अपमानजनक	-12413
ऑन	-12414
▁मिटा	-12415
▁World	-12416
▁आनन्द	-12417
▁अब्बास	-12418
▁जवाहरलाल	-12419
ाइब	-12420
▁आदान	-12421
▁डीसी	-12422
▁कीमती	-12423
▁निबंध	-12424
▁बैंगलोर	-12425
ोहित	-12426
▁लंच	-12427
▁भेजकर	-12428
▁लड़ना	-12429
▁मध्यस्थ	-12430
▁रेखांकित	-12431
▁144	-12432
▁कैरे	-12433
▁पांव	-12434
▁Apple	-12435
▁शिरकत	-12436
▁संरक्षित	-12437
▁स्क्रिप्ट	-12438
▁जिम्बाब्वे	-12439
गीर	-12440
ages	-12441
आरएफ	-12442
▁अराज	-12443
▁मज़े	-12444
▁ओवरों	-12445
▁एमएसपी	-12446
▁कॉरपोरेट	-12447
▁परमात्मा	-12448
विस	-12449
ोशी	-12450
▁2:	-12451
▁190	-12452
विंदा	-12453
ोरियल	-12454
▁1,000	-12455
▁पुजारा	-12456
▁विस्फोटक	-12457
▁कार्बोहाइड्रेट	-12458
दड़	-12459
ष्टिक	-12460
संचार	-12461
▁एडिशन	-12462
दुनिया	-12463
▁रेडमी	-12464
▁गंवाने	-12465
▁गोल्डन	-12466
▁बालिका	-12467
▁अभिभावक	-12468
िज़	-12469
िनेंट	-12470
▁तात्	-12471
▁बटलर	-12472
▁COVID	-12473
▁आभूषण	-12474
▁नामित	-12475
▁हटाकर	-12476
▁Mobile	-12477
▁अनुसरण	-12478
lication	-12479
▁शुक्रिया	-12480
▁93	-12481
▁तलब	-12482
▁सरफ	-12483
तीर्ण	-12484
RC	-12485
▁इकल	-12486
▁कर्नल	-12487
▁बाबरी	-12488
▁आशुतोष	-12489
▁ताकतवर	-12490
▁माइक्र	-12491
ौरन	-12492
▁रिस्क	-12493
▁अहमियत	-12494
▁केमिकल	-12495
▁नाराज़	-12496
▁महाकुंभ	-12497
▁राजनयिक	-12498
▁विवादास्पद	-12499
200	-12500
एलसी	-12501
दिया	-12502
▁कस्बे	-12503
▁गियरबॉक्स	-12504
ms	-12505
ओएस	-12506
57	-12507
उंस	-12508
oney	-12509
मैटिक	-12510
▁रोहत	-12511
▁Bihar	-12512
▁बैकअप	-12513
▁मुस्त	-12514
▁ग्यारह	-12515
▁YouTube	-12516
▁ब्राउज़र	-12517
▁कार्यशाला	-12518
नए	-12519
ake	-12520
▁बापू	-12521
▁रोहि	-12522
▁सौरव	-12523
▁प्रताड़ित	-12524
▁विज्ञापनों	-12525
▁कार्यान्वयन	-12526
▁एमएम	-12527
▁केसर	-12528
पोरेशन	-12529
▁कुश्ती	-12530
▁महाभारत	-12531
pl	-12532
षे	-12533
लीटर	-12534
ेटिक	-12535
▁भाटिया	-12536
▁परिपक्व	-12537
AD	-12538
▁मर्या	-12539
▁कमज़ोर	-12540
▁ग्रेटर	-12541
▁लाभप्रद	-12542
▁रेस्तरां	-12543
वीन	-12544
▁02	-12545
जीवी	-12546
▁नाश	-12547
▁राजे	-12548
▁जर्मन	-12549
▁वाक्य	-12550
▁अथॉरिटी	-12551
▁2.0	-12552
▁3.5	-12553
▁ब्रश	-12554
▁इलाका	-12555
▁ब्रिज	-12556
▁नर्सिंग	-12557
न्नत	-12558
▁थाई	-12559
▁पिंक	-12560
▁मर्जी	-12561
▁माइकल	-12562
▁लड़ते	-12563
▁धर्मों	-12564
▁मुकाबलों	-12565
ात्	-12566
ates	-12567
ानुमान	-12568
▁उजाला	-12569
▁क्षमताओं	-12570
BSE	-12571
ोसिस	-12572
▁दबद	-12573
▁डीलर	-12574
▁लगाम	-12575
▁स्ला	-12576
▁चालीसा	-12577
▁एकदिवसीय	-12578
▁पोर्टफोल	-12579
ंगर	-12580
▁लां	-12581
▁ऋतिक	-12582
▁पाली	-12583
▁नेताजी	-12584
▁स्टोक्स	-12585
वॉ	-12586
सक	-12587
way	-12588
सूर	-12589
रेटिव	-12590
▁Khan	-12591
▁बर्न	-12592
▁लगना	-12593
▁गन्ना	-12594
▁नैतिकता	-12595
68	-12596
▁अड़	-12597
▁जीवंत	-12598
▁गुजरने	-12599
▁स्तरों	-12600
▁सम्पन्न	-12601
▁राष्ट्रवाद	-12602
▁आस्ट्रेलिया	-12603
फ़्ट	-12604
▁लपेट	-12605
▁अनुया	-12606
भीत	-12607
▁भट	-12608
बाज़ी	-12609
▁रहीम	-12610
▁पक्षी	-12611
▁राजदूत	-12612
pan	-12613
▁घोर	-12614
▁अनमोल	-12615
▁फिक्स	-12616
▁दोगुना	-12617
▁मालिनी	-12618
▁प्रॉब्ल	-12619
मीर	-12620
▁टर्न	-12621
▁जीतना	-12622
▁मेहमानों	-12623
▁हाइड्रेट	-12624
िशनल	-12625
्वरी	-12626
▁अनशन	-12627
▁टैरो	-12628
▁उम्मीदों	-12629
▁गायकवाड़	-12630
▁स्टैंडर्ड	-12631
▁संवेदनशीलता	-12632
MC	-12633
खूबी	-12634
▁माइन	-12635
▁कॉम्प	-12636
▁कोलंब	-12637
▁महिमा	-12638
▁हकदार	-12639
▁होल्ड	-12640
▁पढ़ाने	-12641
▁इंडोनेशिया	-12642
98	-12643
▁खू	-12644
▁उन्म	-12645
▁चश्मा	-12646
▁छुड़ा	-12647
▁जुनून	-12648
▁कामगार	-12649
▁चमकदार	-12650
▁(7	-12651
▁एट	-12652
बत्ती	-12653
▁Free	-12654
▁अनार	-12655
▁विधिव	-12656
▁बर्ताव	-12657
▁मिजोरम	-12658
▁पहलवानों	-12659
न्तर	-12660
▁रचा	-12661
▁रुझान	-12662
▁कस्टमर	-12663
▁जुड़ाव	-12664
गोर	-12665
▁खिस	-12666
▁निकलती	-12667
मनी	-12668
लिन	-12669
char	-12670
▁AAP	-12671
▁आड़	-12672
▁निज	-12673
▁आयाम	-12674
▁पीला	-12675
्यवहार	-12676
▁विकार	-12677
▁पंद्रह	-12678
▁सिब्बल	-12679
▁क्लासिक	-12680
▁कांस	-12681
▁धुंध	-12682
इंडिया	-12683
▁दिखाकर	-12684
65	-12685
ुस	-12686
ush	-12687
राणिक	-12688
▁Post	-12689
▁नियो	-12690
▁बॉबी	-12691
▁ओबामा	-12692
▁गानों	-12693
▁जिन्दगी	-12694
▁परिश्रम	-12695
▁पूर्वानुमान	-12696
▁पोर्टफोलियो	-12697
▁प्रदर्शनकारी	-12698
क्टिव	-12699
▁ड्रॉ	-12700
▁शीतल	-12701
▁Website	-12702
▁भावनाएं	-12703
मेक	-12704
ense	-12705
ायर्ड	-12706
▁हड़क	-12707
स्फीति	-12708
▁स्मरण	-12709
▁स्ट्रोक	-12710
lish	-12711
ोनिया	-12712
▁ऑफर्स	-12713
▁कमरों	-12714
▁खोलकर	-12715
▁उज्जैन	-12716
▁प्रेमिका	-12717
▁ज़्यादातर	-12718
पाठ	-12719
▁थाम	-12720
ाइलों	-12721
▁यादों	-12722
▁पुत्री	-12723
▁निःशुल्क	-12724
▁गिरफ़्तार	-12725
▁Su	-12726
▁रीति	-12727
▁छोड़े	-12728
▁कोशिशों	-12729
▁जीवनशैली	-12730
▁धर्मग्रंथों	-12731
ंजय	-12732
्बा	-12733
ated	-12734
▁टिम	-12735
▁जयंत	-12736
▁भरपाई	-12737
▁गुमराह	-12738
▁वाणिज्यिक	-12739
माई	-12740
कार्प	-12741
ूल्हे	-12742
▁पॉवर	-12743
ोत्तरी	-12744
▁सिरदर्द	-12745
ead	-12746
टॉप	-12747
▁छोर	-12748
▁थाली	-12749
▁मिलन	-12750
▁वेंट	-12751
▁सलाम	-12752
▁सहार	-12753
▁चोदने	-12754
▁शिष्य	-12755
▁शर्तें	-12756
▁म्यांमार	-12757
FC	-12758
HO	-12759
छता	-12760
पाट	-12761
एनएल	-12762
▁http	-12763
▁अंपायर	-12764
▁नर्मदा	-12765
प्रा	-12766
▁गर्ग	-12767
▁भगवंत	-12768
▁वापिस	-12769
▁स्टेन	-12770
▁क्यूंकि	-12771
▁फेडरेशन	-12772
▁रियलिटी	-12773
▁एंड्रॉयड	-12774
▁मुश्किलों	-12775
भजन	-12776
▁फेक	-12777
▁चौंक	-12778
▁क्वार	-12779
▁चौड़ा	-12780
▁यादें	-12781
▁ज़ाहिर	-12782
▁मैन्यु	-12783
MI	-12784
▁लय	-12785
ुर्र	-12786
▁खटख	-12787
▁पेर	-12788
▁ज़रा	-12789
▁1,0	-12790
agram	-12791
▁फिसल	-12792
▁ट्रेनें	-12793
▁संग्राम	-12794
▁प्रतिद्वंद्वी	-12795
▁लिक	-12796
▁वाद	-12797
▁डेटिंग	-12798
▁दोहराया	-12799
▁दाने	-12800
▁एग्जिट	-12801
▁बीएसपी	-12802
▁पौराणिक	-12803
▁कारोबारियों	-12804
▁तुष	-12805
▁बेचे	-12806
▁घुटनों	-12807
▁कलकत्ता	-12808
▁अनुमानित	-12809
▁बिख	-12810
▁cont	-12811
▁बचाओ	-12812
▁मिमी	-12813
ेंटाइन	-12814
▁बखूबी	-12815
▁पंक्ति	-12816
▁सुदर्शन	-12817
▁रोजमर्रा	-12818
▁इंडस्ट्रीज	-12819
धारक	-12820
▁डॉन	-12821
ration	-12822
ान्यास	-12823
▁पुकार	-12824
sung	-12825
▁उपास	-12826
▁एनएच	-12827
▁जमात	-12828
▁रखनी	-12829
ब्रेरी	-12830
▁फ्लॉप	-12831
▁विराम	-12832
▁गोविंदा	-12833
▁उत्तीर्ण	-12834
100	-12835
भवन	-12836
ries	-12837
▁पटक	-12838
▁एसएस	-12839
▁यज्ञ	-12840
▁कैंपस	-12841
▁मिलीं	-12842
कांक्षी	-12843
▁प्रगतिशील	-12844
▁सकल	-12845
▁आदतों	-12846
▁देसाई	-12847
ale	-12848
लॉक	-12849
भारी	-12850
ेंदु	-12851
▁130	-12852
▁Gro	-12853
▁खौफ	-12854
▁अपनों	-12855
▁बदलती	-12856
▁प्रोफ़	-12857
▁वर्कआउट	-12858
67	-12859
चाह	-12860
ब्बा	-12861
वीपी	-12862
▁नीद	-12863
▁सोचे	-12864
▁हीरा	-12865
▁टाइटल	-12866
▁विवेकान	-12867
तब	-12868
ैप	-12869
उत्	-12870
▁Am	-12871
▁कलम	-12872
▁भलाई	-12873
▁अफरीदी	-12874
▁सड़कें	-12875
▁सौहार्	-12876
हह	-12877
िमय	-12878
▁बोलता	-12879
▁वीकेंड	-12880
▁देशभक्ति	-12881
▁कॉर्पोरेट	-12882
-17	-12883
महल	-12884
डियन	-12885
पानी	-12886
बाही	-12887
▁बख्	-12888
▁एथलीट	-12889
▁जंगली	-12890
▁पंचमी	-12891
▁अंदरूनी	-12892
▁जायंट्स	-12893
▁जवाबदेही	-12894
▁धर्मशाला	-12895
▁हेल्पलाइन	-12896
नस	-12897
बच्च	-12898
वाहक	-12899
▁मसलन	-12900
केंद्र	-12901
▁साहेब	-12902
▁गुरुद्व	-12903
▁समितियों	-12904
▁अपार्टमेंट	-12905
▁th	-12906
▁इन्फ	-12907
▁झंडे	-12908
▁माइक	-12909
▁करोगे	-12910
▁बुलाने	-12911
igh	-12912
ुखी	-12913
▁नेक	-12914
▁भून	-12915
▁टोपी	-12916
▁हिजाब	-12917
▁पूरक	-12918
▁अजमेर	-12919
▁03	-12920
▁फाड़	-12921
फ़ॉर्म	-12922
सभी	-12923
Plus	-12924
▁कंध	-12925
▁परो	-12926
▁अंडा	-12927
▁सीएए	-12928
▁अन्तर	-12929
▁सेक्रेट	-12930
▁बॉयफ्रेंड	-12931
der	-12932
▁नशी	-12933
▁वेश	-12934
▁फर्श	-12935
▁मुगल	-12936
▁स्टॉप	-12937
कोच	-12938
▁2-	-12939
▁रोट	-12940
▁अनुज	-12941
▁परिवेश	-12942
नाग	-12943
हाली	-12944
▁सौम	-12945
▁रिज़	-12946
▁कक्षाओं	-12947
▁सम्पर्क	-12948
▁निमंत्रण	-12949
▁विशेषताओं	-12950
बन्ध	-12951
▁कसते	-12952
▁छूने	-12953
▁खोलें	-12954
▁दुर्व	-12955
▁दक्षता	-12956
▁रिकवरी	-12957
▁उत्सर्जन	-12958
डि़	-12959
गैरह	-12960
नानी	-12961
▁शीट	-12962
▁पारि	-12963
▁सचेत	-12964
▁गिराने	-12965
▁पात्रा	-12966
▁पुष्कर	-12967
▁फेंकने	-12968
समी	-12969
▁To	-12970
▁ex	-12971
▁चट्ट	-12972
▁प्रधाना	-12973
▁पुस्तकों	-12974
नई	-12975
▁छल	-12976
gram	-12977
▁डेल	-12978
▁सीम	-12979
▁पारा	-12980
▁बनीं	-12981
▁गीतों	-12982
▁मनाते	-12983
▁शिलान्यास	-12984
▁पतली	-12985
▁फैले	-12986
▁चाहने	-12987
▁समझकर	-12988
▁अन्तर्गत	-12989
▁देशवासियों	-12990
▁140	-12991
बरेली	-12992
▁Trad	-12993
▁जड़ी	-12994
▁कमिंस	-12995
▁गुज़र	-12996
▁रातों	-12997
▁जापानी	-12998
▁ताल्लुक	-12999
चलन	-13000
प्रे	-13001
▁प्रभार	-13002
▁इंटेलिजेंस	-13003
इसे	-13004
umar	-13005
ट्टर	-13006
संगत	-13007
स्तों	-13008
▁अद्य	-13009
▁नवाब	-13010
▁अनुमो	-13011
▁अभद्र	-13012
▁बेल्ट	-13013
▁फिंगरप्रिंट	-13014
केन	-13015
्रू	-13016
▁अयोग्य	-13017
▁पहलगाम	-13018
▁सेटिंग	-13019
PM	-13020
▁धीमा	-13021
▁मर्द	-13022
▁शायर	-13023
▁प्लेस	-13024
▁डिप्रेशन	-13025
46	-13026
चिक	-13027
ैशी	-13028
टर्स	-13029
▁फौज	-13030
▁बगा	-13031
▁फोरम	-13032
▁शासक	-13033
ेंसिंग	-13034
▁पंक्त	-13035
▁करिश्मा	-13036
▁बंदरगाह	-13037
▁स्वदेशी	-13038
▁जिलाध्यक्ष	-13039
दित	-13040
▁1984	-13041
▁जबरदस्ती	-13042
▁फाइनेंशियल	-13043
▁कॉन्ट्रैक्ट	-13044
साल	-13045
ुबली	-13046
▁सतत	-13047
▁समेट	-13048
▁उर्फी	-13049
▁तबाही	-13050
▁सेविंग	-13051
▁आश्चर्यजनक	-13052
mail	-13053
▁Net	-13054
्रोजन	-13055
▁एकेड	-13056
▁मांझी	-13057
▁खरीदें	-13058
▁हस्तियों	-13059
▁वेबसाइटों	-13060
▁कार्यालयों	-13061
जोर	-13062
▁शेफ	-13063
विन्द	-13064
▁चटर्जी	-13065
▁नवाचार	-13066
जै	-13067
▁अबू	-13068
▁सूद	-13069
▁चारा	-13070
▁Redmi	-13071
▁पक्की	-13072
▁प्रसं	-13073
▁हराने	-13074
▁कहलाता	-13075
▁सरफराज	-13076
anj	-13077
गेड	-13078
बहन	-13079
द्दू	-13080
मिंग	-13081
मैया	-13082
मोरी	-13083
▁फोटोज	-13084
▁पूर्वक	-13085
क़ी	-13086
▁वर्ड	-13087
▁दिखेगा	-13088
/2	-13089
पर्स	-13090
लग्न	-13091
▁जुआ	-13092
▁खदान	-13093
▁गूंज	-13094
▁मसूद	-13095
▁परफेक्ट	-13096
क्ड	-13097
gist	-13098
दियां	-13099
▁सगाई	-13100
पूर्ति	-13101
▁लड़ेंगे	-13102
▁सेटिंग्स	-13103
हमी	-13104
oron	-13105
मेकर	-13106
▁SBI	-13107
▁महम	-13108
▁रजा	-13109
▁डालर	-13110
▁रहित	-13111
▁एकाउंट	-13112
▁रोमांच	-13113
ve	-13114
बायोट	-13115
▁उतारे	-13116
▁पसीने	-13117
▁आबकारी	-13118
▁अविश्वास	-13119
▁मुताबिक़	-13120
▁कंटेस्टेंट	-13121
▁ID	-13122
▁यौ	-13123
यंकर	-13124
वियर	-13125
पत्ति	-13126
्रॉयड	-13127
▁केतु	-13128
▁मंज़	-13129
▁नहाने	-13130
▁संक्र	-13131
▁Realme	-13132
▁स्ट्रॉ	-13133
▁कम्प्यूटर	-13134
जीन	-13135
माबाद	-13136
▁1992	-13137
▁टुडे	-13138
▁ब्रज	-13139
▁रेसल	-13140
▁जवाबी	-13141
▁लॉन्ग	-13142
▁वैधता	-13143
▁तीव्रता	-13144
▁ज़िम्मेदार	-13145
▁जीन	-13146
▁इर्द	-13147
▁रगड़	-13148
▁मिश्रित	-13149
ero	-13150
▁Go	-13151
करों	-13152
फेयर	-13153
▁ईंट	-13154
▁एनी	-13155
▁जोस	-13156
मान्य	-13157
▁कबूल	-13158
itcoin	-13159
ड्रैगन	-13160
▁कारकों	-13161
▁प्रदोष	-13162
▁बनवाने	-13163
▁अर्थात्	-13164
▁गैंगरेप	-13165
▁वायरलेस	-13166
मुन	-13167
वाट	-13168
▁विजयी	-13169
▁चिंताजनक	-13170
▁Cl	-13171
▁ऊंचे	-13172
▁टीबी	-13173
▁बीती	-13174
▁अनलिम	-13175
▁बंगले	-13176
enefits	-13177
▁हड़कंप	-13178
▁अभियंता	-13179
ions	-13180
▁Modi	-13181
▁कचरे	-13182
▁भतीजे	-13183
▁लास्ट	-13184
▁इजराइल	-13185
▁बाइडेन	-13186
▁प्रदाता	-13187
सां	-13188
▁पिघ	-13189
▁भां	-13190
▁यहू	-13191
▁नामी	-13192
▁पीपी	-13193
▁2022)	-13194
▁लड्डू	-13195
▁बेचैनी	-13196
▁विद्वान	-13197
▁करोड़पति	-13198
▁सुप्रीमो	-13199
NE	-13200
PC	-13201
खला	-13202
▁5-	-13203
▁उग	-13204
प्लेस	-13205
▁एनजीओ	-13206
▁पुख्ता	-13207
▁मुआवजे	-13208
▁इम्यूनिटी	-13209
▁प्रदर्शनी	-13210
घ्न	-13211
▁Gen	-13212
▁Tar	-13213
▁Tra	-13214
निष्ठ	-13215
▁1989	-13216
▁अम्ब	-13217
▁कयास	-13218
▁यूजीसी	-13219
▁बदलावों	-13220
▁क्रियान्वयन	-13221
ैच	-13222
जूर	-13223
▁3-	-13224
हतिया	-13225
▁तत्पर	-13226
▁फैन्स	-13227
▁सीमेंट	-13228
ंगाबाद	-13229
▁इकबाल	-13230
▁खट्टर	-13231
▁मुफ्ती	-13232
▁ट्रीटमेंट	-13233
500	-13234
ओगे	-13235
▁sh	-13236
टाला	-13237
▁व्ह	-13238
▁जीरा	-13239
▁व्यास	-13240
▁टॉयलेट	-13241
▁रियलमी	-13242
▁रोहिणी	-13243
▁समर्थित	-13244
▁स्टेप्स	-13245
▁हमलावरों	-13246
97	-13247
जनी	-13248
स्थी	-13249
▁किम	-13250
▁सजग	-13251
▁बर्थडे	-13252
▁मिनटों	-13253
▁एक्टर्स	-13254
BC	-13255
सरी	-13256
ुमा	-13257
▁2,	-13258
परिवार	-13259
▁उपद्र	-13260
mission	-13261
▁विधिवत	-13262
--	-13263
3)	-13264
िंद	-13265
्ञा	-13266
हाड़	-13267
▁ओला	-13268
▁मैग	-13269
▁श्रो	-13270
▁चर्बी	-13271
▁पीएचडी	-13272
▁पॉली	-13273
▁वांग	-13274
▁सिमट	-13275
▁गिरकर	-13276
▁ज़िक्र	-13277
▁निर्मल	-13278
▁संलग्न	-13279
एंड	-13280
ुअल	-13281
चारे	-13282
चेरी	-13283
सेवा	-13284
▁Lok	-13285
संहार	-13286
▁अभूत	-13287
▁घुसा	-13288
▁भयंकर	-13289
▁स्वाय	-13290
▁मज़दूर	-13291
▁वोल	-13292
▁हाज	-13293
▁आसिफ	-13294
▁गाजा	-13295
▁रीढ़	-13296
ternet	-13297
▁खाड़ी	-13298
प्लेक्स	-13299
.75	-13300
▁ऑर	-13301
वाइन	-13302
▁अहि	-13303
▁फहरा	-13304
▁हमास	-13305
▁प्रहार	-13306
▁यूएसबी	-13307
ti	-13308
ितु	-13309
rick	-13310
▁अभिम	-13311
▁रवैये	-13312
▁मद्रास	-13313
जगह	-13314
पहले	-13315
▁मेम	-13316
ंजस्य	-13317
▁1993	-13318
▁पब्ल	-13319
▁रावल	-13320
▁वर्च	-13321
▁वसीम	-13322
▁बहाना	-13323
▁पर्यवे	-13324
▁परंपरागत	-13325
▁ड्रॉप	-13326
▁अनलिमिटेड	-13327
ज़ाम	-13328
▁Viv	-13329
▁डिक	-13330
स्पीड	-13331
▁असदु	-13332
▁Board	-13333
▁असंतोष	-13334
▁कंसल्ट	-13335
▁विनिमय	-13336
▁मर्यादा	-13337
▁मलेशिया	-13338
▁सुधारों	-13339
िगर	-13340
णक्य	-13341
बूबा	-13342
▁Pat	-13343
षिकेश	-13344
▁तारीखों	-13345
▁अभूतपूर्व	-13346
▁काउंसलिंग	-13347
मीत	-13348
▁टूटे	-13349
▁रखेगा	-13350
▁सावंत	-13351
▁जोड़ना	-13352
▁डिब्बे	-13353
▁व्यतीत	-13354
▁ढक	-13355
▁सलाद	-13356
▁कौशिक	-13357
▁दुष्प्रभाव	-13358
Ch	-13359
▁खंडन	-13360
▁बंदी	-13361
ओमी	-13362
▁Act	-13363
▁फ़र	-13364
▁मॉइ	-13365
▁दरें	-13366
▁2020)	-13367
▁मर्डर	-13368
▁वारंट	-13369
".	-13370
-16	-13371
ents	-13372
▁कसर	-13373
▁टिप	-13374
▁थर्ड	-13375
▁निपटा	-13376
▁योद्धा	-13377
▁स्टारर	-13378
▁विज्ञप्ति	-13379
▁श्रेणियों	-13380
▁ट्रांसपोर्ट	-13381
▁घटी	-13382
▁चूह	-13383
▁वफा	-13384
▁जाधव	-13385
▁बंधक	-13386
▁फ्रिज	-13387
▁मांगते	-13388
डरूम	-13389
▁कतई	-13390
▁दाऊ	-13391
▁देशमुख	-13392
42	-13393
OR	-13394
pen	-13395
▁www	-13396
▁कटे	-13397
▁चंप	-13398
▁1500	-13399
▁लग्ज	-13400
▁हांग	-13401
▁पन्ना	-13402
▁कोविंद	-13403
▁साहित्यिक	-13404
▁अपेक्षाकृत	-13405
▁91	-13406
▁जायें	-13407
▁पड़ाव	-13408
▁प्रसव	-13409
▁विदाई	-13410
▁सहारनपुर	-13411
▁धर्मांतरण	-13412
▁एंटरटेनमेंट	-13413
kh	-13414
atus	-13415
▁घों	-13416
▁माधव	-13417
ड्रिंग	-13418
▁बलिया	-13419
▁वॉलेट	-13420
▁चौटाला	-13421
▁डीएसपी	-13422
▁मुद्रास्फीति	-13423
उज	-13424
टीय	-13425
▁बंस	-13426
▁चादर	-13427
▁जंतर	-13428
▁सीआई	-13429
▁अवलोक	-13430
▁शासकीय	-13431
▁मोहल्ले	-13432
सफाई	-13433
▁खिलौ	-13434
▁रोते	-13435
▁सौंफ	-13436
ाधिकार	-13437
▁महासंघ	-13438
▁वर्चस्व	-13439
▁हर्ट्ज़	-13440
न्नू	-13441
प्टर	-13442
▁फेज	-13443
▁घाटे	-13444
▁विधा	-13445
▁वगैरह	-13446
▁वामपंथी	-13447
▁दूरसंचार	-13448
▁स्नैपड्रैगन	-13449
डॉ	-13450
खलन	-13451
लेन	-13452
हमति	-13453
puter	-13454
▁लड़ी	-13455
▁जोसेफ	-13456
▁नाजुक	-13457
▁बैठते	-13458
▁अभियोजन	-13459
▁एंड्रॉइड	-13460
फू	-13461
ife	-13462
▁भरें	-13463
छात्राओं	-13464
▁ऐंड्रॉयड	-13465
छे	-13466
ोले	-13467
▁नाई	-13468
email	-13469
▁वयस्क	-13470
▁विनेश	-13471
▁सिडनी	-13472
▁मानहानि	-13473
▁तुषार	-13474
▁छोड़ते	-13475
▁निष्का	-13476
▁OnePlus	-13477
▁दालचीनी	-13478
खम	-13479
▁एमए	-13480
ियाला	-13481
▁छिपे	-13482
वेंद्र	-13483
▁हौसला	-13484
▁सृष्टि	-13485
ोनिक	-13486
▁ठेस	-13487
▁तैर	-13488
▁मुट	-13489
पुल्स	-13490
▁डीडी	-13491
▁तबाह	-13492
▁पुरूष	-13493
▁रिवर्स	-13494
▁Samsung	-13495
▁ब्रिगेड	-13496
▁शिवकुमार	-13497
▁सामंजस्य	-13498
▁राज्यमंत्री	-13499
▁Di	-13500
▁कफ	-13501
ॉफ्ट	-13502
▁दंगा	-13503
▁झड़ने	-13504
▁बच्चो	-13505
▁लग्जरी	-13506
▁लड़ाकू	-13507
▁प्रतिबंधों	-13508
▁यंग	-13509
▁आख़िर	-13510
▁कोल्ड	-13511
▁निकायों	-13512
▁हरियाली	-13513
गाट	-13514
मानस	-13515
वर्ग	-13516
▁Loan	-13517
▁डिपॉ	-13518
▁मोटो	-13519
द्रोही	-13520
ब्राहिम	-13521
▁सुब्रमण	-13522
▁मुजफ्फरनगर	-13523
-23	-13524
rom	-13525
ऐसे	-13526
प्पो	-13527
▁सईद	-13528
▁सूप	-13529
कायदा	-13530
▁महोदय	-13531
मुस्लिम	-13532
▁निष्ठा	-13533
▁ड्राफ्ट	-13534
▁सुपरहिट	-13535
▁download	-13536
▁सुर्खियां	-13537
58	-13538
भद्र	-13539
▁असहज	-13540
▁लॉन्ड्रिंग	-13541
fer	-13542
उधर	-13543
▁रं	-13544
▁कंक	-13545
▁लेग	-13546
ystem	-13547
प्रेस	-13548
▁सोडा	-13549
▁बेटों	-13550
▁उद्यमी	-13551
▁कांस्य	-13552
▁समकक्ष	-13553
मानना	-13554
▁3000	-13555
▁करिए	-13556
▁मैथ्यू	-13557
▁बिंदुओं	-13558
जाल	-13559
बोध	-13560
िडोर	-13561
▁इंप	-13562
▁छठी	-13563
▁नीले	-13564
▁कमाना	-13565
▁जिस्म	-13566
▁विशेषताएं	-13567
वंश	-13568
▁डरते	-13569
▁आज्ञा	-13570
▁दबदबा	-13571
▁सोचकर	-13572
▁तकनीकों	-13573
▁बेटियां	-13574
फली	-13575
▁नट	-13576
वाकर	-13577
▁Vid	-13578
▁एएम	-13579
▁लिय	-13580
धुनिक	-13581
▁पुरे	-13582
▁दिखाती	-13583
▁महबूबा	-13584
▁सिक्के	-13585
▁इब्राहिम	-13586
▁चुनौतियां	-13587
▁प्रोड्यूसर	-13588
ver	-13589
िश्व	-13590
▁50%	-13591
▁ब्ले	-13592
▁सुधा	-13593
सायनिक	-13594
▁चौराहे	-13595
▁हिन्दुस्तान	-13596
ेंग	-13597
harat	-13598
▁आईजी	-13599
▁क्रा	-13600
▁गिरे	-13601
▁चेंज	-13602
▁पीली	-13603
▁मिडिल	-13604
▁मेरिट	-13605
▁ब्लॉगर	-13606
जनन	-13607
जियम	-13608
▁सैर	-13609
▁कैप्	-13610
▁दाना	-13611
▁आरम्भ	-13612
▁गवाही	-13613
▁बोलीं	-13614
▁माकपा	-13615
▁टुकड़ा	-13616
▁तहसीलदार	-13617
▁दुर्व्यवहार	-13618
St	-13619
एआई	-13620
▁3:	-13621
▁जिद	-13622
▁ताइ	-13623
▁हेन	-13624
▁बीबी	-13625
▁खतरों	-13626
▁माउंट	-13627
▁रॉकेट	-13628
▁लगाता	-13629
▁रिपोर्टों	-13630
ann	-13631
▁रेन	-13632
िक्षा	-13633
▁हरभजन	-13634
▁हाइपर	-13635
▁नीदरलैंड	-13636
.।	-13637
▁छत्र	-13638
▁अफेयर	-13639
▁अमृता	-13640
▁नवजोत	-13641
▁पहुंचता	-13642
▁लाइब्रेरी	-13643
▁यम	-13644
ocial	-13645
▁फतेह	-13646
▁वर्दी	-13647
▁स्कॉट	-13648
▁अमरीकी	-13649
▁भड़काऊ	-13650
▁गाजीपुर	-13651
hab	-13652
पटा	-13653
बिल्ट	-13654
▁प्लेन	-13655
▁सीज़न	-13656
▁लक्षित	-13657
किया	-13658
चिंग	-13659
▁1971	-13660
▁एनसी	-13661
▁घाटा	-13662
▁वरीय	-13663
▁डालता	-13664
Sc	-13665
सबसे	-13666
▁टोन	-13667
▁चेतन	-13668
▁प्रच	-13669
▁एशियन	-13670
▁चुनते	-13671
▁बेवजह	-13672
▁अवलोकन	-13673
▁अष्टमी	-13674
▁बाधाओं	-13675
▁इमारतों	-13676
EC	-13677
US	-13678
ger	-13679
चेन	-13680
ब्लू	-13681
▁हाथरस	-13682
▁कुरैशी	-13683
▁कविताओं	-13684
▁नेगेटिव	-13685
▁सस्पेंड	-13686
air	-13687
▁बगी	-13688
स्तीन	-13689
▁बटोर	-13690
▁आठवें	-13691
▁प्रज्ञा	-13692
ou	-13693
ऐसा	-13694
बिट	-13695
स्टे	-13696
▁इसमे	-13697
वर्गीय	-13698
▁बंगला	-13699
▁चाणक्य	-13700
▁अवमानना	-13701
▁आवेदकों	-13702
▁खेर	-13703
मार्क	-13704
▁चटनी	-13705
▁सूखी	-13706
▁चित्त	-13707
▁बचाना	-13708
▁वॉट्स	-13709
जोड़	-13710
▁Tech	-13711
▁तुमको	-13712
▁मेंबर	-13713
▁6.5	-13714
▁कथन	-13715
▁घने	-13716
▁मंथन	-13717
▁चूर्ण	-13718
▁चैम्प	-13719
त्तियां	-13720
▁इस्लामाबाद	-13721
▁इल	-13722
▁जप	-13723
▁Par	-13724
▁ठुक	-13725
▁हाम	-13726
टेलाइट	-13727
▁जाऊंगा	-13728
▁सौंपने	-13729
▁विनिर्माण	-13730
TI	-13731
▁ऑर्	-13732
▁जड़ा	-13733
▁वॉटर	-13734
▁क्लिन	-13735
▁रामनाथ	-13736
▁महाराजा	-13737
▁असदुद्दीन	-13738
लोगों	-13739
▁तेलुगु	-13740
▁स्त्रोत	-13741
▁निस	-13742
▁रसी	-13743
▁होट	-13744
उत्तर	-13745
▁आइसो	-13746
▁गोबर	-13747
▁भांति	-13748
▁टेक्स्ट	-13749
▁स्वायत्त	-13750
अरे	-13751
▁छपी	-13752
▁यों	-13753
▁क़रीब	-13754
▁टेंडर	-13755
▁बेचना	-13756
▁वैर	-13757
गिर्द	-13758
▁कराकर	-13759
▁खटखटा	-13760
▁खुलेआम	-13761
▁चिह्नित	-13762
erson	-13763
▁भुना	-13764
▁योनि	-13765
सिद्धि	-13766
निर्माण	-13767
▁मुम्बई	-13768
▁खेलेंगे	-13769
▁संस्थागत	-13770
▁इन्वेस्टमेंट	-13771
ंपर	-13772
पों	-13773
चुरी	-13774
पुलिस	-13775
ंजा	-13776
काशी	-13777
▁नायर	-13778
▁बाबत	-13779
▁लुभा	-13780
एनसीआर	-13781
▁राजनेताओं	-13782
▁मुजफ्फरपुर	-13783
mm	-13784
▁Mah	-13785
▁स्कै	-13786
▁कन्नड़	-13787
▁प्रतिरक्षा	-13788
पदी	-13789
शाक	-13790
देना	-13791
▁पीपल	-13792
पश्चिम	-13793
▁गन्ने	-13794
▁तस्कर	-13795
▁वर्गी	-13796
▁आराधना	-13797
▁स्टालिन	-13798
▁रासायनिक	-13799
जॉन	-13800
▁ठग	-13801
शर्ट	-13802
▁SEO	-13803
▁चिन्	-13804
▁अखरोट	-13805
▁ब्लाक	-13806
hy	-13807
▁Sk	-13808
laim	-13809
▁कलश	-13810
▁Serv	-13811
▁टाउन	-13812
▁मैडम	-13813
▁निस्त	-13814
▁जातिगत	-13815
eek	-13816
टकर	-13817
डिय	-13818
▁डकै	-13819
▁जिता	-13820
▁यूनि	-13821
विमर्श	-13822
▁जन्मा	-13823
▁मातों	-13824
▁राठौर	-13825
▁बिल्ली	-13826
▁व्याप्त	-13827
66	-13828
▁वॉच	-13829
▁देशी	-13830
▁मुल्	-13831
▁दिलाता	-13832
▁मातोंडकर	-13833
▁रायबरेली	-13834
▁त्योहारों	-13835
जेट	-13836
ोनी	-13837
▁le	-13838
यनों	-13839
▁Spe	-13840
▁पचा	-13841
▁केबल	-13842
▁बयां	-13843
▁न्यूरो	-13844
▁पीडीएफ	-13845
▁पक्षियों	-13846
▁मेटाबॉलिज्म	-13847
लग	-13848
▁अच	-13849
ream	-13850
वकों	-13851
्रित	-13852
▁बैटर	-13853
▁2023:	-13854
▁इशारे	-13855
▁खर्चा	-13856
▁पौष्टिक	-13857
▁सेक्रेटरी	-13858
सैनिक	-13859
▁एयरलाइन	-13860
▁सिफारिशों	-13861
▁ठगी	-13862
▁रत्	-13863
प्रधानमंत्री	-13864
सुबह	-13865
क्सिन	-13866
▁किसकी	-13867
▁ड्रीम	-13868
▁बचाता	-13869
▁चार्जर	-13870
▁पीपुल्स	-13871
▁मार्जिन	-13872
▁प्रभावों	-13873
▁कसम	-13874
ुलेशन	-13875
▁मेहर	-13876
▁चैत्र	-13877
▁फ्लैग	-13878
▁भट्टा	-13879
▁बीएसएफ	-13880
▁मेडिसिन	-13881
▁एजेंसियां	-13882
▁शम	-13883
पांच	-13884
▁पूरन	-13885
▁असफलता	-13886
▁उपरांत	-13887
▁प्यारा	-13888
▁रविचंद्रन	-13889
▁अवा	-13890
▁गजब	-13891
ोलनों	-13892
▁दाढ़ी	-13893
ett	-13894
press	-13895
वाईसी	-13896
▁धक्के	-13897
▁गवाहों	-13898
▁माधुरी	-13899
▁एसिडिटी	-13900
▁पाटीदार	-13901
▁बूट	-13902
व्यों	-13903
▁कैरी	-13904
▁बकरी	-13905
क्साइड	-13906
▁रोकता	-13907
▁ट्रैवल	-13908
▁प्रजनन	-13909
▁फिल्टर	-13910
▁समुचित	-13911
▁पाण्डेय	-13912
▁कमर्शियल	-13913
▁सब्सक्रिप्शन	-13914
omi	-13915
फर्म	-13916
▁1995	-13917
▁दौलत	-13918
▁लोहा	-13919
▁अड्डा	-13920
vest	-13921
▁इलाय	-13922
▁Kaise	-13923
▁त्रासदी	-13924
▁उंगलियों	-13925
ोला	-13926
खबरी	-13927
▁with	-13928
▁बाते	-13929
ामाजिक	-13930
▁उठाएं	-13931
▁हंसते	-13932
▁जंक्शन	-13933
▁वर्णित	-13934
▁वॉर्नर	-13935
▁भागलपुर	-13936
▁ग्रेजुएट	-13937
▁सम्बन्धित	-13938
oss	-13939
▁झांसी	-13940
श्कर	-13941
▁तमा	-13942
▁नमः	-13943
ैक्शन	-13944
▁आलेख	-13945
स्क्यू	-13946
▁लिफ्ट	-13947
▁उन्नाव	-13948
▁प्रणाल	-13949
इये	-13950
asht	-13951
▁Cha	-13952
▁टोट	-13953
▁ध्वज	-13954
▁परोस	-13955
▁राक्ष	-13956
▁फंडिंग	-13957
▁बृजभूषण	-13958
▁भड़काने	-13959
arn	-13960
लिड	-13961
▁1-	-13962
▁8.	-13963
▁Of	-13964
जन्म	-13965
पसंद	-13966
▁बसंत	-13967
▁फोटोग्राफी	-13968
ili	-13969
▁झंडी	-13970
▁रूचि	-13971
▁महमूद	-13972
▁भरोसेमंद	-13973
किब	-13974
बीच	-13975
वाब	-13976
▁im	-13977
▁(10	-13978
न्नाथ	-13979
रेक्स	-13980
▁Live	-13981
▁मित्त	-13982
▁पहुँचने	-13983
▁महामंत्री	-13984
▁अर्थशास्त्र	-13985
rime	-13986
▁असु	-13987
▁इम्	-13988
▁थका	-13989
▁पायी	-13990
त्यक्ष	-13991
▁बदलता	-13992
▁बेडरूम	-13993
▁लोकार्प	-13994
▁श्राद्ध	-13995
▁डिस्क्लेमर	-13996
हट	-13997
▁Co	-13998
न्हा	-13999
▁थोडा	-14000
▁बंसल	-14001
▁काबिज	-14002
▁घूमते	-14003
▁बोलती	-14004
▁एड्रेस	-14005
▁एनसीआर	-14006
▁व्यंग्य	-14007
डान	-14008
▁अँ	-14009
यहां	-14010
▁मंस	-14011
फोर्ड	-14012
फोर्स	-14013
▁फोगाट	-14014
▁कुत्ता	-14015
सात	-14016
▁डेन	-14017
▁दाऊद	-14018
▁बिजन	-14019
▁महुआ	-14020
▁विगत	-14021
▁घटाकर	-14022
▁online	-14023
▁भ्रामक	-14024
▁मित्तल	-14025
▁गर्भपात	-14026
▁श्रीकांत	-14027
▁सक्रियता	-14028
▁थोक	-14029
▁देहा	-14030
▁निषे	-14031
▁समझदार	-14032
बाला	-14033
बेरी	-14034
▁माई	-14035
नीकरण	-14036
▁खुदा	-14037
▁दामन	-14038
▁चाहूंगा	-14039
▁अपेक्षित	-14040
अभ	-14041
शॉट	-14042
िलर	-14043
▁सुलभ	-14044
▁हुनर	-14045
▁चोरों	-14046
▁अद्यतन	-14047
▁चिपसेट	-14048
lip	-14049
ूलन	-14050
▁अछ	-14051
▁वु	-14052
anch	-14053
ूतों	-14054
▁सुधर	-14055
▁अविनाश	-14056
▁साधनों	-14057
▁घरवालों	-14058
▁प्रयत्न	-14059
▁होस्टिंग	-14060
फेर	-14061
डियम	-14062
▁Form	-14063
▁पारस	-14064
▁काव्य	-14065
▁गवर्न	-14066
▁सुचारू	-14067
▁गाइडलाइन	-14068
EE	-14069
गिर	-14070
▁जिंद	-14071
▁दबंग	-14072
▁सिक्किम	-14073
AL	-14074
पीने	-14075
र्मू	-14076
▁Cup	-14077
▁युज	-14078
▁करुण	-14079
▁पढाई	-14080
▁पथरी	-14081
▁बहने	-14082
शाम	-14083
▁एम्	-14084
बिहार	-14085
सत्ता	-14086
स्खलन	-14087
▁नाले	-14088
▁बहार	-14089
▁इसतरह	-14090
▁कानों	-14091
▁जड़ों	-14092
▁पालतू	-14093
▁रितेश	-14094
▁आजमगढ़	-14095
▁रिक्शा	-14096
पेज	-14097
ging	-14098
▁पावन	-14099
▁मनोबल	-14100
▁दिशानिर्देशों	-14101
▁तस	-14102
पकों	-14103
▁चां	-14104
कानेर	-14105
▁कद्दू	-14106
▁कैलकु	-14107
▁वादों	-14108
▁साइटों	-14109
▁डॉक्टर्स	-14110
▁स्पष्टता	-14111
▁इलेक्ट्रॉनिक्स	-14112
▁उस्	-14113
▁नमन	-14114
▁नाता	-14115
▁नजारा	-14116
▁बिकने	-14117
▁रूपों	-14118
▁ऋषिकेश	-14119
▁क्वाली	-14120
▁रिटायर्ड	-14121
▁व्यवसायी	-14122
▁वज़न	-14123
▁हारे	-14124
प्रदान	-14125
वेन्यू	-14126
▁मार्ट	-14127
▁वांछित	-14128
▁शुभकामना	-14129
▁संग्रहालय	-14130
▁NC	-14131
▁by	-14132
▁कोठ	-14133
▁वहा	-14134
स्कूल	-14135
▁जाइए	-14136
▁बाड़	-14137
▁भूलें	-14138
▁ऋतुराज	-14139
▁छानबीन	-14140
▁स्वाति	-14141
▁उत्पादक	-14142
▁गलतियां	-14143
ification	-14144
▁दिक्कतों	-14145
▁अनुप्रयोग	-14146
rol	-14147
गांठ	-14148
▁टिकी	-14149
▁चेहरों	-14150
▁श्रीनि	-14151
▁खुशखबरी	-14152
कई	-14153
▁Se	-14154
▁कॉरिडोर	-14155
ड़ो	-14156
▁Bh	-14157
ज्जन	-14158
्रोम	-14159
▁कतर	-14160
▁Vivo	-14161
▁विरू	-14162
▁सट्टा	-14163
▁अटकलें	-14164
▁फ़ैसला	-14165
▁भंडारण	-14166
▁व्यवसायों	-14167
85	-14168
त्स	-14169
र्धा	-14170
ल्दी	-14171
लिप्त	-14172
▁5,000	-14173
▁रची	-14174
न्नों	-14175
▁100%	-14176
▁सीटी	-14177
▁कल्चर	-14178
▁एहतिया	-14179
▁account	-14180
ode	-14181
▁Dev	-14182
▁फौरन	-14183
An	-14184
वाइ	-14185
▁छे	-14186
▁राख	-14187
▁हैस	-14188
▁कांव	-14189
▁आश्रय	-14190
▁घोड़े	-14191
▁ताबड़	-14192
▁दंपति	-14193
▁छिपाने	-14194
▁हैप्पी	-14195
▁शार्दुल	-14196
▁हिस्ट्री	-14197
▁प्लेटफ़ॉर्म	-14198
ोब	-14199
ौरा	-14200
icle	-14201
च्छिक	-14202
▁पेशा	-14203
▁लाइक	-14204
▁लगाती	-14205
▁संरक्षक	-14206
र्षि	-14207
शिष्ट	-14208
▁गड्ढ	-14209
▁शुमार	-14210
▁स्टोन	-14211
▁अभिजीत	-14212
▁बुलाकर	-14213
▁ब्राउन	-14214
▁मूलभूत	-14215
▁इनबिल्ट	-14216
▁रविशंकर	-14217
▁संकेतों	-14218
▁प्रॉब्लम	-14219
-30	-14220
ईसी	-14221
एफसी	-14222
स्सा	-14223
▁रंज	-14224
▁कराची	-14225
▁ट्राइ	-14226
▁हटाना	-14227
▁पिक्चर	-14228
▁निकालें	-14229
जीब	-14230
ater	-14231
आरके	-14232
▁अशर	-14233
लिस्ट	-14234
▁जांघ	-14235
▁डेमो	-14236
▁जॉनसन	-14237
▁ब्रेड	-14238
▁सद्भाव	-14239
▁अफ्रीकी	-14240
▁लेफ्टिनेंट	-14241
7,	-14242
पिन	-14243
▁पैग	-14244
दर्शी	-14245
▁ऑप्ट	-14246
▁विवश	-14247
▁षड्य	-14248
▁गायों	-14249
▁चन्नी	-14250
▁ज़िला	-14251
▁जाओगे	-14252
ोर्निया	-14253
▁हंदवाड़ा	-14254
▁मुख्यधारा	-14255
-9	-14256
ins	-14257
र्ड्स	-14258
ष्ठान	-14259
▁आजमा	-14260
▁पकाने	-14261
▁संघीय	-14262
▁सोर्स	-14263
▁जगन्नाथ	-14264
▁सौहार्द	-14265
▁अविवाहित	-14266
TV	-14267
ंछ	-14268
वटी	-14269
▁आवि	-14270
▁काटा	-14271
▁अपवाद	-14272
▁गोदाम	-14273
▁परस्पर	-14274
▁रेस्क्यू	-14275
▁पुनर्विचार	-14276
नक	-14277
दशा	-14278
आपको	-14279
▁पतन	-14280
▁राल	-14281
▁घटित	-14282
▁डीएनए	-14283
▁दीवान	-14284
▁असहमति	-14285
▁मांगें	-14286
▁मोटापे	-14287
▁शहीदों	-14288
ech	-14289
मुक	-14290
एमआर	-14291
▁लीज	-14292
▁अनूप	-14293
▁डीआर	-14294
▁प्यू	-14295
▁सेबी	-14296
▁अविश्व	-14297
▁परीक्ष	-14298
▁वारंटी	-14299
▁नरसंहार	-14300
▁लोकार्पण	-14301
▁लख	-14302
भंगा	-14303
▁लटक	-14304
कर्मा	-14305
हमारी	-14306
▁इम्प	-14307
▁टूटी	-14308
▁खेलकर	-14309
▁इलायची	-14310
▁एक्सपी	-14311
▁टोक्यो	-14312
▁देखिये	-14313
▁वेंटिल	-14314
▁ग्लूकोज	-14315
▁मूवमेंट	-14316
▁पीढ़ियों	-14317
▁उत्तरप्रदेश	-14318
विच	-14319
स्स	-14320
duct	-14321
▁आदर	-14322
▁Phone	-14323
▁बगावत	-14324
▁अरेस्ट	-14325
▁पंडितों	-14326
गिरी	-14327
▁कैम्प	-14328
▁धनखड़	-14329
▁वैलिड	-14330
▁एकाग्र	-14331
▁क्लाउड	-14332
▁माल्या	-14333
▁वाड्रा	-14334
▁प्रेमचंद	-14335
ंधरा	-14336
न्दन	-14337
▁रैप	-14338
▁पीटर	-14339
▁बिछा	-14340
▁मसला	-14341
▁मापद	-14342
▁रोमन	-14343
▁कॉमर्स	-14344
▁मेमोरी	-14345
▁वैक्सीनेशन	-14346
▁EV	-14347
▁मठ	-14348
दयाल	-14349
रणीय	-14350
र्ता	-14351
aurus	-14352
▁ढेरों	-14353
▁भगदड़	-14354
▁शर्मि	-14355
▁बिगाड़	-14356
▁डिपॉजिट	-14357
▁विश्राम	-14358
ूल्य	-14359
▁जुबान	-14360
▁बांटा	-14361
▁लोकपाल	-14362
▁ब्लास्ट	-14363
डली	-14364
फ़र	-14365
▁Sha	-14366
▁काश	-14367
मानंद	-14368
▁दाता	-14369
▁पैंट	-14370
▁रोके	-14371
▁सफ़र	-14372
▁शिल्प	-14373
▁खेसारी	-14374
▁रैलियों	-14375
▁युजवेंद्र	-14376
unch	-14377
▁करन	-14378
▁हुयी	-14379
▁अंकुर	-14380
▁लिखें	-14381
▁रणनीतियों	-14382
▁टिप्पणियां	-14383
.15	-14384
खिक	-14385
ाइश	-14386
icro	-14387
खेड़े	-14388
▁ख़ूब	-14389
▁संगत	-14390
ियोग्रा	-14391
▁उपक्रम	-14392
▁उपासना	-14393
▁दुबारा	-14394
▁अध्ययनों	-14395
▁इम्युनिटी	-14396
72	-14397
▁सैं	-14398
डमिंटन	-14399
▁मोक्ष	-14400
▁लश्कर	-14401
▁एकतरफा	-14402
▁गुजराती	-14403
▁रामलीला	-14404
पाक	-14405
हला	-14406
▁Min	-14407
▁कंज	-14408
द्रिक	-14409
▁डिजी	-14410
▁फ्यूल	-14411
▁मुर्मू	-14412
▁सीरीज़	-14413
▁ढूँ	-14414
कमिंग	-14415
▁एलजी	-14416
▁कन्व	-14417
▁कांच	-14418
▁दाएं	-14419
▁अरमान	-14420
▁दायरा	-14421
▁दीजिये	-14422
▁श्रीदेवी	-14423
Vir	-14424
view	-14425
▁सटे	-14426
प्लीट	-14427
▁गयीं	-14428
▁चटका	-14429
▁मादक	-14430
▁हरमन	-14431
कारिता	-14432
▁कमाते	-14433
▁योगेश	-14434
hani	-14435
हांत	-14436
किनार	-14437
▁गुफा	-14438
▁लगाव	-14439
▁दरगाह	-14440
▁सूचनाओं	-14441
ीश	-14442
जेब	-14443
▁ST	-14444
रोधी	-14445
▁Tips	-14446
▁किला	-14447
▁सेंस	-14448
▁तड़के	-14449
▁ढूंढने	-14450
▁अविश्वसनीय	-14451
अर्	-14452
दीव	-14453
वाड	-14454
िरे	-14455
▁नॉम	-14456
शांति	-14457
▁नवनि	-14458
▁बदतर	-14459
▁शाका	-14460
▁लिक्व	-14461
▁हजारे	-14462
▁इमोशनल	-14463
▁डिवीजन	-14464
▁ताबड़तोड़	-14465
ami	-14466
▁टोकन	-14467
▁साजिद	-14468
▁गुजरना	-14469
▁व्हीकल	-14470
▁सेलेक्ट	-14471
▁अस्थिरता	-14472
▁निराशाजनक	-14473
83	-14474
▁Ke	-14475
एसडी	-14476
ैलरी	-14477
▁लगन	-14478
ंबाकू	-14479
कार्य	-14480
▁फ्लैश	-14481
▁टर्मिनल	-14482
▁ऑटोमैटिक	-14483
▁हिन्दुओं	-14484
76	-14485
▁नस्ल	-14486
▁प्लग	-14487
▁बरती	-14488
▁ब्री	-14489
▁चावला	-14490
▁बेवकू	-14491
▁अक्षरा	-14492
▁आवागमन	-14493
▁सबूतों	-14494
▁न्यूट्र	-14495
▁कॉमेडियन	-14496
▁घोषणापत्र	-14497
▁संक्रांति	-14498
▁उत्तराखण्ड	-14499
ुज	-14500
तनी	-14501
हीर	-14502
ंगार	-14503
▁res	-14504
प्रेम	-14505
▁सैंड	-14506
▁फ्रेश	-14507
▁बयानबाजी	-14508
मिश	-14509
समृ	-14510
▁अधूरी	-14511
▁दर्जे	-14512
my	-14513
adav	-14514
ower	-14515
▁450	-14516
▁धनी	-14517
▁सरे	-14518
▁रेणु	-14519
▁एजेंडे	-14520
▁खींचने	-14521
▁इंसानों	-14522
▁धमाकेदार	-14523
▁प्रतिरोधक	-14524
OO	-14525
ral	-14526
कित	-14527
ूमत	-14528
गासस	-14529
दराज	-14530
▁टंडन	-14531
▁नवरा	-14532
▁रंगीन	-14533
▁दृढ़ता	-14534
▁वैष्णव	-14535
▁दरकिनार	-14536
tel	-14537
umb	-14538
ट्रिक	-14539
▁परिष	-14540
▁मुखर	-14541
▁विदा	-14542
▁क्रीज	-14543
▁बर्बर	-14544
▁सोचें	-14545
▁कोशिशें	-14546
▁मलेरिया	-14547
▁छात्रवृत्ति	-14548
▁हाय	-14549
▁कलाम	-14550
▁सवर्	-14551
▁कमाया	-14552
▁दूषित	-14553
▁मिलनी	-14554
▁लाभों	-14555
▁विक्र	-14556
▁Maruti	-14557
▁व्यंजन	-14558
▁अमेरिकन	-14559
▁संलिप्त	-14560
▁छात्रावास	-14561
64	-14562
बिर	-14563
शूट	-14564
▁आगाज	-14565
▁झुग्	-14566
▁कहावत	-14567
▁उदासीन	-14568
तृक	-14569
शाद	-14570
▁गन	-14571
▁क्विंट	-14572
▁पहुँचे	-14573
तून	-14574
सिव	-14575
▁ढाल	-14576
riend	-14577
▁बेसन	-14578
्यूटिव	-14579
▁2021:	-14580
▁ऐप्पल	-14581
▁चौकों	-14582
▁उड़ाने	-14583
▁जामिया	-14584
▁रिजवान	-14585
▁हैसियत	-14586
▁अपकमिंग	-14587
▁पुरोहित	-14588
TT	-14589
▁कराता	-14590
▁बहाली	-14591
▁संकोच	-14592
▁फ्यूचर	-14593
▁साक्षर	-14594
▁सर्जिकल	-14595
▁बढ़ोत्तरी	-14596
▁औरंग	-14597
▁मीठे	-14598
▁सेतु	-14599
▁अभिया	-14600
▁ब्लाउज	-14601
▁Ind	-14602
▁कारी	-14603
▁टीजर	-14604
▁पछता	-14605
▁पतला	-14606
▁ट्रिब	-14607
▁मिलाने	-14608
▁मुट्ठी	-14609
▁रुद्रा	-14610
दह	-14611
ext	-14612
▁De	-14613
ंबना	-14614
हारा	-14615
▁काठ	-14616
▁भैर	-14617
▁रपट	-14618
ैलेंट	-14619
▁खोली	-14620
▁हिना	-14621
▁छलांग	-14622
▁इंटरनल	-14623
▁इच्छाओं	-14624
▁दुश्मनी	-14625
▁बीकानेर	-14626
▁सज्जन	-14627
▁निलंबन	-14628
▁फैक्टर	-14629
▁षड्यंत्र	-14630
▁पड़ोसियों	-14631
िमल	-14632
क्कन	-14633
▁मोइ	-14634
▁साख	-14635
▁आजतक	-14636
▁क़दम	-14637
▁पिएं	-14638
आईपीएल	-14639
▁बीजों	-14640
▁एलआईसी	-14641
▁सीपीआई	-14642
▁असमानता	-14643
▁विस्थापित	-14644
▁विक्रेताओं	-14645
धम	-14646
त्ल	-14647
ेगा	-14648
ैक्स	-14649
▁जैश	-14650
▁पैतृक	-14651
▁वीआईपी	-14652
शास्त्री	-14653
▁वसुंधरा	-14654
SI	-14655
ेह	-14656
ane	-14657
ोलिक	-14658
▁मंथ	-14659
▁कुपोषण	-14660
▁चैम्पियन	-14661
▁स्थितियां	-14662
▁जिम्मेदारियों	-14663
.10	-14664
row	-14665
▁कैट	-14666
▁हेज	-14667
▁चालीस	-14668
▁लॉटरी	-14669
▁स्कूटी	-14670
▁विवेकानंद	-14671
ट्टू	-14672
सेंट	-14673
▁एंगल	-14674
▁सुखा	-14675
मोबाइल	-14676
▁Smart	-14677
▁खालिद	-14678
▁घुसने	-14679
▁वेंकट	-14680
▁शौकीन	-14681
▁सर्जन	-14682
▁डीसीपी	-14683
▁रॉबर्ट	-14684
▁सामर्थ	-14685
▁संतुष्टि	-14686
▁कल्याणकारी	-14687
▁प्रसंस्करण	-14688
महारा	-14689
▁करंट	-14690
▁करुणा	-14691
▁गड़बड़	-14692
▁एकजुटता	-14693
▁चर्चाओं	-14694
▁बहुसंख्य	-14695
▁हार्डवेयर	-14696
▁दंग	-14697
▁घेरा	-14698
▁संधि	-14699
▁कुणाल	-14700
▁दसवीं	-14701
▁मूर्त	-14702
▁अपनाएं	-14703
▁ठिकाने	-14704
▁गुनगुने	-14705
TR	-14706
▁4:	-14707
▁उब	-14708
गंगा	-14709
ित्री	-14710
्युलर	-14711
▁खीरी	-14712
▁समलै	-14713
▁होड़	-14714
▁अंदाज़	-14715
ठन	-14716
पुत्र	-14717
▁काटे	-14718
▁वीर्य	-14719
▁टीवीएस	-14720
▁पटियाला	-14721
▁कार्यभार	-14722
▁समायोजित	-14723
IPL	-14724
ितर	-14725
▁यूथ	-14726
▁पीवी	-14727
▁लेडी	-14728
▁शिरो	-14729
▁आईपीओ	-14730
▁क्लियर	-14731
▁बेकिंग	-14732
▁स्पर्धा	-14733
▁परख	-14734
▁हिद	-14735
▁आर्म	-14736
▁सबने	-14737
बीजेपी	-14738
▁ज्वेल	-14739
▁तंबाकू	-14740
▁संप्रभु	-14741
▁वानखेड़े	-14742
▁हांगकांग	-14743
▁प्रतिस्पर्धी	-14744
LED	-14745
्सन	-14746
▁Ag	-14747
बाबू	-14748
▁बैरल	-14749
▁मैरी	-14750
▁अधूरा	-14751
▁सुगंध	-14752
▁मुनाफे	-14753
▁2020-21	-14754
▁2021-22	-14755
▁त्रिवेदी	-14756
▁मुरादाबाद	-14757
्ब	-14758
itt	-14759
गृह	-14760
▁घब	-14761
ानुसार	-14762
▁महापौर	-14763
▁स्प्रे	-14764
▁साहित्यकार	-14765
नाज	-14766
rypt	-14767
▁जले	-14768
▁post	-14769
▁रचने	-14770
▁सभ्य	-14771
▁दुष्य	-14772
▁गोलियों	-14773
ama	-14774
किर	-14775
िपथ	-14776
▁4-	-14777
▁नीच	-14778
▁मारते	-14779
▁डिजाइनर	-14780
▁मनुष्यों	-14781
43	-14782
लन	-14783
विट	-14784
जीशन	-14785
▁कों	-14786
▁फोर	-14787
िल्ला	-14788
▁गुंज	-14789
▁भैंस	-14790
▁खराबी	-14791
▁बीएसई	-14792
▁अप्रत्यक्ष	-14793
▁रचनात्मकता	-14794
ुए	-14795
ुमन	-14796
रेंस	-14797
स्टी	-14798
▁जेठ	-14799
▁धुन	-14800
▁लिं	-14801
▁छिपी	-14802
▁फ़ीस	-14803
▁मिर्	-14804
▁भत्ते	-14805
▁कटाक्ष	-14806
▁मानदंडों	-14807
ताज	-14808
दौर	-14809
▁नें	-14810
▁Note	-14811
▁असीम	-14812
▁मेलब	-14813
▁रीना	-14814
▁वसंत	-14815
न्दा	-14816
शोधन	-14817
समैन	-14818
ब्रिड	-14819
▁बिखर	-14820
▁बढ़ाए	-14821
▁लचीला	-14822
▁स्थाई	-14823
▁उपग्रह	-14824
▁कॉरपोरेशन	-14825
▁प्रवासियों	-14826
बीस	-14827
रेड	-14828
शब्	-14829
्ये	-14830
ौपदी	-14831
▁खेमे	-14832
▁पराग	-14833
▁मेनू	-14834
▁मौसी	-14835
ान्वित	-14836
▁Share	-14837
▁ख़र्च	-14838
▁जेलों	-14839
▁डिंपल	-14840
▁नितीश	-14841
▁बलराम	-14842
▁रूटीन	-14843
▁संतों	-14844
फन	-14845
रार	-14846
दौड़	-14847
बाज़	-14848
▁टर्	-14849
orpio	-14850
▁NEET	-14851
▁कैडर	-14852
▁खोलना	-14853
▁सुनें	-14854
▁रोज़गार	-14855
▁लिक्विड	-14856
▁हज़ारों	-14857
▁याचिकाकर्ताओं	-14858
अद	-14859
les	-14860
▁mov	-14861
▁चूच	-14862
प्रथम	-14863
▁ऑक्स	-14864
▁करूँ	-14865
▁टूटा	-14866
▁शरार	-14867
▁दरभंगा	-14868
▁नेपाली	-14869
▁Bitcoin	-14870
▁प्रसन्नता	-14871
▁दुकानदारों	-14872
▁इंफ्रास्ट्रक्चर	-14873
IN	-14874
एमई	-14875
हानी	-14876
▁जैव	-14877
laimer	-14878
▁कमलेश	-14879
▁सॉन्ग	-14880
▁असुरक्षित	-14881
▁थर्म	-14882
▁यारू	-14883
▁वेणु	-14884
ारमैया	-14885
▁माहिर	-14886
▁समयान	-14887
▁अमीरात	-14888
▁बैडमिंटन	-14889
▁राजेन्द्र	-14890
जतन	-14891
खारी	-14892
युद्ध	-14893
▁राइफल	-14894
▁अजवाइन	-14895
▁जिम्मा	-14896
▁नुस्खे	-14897
▁रिमांड	-14898
▁असुविधा	-14899
▁पार्टनरशिप	-14900
▁संक्रमितों	-14901
use	-14902
ंबे	-14903
जीबी	-14904
क्रेट	-14905
▁गोपी	-14906
▁धमाका	-14907
▁फलदायी	-14908
कील	-14909
▁1.2	-14910
ैशियम	-14911
▁card	-14912
▁इराक	-14913
▁ग्रेट	-14914
▁मैक्सवेल	-14915
▁सत्यापित	-14916
9,	-14917
▁तग	-14918
क़ात	-14919
▁High	-14920
▁वीपी	-14921
▁साँस	-14922
▁एडिटर	-14923
▁खींचा	-14924
▁सफ़ेद	-14925
▁कमेंट्स	-14926
▁दवाइयों	-14927
▁विडंबना	-14928
▁तनावपूर्ण	-14929
▁Sub	-14930
▁घसी	-14931
▁बेग	-14932
▁मौज	-14933
▁अनवर	-14934
▁ग्लेन	-14935
▁वैद्य	-14936
▁अनुपमा	-14937
▁आलाकमान	-14938
▁पेंटिंग	-14939
िगो	-14940
▁खीर	-14941
iaomi	-14942
▁संगी	-14943
तेश्वर	-14944
▁घटिया	-14945
▁मिलान	-14946
▁सीड्स	-14947
▁BS	-14948
▁उखा	-14949
▁टहल	-14950
▁नंगी	-14951
▁बसें	-14952
▁Tarot	-14953
▁बारात	-14954
▁मिस्टर	-14955
isclaimer	-14956
▁मुख्यमंत्रियों	-14957
्वाह	-14958
▁चने	-14959
ंपर्क	-14960
जेंडर	-14961
▁Const	-14962
▁अनगिन	-14963
▁आभारी	-14964
▁रणदीप	-14965
▁अनजाने	-14966
▁ग्रोवर	-14967
▁हिदायत	-14968
▁मोहल्ला	-14969
▁विरूद्ध	-14970
▁पेशेवरों	-14971
▁बच्चियों	-14972
▁वेरिफिकेशन	-14973
54	-14974
78	-14975
्रफ	-14976
विशेष	-14977
▁ओमेगा	-14978
▁ठुकरा	-14979
▁थानों	-14980
▁सेल्फ	-14981
▁Police	-14982
▁गतिरोध	-14983
▁पहचानने	-14984
▁अनुपस्थिति	-14985
▁सिद्धारमैया	-14986
▁;	-14987
कुशी	-14988
▁use	-14989
▁Word	-14990
▁मेधा	-14991
▁इकोनॉ	-14992
▁मशरूम	-14993
▁स्ट्रे	-14994
▁निशुल्क	-14995
▁मूंगफली	-14996
▁एक्सीडेंट	-14997
BS	-14998
ंघम	-14999
सपा	-15000
ाया	-15001
▁मुन	-15002
▁लाउड	-15003
▁चप्पल	-15004
▁चोटें	-15005
▁झेलनी	-15006
▁अमेज़न	-15007
▁अस्थमा	-15008
व्	-15009
.40	-15010
▁at	-15011
ॉनिक	-15012
▁विवि	-15013
▁निखिल	-15014
▁चंद्रा	-15015
ैस	-15016
आरटी	-15017
▁Dis	-15018
▁धुआ	-15019
▁1994	-15020
▁खुदाई	-15021
▁जैकेट	-15022
▁ट्रांज	-15023
▁मार्शल	-15024
▁सुनहरा	-15025
▁2019-20	-15026
▁ज्योतिषीय	-15027
▁विशेषज्ञता	-15028
BJP	-15029
amil	-15030
नीचर	-15031
▁Web	-15032
▁मरे	-15033
गार्ड	-15034
बुद्ध	-15035
▁धोखे	-15036
▁बाली	-15037
सरकारी	-15038
▁Uttar	-15039
▁स्विंग	-15040
▁जुर्माने	-15041
पना	-15042
मृत	-15043
▁105	-15044
▁तीज	-15045
▁कटाई	-15046
▁डराव	-15047
▁डीजी	-15048
नारायण	-15049
▁ग़ज़ल	-15050
▁पेगासस	-15051
▁भाषणों	-15052
▁मार्गों	-15053
▁परंपराओं	-15054
▁प्रोटेक्शन	-15055
▁डिश	-15056
▁अर्न	-15057
▁गलतफ	-15058
▁टेंशन	-15059
▁हंसने	-15060
प्रदर्शन	-15061
▁मिलेंगी	-15062
▁परिस्थितियां	-15063
▁ke	-15064
isan	-15065
वापी	-15066
हादत	-15067
सेंजर	-15068
▁नीतू	-15069
▁सभाग	-15070
▁बेचकर	-15071
▁बैठना	-15072
▁मौसमी	-15073
▁उद्यान	-15074
▁मिटाने	-15075
पढ़	-15076
▁Ans	-15077
▁रुद्र	-15078
▁दोगुनी	-15079
▁लोहिया	-15080
▁द्	-15081
गिंग	-15082
प्रण	-15083
▁जनक	-15084
▁हीं	-15085
▁अचार	-15086
▁फिक्	-15087
▁मिशेल	-15088
▁वैरिएंट	-15089
▁उपयोगिता	-15090
▁सुब्रमण्यम	-15091
unj	-15092
खान	-15093
▁1.0	-15094
▁ट्रिप	-15095
▁बनायी	-15096
▁द्रौपदी	-15097
▁लाठीचार्ज	-15098
sp	-15099
गुण	-15100
नाड	-15101
▁शृ	-15102
आईजी	-15103
गामी	-15104
▁Sec	-15105
▁उछल	-15106
▁लुध	-15107
िताओं	-15108
▁आरके	-15109
▁नंदी	-15110
▁बेबा	-15111
▁हायर	-15112
▁first	-15113
▁उपभोग	-15114
▁ओप्पो	-15115
▁बूढ़े	-15116
▁मक्का	-15117
▁संबित	-15118
▁धूमधाम	-15119
▁प्रशास	-15120
▁सिखाने	-15121
▁पाठ्यक्रमों	-15122
▁101	-15123
▁एप्प	-15124
्टरनेट	-15125
▁रंजीत	-15126
▁स्लिप	-15127
▁ख़बरों	-15128
▁बिस्वा	-15129
▁मनमानी	-15130
▁हुकूमत	-15131
▁वॉट्सऐप	-15132
▁जन्माष्टमी	-15133
▁बांग्लादेशी	-15134
ift	-15135
ज़त	-15136
ान्त	-15137
▁कीट	-15138
▁बीर	-15139
▁तड़प	-15140
▁बुढ़	-15141
▁मीठी	-15142
▁वाइस	-15143
▁पांचवीं	-15144
▁समयानुसार	-15145
DC	-15146
ानगर	-15147
▁वॉर	-15148
▁ख़ुश	-15149
▁तबके	-15150
▁रहिए	-15151
▁सुखी	-15152
▁स्ट्रेस	-15153
6)	-15154
पूरी	-15155
गाड़ी	-15156
▁इंगित	-15157
▁कोयले	-15158
▁परिसंप	-15159
▁मिलाया	-15160
▁महासागर	-15161
▁Bl	-15162
ब्बर	-15163
▁बेद	-15164
▁बीआर	-15165
▁वोडा	-15166
▁प्रातः	-15167
▁स्टेटमेंट	-15168
लबे	-15169
▁Im	-15170
▁घू	-15171
▁Sup	-15172
▁उदित	-15173
▁शारदा	-15174
समृद्धि	-15175
▁डायमंड	-15176
▁तबादला	-15177
▁नतीजतन	-15178
▁अफवाहों	-15179
82	-15180
ंवै	-15181
रेल	-15182
▁आशय	-15183
▁रास	-15184
▁साँ	-15185
▁अंधा	-15186
▁आदिल	-15187
▁सरमा	-15188
▁लिविंग	-15189
.05	-15190
ुला	-15191
▁or	-15192
▁आईएस	-15193
▁इसरो	-15194
▁गंदे	-15195
▁किसका	-15196
▁अपनाकर	-15197
▁उत्थान	-15198
▁काफिले	-15199
▁पन्नों	-15200
▁कंप्लीट	-15201
▁आंदोलनों	-15202
▁ब्लॉगिंग	-15203
▁व्हाट्सऐप	-15204
काव	-15205
फ्री	-15206
▁हफ़	-15207
▁कोहरा	-15208
▁तिहाई	-15209
▁उस्मान	-15210
▁पिस्टल	-15211
▁दुष्यंत	-15212
▁एक्सप्रेसवे	-15213
जरत	-15214
▁गम्	-15215
▁अनिय	-15216
▁कोटे	-15217
▁वायदा	-15218
▁तपस्या	-15219
ंशी	-15220
▁बाँध	-15221
▁सल्ल	-15222
▁अनगिनत	-15223
▁चालकों	-15224
▁Results	-15225
▁पहुंचाता	-15226
▁पोटैशियम	-15227
▁पारिस्थित	-15228
णि	-15229
▁Gov	-15230
▁धमाल	-15231
जेवाला	-15232
मीडिया	-15233
▁Court	-15234
▁अकादम	-15235
▁अवशेष	-15236
▁शाओमी	-15237
▁चाइल्ड	-15238
▁अनुभूति	-15239
▁इंस्टिट	-15240
▁उत्तेजित	-15241
▁टेक्निकल	-15242
▁रजिस्ट्रार	-15243
Sh	-15244
ara	-15245
श्र	-15246
डीजल	-15247
वेली	-15248
गोलिक	-15249
▁क्रैश	-15250
▁चढ़ने	-15251
▁सहजता	-15252
▁जालंधर	-15253
▁जिन्ना	-15254
ंवैधानिक	-15255
▁अपमानित	-15256
▁निर्भरता	-15257
▁डिस्चार्ज	-15258
ont	-15259
सीर	-15260
▁फेंका	-15261
▁मालदीव	-15262
▁राजभवन	-15263
▁ब्रेस्ट	-15264
▁विकासशील	-15265
▁स्थानांतरण	-15266
आती	-15267
जाद	-15268
▁खाए	-15269
▁Best	-15270
▁प्रप	-15271
▁क्रूज	-15272
▁माफ़ी	-15273
▁एसएससी	-15274
▁पहचाना	-15275
▁लैंडिंग	-15276
▁दै	-15277
स्टा	-15278
▁3-4	-15279
▁एग्	-15280
पर्टी	-15281
▁तंगी	-15282
▁नमूनों	-15283
▁अत्याधुनिक	-15284
▁सब्सक्राइब	-15285
िनो	-15286
ोलो	-15287
▁SC	-15288
▁1-1	-15289
▁इतर	-15290
▁इस्	-15291
▁ऑब्	-15292
▁टांग	-15293
▁तरुण	-15294
डीएफसी	-15295
िक्रमा	-15296
▁माओवादी	-15297
▁एयरलाइंस	-15298
▁निर्दिष्ट	-15299
▁चिकित्सालय	-15300
▁Ed	-15301
ण्डा	-15302
िरोध	-15303
▁ज़ी	-15304
▁बुन	-15305
▁अकसर	-15306
▁काजू	-15307
▁खोया	-15308
▁लौंग	-15309
▁गर्भा	-15310
रादित्य	-15311
▁निभाता	-15312
▁प्रभात	-15313
▁बाहुबली	-15314
▁प्रणालियों	-15315
▁ब्राह्मणों	-15316
मां	-15317
▁Ads	-15318
▁फेम	-15319
▁तेवर	-15320
▁धारक	-15321
फैक्चर	-15322
▁स्वर्	-15323
▁निस्तारण	-15324
go	-15325
eet	-15326
▁गद्	-15327
▁मची	-15328
▁Tata	-15329
▁तोहफा	-15330
▁संभवत	-15331
▁डीएमके	-15332
▁अध्यात्म	-15333
▁बैकग्राउंड	-15334
कोष	-15335
ौला	-15336
▁ड्यूल	-15337
चड़	-15338
जुल	-15339
बरू	-15340
चाहे	-15341
िवीर	-15342
▁शंक	-15343
▁भूखे	-15344
▁सरोज	-15345
▁2,000	-15346
▁अनलॉक	-15347
▁लौटते	-15348
▁चेकिंग	-15349
▁मानदंड	-15350
▁मालवीय	-15351
▁अंग्रेज	-15352
▁पुस्तकाल	-15353
▁प्रदूषित	-15354
▁यात्राओं	-15355
▁छप	-15356
रोधक	-15357
▁छुआ	-15358
महिला	-15359
▁अशरफ	-15360
▁डीके	-15361
▁बताइए	-15362
▁टैलेंट	-15363
▁हंगामे	-15364
▁रूपरेखा	-15365
▁शाहजहां	-15366
▁पत्तियां	-15367
▁उत्तराधिकारी	-15368
जक	-15369
▁ठप	-15370
िटेशन	-15371
▁पंचम	-15372
▁भटका	-15373
▁शहादत	-15374
▁ज़रिये	-15375
▁हेलमेट	-15376
ipe	-15377
हरि	-15378
▁ठोक	-15379
▁पेल	-15380
▁बुआ	-15381
▁एमडी	-15382
▁नसों	-15383
▁रोहन	-15384
▁प्रूफ	-15385
▁कम्युन	-15386
राजनीतिक	-15387
▁वॉल्यूम	-15388
▁सर्कुलर	-15389
▁प्रोसेसिंग	-15390
TA	-15391
गिस	-15392
▁3,	-15393
ोकाम	-15394
andhi	-15395
▁इकलौ	-15396
समर्पण	-15397
▁गठिया	-15398
▁पिछला	-15399
▁मंचों	-15400
▁सिखों	-15401
▁सुप्रिया	-15402
▁बुद्धिमान	-15403
जेज	-15404
▁नमो	-15405
▁महतो	-15406
▁मनीषा	-15407
▁लिप्त	-15408
क्योंकि	-15409
▁20,000	-15410
▁नियोजन	-15411
▁बांधकर	-15412
▁वोटरों	-15413
▁इजरायली	-15414
▁फर्नीचर	-15415
हुआ	-15416
ांध	-15417
▁Po	-15418
▁भली	-15419
indow	-15420
पिछले	-15421
▁आतिशी	-15422
▁विलास	-15423
▁एकेडमी	-15424
▁जोड़ते	-15425
बूझ	-15426
▁घिर	-15427
▁ईशान	-15428
▁रुकी	-15429
▁Kumar	-15430
▁अनोखा	-15431
▁झुर्र	-15432
▁तारों	-15433
▁बरसों	-15434
▁मदरसों	-15435
▁शिकस्त	-15436
▁मुस्कुराते	-15437
41	-15438
91	-15439
ES	-15440
ॉयस	-15441
▁IM	-15442
▁शश	-15443
▁12:	-15444
▁लात	-15445
▁लाला	-15446
कृष्णन	-15447
▁पुराण	-15448
▁मारना	-15449
▁मिलें	-15450
▁रोहतक	-15451
▁अनदेखा	-15452
▁बिल्डर	-15453
▁चिड़िया	-15454
▁थाईलैंड	-15455
क्कत	-15456
न्धी	-15457
▁दबो	-15458
विलास	-15459
▁अजहर	-15460
▁टावर	-15461
▁वीवी	-15462
▁पद्मा	-15463
▁पोशाक	-15464
▁महाजन	-15465
▁हास्य	-15466
▁आईएसआई	-15467
▁कागजात	-15468
▁गम्भीर	-15469
▁साध्वी	-15470
▁एक्स्ट्रा	-15471
▁ज्ञानवापी	-15472
▁सुरजेवाला	-15473
▁वड	-15474
ंदना	-15475
स्टो	-15476
▁भरते	-15477
▁करारी	-15478
▁नजरें	-15479
▁कार्टून	-15480
▁शिविरों	-15481
पोल	-15482
वधि	-15483
विता	-15484
▁साठ	-15485
▁कर्ण	-15486
▁जोगी	-15487
▁पाले	-15488
▁एनटीए	-15489
▁मौखिक	-15490
▁साउंड	-15491
▁करवाते	-15492
▁दिखाएं	-15493
-'	-15494
ike	-15495
क्रा	-15496
वियत	-15497
ॉन्ट	-15498
ौड़ा	-15499
▁Aut	-15500
▁जौन	-15501
▁चाँद	-15502
▁पुदी	-15503
▁बर्म	-15504
▁सेरे	-15505
▁जरिया	-15506
▁क्रूरता	-15507
▁ब्रेकअप	-15508
▁भौगोलिक	-15509
▁कठिनाइयों	-15510
▁छुट्टियां	-15511
▁ज्योतिरादित्य	-15512
▁नस	-15513
बैंक	-15514
▁हवाओं	-15515
▁खरीदार	-15516
▁मनोकाम	-15517
▁राधिका	-15518
▁प्रीपेड	-15519
▁बिगड़ने	-15520
▁इंटीरियर	-15521
ina	-15522
मरन	-15523
oint	-15524
िसिस	-15525
ृश्य	-15526
▁(1)	-15527
ंतव्य	-15528
ालियन	-15529
▁कगार	-15530
▁समिट	-15531
▁नीतिगत	-15532
▁मॉड्यूल	-15533
नास	-15534
िंक्य	-15535
ोरिया	-15536
▁चाहर	-15537
▁नानक	-15538
▁खजाने	-15539
▁रोहिंग	-15540
▁गालियां	-15541
▁अनिश्चितता	-15542
92	-15543
tm	-15544
यूपी	-15545
विवाद	-15546
▁धीरज	-15547
क्रमित	-15548
▁अफगान	-15549
▁कच्ची	-15550
▁एसटीएफ	-15551
▁बनवाया	-15552
.45	-15553
एमए	-15554
atest	-15555
etail	-15556
▁1997	-15557
▁जलवा	-15558
▁नेवि	-15559
▁बुंद	-15560
▁Trans	-15561
▁विध्व	-15562
▁सौंपे	-15563
▁जिज्ञा	-15564
▁तिब्बत	-15565
▁प्रमोट	-15566
▁सॉफ़्ट	-15567
▁सिंड्रोम	-15568
▁सत्येंद्र	-15569
उनके	-15570
स्ति	-15571
▁Col	-15572
▁जुडी	-15573
▁हारी	-15574
▁कराती	-15575
▁घुसकर	-15576
▁बूस्ट	-15577
▁त्रुटि	-15578
▁स्टार्क	-15579
▁कॉलेजियम	-15580
ईन	-15581
ण्ट	-15582
दिय	-15583
्नी	-15584
रहमी	-15585
ेटिव	-15586
▁टॉम	-15587
ident	-15588
▁Link	-15589
▁अव्य	-15590
▁पलों	-15591
▁मलबे	-15592
▁अंजलि	-15593
▁डीवाई	-15594
▁दोहरे	-15595
▁टीआरपी	-15596
▁पटनायक	-15597
आईएमआईएम	-15598
▁hai	-15599
▁असी	-15600
▁हनन	-15601
▁ठेका	-15602
▁नंगे	-15603
▁बीटा	-15604
▁ब्यो	-15605
होत्री	-15606
▁एडवाइ	-15607
▁मियां	-15608
▁बीजिंग	-15609
▁अतिथियों	-15610
▁जानकारियों	-15611
73	-15612
OC	-15613
शिला	-15614
▁कैन	-15615
▁हेर	-15616
osting	-15617
्रिक्ट	-15618
▁इंसाफ	-15619
▁करवाए	-15620
▁रिमोट	-15621
▁जोड़ें	-15622
▁विश्लेषक	-15623
▁सूर्योदय	-15624
DS	-15625
ोग्य	-15626
श्यों	-15627
▁गंदी	-15628
▁मवेश	-15629
▁पीसकर	-15630
▁थेरेपी	-15631
▁सुझावों	-15632
▁मुलाक़ात	-15633
4)	-15634
कोहल	-15635
▁अचल	-15636
▁आनी	-15637
प्राइ	-15638
▁आंधी	-15639
ेश्वरी	-15640
▁क्लाइ	-15641
▁स्नात	-15642
▁अमाउंट	-15643
▁प्रायः	-15644
▁कार्मिक	-15645
uest	-15646
केयर	-15647
▁Dig	-15648
र्करा	-15649
▁2027	-15650
▁लेबल	-15651
ष्णुता	-15652
▁काजोल	-15653
▁बनानी	-15654
▁बेचते	-15655
▁अभिन्न	-15656
▁राजकोट	-15657
▁विवाहित	-15658
▁मूल्यवान	-15659
▁उद्यमियों	-15660
ठित	-15661
▁se	-15662
पीएल	-15663
▁नैन	-15664
▁Admit	-15665
▁जख्मी	-15666
▁निर्भ	-15667
▁मुन्ना	-15668
▁माइक्रोस	-15669
▁सामर्थ्य	-15670
▁सशक्तिकरण	-15671
52	-15672
ars	-15673
जॉय	-15674
श्रम	-15675
▁पें	-15676
▁Home	-15677
▁जलाकर	-15678
▁टीकों	-15679
▁टेम्प	-15680
▁समझती	-15681
▁दलालों	-15682
▁सुनाते	-15683
▁अजिंक्य	-15684
▁डेटाबेस	-15685
▁वोडाफोन	-15686
adha	-15687
▁आनन	-15688
▁ऑस्ट	-15689
▁थ्रो	-15690
Taurus	-15691
बिनेशन	-15692
▁कीड़े	-15693
▁चलाकर	-15694
▁पाबंद	-15695
▁बेरहमी	-15696
▁जिज्ञासा	-15697
▁उद्योगपति	-15698
▁ki	-15699
र्मी	-15700
▁खेद	-15701
िकाएं	-15702
▁मिस्र	-15703
▁यशवंत	-15704
▁सिंपल	-15705
▁गलियों	-15706
▁ग्रसित	-15707
▁तिहाड़	-15708
▁रजनीकांत	-15709
▁प्रोजेक्ट्स	-15710
़ा	-15711
ffic	-15712
बिंद	-15713
▁तूफ	-15714
▁पीकर	-15715
▁ख़रीद	-15716
▁जुर्म	-15717
▁फिनिश	-15718
हालांकि	-15719
▁जनादेश	-15720
▁पोजीशन	-15721
▁स्कॉलर	-15722
▁भूस्खलन	-15723
▁एचडीएफसी	-15724
87	-15725
हनी	-15726
▁As	-15727
▁Jan	-15728
▁दहन	-15729
▁सीज	-15730
emini	-15731
undai	-15732
▁ऑल्ट	-15733
▁फटने	-15734
▁वालो	-15735
▁झुकाव	-15736
▁प्लीज	-15737
▁जहाजों	-15738
▁औरंगाबाद	-15739
▁रक्षाबंधन	-15740
reat	-15741
▁Rel	-15742
▁Plan	-15743
▁गोरा	-15744
ुरप्पा	-15745
▁रश्मि	-15746
पंथियों	-15747
▁अखंडता	-15748
▁भगवान्	-15749
▁किरदारों	-15750
▁Instagram	-15751
ka	-15752
-11	-15753
नाथन	-15754
▁Sur	-15755
▁कृष	-15756
▁चौबे	-15757
▁लेबर	-15758
▁शक्ल	-15759
▁केबिन	-15760
▁बनावट	-15761
▁कमियों	-15762
▁पटवारी	-15763
▁खिलवाड़	-15764
▁बर्बादी	-15765
▁भट्टाचार्य	-15766
▁विश्वकर्मा	-15767
cc	-15768
▁सज	-15769
ूर्व	-15770
▁डीप	-15771
▁यूस	-15772
णायाम	-15773
विदेश	-15774
▁बेगम	-15775
प्रणाली	-15776
▁रेगुलर	-15777
▁आंगनबाड़ी	-15778
UP	-15779
सह	-15780
ैब	-15781
Leo	-15782
यार	-15783
निहित	-15784
▁आमजन	-15785
▁बंपर	-15786
क्षमता	-15787
▁चाटने	-15788
▁निकोल	-15789
▁साधने	-15790
▁किग्रा	-15791
▁सभागार	-15792
▁मार्किट	-15793
▁विचित्र	-15794
▁अग्निहोत्री	-15795
▁Aaj	-15796
▁नेगी	-15797
▁Series	-15798
▁घबराहट	-15799
▁अनुकूलित	-15800
▁लुधियाना	-15801
पैड	-15802
▁We	-15803
hare	-15804
▁6.7	-15805
▁Win	-15806
▁हिच	-15807
▁kaise	-15808
[...]
