<pad>	0
<unk>	0
<s>	0
</s>	0
<0x00>	0
<0x01>	0
<0x02>	0
<0x03>	0
<0x04>	0
<0x05>	0
<0x06>	0
<0x07>	0
<0x08>	0
<0x09>	0
<0x0A>	0
<0x0B>	0
<0x0C>	0
<0x0D>	0
<0x0E>	0
<0x0F>	0
<0x10>	0
<0x11>	0
<0x12>	0
<0x13>	0
<0x14>	0
<0x15>	0
<0x16>	0
<0x17>	0
<0x18>	0
<0x19>	0
<0x1A>	0
<0x1B>	0
<0x1C>	0
<0x1D>	0
<0x1E>	0
<0x1F>	0
<0x20>	0
<0x21>	0
<0x22>	0
<0x23>	0
<0x24>	0
<0x25>	0
<0x26>	0
<0x27>	0
<0x28>	0
<0x29>	0
<0x2A>	0
<0x2B>	0
<0x2C>	0
<0x2D>	0
<0x2E>	0
<0x2F>	0
<0x30>	0
<0x31>	0
<0x32>	0
<0x33>	0
<0x34>	0
<0x35>	0
<0x36>	0
<0x37>	0
<0x38>	0
<0x39>	0
<0x3A>	0
<0x3B>	0
<0x3C>	0
<0x3D>	0
<0x3E>	0
<0x3F>	0
<0x40>	0
<0x41>	0
<0x42>	0
<0x43>	0
<0x44>	0
<0x45>	0
<0x46>	0
<0x47>	0
<0x48>	0
<0x49>	0
<0x4A>	0
<0x4B>	0
<0x4C>	0
<0x4D>	0
<0x4E>	0
<0x4F>	0
<0x50>	0
<0x51>	0
<0x52>	0
<0x53>	0
<0x54>	0
<0x55>	0
<0x56>	0
<0x57>	0
<0x58>	0
<0x59>	0
<0x5A>	0
<0x5B>	0
<0x5C>	0
<0x5D>	0
<0x5E>	0
<0x5F>	0
<0x60>	0
<0x61>	0
<0x62>	0
<0x63>	0
<0x64>	0
<0x65>	0
<0x66>	0
<0x67>	0
<0x68>	0
<0x69>	0
<0x6A>	0
<0x6B>	0
<0x6C>	0
<0x6D>	0
<0x6E>	0
<0x6F>	0
<0x70>	0
<0x71>	0
<0x72>	0
<0x73>	0
<0x74>	0
<0x75>	0
<0x76>	0
<0x77>	0
<0x78>	0
<0x79>	0
<0x7A>	0
<0x7B>	0
<0x7C>	0
<0x7D>	0
<0x7E>	0
<0x7F>	0
<0x80>	0
<0x81>	0
<0x82>	0
<0x83>	0
<0x84>	0
<0x85>	0
<0x86>	0
<0x87>	0
<0x88>	0
<0x89>	0
<0x8A>	0
<0x8B>	0
<0x8C>	0
<0x8D>	0
<0x8E>	0
<0x8F>	0
<0x90>	0
<0x91>	0
<0x92>	0
<0x93>	0
<0x94>	0
<0x95>	0
<0x96>	0
<0x97>	0
<0x98>	0
<0x99>	0
<0x9A>	0
<0x9B>	0
<0x9C>	0
<0x9D>	0
<0x9E>	0
<0x9F>	0
<0xA0>	0
<0xA1>	0
<0xA2>	0
<0xA3>	0
<0xA4>	0
<0xA5>	0
<0xA6>	0
<0xA7>	0
<0xA8>	0
<0xA9>	0
<0xAA>	0
<0xAB>	0
<0xAC>	0
<0xAD>	0
<0xAE>	0
<0xAF>	0
<0xB0>	0
<0xB1>	0
<0xB2>	0
<0xB3>	0
<0xB4>	0
<0xB5>	0
<0xB6>	0
<0xB7>	0
<0xB8>	0
<0xB9>	0
<0xBA>	0
<0xBB>	0
<0xBC>	0
<0xBD>	0
<0xBE>	0
<0xBF>	0
<0xC0>	0
<0xC1>	0
<0xC2>	0
<0xC3>	0
<0xC4>	0
<0xC5>	0
<0xC6>	0
<0xC7>	0
<0xC8>	0
<0xC9>	0
<0xCA>	0
<0xCB>	0
<0xCC>	0
<0xCD>	0
<0xCE>	0
<0xCF>	0
<0xD0>	0
<0xD1>	0
<0xD2>	0
<0xD3>	0
<0xD4>	0
<0xD5>	0
<0xD6>	0
<0xD7>	0
<0xD8>	0
<0xD9>	0
<0xDA>	0
<0xDB>	0
<0xDC>	0
<0xDD>	0
<0xDE>	0
<0xDF>	0
<0xE0>	0
<0xE1>	0
<0xE2>	0
<0xE3>	0
<0xE4>	0
<0xE5>	0
<0xE6>	0
<0xE7>	0
<0xE8>	0
<0xE9>	0
<0xEA>	0
<0xEB>	0
<0xEC>	0
<0xED>	0
<0xEE>	0
<0xEF>	0
<0xF0>	0
<0xF1>	0
<0xF2>	0
<0xF3>	0
<0xF4>	0
<0xF5>	0
<0xF6>	0
<0xF7>	0
<0xF8>	0
<0xF9>	0
<0xFA>	0
<0xFB>	0
<0xFC>	0
<0xFD>	0
<0xFE>	0
<0xFF>	0
▁क	-0
▁स	-1
▁ह	-2
▁म	-3
▁प	-4
ें	-5
▁है	-6
ने	-7
▁के	-8
▁ब	-9
ार	-10
▁ज	-11
्र	-12
या	-13
▁द	-14
▁ल	-15
▁अ	-16
▁में	-17
▁व	-18
▁र	-19
ों	-20
▁की	-21
▁आ	-22
▁न	-23
▁को	-24
ता	-25
▁कर	-26
र्	-27
▁से	-28
▁इ	-29
▁कि	-30
▁उ	-31
▁त	-32
ना	-33
▁ग	-34
▁का	-35
▁भ	-36
▁औ	-37
▁और	-38
ान	-39
िक	-40
्य	-41
▁पर	-42
ाल	-43
▁ए	-44
▁च	-45
▁इस	-46
▁ने	-47
▁हैं	-48
स्	-49
▁हो	-50
िल	-51
ही	-52
▁प्र	-53
▁श	-54
▁य	-55
क्	-56
ते	-57
▁थ	-58
िए	-59
ड़	-60
हा	-61
▁जा	-62
ित	-63
▁भी	-64
के	-65
▁ख	-66
▁फ	-67
▁सा	-68
िया	-69
िय	-70
ती	-71
वा	-72
से	-73
▁एक	-74
ंग	-75
हीं	-76
▁बा	-77
▁उन	-78
िन	-79
▁लिए	-80
▁स्	-81
री	-82
ला	-83
ले	-84
▁दे	-85
▁अप	-86
▁वि	-87
रा	-88
▁नहीं	-89
▁रा	-90
नी	-91
्या	-92
▁आप	-93
त्र	-94
ति	-95
गा	-96
सी	-97
▁ट	-98
कर	-99
▁सम	-100
▁ले	-101
ोग	-102
ाम	-103
▁सं	-104
्म	-105
का	-106
▁ही	-107
ेश	-108
िस	-109
▁मु	-110
ारी	-111
▁तो	-112
▁हु	-113
▁ड	-114
▁था	-115
▁2	-116
▁रह	-117
्ट	-118
▁किया	-119
्व	-120
▁1	-121
▁सक	-122
▁यह	-123
▁करने	-124
की	-125
्ह	-126
ली	-127
ुर	-128
क्ष	-129
ंद	-130
▁पह	-131
ाय	-132
▁साथ	-133
▁कहा	-134
ां	-135
▁गया	-136
▁हम	-137
▁नि	-138
▁कु	-139
सा	-140
▁या	-141
कार	-142
▁उस	-143
ियों	-144
रे	-145
▁उन्ह	-146
▁कार	-147
कि	-148
ैं	-149
▁घ	-150
ल्	-151
▁जो	-152
मा	-153
ाह	-154
▁पा	-155
▁(	-156
▁अन	-157
त्	-158
▁वाल	-159
▁बाद	-160
स्ट	-161
▁अपने	-162
िला	-163
▁पू	-164
▁सु	-165
िर	-166
▁रहे	-167
ढ़	-168
▁लोग	-169
▁थी	-170
दी	-171
भी	-172
गी	-173
िव	-174
भा	-175
▁अध	-176
दा	-177
▁ध	-178
्रे	-179
ुल	-180
ंड	-181
गे	-182
▁छ	-183
्री	-184
▁तक	-185
▁दो	-186
▁20	-187
ारा	-188
▁सी	-189
▁राज	-190
▁दिया	-191
को	-192
▁सि	-193
च्	-194
▁मा	-195
▁ऐ	-196
टी	-197
▁'	-198
▁चु	-199
▁मिल	-200
ंत्र	-201
▁मे	-202
जी	-203
ाइ	-204
में	-205
▁बी	-206
पी	-207
▁भार	-208
ओं	-209
गर	-210
▁रहा	-211
▁हुए	-212
किन	-213
तर	-214
▁सर	-215
▁बना	-216
ोंने	-217
▁बार	-218
▁थे	-219
▁जिस	-220
रो	-221
ंच	-222
▁-	-223
▁जी	-224
प्	-225
▁बता	-226
देश	-227
▁कुछ	-228
▁मह	-229
ेट	-230
▁लेकिन	-231
िश	-232
▁गई	-233
▁उन्होंने	-234
खा	-235
▁जब	-236
द्	-237
▁चाह	-238
▁कम	-239
ोज	-240
ानी	-241
▁इन	-242
वी	-243
▁वह	-244
▁बात	-245
▁भा	-246
टर	-247
पा	-248
▁तर	-249
ौर	-250
ेल	-251
▁रही	-252
▁सब	-253
जा	-254
वि	-255
▁पहले	-256
▁लगा	-257
▁अधिक	-258
▁ला	-259
ार्	-260
ूर	-261
ष्ट	-262
बर	-263
शन	-264
▁अब	-265
▁करते	-266
▁जाए	-267
▁दी	-268
▁बह	-269
स्थ	-270
ड़ा	-271
नों	-272
▁वे	-273
्स	-274
▁कोई	-275
▁करें	-276
▁इसके	-277
▁उप	-278
स्त	-279
िंग	-280
बा	-281
ैसे	-282
▁किसी	-283
र्ट	-284
ड़ी	-285
▁ये	-286
▁मैं	-287
ास	-288
▁होने	-289
▁सकते	-290
▁दिन	-291
▁लोगों	-292
▁रू	-293
▁अपनी	-294
▁जान	-295
▁सरकार	-296
मी	-297
हां	-298
्ष	-299
▁अनु	-300
▁स्थ	-301
▁गए	-302
▁बे	-303
्यों	-304
ंध	-305
▁समय	-306
▁मो	-307
ये	-308
्ल	-309
न्	-310
▁पी	-311
▁वाले	-312
▁कह	-313
ेंद	-314
▁सकता	-315
ुत	-316
▁ऑ	-317
▁टी	-318
▁देख	-319
क्र	-320
▁साल	-321
▁भारत	-322
ंत्री	-323
▁तरह	-324
ड़े	-325
▁आपको	-326
ज़	-327
▁बढ़	-328
मान	-329
वार	-330
▁मौ	-331
▁सो	-332
▁बि	-333
▁3	-334
▁कई	-335
ोट	-336
▁काम	-337
▁करना	-338
्यू	-339
ंट	-340
▁वर्	-341
ार्ट	-342
िट	-343
▁जाता	-344
ूस	-345
▁रूप	-346
▁माम	-347
▁देश	-348
00	-349
▁उनके	-350
▁रख	-351
म्म	-352
ोल	-353
▁ओ	-354
कों	-355
वे	-356
धान	-357
▁हि	-358
▁रु	-359
च्च	-360
▁विश	-361
▁उन्हें	-362
▁द्व	-363
ंप	-364
▁व्य	-365
हर	-366
▁निर्	-367
▁लेकर	-368
▁पुल	-369
▁स्ट	-370
▁क्या	-371
▁शुर	-372
ीन	-373
िप	-374
▁बहुत	-375
▁फिर	-376
च्छ	-377
जे	-378
▁लग	-379
▁मै	-380
▁जन	-381
क्षा	-382
बी	-383
▁दिल	-384
क्स	-385
▁"	-386
▁आज	-387
ोक	-388
▁होता	-389
▁पुलिस	-390
क्त	-391
योग	-392
ूल	-393
चार	-394
जन	-395
वन	-396
▁सभी	-397
द्ध	-398
▁लि	-399
▁हुआ	-400
्त	-401
नाव	-402
▁अं	-403
ाई	-404
▁प्रति	-405
▁दु	-406
▁202	-407
▁हुई	-408
▁फिल	-409
▁होगा	-410
▁हर	-411
कारी	-412
▁द्वारा	-413
▁उत्	-414
ंह	-415
ीड	-416
्रेस	-417
▁नाम	-418
चा	-419
ारे	-420
▁विक	-421
▁हाल	-422
▁5	-423
▁गु	-424
▁बताया	-425
र्व	-426
▁वो	-427
िका	-428
स्ता	-429
▁सबसे	-430
▁इं	-431
▁जर	-432
▁कार्य	-433
▁दि	-434
▁ना	-435
▁अगर	-436
▁चाहिए	-437
डी	-438
बंध	-439
▁बै	-440
▁क्यों	-441
वर	-442
▁दौर	-443
▁खु	-444
in	-445
▁खिला	-446
▁पि	-447
▁साम	-448
क्ट	-449
र्म	-450
वाल	-451
्यादा	-452
▁यू	-453
ोड़	-454
▁क्ष	-455
एं	-456
्ली	-457
▁फिल्म	-458
▁बन	-459
▁रुप	-460
▁।	-461
र्स	-462
▁पहु	-463
▁चल	-464
▁4	-465
मंत्री	-466
▁मुख	-467
ष्	-468
▁जु	-469
▁वा	-470
▁सू	-471
▁पार्ट	-472
िवार	-473
▁दूस	-474
▁ऐसे	-475
धार	-476
दि	-477
सान	-478
▁दर्	-479
▁सिंह	-480
र्थ	-481
▁मान	-482
फी	-483
▁पास	-484
▁चुनाव	-485
▁शाम	-486
▁अच्छ	-487
ोन	-488
एस	-489
ंस	-490
तीय	-491
▁घर	-492
▁दौरान	-493
एम	-494
▁बीच	-495
मे	-496
ोर	-497
क्ति	-498
▁ज्यादा	-499
ाने	-500
▁बु	-501
▁आई	-502
▁जाने	-503
▁उनकी	-504
▁पै	-505
ेंद्र	-506
▁करता	-507
भाव	-508
▁प्रा	-509
पर	-510
▁कारण	-511
श्	-512
▁ग्र	-513
▁पहुंच	-514
यर	-515
▁दिल्ली	-516
▁कै	-517
▁उसके	-518
▁शुरू	-519
झे	-520
जर	-521
सर	-522
ंबर	-523
दार	-524
हत	-525
त्म	-526
▁टीम	-527
▁होती	-528
▁लिया	-529
▁नी	-530
an	-531
ब्	-532
सार	-533
▁आपके	-534
▁वाली	-535
▁मामले	-536
▁दोनों	-537
ृत	-538
▁पार्टी	-539
आई	-540
▁मुख्य	-541
ोर्ट	-542
▁जि	-543
▁उसे	-544
▁201	-545
▁जिन	-546
दे	-547
▁बारे	-548
▁ठ	-549
▁सह	-550
▁ता	-551
▁अपना	-552
▁बच्च	-553
▁पु	-554
▁राज्य	-555
▁शिक	-556
▁हा	-557
▁कांग	-558
▁फै	-559
ंक	-560
▁बद	-561
▁क्र	-562
शी	-563
िज	-564
मार	-565
धी	-566
ून	-567
ेत्र	-568
ूर्	-569
▁अव	-570
ar	-571
▁निक	-572
▁कांग्रेस	-573
िम	-574
जू	-575
ेंगे	-576
▁आरो	-577
▁सकती	-578
▁शामिल	-579
▁भारतीय	-580
▁वहीं	-581
ियो	-582
▁झ	-583
▁जैसे	-584
▁समा	-585
▁अन्य	-586
लों	-587
ियां	-588
▁S	-589
▁अभ	-590
▁कंप	-591
दान	-592
र्ड	-593
▁ऐसा	-594
ेज	-595
▁हू	-596
जार	-597
▁इसे	-598
er	-599
▁क्षेत्र	-600
▁गां	-601
▁यहां	-602
▁शु	-603
▁खिलाफ	-604
्ञ	-605
प्त	-606
्रा	-607
▁कॉ	-608
▁मुझे	-609
पुर	-610
▁अल	-611
▁आय	-612
▁महिला	-613
▁रो	-614
सभा	-615
ताओं	-616
लिए	-617
▁6	-618
्रीय	-619
ध्य	-620
्ड	-621
ोजना	-622
▁रुपये	-623
ंत	-624
▁देने	-625
▁ई	-626
वल	-627
▁क्योंकि	-628
शि	-629
▁जानकारी	-630
ूम	-631
▁किए	-632
on	-633
▁स्वा	-634
▁खा	-635
िति	-636
ियम	-637
ुम	-638
▁काफी	-639
▁अग	-640
्न	-641
▁प्रदेश	-642
ैन	-643
▁इससे	-644
▁ट्र	-645
क्रम	-646
▁बो	-647
ंब	-648
▁स्व	-649
टना	-650
था	-651
▁यु	-652
▁जाएगा	-653
टा	-654
लो	-655
दर्	-656
हार	-657
णा	-658
▁तै	-659
▁वर्ष	-660
▁पिछ	-661
▁मन	-662
म्मी	-663
▁राष्ट	-664
▁10	-665
वाद	-666
▁अनुसार	-667
ेड	-668
▁जारी	-669
्ते	-670
▁पूरी	-671
▁इसलिए	-672
ेशन	-673
▁उठ	-674
▁सुर	-675
▁A	-676
ोष	-677
at	-678
ताब	-679
▁सामने	-680
▁गो	-681
▁समझ	-682
▁बैठ	-683
▁मद	-684
▁जाती	-685
धा	-686
▁होगी	-687
▁दें	-688
▁ली	-689
ाली	-690
मु	-691
▁मैच	-692
▁इंड	-693
निया	-694
▁स्क	-695
▁बल्	-696
▁छा	-697
▁याद	-698
म्मीद	-699
es	-700
रण	-701
▁19	-702
▁मार्	-703
▁C	-704
स्प	-705
▁उम्मीद	-706
▁मोदी	-707
ायर	-708
▁तीन	-709
वाई	-710
▁राशि	-711
▁आगे	-712
▁आरोप	-713
▁जीवन	-714
चित	-715
▁परि	-716
प्र	-717
▁इसी	-718
▁डॉ	-719
▁7	-720
फ़	-721
▁टे	-722
तिक	-723
स्था	-724
ेंट	-725
वं	-726
जपा	-727
▁हों	-728
▁शा	-729
त्रा	-730
▁ज़	-731
वास	-732
ेष	-733
ांकि	-734
▁योजना	-735
▁संबंध	-736
▁लाख	-737
▁दा	-738
▁हालांकि	-739
▁आए	-740
▁ओर	-741
इट	-742
म्	-743
▁होते	-744
▁तब	-745
▁अला	-746
▁पड़	-747
▁जग	-748
्ला	-749
श्य	-750
ीस	-751
▁करोड़	-752
इन	-753
▁इसमें	-754
▁जिसमें	-755
▁पढ़	-756
▁परिवार	-757
▁रिप	-758
कर्	-759
ुरु	-760
▁P	-761
▁वै	-762
क्टर	-763
▁भाजपा	-764
दन	-765
▁अभी	-766
धिक	-767
ुक	-768
or	-769
मेंट	-770
लय	-771
चना	-772
▁मांग	-773
▁एस	-774
▁अलावा	-775
▁व्यक्ति	-776
ज्ञ	-777
ची	-778
▁कप	-779
ूत	-780
▁चे	-781
फल	-782
▁तैय	-783
▁दिखा	-784
▁पद	-785
▁लोक	-786
▁एवं	-787
▁सुन	-788
▁मीड	-789
▁ऊ	-790
▁उनका	-791
▁मदद	-792
▁बेह	-793
▁आने	-794
स्तान	-795
▁8	-796
▁करे	-797
▁हमारे	-798
▁पिछले	-799
▁मेरे	-800
▁मीडिया	-801
▁जांच	-802
▁योग	-803
▁बॉ	-804
▁दर	-805
▁इत	-806
▁मत	-807
▁चौ	-808
।"	-809
▁कैसे	-810
▁अस	-811
▁कभी	-812
▁पूर्व	-813
▁स्प	-814
त्व	-815
▁मिले	-816
▁भर	-817
मत	-818
▁रिपोर्ट	-819
▁सीट	-820
▁मैंने	-821
al	-822
▁इसका	-823
▁बनाने	-824
▁ची	-825
▁जै	-826
▁अलग	-827
र्फ	-828
तार	-829
▁व्या	-830
र्क	-831
चे	-832
शा	-833
▁जीत	-834
ंगे	-835
वान	-836
जूद	-837
▁मंत्री	-838
▁श्री	-839
▁वीड	-840
▁दर्ज	-841
▁हूं	-842
▁जरूर	-843
▁बड़ी	-844
▁उपयोग	-845
▁प्रधान	-846
▁मही	-847
▁अध्य	-848
▁विशेष	-849
▁12	-850
ियर	-851
ोध	-852
गत	-853
▁पत्र	-854
▁पता	-855
▁लड़	-856
▁बैं	-857
▁रन	-858
▁डि	-859
माल	-860
▁ऑफ	-861
▁वीडियो	-862
प्ता	-863
▁आधार	-864
्यान	-865
▁उसकी	-866
▁अधिकार	-867
▁कंपनी	-868
▁पानी	-869
▁नेता	-870
जह	-871
▁बाहर	-872
▁तुम	-873
▁जबकि	-874
▁खेल	-875
िये	-876
▁कुमार	-877
▁नई	-878
▁परी	-879
▁घटना	-880
▁किसान	-881
▁दिए	-882
▁मुख्यमंत्री	-883
en	-884
▁M	-885
▁करती	-886
पूर्	-887
▁यदि	-888
वेश	-889
▁संग	-890
▁जाते	-891
▁महा	-892
▁प्रे	-893
▁शिक्ष	-894
▁केंद्र	-895
द्य	-896
▁पां	-897
ूरी	-898
ल्प	-899
आर	-900
▁जहां	-901
▁आर	-902
▁वाला	-903
▁विध	-904
ष्ठ	-905
भाग	-906
ैंड	-907
▁गिर	-908
▁मुताब	-909
▁B	-910
▁चला	-911
ियन	-912
▁वजह	-913
▁केवल	-914
▁मुताबिक	-915
▁तथा	-916
▁प्रो	-917
▁करके	-918
▁9	-919
▁हाथ	-920
▁लाभ	-921
▁मिला	-922
▁मज	-923
ूट	-924
▁सवाल	-925
जों	-926
▁नए	-927
पूर्ण	-928
▁इला	-929
▁करी	-930
स्या	-931
वरी	-932
स्क	-933
▁व्यव	-934
▁दूसरे	-935
▁आव	-936
▁विश्व	-937
ुआ	-938
ंदर	-939
▁ब्र	-940
▁गा	-941
▁कान	-942
ाइन	-943
▁जगह	-944
िता	-945
करण	-946
▁पे	-947
▁हिंद	-948
▁कोर्ट	-949
▁R	-950
रिक	-951
तों	-952
िटी	-953
ख्या	-954
▁ध्यान	-955
it	-956
▁फैस	-957
र्य	-958
▁एन	-959
▁चार	-960
▁आम	-961
▁खुद	-962
▁पूरा	-963
▁देते	-964
▁सिर्फ	-965
त्या	-966
▁हे	-967
▁राजनी	-968
▁आपकी	-969
▁आया	-970
▁स्थिति	-971
▁डाल	-972
ेंस	-973
▁पूछ	-974
▁पो	-975
▁,	-976
शल	-977
सल	-978
▁उत्तर	-979
▁पाकि	-980
▁दुनिया	-981
▁बड़े	-982
माण	-983
▁अम	-984
▁प्रश	-985
्ले	-986
▁I	-987
जेपी	-988
तन	-989
▁अमे	-990
▁प्रधानमंत्री	-991
▁दिनों	-992
▁अच्छा	-993
▁राम	-994
द्र	-995
▁विधान	-996
▁तहत	-997
▁नौ	-998
▁हमें	-999
▁समस्या	-1000
भव	-1001
▁तैयार	-1002
▁सद	-1003
पन	-1004
▁रे	-1005
ाइल	-1006
▁प्रभाव	-1007
क्षण	-1008
▁T	-1009
▁जिससे	-1010
हम	-1011
▁चाहते	-1012
ल्ड	-1013
▁खरी	-1014
▁उसने	-1015
्यालय	-1016
दर्शन	-1017
▁हिस्	-1018
▁शे	-1019
▁इस्ते	-1020
▁15	-1021
▁इस्तेमाल	-1022
▁बंद	-1023
▁जिसके	-1024
फ्त	-1025
ार्थ	-1026
▁प्राप्त	-1027
▁होना	-1028
पाल	-1029
.'	-1030
▁न्या	-1031
त्य	-1032
▁बीजेपी	-1033
▁नजर	-1034
श्यक	-1035
▁खे	-1036
▁कोश	-1037
▁डे	-1038
▁H	-1039
हित	-1040
▁बड़ा	-1041
ीर	-1042
▁डी	-1043
▁पहली	-1044
▁ट्रे	-1045
नि	-1046
ंगा	-1047
▁तरी	-1048
यी	-1049
▁लिखा	-1050
▁महीने	-1051
▁करेंगे	-1052
▁लेने	-1053
णी	-1054
▁ढ	-1055
▁पं	-1056
िले	-1057
▁एक्स	-1058
▁लॉ	-1059
▁अध्यक्ष	-1060
▁विकास	-1061
▁ऐसी	-1062
▁वहां	-1063
ॉल	-1064
▁जाना	-1065
बाद	-1066
ंगल	-1067
▁आस	-1068
▁ब्ल	-1069
▁आद	-1070
▁दूर	-1071
▁बस	-1072
▁सुरक्षा	-1073
▁पार	-1074
ic	-1075
▁तौर	-1076
▁रहने	-1077
▁करा	-1078
▁विधानसभा	-1079
▁परीक्षा	-1080
▁छोड़	-1081
▁आवश्यक	-1082
▁छात्र	-1083
शत	-1084
डे	-1085
ग्र	-1086
▁शर्	-1087
▁समाज	-1088
▁मेरी	-1089
ुट	-1090
िस्ट	-1091
▁लगे	-1092
मुख	-1093
▁खान	-1094
▁मौत	-1095
▁कुल	-1096
ायक	-1097
ुक्त	-1098
▁करीब	-1099
▁पाकिस्तान	-1100
▁कौ	-1101
▁कोशिश	-1102
▁बिना	-1103
▁बढ़ा	-1104
▁उठा	-1105
हन	-1106
र्च	-1107
िकेट	-1108
▁लिख	-1109
राज	-1110
▁पांच	-1111
▁बैंक	-1112
▁व्याप	-1113
▁तरफ	-1114
▁वेब	-1115
यान	-1116
20	-1117
एल	-1118
▁जवा	-1119
▁D	-1120
▁इसकी	-1121
▁संख्या	-1122
▁धन	-1123
▁पत्	-1124
ासन	-1125
▁राह	-1126
ध्यम	-1127
▁प्रकार	-1128
ैल	-1129
▁थीं	-1130
▁सेवा	-1131
▁बाल	-1132
▁फ़	-1133
▁उम्मीदवार	-1134
▁कृ	-1135
▁11	-1136
▁महत्व	-1137
▁खबर	-1138
▁घोष	-1139
▁सही	-1140
▁अधिकारी	-1141
▁विरो	-1142
हरा	-1143
स्थ्य	-1144
।'	-1145
▁बच्चों	-1146
▁प्रदर्शन	-1147
▁क्ल	-1148
भग	-1149
▁विभाग	-1150
▁जल्	-1151
▁बल्कि	-1152
▁कहना	-1153
st	-1154
▁कोरो	-1155
▁शुरुआ	-1156
र्ष	-1157
बह	-1158
टे	-1159
▁गांधी	-1160
राब	-1161
▁कहते	-1162
▁गेंद	-1163
▁:	-1164
▁यादव	-1165
स्थान	-1166
▁वाप	-1167
काल	-1168
▁ते	-1169
▁देखने	-1170
ब्ध	-1171
le	-1172
▁आदि	-1173
▁गांव	-1174
जय	-1175
तम	-1176
▁देखा	-1177
▁न्यू	-1178
▁भाव	-1179
▁स्वास्थ्य	-1180
ीक	-1181
दों	-1182
▁मिली	-1183
चान	-1184
हाँ	-1185
▁कोरोना	-1186
▁पेश	-1187
▁उसका	-1188
तु	-1189
▁जाएगी	-1190
▁भाग	-1191
▁माल	-1192
▁रात	-1193
▁उपल	-1194
▁राष्ट्र	-1195
▁विचार	-1196
▁वायर	-1197
क्शन	-1198
त्ता	-1199
लाइन	-1200
षा	-1201
▁शरी	-1202
ताल	-1203
▁फोन	-1204
▁ख़	-1205
यन	-1206
▁शिव	-1207
ायत	-1208
di	-1209
000	-1210
▁शादी	-1211
▁सदस	-1212
दारी	-1213
▁उपलब्ध	-1214
▁लगभग	-1215
▁कल	-1216
▁सच	-1217
▁लगता	-1218
▁हजार	-1219
▁स्तर	-1220
▁दल	-1221
▁N	-1222
▁स्कूल	-1223
▁अच्छी	-1224
र्चा	-1225
रों	-1226
▁पूरे	-1227
▁बनाए	-1228
▁अद	-1229
ीट	-1230
ंज	-1231
▁सौ	-1232
▁सफल	-1233
▁मंत्र	-1234
▁आयोज	-1235
▁मौजूद	-1236
▁कीमत	-1237
डा	-1238
▁जवाब	-1239
बार	-1240
▁माध्यम	-1241
न्न	-1242
श्म	-1243
वेदन	-1244
▁बदल	-1245
बल	-1246
▁इंटर	-1247
लब	-1248
▁मार	-1249
▁लें	-1250
▁होंगे	-1251
ुन	-1252
▁मां	-1253
▁मजब	-1254
▁दूसरी	-1255
▁नव	-1256
▁रोक	-1257
▁चि	-1258
▁पोस्ट	-1259
▁गै	-1260
▁कर्म	-1261
▁नंबर	-1262
्टी	-1263
राम	-1264
▁बज	-1265
▁जनता	-1266
▁बिल	-1267
▁स्थान	-1268
▁कार्यक्रम	-1269
▁खास	-1270
▁एम	-1271
षण	-1272
▁सर्	-1273
▁प्रतिशत	-1274
▁इंडिया	-1275
उन	-1276
▁लगाया	-1277
ion	-1278
▁सोशल	-1279
्हें	-1280
▁फीस	-1281
▁डा	-1282
ालय	-1283
▁मंद	-1284
▁गल	-1285
▁निय	-1286
▁लगातार	-1287
ॉप	-1288
am	-1289
▁राष्ट्रीय	-1290
लाई	-1291
ीय	-1292
▁थो	-1293
▁टेस्ट	-1294
▁लाइ	-1295
▁दिख	-1296
▁यही	-1297
साइट	-1298
▁शरीर	-1299
िफ	-1300
▁शहर	-1301
▁मूल	-1302
▁अर	-1303
संद	-1304
▁जिसे	-1305
▁अफ	-1306
बे	-1307
दम	-1308
▁बचा	-1309
▁क्रिकेट	-1310
▁रखने	-1311
▁कित	-1312
िन्न	-1313
▁संप	-1314
▁प्रमुख	-1315
▁बयान	-1316
▁समर्थ	-1317
पति	-1318
▁आपका	-1319
▁ट्व	-1320
▁पीछ	-1321
▁नियम	-1322
▁.	-1323
िश्	-1324
▁रखा	-1325
▁नर	-1326
▁चुके	-1327
▁गं	-1328
▁सुबह	-1329
▁सके	-1330
▁अंतर	-1331
ल्स	-1332
▁अस्प	-1333
▁चा	-1334
स्वी	-1335
ेंड	-1336
▁G	-1337
धि	-1338
▁परेश	-1339
ंदा	-1340
▁शिक्षा	-1341
▁घंट	-1342
co	-1343
त्मक	-1344
▁जरूरत	-1345
श्व	-1346
▁माना	-1347
श्च	-1348
▁स्म	-1349
▁रोज	-1350
ाला	-1351
▁किस	-1352
▁उम	-1353
्रीम	-1354
▁शर्मा	-1355
▁सम्म	-1356
▁प्रया	-1357
वाह	-1358
मारी	-1359
▁वेबसाइट	-1360
क्रिया	-1361
▁ठीक	-1362
▁सांस	-1363
▁गुरु	-1364
ूब	-1365
▁राहुल	-1366
सम	-1367
▁भूम	-1368
िकल	-1369
▁वित	-1370
▁पसंद	-1371
-1	-1372
▁खरीद	-1373
▁निर्देश	-1374
▁लगी	-1375
▁बच्चे	-1376
नाथ	-1377
▁धर्म	-1378
▁बिहार	-1379
▁सामान	-1380
▁देता	-1381
चर	-1382
▁सोच	-1383
▁कार्ड	-1384
▁मिलने	-1385
▁बजे	-1386
▁एज	-1387
▁वृ	-1388
काश	-1389
▁मि	-1390
ष्य	-1391
लाह	-1392
ेशा	-1393
कान	-1394
टक	-1395
रीज	-1396
▁मिन	-1397
▁ऑन	-1398
▁बनाया	-1399
ड़ों	-1400
▁बेहतर	-1401
▁आख	-1402
▁विदेश	-1403
▁मंदिर	-1404
▁ग्राम	-1405
ात	-1406
▁यात्रा	-1407
▁बच	-1408
▁200	-1409
▁निवेश	-1410
▁छोट	-1411
▁चुन	-1412
▁आदेश	-1413
▁L	-1414
र्न	-1415
मो	-1416
▁गिरफ्त	-1417
▁मुद्	-1418
▁सर्व	-1419
▁जे	-1420
्यो	-1421
▁विभ	-1422
▁हमारी	-1423
ूप	-1424
▁18	-1425
▁शुरुआत	-1426
▁अधिकारियों	-1427
एन	-1428
▁चुकी	-1429
▁बाजार	-1430
▁जिला	-1431
▁पीछे	-1432
▁प्ले	-1433
▁जरूरी	-1434
▁चर्चा	-1435
▁वर	-1436
▁आत	-1437
▁विरोध	-1438
▁प्रदान	-1439
▁अंत	-1440
▁प्रक्रिया	-1441
▁अभि	-1442
▁महत्वपूर्ण	-1443
▁14	-1444
ांत	-1445
▁हाई	-1446
्ज	-1447
▁पिता	-1448
त्री	-1449
▁प्य	-1450
▁सरकारी	-1451
ंख	-1452
▁रिक	-1453
▁फाय	-1454
▁जल	-1455
भर	-1456
्रम	-1457
▁बेट	-1458
▁जिले	-1459
▁तेज	-1460
▁स्थित	-1461
सिक	-1462
▁दोस्त	-1463
▁विप	-1464
▁F	-1465
दाय	-1466
▁निर्माण	-1467
▁नोट	-1468
▁30	-1469
▁हास	-1470
अल	-1471
▁ऊपर	-1472
▁फैसला	-1473
▁लाल	-1474
विधा	-1475
जरा	-1476
▁उच्च	-1477
ंद्र	-1478
▁जन्म	-1479
▁E	-1480
द्धि	-1481
▁शो	-1482
▁कार्र	-1483
▁शेयर	-1484
फा	-1485
ंबई	-1486
ing	-1487
▁संघ	-1488
िन्	-1489
▁मामला	-1490
त्ति	-1491
▁|	-1492
▁विकेट	-1493
▁सेवन	-1494
▁मेरा	-1495
▁25	-1496
▁विभिन्न	-1497
▁शाह	-1498
ad	-1499
▁बने	-1500
गल	-1501
▁वोट	-1502
▁देना	-1503
▁प्रयास	-1504
▁कमी	-1505
▁ड्र	-1506
▁हमेशा	-1507
बंधन	-1508
▁जानते	-1509
ंका	-1510
यू	-1511
re	-1512
र्या	-1513
▁कार्रवाई	-1514
▁फर	-1515
फे	-1516
▁अप्र	-1517
करी	-1518
▁बोल	-1519
▁कौन	-1520
ैक	-1521
▁हत्या	-1522
▁भग	-1523
▁हासिल	-1524
▁एक्ट	-1525
वादी	-1526
▁बैठक	-1527
▁पाए	-1528
▁अदाल	-1529
मता	-1530
भीर	-1531
▁निकल	-1532
तरा	-1533
क्षित	-1534
▁गर्	-1535
▁बदला	-1536
▁अख	-1537
मन	-1538
लर	-1539
▁कानून	-1540
▁संभाव	-1541
ित्र	-1542
लि	-1543
झा	-1544
ॉर्म	-1545
द्यालय	-1546
▁13	-1547
कु	-1548
▁रहते	-1549
ार्म	-1550
▁आवेदन	-1551
▁अस्पताल	-1552
▁पक्ष	-1553
▁अहम	-1554
▁हिस्सा	-1555
▁मुंबई	-1556
▁पेट	-1557
▁वापस	-1558
▁अंदर	-1559
ियल	-1560
▁इतना	-1561
▁बिज	-1562
▁संगठ	-1563
र्जी	-1564
▁उत्पा	-1565
▁पूर्	-1566
रिका	-1567
is	-1568
▁रुपए	-1569
धिकार	-1570
▁यानी	-1571
▁महिलाओं	-1572
िली	-1573
▁हमने	-1574
क्सी	-1575
▁किसानों	-1576
एफ	-1577
्क	-1578
▁गयी	-1579
▁व्यापार	-1580
▁वन	-1581
▁रि	-1582
्रोल	-1583
▁बल्ले	-1584
लिया	-1585
▁राजनीतिक	-1586
▁जय	-1587
▁भाई	-1588
म्मे	-1589
किल	-1590
र्ती	-1591
▁सुविधा	-1592
▁निकाल	-1593
ac	-1594
▁शी	-1595
▁तरीके	-1596
▁लेख	-1597
▁कमा	-1598
ड़क	-1599
▁जून	-1600
▁आइ	-1601
▁गंभीर	-1602
र्थिक	-1603
▁भु	-1604
▁पाल	-1605
▁नीचे	-1606
▁युवा	-1607
▁पीएम	-1608
▁16	-1609
▁गठ	-1610
तंत्र	-1611
ay	-1612
▁मार्च	-1613
▁बेहद	-1614
▁लक्ष	-1615
▁अति	-1616
▁लोकसभा	-1617
▁संक्रम	-1618
▁अमेरिका	-1619
▁पंजा	-1620
▁ऑनलाइन	-1621
▁24	-1622
▁हूँ	-1623
ेक	-1624
▁वक्त	-1625
▁एड	-1626
▁चुका	-1627
▁महारा	-1628
▁दावा	-1629
प्प	-1630
ro	-1631
▁तीस	-1632
▁मध्य	-1633
▁साब	-1634
▁कहीं	-1635
णाम	-1636
ेंसी	-1637
▁अदालत	-1638
▁दिव	-1639
▁चलते	-1640
गू	-1641
बाजी	-1642
▁ताकि	-1643
▁दू	-1644
तान	-1645
▁साफ	-1646
▁रंग	-1647
▁भे	-1648
▁आर्थिक	-1649
गार	-1650
▁जमा	-1651
▁टाइ	-1652
हाय	-1653
▁आत्म	-1654
▁तेल	-1655
▁50	-1656
▁वालों	-1657
▁सुप	-1658
▁अर्थ	-1659
फर	-1660
▁2022	-1661
▁पैसे	-1662
▁फ्र	-1663
▁सित	-1664
▁विकल्प	-1665
▁देव	-1666
ाप	-1667
किंग	-1668
▁केंद	-1669
as	-1670
िक्स	-1671
▁पक	-1672
ृति	-1673
▁बोर्ड	-1674
▁प्यार	-1675
▁नया	-1676
▁अर्	-1677
),	-1678
▁घंटे	-1679
ंटी	-1680
ंसा	-1681
▁मिनट	-1682
गढ़	-1683
लेज	-1684
▁शिकायत	-1685
▁व्यवस्था	-1686
▁लो	-1687
ज्ञान	-1688
▁K	-1689
▁पड़ा	-1690
▁सूचना	-1691
िड	-1692
▁मिश	-1693
▁आता	-1694
नेट	-1695
स्तव	-1696
▁उसी	-1697
▁टै	-1698
▁केंद्रीय	-1699
▁मंगल	-1700
▁पहचान	-1701
▁समु	-1702
▁आयोग	-1703
ांस	-1704
▁शुभ	-1705
▁मना	-1706
▁माह	-1707
▁W	-1708
▁पुर	-1709
कल	-1710
▁डाय	-1711
तिहा	-1712
▁तम	-1713
▁परिणाम	-1714
▁न्याया	-1715
▁लगाने	-1716
▁मई	-1717
▁डिज	-1718
▁शुक्र	-1719
तियों	-1720
लू	-1721
▁जल्द	-1722
वासी	-1723
▁रेल	-1724
▁सेना	-1725
▁सदस्य	-1726
▁उम्र	-1727
ur	-1728
▁नागर	-1729
कट	-1730
▁घोषणा	-1731
▁जैसी	-1732
ग्री	-1733
▁उससे	-1734
ॉर्ड	-1735
▁समर्थन	-1736
▁लौ	-1737
▁संबंधित	-1738
▁दिखाई	-1739
▁विष	-1740
et	-1741
▁नेताओं	-1742
क़	-1743
▁गति	-1744
▁जनवरी	-1745
▁सीमा	-1746
▁क्लिक	-1747
▁देखते	-1748
काब	-1749
▁सप	-1750
श्मीर	-1751
▁पंच	-1752
मति	-1753
▁पंजाब	-1754
il	-1755
ूह	-1756
िरा	-1757
टन	-1758
▁कदम	-1759
▁विधायक	-1760
▁मामलों	-1761
▁सुप्रीम	-1762
बाइल	-1763
▁अच्छे	-1764
तक	-1765
▁नुक	-1766
▁दौ	-1767
हरी	-1768
▁मजबूत	-1769
जिक	-1770
केट	-1771
मर	-1772
▁पड़े	-1773
▁संय	-1774
धे	-1775
▁प्रशासन	-1776
▁पत्नी	-1777
▁अगस्त	-1778
ष्ण	-1779
▁प्ल	-1780
▁भाषा	-1781
▁जुड़े	-1782
▁सहाय	-1783
मीन	-1784
खंड	-1785
▁खूब	-1786
बाज	-1787
▁सहित	-1788
व्य	-1789
▁तय	-1790
▁रहता	-1791
▁बुध	-1792
मिक	-1793
▁लिये	-1794
ोस	-1795
▁गिरफ्तार	-1796
ंभ	-1797
▁मॉ	-1798
▁अंग	-1799
▁सलाह	-1800
इस	-1801
▁तस्वी	-1802
पे	-1803
▁फीसदी	-1804
▁नागरिक	-1805
डल	-1806
▁खत्म	-1807
▁नरेंद्र	-1808
▁जिम्मे	-1809
▁नुकसान	-1810
▁मी	-1811
बू	-1812
▁बदलाव	-1813
▁मिलेगा	-1814
▁स्वी	-1815
ष्ट्र	-1816
शु	-1817
▁17	-1818
ुड	-1819
वीं	-1820
उट	-1821
▁बर	-1822
▁चीन	-1823
▁देर	-1824
सत	-1825
िशा	-1826
▁रहेगा	-1827
▁मंत्रालय	-1828
▁मोबाइल	-1829
ूं	-1830
ॉक	-1831
ांति	-1832
▁अवसर	-1833
▁देशों	-1834
▁दिस	-1835
▁रिश	-1836
▁छो	-1837
▁लागू	-1838
▁करेगा	-1839
▁उद्	-1840
▁साबित	-1841
▁यूपी	-1842
,000	-1843
▁उनसे	-1844
▁परिव	-1845
ियान	-1846
▁हार	-1847
▁विवाद	-1848
दू	-1849
वें	-1850
▁जेल	-1851
▁टिक	-1852
▁रण	-1853
ृह	-1854
▁जुलाई	-1855
इड	-1856
▁सम्मान	-1857
ॉन	-1858
▁ती	-1859
▁आवश्यकता	-1860
द्योग	-1861
▁पत्रकार	-1862
▁s	-1863
▁अप्रैल	-1864
रल	-1865
▁मोह	-1866
▁नही	-1867
▁सहयोग	-1868
चिका	-1869
▁खाने	-1870
▁एल	-1871
▁गण	-1872
ष्टि	-1873
▁गलत	-1874
साथ	-1875
▁मुकाब	-1876
अप	-1877
▁नगर	-1878
▁दृ	-1879
▁डॉक्टर	-1880
▁बंग	-1881
▁पट	-1882
▁प्रभावित	-1883
▁एक्सप	-1884
▁करवा	-1885
▁रव	-1886
सि	-1887
▁भगवान	-1888
▁जाएंगे	-1889
▁उत	-1890
▁सोम	-1891
धन	-1892
साय	-1893
▁अगले	-1894
▁सामान्य	-1895
▁O	-1896
▁बनी	-1897
▁p	-1898
▁प्रत	-1899
▁स्थाप	-1900
▁विषय	-1901
▁ग्रह	-1902
▁धो	-1903
▁सामना	-1904
▁असर	-1905
▁खो	-1906
▁याचिका	-1907
▁कंट	-1908
▁0	-1909
▁राजनीति	-1910
नीय	-1911
▁आंक	-1912
▁आतंक	-1913
ॉय	-1914
▁होकर	-1915
ठी	-1916
्रो	-1917
▁संभावना	-1918
चीत	-1919
▁राय	-1920
ूबर	-1921
▁पहला	-1922
ंडी	-1923
▁शाय	-1924
▁गुजरा	-1925
▁छात्रों	-1926
ोरी	-1927
▁वही	-1928
un	-1929
▁कहानी	-1930
▁राजस्थान	-1931
▁अपरा	-1932
▁मिलता	-1933
▁बातचीत	-1934
▁तुल	-1935
▁लेते	-1936
▁उद	-1937
▁कट	-1938
▁नौकरी	-1939
▁खुश	-1940
▁भेज	-1941
▁सिद्ध	-1942
▁शब्	-1943
▁वाह	-1944
▁प्रेम	-1945
▁आते	-1946
▁वास्तव	-1947
▁सीएम	-1948
▁छोटे	-1949
▁सें	-1950
▁निर्ण	-1951
▁स्पष्ट	-1952
▁भर्ती	-1953
ंगी	-1954
▁फी	-1955
कर्ता	-1956
el	-1957
▁आग	-1958
ाना	-1959
▁प्रकाश	-1960
ent	-1961
विष्य	-1962
▁पूजा	-1963
ायल	-1964
ूड	-1965
चन	-1966
▁भू	-1967
▁साह	-1968
चाल	-1969
ch	-1970
▁सांसद	-1971
▁बनने	-1972
शनल	-1973
▁दर्द	-1974
ंता	-1975
▁भविष्य	-1976
▁चिक	-1977
us	-1978
▁दुर्	-1979
▁कप्ता	-1980
▁विपक्ष	-1981
हाल	-1982
ग्	-1983
▁भूमिका	-1984
▁सारे	-1985
▁आदमी	-1986
सूस	-1987
न्द्र	-1988
▁सीरीज	-1989
▁चरण	-1990
विड	-1991
प्ताह	-1992
▁दिसंबर	-1993
असल	-1994
▁सफलता	-1995
ोजन	-1996
ार्ड	-1997
▁सात	-1998
खी	-1999
▁स्मार्ट	-2000
.5	-2001
▁रहती	-2002
▁आरोपी	-2003
दर	-2004
▁तेजी	-2005
सों	-2006
▁मृत	-2007
▁मुश्	-2008
▁आयोजित	-2009
ॉट	-2010
▁हमला	-2011
▁उल्	-2012
▁शान	-2013
▁यून	-2014
उंट	-2015
▁V	-2016
ृत्व	-2017
▁आती	-2018
▁बाव	-2019
क्षि	-2020
▁लंब	-2021
ड़ियों	-2022
▁दरअसल	-2023
फोन	-2024
िष्ठ	-2025
सद	-2026
▁पति	-2027
तृत्व	-2028
▁पुरा	-2029
ड़ने	-2030
▁जित	-2031
▁युव	-2032
▁ज्ञ	-2033
▁पाया	-2034
लिम	-2035
▁राज्यों	-2036
तिम	-2037
▁दबा	-2038
▁2021	-2039
▁ट्वीट	-2040
▁पैदा	-2041
हरे	-2042
▁2019	-2043
नेस	-2044
▁!	-2045
िरी	-2046
▁सुधार	-2047
ंदी	-2048
▁महसूस	-2049
▁ऋ	-2050
▁जिसका	-2051
▁राष्ट्रपति	-2052
▁जैसा	-2053
▁21	-2054
▁वी	-2055
▁पारी	-2056
▁जरिए	-2057
▁रखें	-2058
▁U	-2059
▁धी	-2060
▁देती	-2061
▁मौके	-2062
▁तला	-2063
▁खराब	-2064
▁परेशान	-2065
ैनिक	-2066
ार्ज	-2067
▁गे	-2068
▁गौर	-2069
▁2024	-2070
▁सै	-2071
▁व्यक्त	-2072
▁संक्रमण	-2073
▁न्याय	-2074
ुओं	-2075
वुड	-2076
▁ति	-2077
▁मतलब	-2078
▁गुजरात	-2079
▁कंपन	-2080
▁आन	-2081
▁मुश्किल	-2082
क्टूबर	-2083
ानीय	-2084
▁भारी	-2085
▁फरवरी	-2086
▁एयर	-2087
▁t	-2088
▁पश्च	-2089
्रीन	-2090
▁नेतृत्व	-2091
▁आईपी	-2092
▁कथ	-2093
▁वरिष्ठ	-2094
ण्ड	-2095
lo	-2096
▁मगर	-2097
▁तस्वीर	-2098
पु	-2099
▁?	-2100
▁सितंबर	-2101
▁सोमवार	-2102
▁In	-2103
▁अक्टूबर	-2104
▁2020	-2105
▁आसान	-2106
जरी	-2107
▁निर्णय	-2108
सन	-2109
▁बावजूद	-2110
▁शायद	-2111
▁जाये	-2112
▁विस्त	-2113
▁श्र	-2114
▁रोग	-2115
▁तारी	-2116
▁चले	-2117
▁ट्रेन	-2118
र्तन	-2119
षि	-2120
▁आवा	-2121
्होंने	-2122
▁स्थानीय	-2123
स्त्र	-2124
▁माता	-2125
▁ओवर	-2126
▁फे	-2127
क्ता	-2128
▁यहाँ	-2129
ed	-2130
▁नवंबर	-2131
▁पड़ता	-2132
▁पहुंचे	-2133
िश्चित	-2134
▁डेट	-2135
क्सर	-2136
▁इले	-2137
▁सामा	-2138
▁अनुभव	-2139
लोड	-2140
ौती	-2141
▁सार	-2142
ंदगी	-2143
▁पर्या	-2144
▁अंतिम	-2145
िद	-2146
▁रै	-2147
▁समिति	-2148
▁टि	-2149
टल	-2150
▁पूछा	-2151
▁हिंदी	-2152
▁महाराष्ट्र	-2153
चल	-2154
ंघ	-2155
▁कैं	-2156
कृत	-2157
ित्व	-2158
वरण	-2159
स्थित	-2160
▁लॉन्	-2161
ब्ल	-2162
स्ताव	-2163
ोलन	-2164
▁सामाजिक	-2165
▁इंग	-2166
▁रिज	-2167
▁रिकॉर्ड	-2168
▁वर्ग	-2169
▁सम्	-2170
ra	-2171
पास	-2172
▁एंड	-2173
स्ट्रे	-2174
▁100	-2175
कत	-2176
▁प्रस्ताव	-2177
▁प्रत्य	-2178
▁प्रवेश	-2179
▁कला	-2180
▁सुना	-2181
▁पैसा	-2182
उंड	-2183
स्ती	-2184
▁वायरल	-2185
▁छह	-2186
▁मू	-2187
▁इलाज	-2188
्यु	-2189
लीवुड	-2190
▁खिलाड़ी	-2191
▁मौका	-2192
ोद	-2193
oo	-2194
ेन	-2195
ul	-2196
▁गये	-2197
▁पीड़	-2198
सू	-2199
▁त्र	-2200
▁हिंदू	-2201
id	-2202
▁मुला	-2203
ज़ा	-2204
टने	-2205
▁मश	-2206
▁हमारा	-2207
▁बाइ	-2208
▁सूर्य	-2209
दीप	-2210
▁22	-2211
pp	-2212
ेत	-2213
▁गुण	-2214
▁लेना	-2215
▁आयु	-2216
्वास	-2217
▁2023	-2218
▁सड़क	-2219
विद्यालय	-2220
▁आंद	-2221
▁हल्	-2222
▁खर्च	-2223
▁बुधवार	-2224
▁बीते	-2225
स्ट्रेलिया	-2226
▁चीज	-2227
अलग	-2228
▁जाकर	-2229
▁आपने	-2230
रिया	-2231
ंतर	-2232
▁संगठन	-2233
▁शुक्रवार	-2234
▁रज	-2235
▁भावना	-2236
स्लिम	-2237
▁दक्षि	-2238
▁चाहता	-2239
▁अक्सर	-2240
▁सत्ता	-2241
▁संत	-2242
िटल	-2243
रीब	-2244
ोह	-2245
▁2025	-2246
▁प्रयोग	-2247
▁बेटी	-2248
▁मंगलवार	-2249
ानि	-2250
▁निजी	-2251
ष्ट्रीय	-2252
▁in	-2253
▁जमीन	-2254
▁टीवी	-2255
▁उसमें	-2256
ांड	-2257
▁मात्रा	-2258
्यता	-2259
कर्ताओं	-2260
िक्ष	-2261
▁समुदाय	-2262
▁बताते	-2263
यं	-2264
▁बंगाल	-2265
धर	-2266
ीत	-2267
▁सीटों	-2268
ूरत	-2269
▁पूर्ण	-2270
▁आसानी	-2271
ag	-2272
▁प्रव	-2273
तमान	-2274
धिकारिक	-2275
▁फैसले	-2276
तिहास	-2277
▁फोट	-2278
▁सिर	-2279
▁रिली	-2280
▁पाठ	-2281
▁शानदार	-2282
▁इंग्ल	-2283
▁बेटे	-2284
▁सप्ताह	-2285
▁समूह	-2286
▁अभियान	-2287
थि	-2288
▁शि	-2289
▁अनुमति	-2290
स्टम	-2291
▁पहुंचा	-2292
▁ज़र	-2293
▁विश्वास	-2294
▁कथित	-2295
▁इतिहास	-2296
▁आधिकारिक	-2297
▁अंक	-2298
▁वैसे	-2299
ील	-2300
▁रखते	-2301
तरी	-2302
▁लंबे	-2303
▁चिकित	-2304
▁ग्राह	-2305
▁अपराध	-2306
लेट	-2307
स्कार	-2308
▁दवा	-2309
▁दिशा	-2310
▁डाउन	-2311
▁नियंत्र	-2312
▁चुना	-2313
▁चिंता	-2314
▁तुर	-2315
▁मं	-2316
▁करनी	-2317
▁कराने	-2318
रु	-2319
मक	-2320
ेंज	-2321
ct	-2322
▁तकनी	-2323
▁चंद्र	-2324
र्ग	-2325
बीआई	-2326
▁दूसरा	-2327
▁कश्मीर	-2328
िनि	-2329
▁श्रे	-2330
▁शक्ति	-2331
▁वृद्धि	-2332
▁गृह	-2333
▁भुग	-2334
द्रा	-2335
▁शन	-2336
▁क्षेत्रों	-2337
ीण	-2338
▁खोल	-2339
▁इंत	-2340
▁मुस्लिम	-2341
मरा	-2342
मित	-2343
▁रविवार	-2344
▁भीतर	-2345
▁कब	-2346
शील	-2347
ाइट	-2348
▁40	-2349
ल्ट	-2350
▁सुरक्षित	-2351
▁सुनिश्चित	-2352
रिक्त	-2353
ha	-2354
▁क्षमता	-2355
▁बढ़ाने	-2356
▁तुम्ह	-2357
▁वर्तमान	-2358
▁m	-2359
▁भुगतान	-2360
र्जा	-2361
▁प्लान	-2362
▁थोड़ा	-2363
▁ज्यो	-2364
▁लगाए	-2365
रेट	-2366
▁सूची	-2367
▁समेत	-2368
दु	-2369
▁शनिवार	-2370
▁रखना	-2371
▁अतिरिक्त	-2372
99	-2373
▁बॉलीवुड	-2374
▁हरिया	-2375
▁संके	-2376
▁एजेंसी	-2377
▁जता	-2378
▁अका	-2379
ज़र	-2380
▁एफ	-2381
▁कराया	-2382
▁मिलती	-2383
▁किलो	-2384
▁अभिने	-2385
▁आंदोलन	-2386
▁साइ	-2387
▁देकर	-2388
यों	-2389
▁सचिव	-2390
▁सुपर	-2391
खन	-2392
▁उद्देश	-2393
▁23	-2394
▁b	-2395
▁प्रतिक	-2396
▁तभी	-2397
ौल	-2398
▁सुनवाई	-2399
▁ऑस्ट्रेलिया	-2400
▁इतनी	-2401
▁निभा	-2402
ot	-2403
▁स्वीकार	-2404
▁चैन	-2405
्वर	-2406
▁विश्वविद्यालय	-2407
hi	-2408
भार	-2409
▁तुलना	-2410
▁दिला	-2411
ुप	-2412
▁योगी	-2413
▁लॉन्च	-2414
ठा	-2415
धानी	-2416
▁जिसकी	-2417
▁अमेरिक	-2418
ut	-2419
साद	-2420
▁ग्रामीण	-2421
▁हमले	-2422
▁धारा	-2423
▁माइ	-2424
▁कोविड	-2425
▁ज्योति	-2426
▁संयुक्त	-2427
▁फाइन	-2428
▁तुरंत	-2429
▁कप्तान	-2430
▁डर	-2431
▁कॉलेज	-2432
▁कर्	-2433
▁मर	-2434
रान	-2435
▁इनमें	-2436
▁तत्	-2437
▁जाय	-2438
▁प्री	-2439
▁मल	-2440
जु	-2441
em	-2442
▁बल	-2443
▁आठ	-2444
वत	-2445
▁J	-2446
▁लड़की	-2447
मैं	-2448
▁चयन	-2449
▁दोस्तों	-2450
▁''	-2451
म्मू	-2452
▁बिजली	-2453
▁दुकान	-2454
मिट	-2455
म्प	-2456
▁हिंसा	-2457
ट्ट	-2458
ड्ड	-2459
वेद	-2460
▁f	-2461
▁मौसम	-2462
▁जोर	-2463
▁रिश्ते	-2464
पक	-2465
श्न	-2466
भाल	-2467
▁कठ	-2468
▁संस्था	-2469
▁रेलवे	-2470
▁करियर	-2471
कम	-2472
ूक	-2473
▁वायरस	-2474
न्या	-2475
▁उपाय	-2476
▁ठा	-2477
▁26	-2478
▁लं	-2479
ैया	-2480
▁आउट	-2481
ाब	-2482
▁मेड	-2483
▁बेच	-2484
os	-2485
▁पल	-2486
▁सिस्टम	-2487
▁बारिश	-2488
▁टिकट	-2489
▁स्वयं	-2490
▁चाहे	-2491
ुरुष	-2492
..	-2493
▁बजट	-2494
▁खाना	-2495
▁इंडियन	-2496
हली	-2497
▁आश	-2498
्रेट	-2499
▁शीर्ष	-2500
▁जम्मू	-2501
▁पाने	-2502
▁लड़ा	-2503
नर	-2504
▁मैदान	-2505
▁ट्रेड	-2506
▁इंग्लैंड	-2507
गम	-2508
ंव	-2509
▁इलाके	-2510
▁इंस्ट	-2511
▁फायदे	-2512
▁उम्मीदवारों	-2513
▁बातें	-2514
▁दक्षिण	-2515
फ्ट	-2516
▁तनाव	-2517
▁नेट	-2518
▁रक्षा	-2519
▁फ्ल	-2520
om	-2521
▁सुख	-2522
▁आखिर	-2523
▁विदेशी	-2524
ir	-2525
▁करेगी	-2526
▁संस्थान	-2527
▁समान	-2528
ामा	-2529
▁माँ	-2530
and	-2531
▁रहें	-2532
▁संभव	-2533
▁केस	-2534
▁जल्दी	-2535
्ती	-2536
▁पुरुष	-2537
▁यूजर	-2538
▁स्वतंत्र	-2539
ation	-2540
▁हटा	-2541
▁उनको	-2542
ूर्ति	-2543
▁संब	-2544
▁दश	-2545
▁शांति	-2546
▁दोष	-2547
▁प्लेट	-2548
▁मार्ग	-2549
▁क्व	-2550
▁धीरे	-2551
▁सजा	-2552
पू	-2553
▁संपर्क	-2554
▁लक्ष्य	-2555
▁गिरा	-2556
▁न्यायालय	-2557
▁सूत्र	-2558
खे	-2559
▁फिल्मों	-2560
▁विन	-2561
▁सिल	-2562
▁स्मार्टफोन	-2563
▁जाति	-2564
विध	-2565
ol	-2566
ियाँ	-2567
▁सारी	-2568
▁कृषि	-2569
▁चाल	-2570
स्ते	-2571
स्टर	-2572
▁तैयारी	-2573
▁सार्व	-2574
▁1.	-2575
ित्य	-2576
-2	-2577
▁बर्	-2578
▁सहायता	-2579
▁जिन्हें	-2580
▁रिलीज	-2581
▁विरा	-2582
▁हरियाणा	-2583
एच	-2584
चारियों	-2585
▁देंगे	-2586
ूनी	-2587
▁बिक	-2588
▁खाते	-2589
▁नीति	-2590
▁28	-2591
▁छोटी	-2592
ल्क	-2593
▁तु	-2594
▁पश्चिम	-2595
▁इलेक्ट	-2596
▁वर्षों	-2597
▁रोहित	-2598
सित	-2599
▁अमेरिकी	-2600
▁जस्ट	-2601
▁क़	-2602
वट	-2603
▁संचाल	-2604
▁आंख	-2605
▁पुन	-2606
िटर	-2607
▁पालन	-2608
▁संसद	-2609
▁2017	-2610
ैट	-2611
▁बीमारी	-2612
▁देखकर	-2613
▁जुड़ी	-2614
्रिया	-2615
नो	-2616
▁बनाकर	-2617
्रिक	-2618
▁आयोजन	-2619
▁उद्देश्य	-2620
▁कंपनियों	-2621
गु	-2622
▁फॉ	-2623
न्द	-2624
▁लिस्ट	-2625
▁आनंद	-2626
▁अश	-2627
▁कंट्रोल	-2628
▁फा	-2629
▁वर्ल्ड	-2630
▁कोहली	-2631
▁बाइक	-2632
जनिक	-2633
▁मुह	-2634
नल	-2635
▁हिन्	-2636
▁राहत	-2637
▁जिन्होंने	-2638
▁खुला	-2639
ov	-2640
▁कारो	-2641
जल	-2642
▁कवि	-2643
▁ऑफिस	-2644
har	-2645
▁फायदा	-2646
▁फल	-2647
्रेड	-2648
▁मिलेगी	-2649
▁कर्मचारियों	-2650
थमिक	-2651
▁कपूर	-2652
▁विजय	-2653
▁विशेषज्ञ	-2654
▁सालों	-2655
▁वजन	-2656
▁इच्छ	-2657
▁मुद्दे	-2658
▁दूध	-2659
pe	-2660
ैर	-2661
केश	-2662
▁प्राथमिक	-2663
ंडल	-2664
com	-2665
▁सार्वजनिक	-2666
मीटर	-2667
▁27	-2668
म्मद	-2669
▁31	-2670
▁आईपीएल	-2671
सेना	-2672
▁गठबंधन	-2673
▁कमज	-2674
▁निर्धार	-2675
▁समी	-2676
▁मार्केट	-2677
▁घु	-2678
▁स्थापित	-2679
रीन	-2680
▁आइए	-2681
सं	-2682
ri	-2683
बि	-2684
▁बैठे	-2685
-19	-2686
▁चाहती	-2687
▁घोषित	-2688
कात	-2689
▁रेड	-2690
▁भोजन	-2691
देव	-2692
वाही	-2693
▁नती	-2694
▁प्रत्येक	-2695
▁खुल	-2696
▁युद्ध	-2697
▁चेहरे	-2698
ेप	-2699
▁प्राइ	-2700
▁कार्यालय	-2701
▁रहेंगे	-2702
▁गुरुवार	-2703
▁बाकी	-2704
▁घा	-2705
राष्ट्रीय	-2706
▁लखन	-2707
ंकर	-2708
▁जाएं	-2709
कर्ष	-2710
▁प्रतिक्रिया	-2711
▁डाउनलोड	-2712
▁जस्टिस	-2713
उस	-2714
▁संकेत	-2715
▁कही	-2716
▁समाप्त	-2717
लेख	-2718
तीश	-2719
▁लोन	-2720
प्स	-2721
▁अली	-2722
▁एक्सप्रेस	-2723
▁अवधि	-2724
▁जिनमें	-2725
एँ	-2726
▁2018	-2727
▁खड़े	-2728
▁शै	-2729
▁विस्तार	-2730
▁अक्ष	-2731
▁बनाई	-2732
▁कितना	-2733
▁गाय	-2734
▁मुद्रा	-2735
▁दस्ता	-2736
▁किये	-2737
▁बीमार	-2738
▁c	-2739
▁शराब	-2740
▁प्रचार	-2741
टाने	-2742
▁टिप्प	-2743
फाई	-2744
▁टाइम	-2745
ाहरण	-2746
▁तीसरे	-2747
▁परिवर्तन	-2748
त्त	-2749
शिया	-2750
षद	-2751
▁थाना	-2752
नु	-2753
▁उनमें	-2754
▁पौ	-2755
ार्क	-2756
एक	-2757
▁फोटो	-2758
50	-2759
▁सल	-2760
▁लंड	-2761
ew	-2762
▁फिलहाल	-2763
▁गैर	-2764
▁आखिरी	-2765
indi	-2766
▁मूल्य	-2767
ंडा	-2768
जरीवाल	-2769
त्ती	-2770
▁त्व	-2771
▁अखिल	-2772
▁भ्र	-2773
विधान	-2774
▁ज्ञान	-2775
▁सदस्यों	-2776
▁नार	-2777
र्प	-2778
▁चुनौती	-2779
▁गौ	-2780
▁तमाम	-2781
शिप	-2782
▁व्	-2783
वधान	-2784
▁ऊर्जा	-2785
30	-2786
▁पॉ	-2787
▁मुझ	-2788
ियार	-2789
▁केजरीवाल	-2790
ंकी	-2791
▁हल	-2792
▁लखनऊ	-2793
दर्श	-2794
▁रिट	-2795
फ्र	-2796
लैंड	-2797
▁वित्त	-2798
▁मानसिक	-2799
▁बुला	-2800
▁बढ़ने	-2801
ँच	-2802
▁प्रतिनि	-2803
टो	-2804
▁साध	-2805
▁देवी	-2806
सीसी	-2807
क्षक	-2808
▁प्रण	-2809
▁पढ़ें	-2810
▁डेटा	-2811
▁संघर्ष	-2812
▁खिलाड़ियों	-2813
▁परेशानी	-2814
▁सेट	-2815
▁संर	-2816
▁मरी	-2817
▁खोज	-2818
▁तोड़	-2819
▁पीड़ित	-2820
▁लै	-2821
ab	-2822
▁उद्योग	-2823
▁गेम	-2824
▁अंग्रे	-2825
▁साझा	-2826
नियर	-2827
▁हरा	-2828
▁उत्तरा	-2829
▁प्रसाद	-2830
▁जिंदगी	-2831
▁उदाहरण	-2832
▁मुकाबले	-2833
▁चली	-2834
▁पृ	-2835
चानक	-2836
जीत	-2837
▁एक्ट्रेस	-2838
कोर	-2839
ग्रह	-2840
▁दस्तावे	-2841
▁h	-2842
▁देखें	-2843
▁त्वचा	-2844
▁अकाउंट	-2845
स्व	-2846
गो	-2847
▁मैने	-2848
▁जोड़	-2849
▁पुराने	-2850
▁स्टेशन	-2851
▁आधारित	-2852
▁अचानक	-2853
ैंप	-2854
ार्मिक	-2855
▁ज़्यादा	-2856
▁पहन	-2857
▁टा	-2858
▁सीख	-2859
जूदा	-2860
▁होनी	-2861
▁असम	-2862
वै	-2863
▁धार्मिक	-2864
ेंशन	-2865
▁कॉल	-2866
▁पहल	-2867
▁तत्काल	-2868
▁मस	-2869
िकेशन	-2870
▁इंटरनेट	-2871
▁शब्द	-2872
▁मिलकर	-2873
▁मुलाकात	-2874
ंग्ला	-2875
▁प्रभ	-2876
▁हेल्	-2877
▁संजय	-2878
▁गर्म	-2879
▁इतने	-2880
▁दबाव	-2881
चारी	-2882
▁हथ	-2883
ियोजना	-2884
काम	-2885
िनी	-2886
▁अमित	-2887
▁29	-2888
ोधित	-2889
▁विद्य	-2890
▁पकड़	-2891
▁हिस्से	-2892
▁व्यवसाय	-2893
▁निशा	-2894
▁इनके	-2895
ोप	-2896
▁दम	-2897
▁भीड़	-2898
ियत	-2899
▁रणनी	-2900
▁परियोजना	-2901
ess	-2902
▁इंजन	-2903
▁मौजूदा	-2904
▁(1	-2905
▁वकी	-2906
▁नारा	-2907
▁किताब	-2908
सु	-2909
▁199	-2910
▁पीठ	-2911
दूर	-2912
▁तारीख	-2913
▁सपा	-2914
ोधन	-2915
▁दस	-2916
▁अय	-2917
▁रेट	-2918
▁मेडिकल	-2919
द्द	-2920
▁बॉडी	-2921
ग्राम	-2922
▁स्क्रीन	-2923
ायी	-2924
▁बालों	-2925
▁रहना	-2926
▁खड़ा	-2927
र्श	-2928
▁घरे	-2929
▁मस्	-2930
जिए	-2931
▁संपत्ति	-2932
कोर्ट	-2933
▁मतदान	-2934
डर	-2935
▁रखी	-2936
▁गरीब	-2937
▁री	-2938
▁चढ़	-2939
▁फॉर्म	-2940
वस्था	-2941
प्शन	-2942
▁छुट	-2943
▁राजा	-2944
▁प्रश्न	-2945
▁ब्रे	-2946
▁बिग	-2947
▁भरो	-2948
▁इन्हें	-2949
▁प्रेर	-2950
▁थोड़ी	-2951
्कुल	-2952
▁रोड	-2953
▁ऐप	-2954
▁कब्	-2955
▁अनुर	-2956
▁पदों	-2957
▁छूट	-2958
्टर	-2959
घा	-2960
▁वनडे	-2961
▁2026	-2962
▁लाने	-2963
ow	-2964
▁जिम्मेदारी	-2965
▁रोकने	-2966
▁Re	-2967
▁मेहन	-2968
▁डिजिटल	-2969
▁डॉलर	-2970
▁कड़ी	-2971
थी	-2972
डेट	-2973
▁बांग्ला	-2974
▁प्रमाण	-2975
ौन	-2976
▁किन	-2977
▁संविधान	-2978
▁लिंक	-2979
▁मानव	-2980
▁भेजा	-2981
िक्र	-2982
्याज	-2983
▁प्रिय	-2984
वाला	-2985
▁कोल	-2986
यक	-2987
▁बिल्कुल	-2988
▁अपील	-2989
खर	-2990
▁तलाश	-2991
▁रजिस्ट	-2992
कारा	-2993
▁निर्धारित	-2994
श्चित	-2995
▁तरीका	-2996
▁/	-2997
जनक	-2998
▁एंटी	-2999
हान	-3000
▁सीधे	-3001
▁टॉप	-3002
▁पढ़ाई	-3003
▁राशिफल	-3004
टरी	-3005
od	-3006
▁2.	-3007
▁चोट	-3008
▁घायल	-3009
ॉग	-3010
▁चूत	-3011
▁संकट	-3012
▁खरीदने	-3013
▁मॉडल	-3014
्तीय	-3015
▁चलता	-3016
▁जम	-3017
▁घरेलू	-3018
▁o	-3019
▁सत्र	-3020
▁नो	-3021
▁मैचों	-3022
वर्	-3023
▁क्ला	-3024
▁दलों	-3025
▁मोहम्मद	-3026
यल	-3027
▁सत	-3028
▁अके	-3029
▁दिवस	-3030
▁चैनल	-3031
ाइड	-3032
▁रहेगी	-3033
▁1,	-3034
▁दर्श	-3035
▁समाचार	-3036
▁बल्लेबाज	-3037
▁हाईकोर्ट	-3038
▁निश्चित	-3039
▁निदेश	-3040
धरी	-3041
न्ना	-3042
▁पढ़ने	-3043
▁स्टार	-3044
▁बू	-3045
▁विराट	-3046
▁सामग्री	-3047
▁काल	-3048
चु	-3049
▁बजाय	-3050
▁अग्र	-3051
▁विकसित	-3052
▁जवान	-3053
ेद	-3054
▁अंतरराष्ट्रीय	-3055
मेल	-3056
सलमान	-3057
▁निर	-3058
▁आसपास	-3059
▁पटेल	-3060
▁देखना	-3061
▁आध	-3062
▁सलमान	-3063
▁वित्तीय	-3064
▁वाहन	-3065
▁शव	-3066
▁हिस	-3067
▁वाय	-3068
▁देगा	-3069
जब	-3070
▁प्रार	-3071
▁सिक	-3072
▁हॉ	-3073
▁60	-3074
▁बेहत	-3075
▁भूल	-3076
द्व	-3077
दिन	-3078
▁पेट्रोल	-3079
ेर	-3080
▁प्रबंधन	-3081
▁कहां	-3082
त्कार	-3083
ig	-3084
▁निशाना	-3085
▁ग्रुप	-3086
▁धार	-3087
विंद	-3088
▁बांग्लादेश	-3089
ुण	-3090
प्रिय	-3091
ज्ञा	-3092
▁गईं	-3093
्मी	-3094
▁ब्लड	-3095
▁मरीजों	-3096
▁प्रती	-3097
▁इंतजार	-3098
▁गैस	-3099
▁गोली	-3100
▁आदित्य	-3101
▁खतरा	-3102
▁दोप	-3103
दिक	-3104
iv	-3105
▁राजधानी	-3106
▁निष्	-3107
▁कोच	-3108
इज	-3109
▁ट्विटर	-3110
▁नियमित	-3111
▁धर	-3112
चर्स	-3113
▁ज्योतिष	-3114
▁हाथों	-3115
▁सीजन	-3116
▁अध्ययन	-3117
▁शासन	-3118
जित	-3119
्रत	-3120
ामिन	-3121
▁कारोबार	-3122
तः	-3123
▁चेक	-3124
▁किलोमीटर	-3125
▁जात	-3126
▁संस्क	-3127
▁चौधरी	-3128
▁विट	-3129
▁मंच	-3130
फॉर्म	-3131
▁आवाज	-3132
▁कमजोर	-3133
▁आराम	-3134
▁महान	-3135
प्ति	-3136
▁फूल	-3137
han	-3138
▁मेहनत	-3139
▁दलित	-3140
▁w	-3141
▁संदेश	-3142
ेंडर	-3143
▁बनाना	-3144
▁डिस्	-3145
्राम	-3146
ter	-3147
दाता	-3148
बो	-3149
लान	-3150
▁झू	-3151
ट्स	-3152
मेश	-3153
▁सेहत	-3154
राह	-3155
▁आलो	-3156
▁आजा	-3157
ोषण	-3158
▁सुनी	-3159
▁लगती	-3160
▁प्रतिबंध	-3161
▁उत्पाद	-3162
द्दी	-3163
▁तिथि	-3164
▁स्वामी	-3165
नाक	-3166
▁सीटें	-3167
▁प्रेस	-3168
um	-3169
पान	-3170
▁तत्व	-3171
▁कक्षा	-3172
▁चार्ज	-3173
▁बाबा	-3174
▁सकें	-3175
रद	-3176
▁इन्	-3177
▁भूमि	-3178
ांक	-3179
▁फाइनल	-3180
ानों	-3181
▁रस	-3182
▁नदी	-3183
▁सच्च	-3184
▁हफ	-3185
▁नियंत्रण	-3186
▁महामारी	-3187
ेक्ट	-3188
ष्टा	-3189
▁उत्पादन	-3190
▁प्रशिक्ष	-3191
प्ले	-3192
▁उचित	-3193
▁फ्री	-3194
्रिय	-3195
▁करो	-3196
▁बेहतरीन	-3197
▁मुसलमान	-3198
पूर	-3199
▁समस्याओं	-3200
▁सूत्रों	-3201
▁आर्ट	-3202
▁सभा	-3203
▁हवा	-3204
▁नीतीश	-3205
िवर्स	-3206
▁d	-3207
▁पूछता	-3208
▁पाई	-3209
रेज	-3210
स्म	-3211
▁इंसान	-3212
▁बोला	-3213
▁हाद	-3214
▁लाइन	-3215
▁रवि	-3216
▁निवासी	-3217
▁कहने	-3218
▁भले	-3219
यह	-3220
▁व्यवहार	-3221
्यूटर	-3222
जाम	-3223
▁स्कोर	-3224
▁नोटिस	-3225
▁तीनों	-3226
▁चुनावों	-3227
▁शनि	-3228
▁पर्याप्त	-3229
.1	-3230
र्डर	-3231
▁खी	-3232
▁आँ	-3233
ैंस	-3234
▁रोजगार	-3235
▁कितनी	-3236
▁k	-3237
▁प्रस्त	-3238
नाटक	-3239
▁दोपहर	-3240
▁कर्मचारी	-3241
शान	-3242
मंद	-3243
▁चीजों	-3244
▁बें	-3245
est	-3246
▁अरब	-3247
▁सक्रिय	-3248
▁कितने	-3249
चक	-3250
▁वार्	-3251
▁मालिक	-3252
▁2014	-3253
िनियम	-3254
▁मिट	-3255
▁स्पी	-3256
▁किर	-3257
्वा	-3258
▁बिजनेस	-3259
धिकारी	-3260
▁लाइफ	-3261
▁हिसाब	-3262
▁अपडेट	-3263
▁जिसने	-3264
▁वॉ	-3265
स्ट्री	-3266
▁संश	-3267
तलब	-3268
▁टिप्पणी	-3269
▁अंतर्	-3270
माने	-3271
▁खाली	-3272
▁निप	-3273
▁डिग्री	-3274
▁सीबीआई	-3275
्सा	-3276
▁डिजाइन	-3277
▁पोर्ट	-3278
▁दैनिक	-3279
▁मनु	-3280
▁मुक	-3281
▁युवाओं	-3282
▁लड़ाई	-3283
▁रोम	-3284
▁ग्ल	-3285
▁टॉ	-3286
▁समाधान	-3287
ल्ल	-3288
▁रखे	-3289
▁बातों	-3290
▁Y	-3291
्प	-3292
▁खुशी	-3293
▁अखिलेश	-3294
▁पावर	-3295
▁पहुंचने	-3296
थे	-3297
▁समझौ	-3298
▁हफ्ते	-3299
▁प्रभा	-3300
▁जिम्मेदार	-3301
ज़ार	-3302
▁बढ़ती	-3303
▁उल्लेख	-3304
▁नै	-3305
त्तीस	-3306
▁युवक	-3307
▁गणेश	-3308
▁साथी	-3309
▁चुनावी	-3310
▁इस्ती	-3311
गन	-3312
▁ड्राइ	-3313
▁कर्नाटक	-3314
क्कर	-3315
▁यूज	-3316
▁बहन	-3317
िलों	-3318
▁अफ्री	-3319
▁वर्षीय	-3320
ाले	-3321
कर्म	-3322
im	-3323
वां	-3324
▁परिषद	-3325
बद्ध	-3326
शाली	-3327
▁रॉय	-3328
▁लोकप्रिय	-3329
▁पहुंची	-3330
ate	-3331
व्यू	-3332
▁टैक्स	-3333
▁विटामिन	-3334
▁खि	-3335
▁गू	-3336
▁बोली	-3337
he	-3338
कृति	-3339
देन	-3340
▁किश	-3341
▁वापसी	-3342
▁अवै	-3343
▁तू	-3344
▁नेशनल	-3345
▁डिप	-3346
▁ज्यादातर	-3347
."	-3348
धीश	-3349
▁अधिनियम	-3350
▁लक्षण	-3351
▁मानना	-3352
शे	-3353
▁सॉ	-3354
▁प्रोड	-3355
▁कैंसर	-3356
पोर्ट	-3357
▁इच्छा	-3358
त्रियों	-3359
▁रिजल्ट	-3360
्यास	-3361
▁संबंधी	-3362
ारोह	-3363
िशन	-3364
पिता	-3365
▁निगम	-3366
▁बहा	-3367
▁गौरतलब	-3368
▁पड़ेगा	-3369
▁नियमों	-3370
बाल	-3371
▁पड़ी	-3372
व्यवस्था	-3373
▁एका	-3374
ोत्	-3375
▁शौ	-3376
▁गोल	-3377
▁अथ	-3378
▁टूट	-3379
▁उतार	-3380
▁ट्रै	-3381
▁पंड	-3382
▁होटल	-3383
▁मित्र	-3384
श्वर	-3385
▁भरपूर	-3386
▁मध	-3387
▁उतर	-3388
▁समारोह	-3389
▁डो	-3390
▁चलने	-3391
▁लव	-3392
ज्ञानिक	-3393
▁वकील	-3394
▁ब्रिट	-3395
टका	-3396
▁उसको	-3397
सेस	-3398
▁फंड	-3399
वाले	-3400
▁शख	-3401
▁लड़क	-3402
एंगे	-3403
▁खेलने	-3404
▁विद्यालय	-3405
▁मनी	-3406
क्षम	-3407
▁गाड़ी	-3408
▁गतिविध	-3409
▁दिखाया	-3410
▁इंद	-3411
त्तीसगढ़	-3412
▁विमान	-3413
▁चीनी	-3414
▁उत्तराखंड	-3415
राव	-3416
▁जिनके	-3417
▁आकर	-3418
▁प्ला	-3419
▁मेह	-3420
▁कमरे	-3421
ंदे	-3422
▁वार	-3423
▁श्रद्ध	-3424
▁उपकरण	-3425
▁हालत	-3426
ढ़ी	-3427
▁धम	-3428
ठे	-3429
▁व्रत	-3430
ak	-3431
▁प्रवक्ता	-3432
▁तमिल	-3433
▁विवाह	-3434
▁आरोपियों	-3435
▁पंचायत	-3436
▁सख	-3437
हि	-3438
.2	-3439
▁व्यक्तिगत	-3440
▁सिने	-3441
▁उठाया	-3442
ंदन	-3443
▁कपड़े	-3444
▁पुष्टि	-3445
▁सुझा	-3446
▁अने	-3447
▁चिकित्सा	-3448
▁तैना	-3449
▁दाम	-3450
कृ	-3451
ूँ	-3452
▁संवाद	-3453
th	-3454
▁अवैध	-3455
▁कार्यों	-3456
▁35	-3457
▁शोध	-3458
यम	-3459
▁सुंदर	-3460
▁ऐलान	-3461
ेस	-3462
ियोग	-3463
▁कार्यकर्ताओं	-3464
नतम	-3465
▁सोने	-3466
▁कृष्ण	-3467
▁एक्टर	-3468
वर्क	-3469
▁कमाई	-3470
बादी	-3471
▁परिस	-3472
▁कैमरा	-3473
▁माहौल	-3474
▁छि	-3475
▁नज़र	-3476
▁रास्ते	-3477
▁एच	-3478
आप	-3479
▁बल्लेबाजी	-3480
हित्य	-3481
▁सक्षम	-3482
कू	-3483
ब्र	-3484
▁लौट	-3485
▁आकर्ष	-3486
▁जातकों	-3487
▁मिलते	-3488
▁स्ट्र	-3489
पत्र	-3490
▁लगने	-3491
ंजी	-3492
ज़ी	-3493
▁छत्तीसगढ़	-3494
डु	-3495
पूर्व	-3496
ारात्मक	-3497
कुमार	-3498
▁जू	-3499
▁ट्रांस	-3500
▁स्किन	-3501
लिंग	-3502
ायण	-3503
▁मृत्यु	-3504
ce	-3505
▁उल	-3506
▁पूछताछ	-3507
▁नम	-3508
▁जुड़ा	-3509
▁होम	-3510
▁मुंह	-3511
ग्न	-3512
▁ओपन	-3513
▁बचाने	-3514
माग	-3515
▁कने	-3516
▁एशिया	-3517
▁अनुमान	-3518
▁बिक्री	-3519
नाम	-3520
▁खूबस	-3521
▁मिस	-3522
▁आये	-3523
▁प्रणाली	-3524
▁हित	-3525
▁एसिड	-3526
▁सत्य	-3527
▁मिलाकर	-3528
दरा	-3529
▁साइट	-3530
▁उपचार	-3531
▁सेंटर	-3532
▁आवास	-3533
▁लॉक	-3534
▁अंदा	-3535
▁स्टो	-3536
▁पैर	-3537
िंट	-3538
बारा	-3539
▁मिश्रा	-3540
▁बढ़ावा	-3541
▁वास्तविक	-3542
जो	-3543
▁जीव	-3544
ंजन	-3545
्याण	-3546
▁ग्राहकों	-3547
चि	-3548
▁सेक	-3549
▁फैला	-3550
स्थिति	-3551
▁सारा	-3552
▁श्रम	-3553
▁जहाँ	-3554
जिद	-3555
ment	-3556
वरूप	-3557
▁बचाव	-3558
▁स्कू	-3559
▁मंजू	-3560
▁बोले	-3561
▁किरदार	-3562
ॉम	-3563
▁फीचर्स	-3564
्वी	-3565
▁योगदान	-3566
▁इंटरव्यू	-3567
▁सर्वे	-3568
▁St	-3569
▁गाँ	-3570
ाये	-3571
ल्ला	-3572
दियों	-3573
▁न्यायाधीश	-3574
खिम	-3575
▁ट्रंप	-3576
▁मुद्दों	-3577
▁दाख	-3578
▁शिकार	-3579
▁भरोसा	-3580
नगर	-3581
▁आलोचना	-3582
▁मजदूर	-3583
▁अन्	-3584
▁दायर	-3585
▁समीक्षा	-3586
ष्टाचार	-3587
▁कानूनी	-3588
▁साहित्य	-3589
▁चाय	-3590
▁सन	-3591
▁वेर	-3592
मानत	-3593
हल	-3594
▁फाइ	-3595
▁पदार्थ	-3596
▁इसको	-3597
▁शख्स	-3598
▁पटना	-3599
▁चैंप	-3600
▁सकारात्मक	-3601
▁केरल	-3602
▁समझा	-3603
▁हालात	-3604
▁शुल्क	-3605
थर	-3606
▁लीग	-3607
▁पंजी	-3608
▁Hindi	-3609
▁जोखिम	-3610
▁रद्द	-3611
▁जागर	-3612
स्ट्र	-3613
ुरा	-3614
▁2016	-3615
▁खेले	-3616
▁शुरुआती	-3617
▁198	-3618
▁पुरस्कार	-3619
▁इस्ला	-3620
वीर	-3621
▁चर	-3622
▁गुप्ता	-3623
क्का	-3624
▁जिलों	-3625
ूंगा	-3626
कुर	-3627
▁ताकत	-3628
बीर	-3629
▁अंड	-3630
▁जॉ	-3631
▁कॉन्	-3632
ंतु	-3633
▁लगाई	-3634
क्के	-3635
▁वस्त	-3636
ांश	-3637
▁पर्य	-3638
ताव	-3639
▁अत्य	-3640
eb	-3641
एसपी	-3642
▁स्वागत	-3643
ंटर	-3644
कीय	-3645
▁पुरानी	-3646
द्योगिक	-3647
.4	-3648
▁रक्त	-3649
▁कहती	-3650
▁ममता	-3651
▁भरा	-3652
▁आंकड़ों	-3653
▁परीक्षण	-3654
',	-3655
▁सिनेमा	-3656
▁मुक्त	-3657
▁रचना	-3658
▁निरा	-3659
▁छोटा	-3660
▁कैप	-3661
▁दुख	-3662
▁अफ्रीका	-3663
▁रोल	-3664
रासत	-3665
वासियों	-3666
टीन	-3667
▁फिट	-3668
▁जीतने	-3669
▁उड़	-3670
▁हथियार	-3671
▁छोड़कर	-3672
कारों	-3673
सव	-3674
▁शतक	-3675
लंका	-3676
▁वैश्व	-3677
▁यूनिवर्स	-3678
▁कले	-3679
▁लंबी	-3680
▁इनकी	-3681
▁निम	-3682
न्तु	-3683
उथ	-3684
▁शूट	-3685
▁सुझाव	-3686
▁सफाई	-3687
कल्प	-3688
▁प्रकाशित	-3689
म्ब	-3690
▁रास्ता	-3691
▁हिरासत	-3692
थम	-3693
्रेशन	-3694
▁घूम	-3695
▁विपक्षी	-3696
स्तानी	-3697
▁पुस्त	-3698
▁क्रम	-3699
ध्यक्ष	-3700
▁प्रत्या	-3701
▁निर्भर	-3702
▁इलाकों	-3703
▁विरोधी	-3704
ub	-3705
मैन	-3706
▁हां	-3707
▁आना	-3708
▁निर्मा	-3709
सप	-3710
▁रिस	-3711
िटीज	-3712
्वे	-3713
▁जायेगा	-3714
▁80	-3715
▁गुस्	-3716
▁डायरे	-3717
हिर	-3718
आईआर	-3719
.7	-3720
▁लागत	-3721
▁विधाय	-3722
ारिज	-3723
ज्ज	-3724
▁70	-3725
▁बुरा	-3726
▁शुगर	-3727
up	-3728
▁खुलासा	-3729
▁प्रतिनिध	-3730
▁कल्याण	-3731
▁लगते	-3732
▁(2	-3733
िको	-3734
▁फैंस	-3735
▁ऊंच	-3736
▁दिमाग	-3737
▁मुझसे	-3738
▁of	-3739
▁नवी	-3740
▁स्ना	-3741
▁इनकार	-3742
▁डिट	-3743
▁नाराज	-3744
▁बहु	-3745
▁दरवा	-3746
बत	-3747
▁सीमित	-3748
▁मान्यता	-3749
▁प्रावधान	-3750
एमसी	-3751
▁Hor	-3752
ard	-3753
▁कराई	-3754
▁भो	-3755
▁गंगा	-3756
▁थाने	-3757
▁न्यूज	-3758
▁श्रीलंका	-3759
cope	-3760
▁टू	-3761
छा	-3762
▁काट	-3763
▁संबोधित	-3764
▁कविता	-3765
▁प्रस्तुत	-3766
▁व्यापक	-3767
▁वेतन	-3768
▁हेतु	-3769
▁मशीन	-3770
▁वैश्विक	-3771
▁वर्मा	-3772
▁शिक्षक	-3773
▁खाता	-3774
वेयर	-3775
▁विज्ञान	-3776
▁कंप्यूटर	-3777
▁खेला	-3778
▁अट	-3779
▁लु	-3780
ुनिक	-3781
▁जितना	-3782
oscope	-3783
▁v	-3784
▁दूरी	-3785
▁आतंकवाद	-3786
▁कार्यकर्ता	-3787
▁अब्	-3788
▁विल	-3789
▁मारे	-3790
ार्थियों	-3791
av	-3792
▁मरीज	-3793
▁ट्रेडिंग	-3794
▁बैटरी	-3795
▁जानने	-3796
▁प्रदू	-3797
▁भ्रष्टाचार	-3798
▁निदेशक	-3799
ail	-3800
वत्ता	-3801
▁घरों	-3802
▁गुला	-3803
ंधे	-3804
▁पेज	-3805
ers	-3806
▁पाते	-3807
▁विश्ले	-3808
▁Horoscope	-3809
▁पॉल	-3810
▁अनेक	-3811
▁बताने	-3812
▁स्वस्थ	-3813
▁पीने	-3814
▁प्रता	-3815
वाना	-3816
ine	-3817
णे	-3818
▁योजनाओं	-3819
▁जीबी	-3820
▁स्कूलों	-3821
▁ऑफर	-3822
▁मंजूरी	-3823
▁फें	-3824
काता	-3825
▁स्वतंत्रता	-3826
हे	-3827
िमा	-3828
▁मात्र	-3829
▁पुत्र	-3830
▁बदलने	-3831
▁आगा	-3832
▁अंतर्गत	-3833
▁शास्त्र	-3834
ार्थी	-3835
▁रूस	-3836
▁दशक	-3837
▁फुट	-3838
▁गहरा	-3839
▁टेक्	-3840
पन्न	-3841
संग	-3842
▁चीजें	-3843
▁गिरावट	-3844
▁जला	-3845
▁जिक्र	-3846
.6	-3847
▁प्रसार	-3848
डाउन	-3849
म्बर	-3850
▁प्रीम	-3851
्यूट	-3852
चार्य	-3853
▁उल्ल	-3854
▁बढ़कर	-3855
▁रणनीति	-3856
▁महिलाएं	-3857
तौर	-3858
केशन	-3859
▁भाषण	-3860
▁झार	-3861
▁वहाँ	-3862
▁आंखों	-3863
▁नागरिकों	-3864
▁संगीत	-3865
▁घट	-3866
▁फ़िल	-3867
-20	-3868
▁किंग	-3869
खों	-3870
ly	-3871
▁आबादी	-3872
▁ब्याज	-3873
▁अर्थव्यवस्था	-3874
▁गर	-3875
▁जमानत	-3876
▁यूरो	-3877
बारी	-3878
ap	-3879
▁अभिनेता	-3880
▁वैक्सी	-3881
▁स्टेट	-3882
▁ताप	-3883
▁संस्कृति	-3884
▁साउथ	-3885
▁कमेंट	-3886
वाने	-3887
▁गुणवत्ता	-3888
▁अमर	-3889
▁इंडस्ट्री	-3890
▁नेटवर्क	-3891
▁प्रोज	-3892
▁जमकर	-3893
▁आतंकी	-3894
▁पेंशन	-3895
one	-3896
▁नींद	-3897
▁बहस	-3898
▁37	-3899
▁फो	-3900
▁ठाकुर	-3901
फ्	-3902
▁भवन	-3903
▁आएगा	-3904
▁खुले	-3905
▁यूजर्स	-3906
्यूब	-3907
▁विधायकों	-3908
▁एनडी	-3909
▁संभाल	-3910
ult	-3911
▁प्लेटफॉर्म	-3912
▁शहरों	-3913
दर्भ	-3914
.3	-3915
▁90	-3916
▁प्रतिष्ठ	-3917
षेक	-3918
▁मनो	-3919
▁शारी	-3920
▁सैनिक	-3921
▁महीनों	-3922
▁आदित्यनाथ	-3923
▁ब्लॉग	-3924
दराबाद	-3925
▁खारिज	-3926
▁समाजवादी	-3927
्डी	-3928
▁गुजर	-3929
▁लाइव	-3930
▁पाएंगे	-3931
▁इंजी	-3932
▁उल्लंघ	-3933
धीरे	-3934
▁गर्मी	-3935
▁लगाकर	-3936
▁बढ़े	-3937
बंदी	-3938
▁दान	-3939
बाजों	-3940
पो	-3941
र्ण	-3942
▁बनर्जी	-3943
ोग्राम	-3944
नेशनल	-3945
निक	-3946
दाबाद	-3947
▁लोगो	-3948
िफिकेशन	-3949
▁अनुरोध	-3950
▁तथ	-3951
▁निर्वा	-3952
▁मुकाबला	-3953
पाद	-3954
▁अफग	-3955
▁मुफ्त	-3956
▁सहायक	-3957
कूल	-3958
तें	-3959
शियों	-3960
▁एक्	-3961
▁दौरे	-3962
▁बढ़ो	-3963
▁शब्दों	-3964
▁जानें	-3965
▁कोलकाता	-3966
▁वैज्ञानिक	-3967
वती	-3968
▁तकनीक	-3969
▁सर्वा	-3970
▁शारीरिक	-3971
▁छात्रा	-3972
▁मानते	-3973
▁साहब	-3974
▁अंब	-3975
▁अरविंद	-3976
▁रहीं	-3977
▁हाउस	-3978
▁अल्	-3979
▁रिल	-3980
▁अह	-3981
दूस	-3982
मतौर	-3983
▁ग़	-3984
▁गाने	-3985
दाताओं	-3986
िप्ट	-3987
▁स्थापना	-3988
▁दर्शन	-3989
▁योग्य	-3990
▁पहा	-3991
▁प्रशिक्षण	-3992
▁New	-3993
▁हैदराबाद	-3994
▁जनरल	-3995
वाय	-3996
▁उत्सा	-3997
दय	-3998
▁बढ़ते	-3999
▁नक	-4000
ोई	-4001
▁2015	-4002
▁फूड	-4003
hat	-4004
▁दाय	-4005
▁चोरी	-4006
▁हटाने	-4007
गंज	-4008
▁गिल	-4009
▁बढ़ोतरी	-4010
▁वीर	-4011
▁रखता	-4012
▁जताई	-4013
▁उल्लंघन	-4014
▁रेखा	-4015
गज	-4016
ंख्य	-4017
▁उपा	-4018
▁गेंदबाज	-4019
▁मालूम	-4020
▁लिमिट	-4021
▁आमतौर	-4022
▁नाग	-4023
▁हवाई	-4024
▁यूनिवर्सिटी	-4025
▁कहता	-4026
▁दृष्टि	-4027
▁राजी	-4028
वेट	-4029
▁32	-4030
▁खून	-4031
▁अजय	-4032
▁मीटर	-4033
म्मच	-4034
▁सौं	-4035
▁मजा	-4036
▁आशी	-4037
▁बरा	-4038
▁अनिवार	-4039
▁सड़	-4040
कृतिक	-4041
▁ऑटो	-4042
▁समझने	-4043
▁दोबारा	-4044
▁लाखों	-4045
▁तैनात	-4046
▁ग्रे	-4047
▁चम्मच	-4048
.8	-4049
िक्क	-4050
▁अशोक	-4051
▁उठाने	-4052
रोज	-4053
ेंट्स	-4054
▁गतिविधियों	-4055
भू	-4056
इंट	-4057
▁चलाने	-4058
▁इंजीनियर	-4059
▁टूर्	-4060
न्नई	-4061
ist	-4062
▁मुकद	-4063
पट	-4064
सिद्ध	-4065
▁)	-4066
िग	-4067
क्रो	-4068
▁संगठनों	-4069
▁बिता	-4070
▁ब्रा	-4071
▁राव	-4072
▁गी	-4073
नामेंट	-4074
▁डायब	-4075
▁उपस्थित	-4076
▁प्रोजेक्ट	-4077
जिट	-4078
▁कठिन	-4079
▁खाद्य	-4080
▁धमकी	-4081
।''	-4082
दारों	-4083
▁राज्यसभा	-4084
▁बंध	-4085
सेट	-4086
▁बजा	-4087
र्द	-4088
▁डाइट	-4089
▁डिवा	-4090
▁परिवारों	-4091
▁पार्	-4092
▁अनुकूल	-4093
▁अधिकांश	-4094
▁दर्शकों	-4095
▁टूर्नामेंट	-4096
▁दिलच	-4097
▁वेस्ट	-4098
▁महज	-4099
▁इंच	-4100
▁दीप	-4101
▁किस्	-4102
▁अहमद	-4103
▁सेक्स	-4104
,5	-4105
▁दूसरों	-4106
▁हेड	-4107
ेलन	-4108
▁बनाते	-4109
▁मुद्दा	-4110
्रेन	-4111
ोध्या	-4112
▁आरोपों	-4113
▁आल	-4114
▁ख़ु	-4115
बु	-4116
▁नियुक्त	-4117
▁मिश्र	-4118
▁सैन	-4119
▁तृ	-4120
▁शिवसेना	-4121
▁सेवाओं	-4122
यात	-4123
लाल	-4124
▁लेता	-4125
▁फायदेमंद	-4126
▁शह	-4127
▁परिसर	-4128
राग	-4129
▁मेगा	-4130
▁मजबूर	-4131
जीव	-4132
▁पेपर	-4133
▁वायु	-4134
ैंक	-4135
▁मस्जिद	-4136
▁गलती	-4137
▁गूगल	-4138
नाडु	-4139
▁चित्र	-4140
▁चेन्नई	-4141
▁36	-4142
ैक्ट	-4143
▁बॉक्स	-4144
▁झारखंड	-4145
▁औसत	-4146
▁45	-4147
▁इलेक्ट्रिक	-4148
▁एप	-4149
▁ग्राहक	-4150
▁अंग्रेजी	-4151
धारा	-4152
▁कामया	-4153
▁गुर	-4154
िवारी	-4155
,1	-4156
▁l	-4157
▁अकेले	-4158
▁देखी	-4159
▁टेली	-4160
इंग	-4161
दूसरे	-4162
िना	-4163
घटना	-4164
▁प्रभारी	-4165
▁खींच	-4166
▁गेंदबाजी	-4167
▁आशा	-4168
▁काउ	-4169
▁तिवारी	-4170
▁जाहिर	-4171
▁पात्र	-4172
▁श्रेणी	-4173
ंपरा	-4174
▁लोकतंत्र	-4175
न्स	-4176
▁संसा	-4177
▁लड़ने	-4178
▁तकनीकी	-4179
.0	-4180
पथ	-4181
ानिस्तान	-4182
▁व्हा	-4183
▁आरक्षण	-4184
▁प्राकृतिक	-4185
▁ईरान	-4186
art	-4187
▁स्टेड	-4188
▁सपोर्ट	-4189
▁टीका	-4190
▁शांत	-4191
▁चैंपियन	-4192
▁सिया	-4193
▁हार्	-4194
गति	-4195
▁सेल	-4196
ुलर	-4197
ex	-4198
कश्मीर	-4199
बान	-4200
ेड़	-4201
▁सकेंगे	-4202
▁प्रदूषण	-4203
▁प्रतियोग	-4204
▁बचने	-4205
क्ल	-4206
dia	-4207
▁बीमा	-4208
▁स्टेडियम	-4209
▁घटनाओं	-4210
▁इजा	-4211
▁सेक्टर	-4212
▁अभिषेक	-4213
▁इंटरनेशनल	-4214
▁मनुष्य	-4215
▁हेल्थ	-4216
▁अयोध्या	-4217
▁दिक्क	-4218
▁उन्	-4219
एसएस	-4220
▁जैन	-4221
▁इंस्टा	-4222
▁अनिवार्य	-4223
▁अध्या	-4224
▁पर्व	-4225
▁विभा	-4226
▁प्रभावी	-4227
▁लेखक	-4228
▁a	-4229
▁गठन	-4230
▁तमिलनाडु	-4231
▁इस्तीफा	-4232
▁आधुनिक	-4233
▁स्थल	-4234
gle	-4235
▁इश	-4236
ज्ञापन	-4237
▁खतर	-4238
सास	-4239
स्कर	-4240
▁पत्रकारों	-4241
▁होंगी	-4242
▁इम	-4243
युक्त	-4244
गरानी	-4245
▁परंपरा	-4246
त्रि	-4247
पुट	-4248
▁500	-4249
▁रैली	-4250
सीबी	-4251
▁किरा	-4252
िश्वास	-4253
▁विधे	-4254
▁साव	-4255
if	-4256
▁गीत	-4257
▁मिथ	-4258
तावनी	-4259
ारों	-4260
▁अल्प	-4261
▁पव	-4262
▁फैल	-4263
कुल	-4264
▁अथवा	-4265
▁App	-4266
▁सफर	-4267
▁स्थानों	-4268
,4	-4269
▁कू	-4270
ुति	-4271
▁तंत्र	-4272
▁खूबसूरत	-4273
▁कार्यवाही	-4274
िजनों	-4275
▁नज	-4276
▁स्टेप	-4277
▁दीपक	-4278
▁तस्वीरें	-4279
▁संग्र	-4280
▁पांडे	-4281
▁हस्त	-4282
▁सां	-4283
ियंस	-4284
▁लेन	-4285
▁कमे	-4286
▁निगरानी	-4287
▁चेतावनी	-4288
▁एफआईआर	-4289
मल	-4290
हत्या	-4291
▁एग	-4292
ूनों	-4293
tt	-4294
▁वैक्सीन	-4295
▁चारों	-4296
ोने	-4297
टिल	-4298
▁अनिल	-4299
▁कौशल	-4300
ह्म	-4301
▁चीज़	-4302
▁सम्मेलन	-4303
पुरी	-4304
▁खेली	-4305
▁ऑल	-4306
▁विधि	-4307
ांच	-4308
▁लेंगे	-4309
▁इनका	-4310
गण	-4311
वाली	-4312
▁काले	-4313
▁डायबिटीज	-4314
दास	-4315
▁ऑप्शन	-4316
▁विज्ञापन	-4317
▁ग्रहण	-4318
▁स्टूड	-4319
▁हरी	-4320
िएंट	-4321
▁बदले	-4322
िक्सल	-4323
▁अधिकतम	-4324
दायिक	-4325
▁लगाते	-4326
▁यात्रियों	-4327
▁परिजनों	-4328
▁कमेटी	-4329
ब्ल्यू	-4330
▁खासकर	-4331
▁इका	-4332
जीलैंड	-4333
हीन	-4334
)।	-4335
पक्ष	-4336
त्मा	-4337
▁स्पेश	-4338
▁खड़ी	-4339
भूम	-4340
बीसी	-4341
▁नवा	-4342
एसटी	-4343
▁डाला	-4344
धारण	-4345
▁रुक	-4346
▁बराम	-4347
▁सपना	-4348
▁मण	-4349
▁लुक	-4350
▁कैम	-4351
▁गिरफ्तारी	-4352
oogle	-4353
▁मनाया	-4354
▁197	-4355
▁यश	-4356
रुख	-4357
▁तुम्हें	-4358
द्दीन	-4359
▁चक्र	-4360
▁पृथ	-4361
▁सोचा	-4362
▁ठहरा	-4363
▁क्रेड	-4364
बिल	-4365
ction	-4366
▁माने	-4367
▁पर्यावरण	-4368
▁तर्क	-4369
▁दुर्घटना	-4370
ast	-4371
▁आह	-4372
▁लड़कियों	-4373
ps	-4374
log	-4375
▁प्रथम	-4376
दल	-4377
▁बनाम	-4378
फ्रेंस	-4379
▁Res	-4380
प्ल	-4381
▁फिल्में	-4382
▁अखबार	-4383
▁संतुल	-4384
▁दावे	-4385
तल	-4386
▁लीटर	-4387
रत	-4388
करे	-4389
▁शास	-4390
▁एंट	-4391
▁बच्चा	-4392
▁आकार	-4393
▁महास	-4394
▁हादसे	-4395
दो	-4396
aj	-4397
▁बुरी	-4398
ाफ	-4399
▁डिवाइस	-4400
▁उपभ	-4401
▁चिकित्स	-4402
▁नौकर	-4403
▁स्रो	-4404
▁अज	-4405
▁हनु	-4406
▁फीसद	-4407
▁असली	-4408
▁स्टी	-4409
वो	-4410
▁बीमारियों	-4411
ंथ	-4412
नेश	-4413
ीप	-4414
▁बैंकों	-4415
ढ़े	-4416
▁संशोधन	-4417
▁जीता	-4418
▁इमर	-4419
▁लक्ष्मी	-4420
एससी	-4421
▁मीट	-4422
▁न्यूजीलैंड	-4423
ांसी	-4424
▁सड़कों	-4425
िष्ट	-4426
▁संक्रमित	-4427
▁अफगानिस्तान	-4428
स्य	-4429
▁अभिन	-4430
▁न्यूनतम	-4431
▁जंग	-4432
परेशन	-4433
▁शाहरुख	-4434
ढ़ा	-4435
▁इंस्टाग्राम	-4436
भारत	-4437
▁पर्	-4438
न्ध	-4439
हूर	-4440
▁प्रसिद्ध	-4441
▁दोषी	-4442
▁भि	-4443
▁घोट	-4444
▁बीज	-4445
▁सर्वाधिक	-4446
▁यौन	-4447
▁संदर्भ	-4448
▁परिस्थित	-4449
▁धोनी	-4450
▁लिमिटेड	-4451
▁सोन	-4452
▁जिनकी	-4453
▁हजारों	-4454
▁खंड	-4455
ेक्षा	-4456
▁बला	-4457
▁जानी	-4458
र्ज	-4459
▁विवरण	-4460
दाई	-4461
▁ज़ि	-4462
▁सांप	-4463
▁ढंग	-4464
▁आपूर्ति	-4465
▁धन्य	-4466
▁विवे	-4467
▁उठाए	-4468
▁तुम्हारे	-4469
▁माय	-4470
▁कैसी	-4471
▁निकालने	-4472
कीन	-4473
▁खबरों	-4474
म्मत	-4475
▁खेती	-4476
▁मकान	-4477
▁चू	-4478
▁सुनील	-4479
ृत्ति	-4480
▁बताई	-4481
▁संचालन	-4482
▁हद	-4483
▁खबरें	-4484
▁उत्पन्न	-4485
▁प्रियंका	-4486
▁पशु	-4487
▁पाकिस्तानी	-4488
▁बध	-4489
▁सख्त	-4490
▁तापमान	-4491
▁झा	-4492
▁रोजाना	-4493
टीआई	-4494
▁स्टोर	-4495
▁बाग	-4496
▁छोड़ने	-4497
ोलॉ	-4498
▁जज	-4499
▁अक्षय	-4500
▁जगहों	-4501
▁सुल	-4502
नै	-4503
▁रुख	-4504
▁अवश्य	-4505
▁आपत्ति	-4506
▁ब्लॉक	-4507
तिहासिक	-4508
्मण	-4509
▁आजादी	-4510
▁अपमान	-4511
▁चौहान	-4512
▁दाखिल	-4513
सीपी	-4514
▁मशहूर	-4515
▁प्रगति	-4516
ोड	-4517
▁स्पेशल	-4518
▁भाभी	-4519
▁सचिन	-4520
▁तिल	-4521
▁गाँव	-4522
▁संभावित	-4523
▁एग्ज	-4524
▁आपसे	-4525
मेट	-4526
▁बच्चन	-4527
स्वा	-4528
▁पंडित	-4529
▁राज्यपाल	-4530
▁अना	-4531
▁सैम	-4532
▁विधेयक	-4533
▁निधन	-4534
▁ब्लैक	-4535
▁विशाल	-4536
▁बरामद	-4537
▁बांध	-4538
▁लॉकडाउन	-4539
▁असल	-4540
▁कार्यकाल	-4541
▁व्याव	-4542
▁अभिनेत्री	-4543
ice	-4544
ष्णु	-4545
िएशन	-4546
odi	-4547
शाला	-4548
हाज	-4549
जात	-4550
पित	-4551
▁हिमा	-4552
▁अश्व	-4553
▁भक्त	-4554
▁खत	-4555
▁देगी	-4556
▁सरल	-4557
▁कपिल	-4558
▁किशोर	-4559
▁पर्स	-4560
पेट	-4561
▁हनुमान	-4562
▁आशंका	-4563
ant	-4564
▁लिखी	-4565
▁प्रोटीन	-4566
▁अस्थ	-4567
▁मिशन	-4568
▁सीधा	-4569
▁दिग्	-4570
▁हैंड	-4571
▁कन्या	-4572
▁अमी	-4573
ुक्ति	-4574
िफ्ट	-4575
▁बढ़ता	-4576
▁Pro	-4577
▁रिसर्च	-4578
▁देखे	-4579
▁व्यक्तियों	-4580
कता	-4581
भूमि	-4582
और	-4583
▁लाया	-4584
▁विश्लेषण	-4585
▁गले	-4586
▁निम्न	-4587
▁प्राप्ति	-4588
स्तर	-4589
▁साज	-4590
▁जबरद	-4591
▁सहमति	-4592
▁कोड	-4593
कर्मियों	-4594
▁बेटा	-4595
▁नतीजे	-4596
▁सर्विस	-4597
▁पार्टनर	-4598
विंग	-4599
▁सपने	-4600
▁स्थिर	-4601
▁तारीफ	-4602
▁जागरूक	-4603
▁संरक्षण	-4604
▁काला	-4605
▁प्रारंभ	-4606
▁प्रेरित	-4607
▁सिव	-4608
▁तीसरी	-4609
▁वाहनों	-4610
▁हृ	-4611
▁कर्ज	-4612
▁ब्रांड	-4613
,7	-4614
,8	-4615
▁गार	-4616
▁हार्दिक	-4617
▁भरे	-4618
पद	-4619
▁ऋण	-4620
ंडली	-4621
▁उतना	-4622
निर्	-4623
साई	-4624
▁बराबर	-4625
▁जीते	-4626
▁शूटिंग	-4627
▁भरी	-4628
▁पेड़	-4629
▁बहुम	-4630
▁अग्रवाल	-4631
संख्य	-4632
▁जुड़	-4633
▁प्रत्याशी	-4634
oc	-4635
▁n	-4636
▁कं	-4637
▁इरा	-4638
▁गोचर	-4639
साइ	-4640
▁गोर	-4641
▁फ़िल्म	-4642
▁सदन	-4643
▁पाचन	-4644
▁स्टोरेज	-4645
▁बैक	-4646
▁जिनका	-4647
▁इंट	-4648
▁पेशे	-4649
ity	-4650
▁आएंगे	-4651
यां	-4652
▁पोल	-4653
▁निकलने	-4654
▁एक्सपर्ट	-4655
घर	-4656
▁बचपन	-4657
.9	-4658
▁शर्म	-4659
कभी	-4660
▁An	-4661
-3	-4662
▁आर्टिकल	-4663
▁बाय	-4664
▁दाल	-4665
बिनेट	-4666
▁दौरा	-4667
▁ब्रह्म	-4668
वरों	-4669
▁क्रेडिट	-4670
▁चमक	-4671
▁अफसर	-4672
ुरी	-4673
▁प्रबंध	-4674
▁बॉस	-4675
▁कां	-4676
▁राजीव	-4677
▁कथा	-4678
▁समर्प	-4679
▁इसीलिए	-4680
10	-4681
वर्ड	-4682
स्कृत	-4683
▁अक	-4684
▁मुस्क	-4685
▁चुप	-4686
▁बजकर	-4687
▁मांगी	-4688
▁ऐतिहासिक	-4689
▁सब्	-4690
▁दृष्ट	-4691
▁पहुँच	-4692
ूर्त	-4693
▁ब्रेक	-4694
▁काली	-4695
श्रे	-4696
ep	-4697
ंगाई	-4698
ंडे	-4699
▁स्कूटर	-4700
▁जियो	-4701
▁संबंधों	-4702
▁बेस्ट	-4703
▁निरी	-4704
▁लालू	-4705
प्रदेश	-4706
▁हस्ता	-4707
?'	-4708
गरी	-4709
▁ट्रॉ	-4710
दायक	-4711
गाह	-4712
जान	-4713
▁कार्	-4714
▁विचारों	-4715
▁मास	-4716
▁सौंप	-4717
▁आत्महत्या	-4718
▁गोल्ड	-4719
ff	-4720
स्फ	-4721
▁बधाई	-4722
वेदनशील	-4723
▁नामक	-4724
त्सा	-4725
▁सबूत	-4726
▁दास	-4727
षभ	-4728
▁प्रताप	-4729
▁तह	-4730
▁33	-4731
न्ट	-4732
▁सफे	-4733
,2	-4734
▁भाग्य	-4735
▁कारणों	-4736
▁केन्द्र	-4737
देह	-4738
▁धोखा	-4739
▁कमल	-4740
▁एसोस	-4741
ंखला	-4742
▁सिटी	-4743
▁चेहरा	-4744
▁34	-4745
op	-4746
▁अगली	-4747
▁वादा	-4748
▁फार्म	-4749
▁सका	-4750
▁बुनिया	-4751
▁मिट्टी	-4752
▁मुसलमानों	-4753
▁सश	-4754
िताभ	-4755
▁पत	-4756
▁टुक	-4757
ारिश	-4758
▁मोटर	-4759
िमी	-4760
गांव	-4761
▁हिस्सों	-4762
▁शही	-4763
षिक	-4764
▁डालकर	-4765
▁निर्वाचन	-4766
प्ली	-4767
▁चौथे	-4768
पात	-4769
▁सवार	-4770
सेंस	-4771
?"	-4772
▁कैबिनेट	-4773
कीम	-4774
रोध	-4775
ब्लिक	-4776
स्करण	-4777
क्षर	-4778
हारी	-4779
▁बलात्कार	-4780
▁छवि	-4781
▁प्रकृति	-4782
▁लहर	-4783
िकोण	-4784
▁i	-4785
▁माया	-4786
पत	-4787
▁लंबा	-4788
▁हिमाचल	-4789
गेट	-4790
भाग्य	-4791
▁धन्यवाद	-4792
▁नियुक्ति	-4793
िश्ता	-4794
▁आतंकियों	-4795
क्की	-4796
पीट	-4797
▁सिलस	-4798
▁फ्रंट	-4799
▁ध्व	-4800
माना	-4801
▁दस्तावेज	-4802
▁श्रृ	-4803
▁लिखे	-4804
▁बेरोज	-4805
▁भावनाओं	-4806
▁इजरा	-4807
▁सहयोगी	-4808
▁बच्ची	-4809
▁एसपी	-4810
▁देखभाल	-4811
▁फसल	-4812
▁पड़ती	-4813
वानी	-4814
▁मोहन	-4815
डिया	-4816
▁सॉफ्ट	-4817
▁पिछली	-4818
▁बनाता	-4819
िब	-4820
फ़ी	-4821
▁खतरनाक	-4822
▁लड़के	-4823
▁यूट	-4824
्यूल	-4825
▁Google	-4826
▁ऑड	-4827
▁आगामी	-4828
रानी	-4829
▁छु	-4830
▁आदर्श	-4831
▁निर्माता	-4832
▁पवार	-4833
रक	-4834
▁न्यूज़	-4835
टीवी	-4836
▁ज़रूरत	-4837
▁पृथ्वी	-4838
▁हक	-4839
र्त	-4840
फिया	-4841
▁अर्ध	-4842
▁विशिष्ट	-4843
▁सफेद	-4844
▁प्रोत्सा	-4845
▁News	-4846
▁चतु	-4847
▁गुना	-4848
▁उत्पादों	-4849
▁पाउ	-4850
▁हैरान	-4851
▁कैसा	-4852
▁निकाला	-4853
▁ऑपरेशन	-4854
समा	-4855
▁पाता	-4856
▁अमिताभ	-4857
▁चीफ	-4858
▁दिये	-4859
▁मनोज	-4860
श्रेष्ठ	-4861
▁रियल	-4862
आउट	-4863
▁सिखा	-4864
▁साजिश	-4865
िलास	-4866
▁करार	-4867
▁दां	-4868
▁सेंट	-4869
▁ईमेल	-4870
▁अभ्यास	-4871
,3	-4872
▁कुर्	-4873
▁बसपा	-4874
▁उधर	-4875
विश्वास	-4876
ग्ध	-4877
भाष	-4878
लाइ	-4879
▁सिफ	-4880
▁स्वच्छ	-4881
▁अभ्य	-4882
क्षेप	-4883
,"	-4884
▁साझे	-4885
▁आयुक्त	-4886
▁बुलाया	-4887
ya	-4888
▁बेंगल	-4889
▁रिश्ता	-4890
▁आर्	-4891
▁राशन	-4892
SC	-4893
▁विस्तृत	-4894
्तों	-4895
सब	-4896
▁वर्क	-4897
▁आंकड़ा	-4898
▁भौ	-4899
ोकर	-4900
▁बनता	-4901
▁स्पीड	-4902
▁कस	-4903
▁हृदय	-4904
▁सुनने	-4905
ाइम	-4906
स्टिक	-4907
▁भागी	-4908
ल्पना	-4909
▁Yo	-4910
सिंह	-4911
▁सैन्य	-4912
▁चै	-4913
▁अर्ज	-4914
▁कच्च	-4915
▁कुंभ	-4916
चारिक	-4917
▁झु	-4918
▁राजेश	-4919
डनी	-4920
▁लगाना	-4921
▁पुस्तक	-4922
▁नमक	-4923
सो	-4924
▁स्टॉक	-4925
▁उपभो	-4926
▁रूम	-4927
▁विद	-4928
▁शिक्षकों	-4929
▁टाटा	-4930
,6	-4931
▁आजकल	-4932
▁डेब	-4933
▁बनकर	-4934
▁गेंदों	-4935
▁ताल	-4936
▁कंग	-4937
▁आयुर्	-4938
▁सुविधाओं	-4939
▁भोपाल	-4940
ध्या	-4941
▁एक्शन	-4942
▁75	-4943
▁जयपुर	-4944
▁रजिस्ट्रेशन	-4945
एक्स	-4946
▁g	-4947
▁लेती	-4948
▁राकेश	-4949
▁सीसी	-4950
▁फर्जी	-4951
▁जानकार	-4952
▁मक	-4953
ड्डा	-4954
▁प्रोडक्ट	-4955
सीय	-4956
oday	-4957
▁पार्क	-4958
▁सिफारिश	-4959
सनीय	-4960
▁चम	-4961
▁लेवल	-4962
ेंगी	-4963
▁दौड़	-4964
▁पढ़ा	-4965
▁एकदम	-4966
▁जोड़ा	-4967
▁फायर	-4968
▁मारने	-4969
ies	-4970
▁यूर	-4971
▁रेंज	-4972
▁पायल	-4973
▁इलेक्ट्र	-4974
▁हाइ	-4975
▁बताए	-4976
▁म्यू	-4977
▁नु	-4978
▁बुल	-4979
▁सब्स	-4980
क्षी	-4981
्यूटी	-4982
▁मैन	-4983
ru	-4984
▁प्रमो	-4985
▁आदिवासी	-4986
ेबल	-4987
▁बौ	-4988
▁कोर्स	-4989
▁महाराज	-4990
कां	-4991
▁मैसे	-4992
▁राशियों	-4993
▁रॉ	-4994
▁शपथ	-4995
12	-4996
▁जरुर	-4997
खार	-4998
▁निल	-4999
▁मुकेश	-5000
▁48	-5001
▁मूवी	-5002
▁इनपुट	-5003
▁सला	-5004
▁लिव	-5005
▁प्राइवेट	-5006
▁सम्ब	-5007
▁क्लास	-5008
त्न	-5009
पूर्वक	-5010
घु	-5011
▁ठाकरे	-5012
▁परा	-5013
▁2013	-5014
▁महंगाई	-5015
चिव	-5016
ॉर्ट	-5017
▁पोष	-5018
▁ईमान	-5019
▁आंकड़े	-5020
▁नारायण	-5021
मती	-5022
▁बट	-5023
▁उद्ध	-5024
▁लूट	-5025
▁हंस	-5026
▁दिखाने	-5027
▁टो	-5028
▁मज़	-5029
end	-5030
▁ओल	-5031
▁जाओ	-5032
▁प्रतिभा	-5033
▁फॉलो	-5034
▁सर्वश्रेष्ठ	-5035
▁गौतम	-5036
▁रोमां	-5037
▁लगेगा	-5038
ज़न	-5039
▁नियंत्रित	-5040
र्ख	-5041
▁गारंटी	-5042
▁पोर्टल	-5043
▁पूछे	-5044
▁छू	-5045
▁संस्थानों	-5046
नन	-5047
▁मेट	-5048
▁सर्वो	-5049
▁रानी	-5050
▁ताजा	-5051
▁पथ	-5052
▁पृष्ठ	-5053
▁केंद्रित	-5054
ht	-5055
▁आएगी	-5056
रीत	-5057
▁संभ	-5058
श्त	-5059
▁त्या	-5060
▁टीमों	-5061
▁नकारा	-5062
▁पड़ने	-5063
▁डायरेक्टर	-5064
्रमण	-5065
▁ऑक्सी	-5066
▁संकल्प	-5067
▁क्रिप्ट	-5068
▁सुनकर	-5069
▁बाढ़	-5070
▁पहुंचाने	-5071
▁and	-5072
▁भरने	-5073
ob	-5074
मेश्वर	-5075
▁दीवार	-5076
क्या	-5077
ंद्रा	-5078
▁संचालित	-5079
कर्मी	-5080
▁माफी	-5081
▁सबको	-5082
▁माइलेज	-5083
▁अध्यक्षता	-5084
याल	-5085
▁किनारे	-5086
rad	-5087
▁Result	-5088
ंत्रिक	-5089
्रीत	-5090
▁बेचने	-5091
▁मैसेज	-5092
बन	-5093
▁सिन्	-5094
▁मधु	-5095
▁दुरु	-5096
वारी	-5097
▁दोहरा	-5098
▁पाठ्य	-5099
,9	-5100
धानिक	-5101
▁अधी	-5102
io	-5103
राधिक	-5104
▁एक्टिव	-5105
▁गैंग	-5106
▁क्लब	-5107
त्ते	-5108
▁मंज	-5109
▁दिलचस्प	-5110
ंश	-5111
▁जरिये	-5112
▁हाला	-5113
▁सबके	-5114
मात्र	-5115
▁आकाश	-5116
ोलॉजी	-5117
▁अधिकतर	-5118
▁सोना	-5119
▁अंजाम	-5120
▁फेंक	-5121
▁महत्	-5122
▁कमाल	-5123
ia	-5124
ort	-5125
काने	-5126
▁ब्रिटेन	-5127
▁प्रतीक	-5128
▁खतरे	-5129
▁सम्मानित	-5130
▁पूंजी	-5131
▁गह	-5132
▁विपरीत	-5133
तो	-5134
पिक्सल	-5135
||	-5136
▁आग्रह	-5137
▁छक्के	-5138
▁एकाद	-5139
▁बांट	-5140
▁संवेदनशील	-5141
▁2012	-5142
▁ट्रॉफी	-5143
▁कन	-5144
▁मंडल	-5145
ड़न	-5146
ूंकि	-5147
▁जोड़ी	-5148
मूल	-5149
▁re	-5150
▁नारे	-5151
▁जानना	-5152
▁प्रोग्राम	-5153
▁पाउडर	-5154
▁लाइसेंस	-5155
▁देरी	-5156
▁बटन	-5157
▁अमृत	-5158
▁जंगल	-5159
▁38	-5160
▁स्पिन	-5161
19	-5162
▁लगाएं	-5163
▁डालें	-5164
रेन	-5165
▁निच	-5166
▁गांवों	-5167
दीय	-5168
र्में	-5169
▁तथ्य	-5170
िवारिक	-5171
्योर	-5172
▁अग्न	-5173
▁मीन	-5174
▁संतोष	-5175
ide	-5176
▁196	-5177
▁क्ली	-5178
▁कीमतों	-5179
▁निश	-5180
▁अंडर	-5181
▁खोलने	-5182
▁परिस्थितियों	-5183
िसी	-5184
▁चावल	-5185
esh	-5186
▁सैक	-5187
▁बारी	-5188
▁सुनाई	-5189
▁मचा	-5190
▁फाइबर	-5191
▁ढूं	-5192
▁सेंसर	-5193
ोटे	-5194
▁बुनियादी	-5195
▁रिपोर्ट्स	-5196
▁मेक	-5197
▁सरकारों	-5198
▁नेपाल	-5199
▁पत्थर	-5200
विक	-5201
▁स्त्री	-5202
▁मिलेंगे	-5203
▁आधा	-5204
▁प्रौ	-5205
▁मैनेज	-5206
▁मिलियन	-5207
ानु	-5208
▁Ad	-5209
वाणी	-5210
▁भट्ट	-5211
आईटी	-5212
ार्थना	-5213
स्थल	-5214
▁पीड़िता	-5215
दगी	-5216
▁दिग्गज	-5217
घाटन	-5218
धारी	-5219
▁कलर	-5220
▁ईडी	-5221
▁निकले	-5222
▁बैठा	-5223
▁संस्कार	-5224
शियम	-5225
▁इधर	-5226
▁सवालों	-5227
जुर्ग	-5228
▁तत्कालीन	-5229
▁टेक्न	-5230
JP	-5231
pt	-5232
हो	-5233
▁नित	-5234
▁अड	-5235
▁ढां	-5236
▁टाइम्स	-5237
▁पारिवारिक	-5238
▁सुश	-5239
▁बोलने	-5240
▁मतदाता	-5241
मराह	-5242
▁ख्या	-5243
▁विजे	-5244
▁जानता	-5245
कुछ	-5246
▁प्रस	-5247
,0	-5248
▁हिंदु	-5249
ite	-5250
▁लीड	-5251
ंती	-5252
▁सिंध	-5253
▁अजी	-5254
▁हाँ	-5255
▁अनुसू	-5256
हिता	-5257
▁पंत	-5258
▁समृ	-5259
▁अपेक्षा	-5260
▁तीसरा	-5261
▁घंटों	-5262
ांकन	-5263
▁दृष्टिकोण	-5264
▁धा	-5265
▁वितरण	-5266
▁स्टाइल	-5267
▁हिन्दू	-5268
▁बेल	-5269
शनी	-5270
▁नेहर	-5271
▁परिवहन	-5272
श्चर्य	-5273
स्त्री	-5274
▁पारित	-5275
age	-5276
▁मनोर	-5277
िकाओं	-5278
▁डालने	-5279
ank	-5280
बॉल	-5281
▁व्यापारी	-5282
▁Today	-5283
▁स्पोर्ट	-5284
फान	-5285
▁प्रार्थना	-5286
▁एनडीए	-5287
▁गुस्सा	-5288
▁पुरुषों	-5289
▁अभ्यर्थ	-5290
▁किंग्स	-5291
▁रिजर्व	-5292
▁चिप	-5293
▁ब्ला	-5294
▁रिया	-5295
▁वाक	-5296
▁रैम	-5297
▁सुर्ख	-5298
▁नकारात्मक	-5299
▁डांस	-5300
▁सिविल	-5301
▁जवानों	-5302
▁कम्प	-5303
▁दर्शा	-5304
▁रिटर्न	-5305
▁महासचिव	-5306
ीकरण	-5307
▁स्वाद	-5308
▁गेट	-5309
▁रिहा	-5310
▁लम्	-5311
▁यानि	-5312
▁प्राथमिकता	-5313
▁आश्चर्य	-5314
ai	-5315
▁बहुमत	-5316
सेज	-5317
▁सौर	-5318
▁कवर	-5319
▁क्यू	-5320
▁जितनी	-5321
▁मुक्ति	-5322
▁सटी	-5323
न्ड	-5324
▁ग्रीन	-5325
▁स्कीम	-5326
▁जाया	-5327
▁डु	-5328
▁एयरपोर्ट	-5329
▁पदा	-5330
ंसक	-5331
्तिक	-5332
▁जबरदस्त	-5333
ंपिक	-5334
▁शोर	-5335
▁यूट्यूब	-5336
▁विफल	-5337
▁दिक्कत	-5338
▁प्रदर्श	-5339
▁परमेश्वर	-5340
ari	-5341
▁फं	-5342
िपुर	-5343
▁फर्	-5344
▁मकर	-5345
▁हिन्दी	-5346
▁रखकर	-5347
▁स्वरूप	-5348
40	-5349
▁चूंकि	-5350
▁आतंकवादी	-5351
▁रोज़	-5352
वों	-5353
▁जोशी	-5354
▁फॉर	-5355
वीय	-5356
▁निपटने	-5357
शाह	-5358
▁टक	-5359
▁बाधा	-5360
मुझे	-5361
▁अभिय	-5362
▁निलंब	-5363
▁लीजिए	-5364
▁संचार	-5365
▁अधीक्षक	-5366
▁पूर्वी	-5367
▁डॉक्टरों	-5368
▁Ch	-5369
▁पदक	-5370
▁सूजन	-5371
▁द्र	-5372
▁पंजीकरण	-5373
▁श्रेय	-5374
▁समक्ष	-5375
▁कल्पना	-5376
ाइक	-5377
▁सराह	-5378
▁डिस्प्ले	-5379
▁बुजुर्ग	-5380
▁तिर	-5381
▁लंदन	-5382
▁अल्पसंख्य	-5383
ud	-5384
▁बनना	-5385
▁वार्ड	-5386
इयों	-5387
▁आपराधिक	-5388
▁त्यो	-5389
▁संहिता	-5390
▁आयुर्वेद	-5391
▁संस	-5392
▁व्ही	-5393
▁बाहरी	-5394
ज्	-5395
▁एंट्री	-5396
▁तेजस्वी	-5397
▁पश्चिमी	-5398
▁300	-5399
▁मेगापिक्सल	-5400
▁आंध	-5401
▁Con	-5402
▁यूनिट	-5403
▁लापर	-5404
▁चिंत	-5405
▁पैमाने	-5406
लीय	-5407
▁हंग	-5408
▁सिन्हा	-5409
ww	-5410
▁छुट्टी	-5411
▁स्पेस	-5412
दुल	-5413
्ठा	-5414
▁जगत	-5415
▁रावत	-5416
कालीन	-5417
▁संपाद	-5418
ोसी	-5419
▁आजम	-5420
फेसर	-5421
कृष्ण	-5422
▁सेमी	-5423
कै	-5424
▁बिंद	-5425
▁एजेंस	-5426
ec	-5427
सुर	-5428
▁घुस	-5429
▁प्रेरणा	-5430
▁फुल	-5431
ंडीज	-5432
वर्ती	-5433
▁कंपनियां	-5434
''	-5435
▁आकर्षित	-5436
ट्र	-5437
िश्न	-5438
▁तलाक	-5439
रन	-5440
चीन	-5441
धिकरण	-5442
▁मनीष	-5443
▁मुकदमा	-5444
एगा	-5445
▁बनाएं	-5446
▁प्रौद्योगिक	-5447
▁हट	-5448
▁जुर्	-5449
▁सब्ज	-5450
▁एसोसिएशन	-5451
वासन	-5452
▁जन्मदिन	-5453
मार्	-5454
िंस	-5455
नाएं	-5456
▁भूख	-5457
▁विशेषज्ञों	-5458
▁राजद	-5459
▁पैरों	-5460
▁श्रृंखला	-5461
▁बोलते	-5462
▁कानूनों	-5463
▁प्रतिनिधित्व	-5464
▁42	-5465
▁समस्याएं	-5466
▁सर्वोच्च	-5467
न्यास	-5468
▁एकमात्र	-5469
▁मानी	-5470
क्षेत्र	-5471
ड़ब	-5472
▁रकम	-5473
टिंग	-5474
▁मुना	-5475
▁मरने	-5476
▁वेरिएंट	-5477
▁रनों	-5478
▁स्रोत	-5479
▁कॉन्फ्रेंस	-5480
▁सहारा	-5481
चार्ज	-5482
▁पवित्र	-5483
स्पी	-5484
▁अस्त	-5485
एडा	-5486
कीपर	-5487
▁सूर	-5488
▁बतौर	-5489
▁बम	-5490
स्कृतिक	-5491
▁कमाने	-5492
▁विष्णु	-5493
▁गौरव	-5494
▁प्रोफेसर	-5495
▁मेल	-5496
▁अनुप	-5497
वक	-5498
▁संस्करण	-5499
▁कुंडली	-5500
▁भेद	-5501
ord	-5502
▁गंभीरता	-5503
▁क्षेत्रीय	-5504
▁धूम	-5505
▁दिखे	-5506
▁त्रि	-5507
▁वक़	-5508
▁यात्री	-5509
पि	-5510
▁जनस	-5511
▁पार्टियों	-5512
ईओ	-5513
▁उद्य	-5514
▁आत्मा	-5515
▁उड़ा	-5516
▁शहरी	-5517
▁बुक	-5518
▁पेमेंट	-5519
▁अधिकारों	-5520
ost	-5521
▁क्वाल	-5522
▁कना	-5523
▁लीक	-5524
▁हेल्दी	-5525
▁समझौते	-5526
▁On	-5527
hone	-5528
▁लिखने	-5529
भाषा	-5530
▁शरण	-5531
▁सोनिया	-5532
िएट	-5533
▁शिल	-5534
▁लह	-5535
हाबाद	-5536
क्चर	-5537
▁पैट	-5538
▁लिखित	-5539
▁उत्साह	-5540
▁तत्वों	-5541
▁खेलते	-5542
▁हर्ष	-5543
▁तुम्हारी	-5544
▁विचारधारा	-5545
▁दिखने	-5546
▁मिथुन	-5547
▁झूठ	-5548
▁आहार	-5549
▁जमी	-5550
▁उद्घाटन	-5551
क्यू	-5552
11	-5553
▁स्ल	-5554
▁साझेदारी	-5555
र्फ़	-5556
ंगों	-5557
▁अनुश	-5558
▁संग्रह	-5559
▁जाल	-5560
▁समझौता	-5561
▁रिश्तों	-5562
▁डिटेल	-5563
टीएम	-5564
▁ओम	-5565
▁प्रोफ	-5566
▁ठे	-5567
▁आवाज़	-5568
▁तुलसी	-5569
स्ड	-5570
▁बढ़ी	-5571
म्भ	-5572
्मा	-5573
▁मास्क	-5574
▁शुद्ध	-5575
तालों	-5576
▁कामयाब	-5577
ड्र	-5578
▁to	-5579
▁सन्	-5580
▁पोषक	-5581
एसई	-5582
स्फोट	-5583
ॉक्स	-5584
▁कहान	-5585
▁रवाना	-5586
▁गार्ड	-5587
▁झटका	-5588
▁करोड़ों	-5589
गैर	-5590
▁3.	-5591
▁एग्जाम	-5592
▁पुराना	-5593
ेशर	-5594
▁व्यापारियों	-5595
▁टाइप	-5596
▁नेहरू	-5597
बरा	-5598
▁भेजे	-5599
▁मोटा	-5600
▁पुनर्	-5601
आत	-5602
लाइट	-5603
▁ग्रामीणों	-5604
माश	-5605
▁तार	-5606
▁यहीं	-5607
ख़	-5608
▁कप्तानी	-5609
आइ	-5610
▁अंदाज	-5611
▁अदा	-5612
▁उत्पी	-5613
▁टक्कर	-5614
▁दोस्ती	-5615
ँह	-5616
▁शहीद	-5617
▁बेंगलुरु	-5618
▁पाठ्यक्रम	-5619
कोट	-5620
▁धरती	-5621
▁हीरो	-5622
रुद्ध	-5623
▁योग्यता	-5624
▁मुआ	-5625
▁जड़	-5626
वाड़ा	-5627
▁ग्लो	-5628
▁हिट	-5629
▁अरुण	-5630
▁फ्ला	-5631
▁मणिपुर	-5632
▁भोज	-5633
▁चलती	-5634
▁चुने	-5635
िकता	-5636
▁कहाँ	-5637
▁ब्राह	-5638
च्छेद	-5639
▁नोएडा	-5640
▁अस्पतालों	-5641
िने	-5642
▁ऑप	-5643
▁सत्	-5644
▁ख़िला	-5645
▁दुश्म	-5646
▁सेवाएं	-5647
ric	-5648
कॉम	-5649
▁जाम	-5650
▁आदत	-5651
▁कोले	-5652
▁पापा	-5653
▁कार्तिक	-5654
▁निवेशकों	-5655
आरपी	-5656
▁श्रमिक	-5657
▁एकादशी	-5658
▁परन्तु	-5659
▁ऑक्सीजन	-5660
▁जॉब	-5661
▁सीनियर	-5662
▁नीर	-5663
▁आवंट	-5664
▁भंड	-5665
▁रिफ	-5666
▁मोड	-5667
▁वार्ता	-5668
▁आत्मविश्वास	-5669
▁कब्जा	-5670
▁स्टाफ	-5671
ोगे	-5672
▁एह	-5673
▁वर्ण	-5674
▁काउंस	-5675
▁विस्फोट	-5676
odiac	-5677
▁स्मृति	-5678
▁नाइट	-5679
▁सच्चाई	-5680
ind	-5681
▁करण	-5682
▁विद्यार्थियों	-5683
ive	-5684
▁नजदी	-5685
कश	-5686
▁वाता	-5687
इंडीज	-5688
▁बुद्धि	-5689
▁इकाई	-5690
▁मजदूरों	-5691
▁मारा	-5692
वह	-5693
ress	-5694
▁उपस्थिति	-5695
▁डीजल	-5696
ish	-5697
▁तल	-5698
▁55	-5699
ark	-5700
▁जोड़ने	-5701
▁अत्यधिक	-5702
▁हुईं	-5703
▁for	-5704
▁परंतु	-5705
ष्क	-5706
▁जूझ	-5707
▁मिलना	-5708
▁दब	-5709
▁2011	-5710
▁त्योहार	-5711
स्पति	-5712
चुनाव	-5713
र्वाद	-5714
▁फीचर	-5715
▁यूक	-5716
▁Ele	-5717
▁जिसमे	-5718
me	-5719
स्टार	-5720
ाइयों	-5721
▁भय	-5722
our	-5723
▁चालू	-5724
▁बचे	-5725
▁ईश्वर	-5726
▁इमरान	-5727
▁चोप	-5728
▁मारपीट	-5729
रात्रि	-5730
▁वातावरण	-5731
चय	-5732
ेश्वर	-5733
▁अंबानी	-5734
▁कैमरे	-5735
▁सकी	-5736
▁रखती	-5737
▁भेजने	-5738
ss	-5739
▁जर्म	-5740
▁कैश	-5741
▁नष्ट	-5742
▁इस्लाम	-5743
▁Pl	-5744
सारी	-5745
▁नये	-5746
▁जानिए	-5747
▁रूपये	-5748
यत	-5749
▁हल्दी	-5750
▁गहरी	-5751
▁Sh	-5752
▁कहे	-5753
▁बढ	-5754
ang	-5755
ॉड	-5756
ik	-5757
▁IP	-5758
▁वक़्त	-5759
▁प्रतियोगिता	-5760
फिक	-5761
▁देशभर	-5762
ामक	-5763
▁भड़	-5764
▁सैल	-5765
▁प्रसन्न	-5766
▁पराम	-5767
▁शेष	-5768
▁कनेक्ट	-5769
▁राजस्व	-5770
▁मृतक	-5771
▁अर्जुन	-5772
▁उल्लेखनीय	-5773
▁ख़िलाफ़	-5774
▁वस्तु	-5775
▁इंदिरा	-5776
ंबू	-5777
गीय	-5778
▁द्वार	-5779
▁सिम	-5780
लेस	-5781
▁गाना	-5782
▁उन्हीं	-5783
▁चलिए	-5784
प्पल	-5785
▁बढ़ाया	-5786
ana	-5787
ाराण	-5788
पल	-5789
▁पैन	-5790
▁गोरख	-5791
▁गणेशजी	-5792
▁सर्च	-5793
▁गोवा	-5794
▁प्रयासों	-5795
▁मुख्यालय	-5796
se	-5797
▁गायब	-5798
▁किमी	-5799
▁वेस्टइंडीज	-5800
▁विश्वसनीय	-5801
▁सहज	-5802
▁ज़रूरी	-5803
▁मछ	-5804
▁इसने	-5805
करार	-5806
▁दुष्	-5807
ाराणसी	-5808
▁करीबी	-5809
▁हस्ताक्षर	-5810
▁ढूंढ	-5811
▁रमेश	-5812
▁स्थायी	-5813
▁आकर्षक	-5814
▁निशान	-5815
▁मेर	-5816
▁बचें	-5817
मण	-5818
▁चक्कर	-5819
▁हवाला	-5820
▁दिलाने	-5821
▁मान्य	-5822
▁स्नान	-5823
▁हल्का	-5824
▁युग	-5825
▁निरंतर	-5826
▁युवती	-5827
िमंडल	-5828
▁नक्स	-5829
▁सांस्कृतिक	-5830
▁टीएमसी	-5831
ram	-5832
▁धाम	-5833
▁शिश	-5834
▁चुनौ	-5835
▁आशीर्वाद	-5836
▁कटौती	-5837
▁पैक	-5838
▁करवाया	-5839
▁फाइल	-5840
डब्ल्यू	-5841
तू	-5842
▁विजेता	-5843
▁39	-5844
▁छापे	-5845
▁शुभकाम	-5846
अर	-5847
संध	-5848
BI	-5849
▁भारती	-5850
▁बलों	-5851
▁चौक	-5852
पं	-5853
▁गोद	-5854
▁वाई	-5855
▁प्रतिबद्ध	-5856
▁उन्न	-5857
▁कैंड	-5858
▁व्यस्त	-5859
ack	-5860
▁PM	-5861
▁परामर्श	-5862
ारण	-5863
▁लापरवाही	-5864
▁जीएसटी	-5865
▁मिर्च	-5866
▁सावधानी	-5867
▁मेट्रो	-5868
अगर	-5869
▁समझते	-5870
कांत	-5871
नाल्ड	-5872
▁चोपड़ा	-5873
▁आपात	-5874
▁अनुसूचित	-5875
▁घाट	-5876
▁शिविर	-5877
▁प्राइम	-5878
रात	-5879
▁रोका	-5880
▁सत्या	-5881
▁खिल	-5882
▁ट्रांसफर	-5883
▁पहुँ	-5884
ितीय	-5885
िंक	-5886
▁जॉन	-5887
▁सांसदों	-5888
▁शुरु	-5889
▁विरुद्ध	-5890
▁आंस	-5891
ंगाना	-5892
▁ऑफ़	-5893
▁पुणे	-5894
▁सकेगा	-5895
▁हराया	-5896
▁सैनिकों	-5897
पुरा	-5898
▁इकट	-5899
▁सीर	-5900
▁शाखा	-5901
केज	-5902
▁44	-5903
▁इमार	-5904
▁स्टोरी	-5905
▁Ex	-5906
ाइनल	-5907
▁धारण	-5908
▁मलिक	-5909
▁तरीकों	-5910
▁उदय	-5911
पया	-5912
ांग	-5913
श्री	-5914
िक्	-5915
दिग्ध	-5916
फ्तार	-5917
▁खेत	-5918
▁किडनी	-5919
▁नामांकन	-5920
▁मेष	-5921
ायंस	-5922
▁कनेक्शन	-5923
▁राणा	-5924
▁हवाले	-5925
डीपी	-5926
▁समर्पित	-5927
▁कलाकार	-5928
▁पायलट	-5929
▁धूप	-5930
▁मकसद	-5931
▁ट्रैक	-5932
▁सिर्फ़	-5933
िसू	-5934
▁चिल	-5935
▁मीटिंग	-5936
▁संदिग्ध	-5937
▁India	-5938
▁प्रौद्योगिकी	-5939
ain	-5940
सीसीआई	-5941
▁निर्द	-5942
▁मद्	-5943
▁बचत	-5944
▁उपयोगी	-5945
li	-5946
ँकि	-5947
▁एकता	-5948
▁संसदीय	-5949
समाचार	-5950
▁मंत्रियों	-5951
line	-5952
▁साढ़े	-5953
▁मास्टर	-5954
▁आरएसएस	-5955
ेडकर	-5956
▁मोर्चा	-5957
र्टी	-5958
▁194	-5959
▁पीढ़ी	-5960
▁अर्धशत	-5961
▁मुहूर्त	-5962
लिख	-5963
▁UP	-5964
▁मुलायम	-5965
▁वाराणसी	-5966
▁प्रीमियम	-5967
गणना	-5968
▁धनु	-5969
▁अनुच्छेद	-5970
▁कुर	-5971
▁फर्क	-5972
▁प्रशांत	-5973
▁हार्ट	-5974
▁पाप	-5975
▁प्राधिकरण	-5976
▁पॉलिसी	-5977
▁इलाहाबाद	-5978
own	-5979
//	-5980
ial	-5981
▁सॉफ्टवेयर	-5982
अब	-5983
▁झेल	-5984
णु	-5985
ष्म	-5986
▁समन	-5987
ंत्रित	-5988
▁कंगना	-5989
▁दृश्य	-5990
und	-5991
जिये	-5992
-4	-5993
▁ट्रेनिंग	-5994
▁ओलंपिक	-5995
▁मायावती	-5996
द्दा	-5997
▁आईडी	-5998
▁सूरज	-5999
▁दस्तावेजों	-6000
▁बेंच	-6001
▁एडमिट	-6002
वाया	-6003
▁ख्याल	-6004
ंपरिक	-6005
्याम	-6006
▁डाटा	-6007
▁डिप्टी	-6008
▁कव	-6009
▁संदेह	-6010
क्ला	-6011
▁अगु	-6012
▁उत्पीड़न	-6013
GB	-6014
ब्दी	-6015
▁मतदाताओं	-6016
फार्म	-6017
▁अपलोड	-6018
▁विवेक	-6019
lic	-6020
सीआर	-6021
▁बृह	-6022
संधान	-6023
▁एक्सच	-6024
://	-6025
रियर	-6026
▁चंद	-6027
▁शर्त	-6028
▁मद्देन	-6029
तीत	-6030
▁शंकर	-6031
याम	-6032
मस	-6033
▁रियर	-6034
▁ड्राइवर	-6035
▁दंड	-6036
▁घे	-6037
▁दह	-6038
▁होली	-6039
▁नींबू	-6040
▁व्हाट्स	-6041
ear	-6042
▁मूर्ति	-6043
▁तेलंगाना	-6044
▁आवेद	-6045
मुख्य	-6046
▁कार्यक्रमों	-6047
दृ	-6048
ore	-6049
▁अपर	-6050
▁तंज	-6051
▁बनाये	-6052
र्नर	-6053
▁डीएम	-6054
▁उड़ान	-6055
▁सिंगल	-6056
▁प्रेशर	-6057
लक	-6058
▁सतर्क	-6059
▁सर्दी	-6060
18	-6061
डम	-6062
▁गव	-6063
▁चढ़ा	-6064
ांज	-6065
▁साधारण	-6066
▁ताला	-6067
▁आपदा	-6068
▁धु	-6069
▁पर्यटन	-6070
▁150	-6071
▁पड़ोसी	-6072
▁कानपुर	-6073
▁पढ	-6074
▁बाबू	-6075
▁ऑर्डर	-6076
▁गुट	-6077
गारी	-6078
▁पवन	-6079
▁यकीन	-6080
▁सब्जी	-6081
।।	-6082
चरण	-6083
▁st	-6084
▁समझना	-6085
▁स्पोर्ट्स	-6086
▁डेढ़	-6087
▁पोषण	-6088
▁लाइट	-6089
राज्य	-6090
▁मध्यप्रदेश	-6091
श्चा	-6092
▁अनुसंधान	-6093
▁फ्रांस	-6094
प्पी	-6095
▁कृपा	-6096
▁विंड	-6097
▁दिनेश	-6098
▁ट्रस्ट	-6099
▁ब्राह्मण	-6100
▁पॉप	-6101
▁गोपाल	-6102
▁पारंपरिक	-6103
▁पंचांग	-6104
▁ब्रिटिश	-6105
▁प्रिंट	-6106
▁आश्	-6107
खल	-6108
▁आईटी	-6109
▁अहमदाबाद	-6110
▁मुँह	-6111
▁पाना	-6112
्टन	-6113
▁वार्षिक	-6114
▁प्रतिनिधि	-6115
all	-6116
चुर	-6117
ड्स	-6118
्हे	-6119
▁चेयर	-6120
▁छिपा	-6121
▁जटिल	-6122
▁इंदौर	-6123
ma	-6124
▁गुल	-6125
▁पैनल	-6126
▁क्रिकेटर	-6127
ालों	-6128
▁खरीदा	-6129
▁मासिक	-6130
▁कैल	-6131
▁अडानी	-6132
▁पेशकश	-6133
▁कोरिया	-6134
▁फरार	-6135
राय	-6136
▁एडम	-6137
इल	-6138
▁इलेक्ट्रॉन	-6139
▁स्टैंड	-6140
▁मुआव	-6141
▁एकत्र	-6142
स्वरूप	-6143
▁कमांड	-6144
ev	-6145
▁पढ़े	-6146
▁प्रतिमा	-6147
▁खुरा	-6148
▁साफ़	-6149
टके	-6150
▁वोटों	-6151
▁करवाने	-6152
▁विषयों	-6153
पचारिक	-6154
ड़िया	-6155
▁ओटी	-6156
▁सागर	-6157
▁जाएंगी	-6158
▁सिक्	-6159
are	-6160
ber	-6161
▁कायम	-6162
▁टीकाकरण	-6163
60	-6164
अपने	-6165
▁कृपया	-6166
ड़प	-6167
दुर	-6168
▁आजाद	-6169
▁चलाया	-6170
▁सियासी	-6171
▁कलेक्टर	-6172
▁घी	-6173
▁उर्	-6174
स्वामी	-6175
▁हालाँकि	-6176
ोग्रा	-6177
▁इव	-6178
▁मेन	-6179
ुत्व	-6180
▁किस्मत	-6181
▁सीखने	-6182
▁घाटी	-6183
क्ताओं	-6184
▁बैंकिंग	-6185
णमूल	-6186
▁निकट	-6187
▁65	-6188
▁तट	-6189
▁पुष्	-6190
▁बताती	-6191
▁हैंडल	-6192
▁यूक्रेन	-6193
ंचित	-6194
▁घटनाएं	-6195
▁कर्क	-6196
▁साइड	-6197
▁कमर	-6198
आज	-6199
ame	-6200
ेयर	-6201
िडी	-6202
▁दुबे	-6203
▁रोशनी	-6204
ET	-6205
▁सैकड़ों	-6206
िपल	-6207
▁आयर	-6208
▁अधिव	-6209
▁उर्फ	-6210
▁प्रतिदिन	-6211
▁4.	-6212
▁गड़ब	-6213
▁सृ	-6214
ंकन	-6215
▁इंजीनियरिंग	-6216
ंतरिक	-6217
▁47	-6218
▁दही	-6219
▁हिम्मत	-6220
ल्लाह	-6221
▁कराए	-6222
▁गर्व	-6223
▁ट्रक	-6224
▁बनती	-6225
▁प्रशासनिक	-6226
▁डील	-6227
▁विज	-6228
▁जितने	-6229
▁किशन	-6230
▁निलंबित	-6231
▁दवाओं	-6232
▁खाम	-6233
▁सिस	-6234
▁हुये	-6235
▁नवीन	-6236
15	-6237
▁नागरिकता	-6238
▁झग	-6239
▁क्षति	-6240
आईए	-6241
▁डेब्यू	-6242
▁मुहैया	-6243
बैक	-6244
▁जापान	-6245
्राष्ट्रीय	-6246
क्षत्र	-6247
▁मरा	-6248
▁खेलों	-6249
▁हिंदुस्तान	-6250
▁हल्के	-6251
▁चाहिये	-6252
▁बोन	-6253
▁निरीक्षण	-6254
▁यूरिक	-6255
मह	-6256
ook	-6257
▁बिलकुल	-6258
▁Com	-6259
▁बैल	-6260
▁आर्य	-6261
▁महात्मा	-6262
रीबी	-6263
▁स्क्र	-6264
वास्तव	-6265
▁इक	-6266
फो	-6267
▁आरंभ	-6268
▁इनकम	-6269
▁लाभकारी	-6270
25	-6271
ah	-6272
िंदर	-6273
▁मात	-6274
▁शिंदे	-6275
▁सीन	-6276
▁अजीब	-6277
▁आमिर	-6278
▁तृणमूल	-6279
▁आखिरकार	-6280
▁स्टार्ट	-6281
▁अधिसू	-6282
▁पदार्थों	-6283
▁आपस	-6284
▁आईं	-6285
▁पलट	-6286
▁निंदा	-6287
,99	-6288
▁चिन	-6289
▁प्रकट	-6290
▁राजयोग	-6291
▁ज्व	-6292
▁बृहस्पति	-6293
▁फ़ोन	-6294
▁बढ़त	-6295
▁कैंप	-6296
▁उपचुनाव	-6297
▁बंट	-6298
▁आंध्र	-6299
सील	-6300
्रल	-6301
▁ठंड	-6302
ance	-6303
▁कनाडा	-6304
यूवी	-6305
▁दीदी	-6306
▁जुर्माना	-6307
▁शिखर	-6308
▁निर्यात	-6309
▁जीती	-6310
▁घेर	-6311
▁वाइ	-6312
▁वैभव	-6313
▁तेंद	-6314
▁रुचि	-6315
▁ख़बर	-6316
▁विविध	-6317
▁इन्हीं	-6318
▁न्यायिक	-6319
▁रिलायंस	-6320
▁समर्थक	-6321
▁आंतरिक	-6322
▁बदमाश	-6323
पाई	-6324
आईपी	-6325
▁ड्रेस	-6326
▁लिखते	-6327
80	-6328
▁नॉ	-6329
▁शहद	-6330
▁यो	-6331
डेंट	-6332
▁आश्वासन	-6333
▁शरद	-6334
▁शक	-6335
▁नैतिक	-6336
▁उपाध्यक्ष	-6337
▁मध्यम	-6338
▁निकाय	-6339
▁मनाने	-6340
▁ड्यूटी	-6341
▁उपयुक्त	-6342
▁चालक	-6343
▁अत्या	-6344
▁दिवाली	-6345
▁चोर	-6346
▁अन्दर	-6347
▁सोचने	-6348
▁195	-6349
ख्	-6350
▁बिल्ड	-6351
टिक	-6352
▁शुरूआत	-6353
▁सिख	-6354
▁कराना	-6355
▁प्रभु	-6356
▁सराहना	-6357
जाति	-6358
▁गढ़	-6359
▁सुविधाएं	-6360
▁टन	-6361
SE	-6362
तना	-6363
जिटिव	-6364
तियां	-6365
▁एंड्र	-6366
▁सांप्र	-6367
▁ठोस	-6368
ृत्य	-6369
▁सेल्	-6370
▁दुब	-6371
▁नाय	-6372
ारू	-6373
▁चोद	-6374
▁बुमराह	-6375
▁शिवराज	-6376
ॉइन	-6377
▁हस्तक्षेप	-6378
▁उक्त	-6379
▁साधा	-6380
मोहन	-6381
▁बुर	-6382
ग्रस्त	-6383
▁चरणों	-6384
▁पिट	-6385
वेल	-6386
▁चर्	-6387
▁शेर	-6388
▁मजाक	-6389
▁सर्क	-6390
▁प्लेइंग	-6391
साथी	-6392
ीदा	-6393
वायर	-6394
▁वोटर	-6395
▁सांप्रदायिक	-6396
▁2000	-6397
▁खिताब	-6398
▁43	-6399
▁मजे	-6400
▁मानस	-6401
ियस	-6402
▁व्यावसाय	-6403
बै	-6404
वाड़	-6405
▁स्वि	-6406
▁बैठकर	-6407
जिन	-6408
जत	-6409
ेय	-6410
▁घोटाले	-6411
unt	-6412
▁लॉग	-6413
▁बताना	-6414
धीन	-6415
ॉस	-6416
▁पाठक	-6417
▁व्यक्तित्व	-6418
▁अवि	-6419
्यांकन	-6420
▁आईसीसी	-6421
▁हज़ार	-6422
स्पर्	-6423
):	-6424
▁मच	-6425
▁शैली	-6426
▁समुद्र	-6427
▁शेख	-6428
▁2010	-6429
▁पकड़ा	-6430
▁एक्सचेंज	-6431
सैन	-6432
▁आँखों	-6433
जुए	-6434
▁रोटी	-6435
डीएम	-6436
▁क्षण	-6437
▁निकला	-6438
▁मद्देनजर	-6439
▁एहसास	-6440
▁सेल्स	-6441
▁नक्षत्र	-6442
▁रफ्तार	-6443
▁जूस	-6444
▁पब्लिक	-6445
काया	-6446
स्ट्रॉल	-6447
▁संतुलन	-6448
▁संसाधन	-6449
पालिका	-6450
▁खुलकर	-6451
▁सुरेश	-6452
▁46	-6453
▁आईए	-6454
▁अमीर	-6455
▁गड	-6456
▁गाइड	-6457
▁कर्मियों	-6458
▁धमा	-6459
पंच	-6460
▁64	-6461
▁सावधान	-6462
▁स्वभाव	-6463
22	-6464
पूत	-6465
आईसी	-6466
्यूरो	-6467
▁1000	-6468
▁बुद्ध	-6469
▁वें	-6470
▁कहकर	-6471
▁तुला	-6472
▁फाउंड	-6473
▁मनोरंजन	-6474
जागर	-6475
▁कामका	-6476
▁जताया	-6477
▁नाबाल	-6478
कारियों	-6479
▁किरण	-6480
▁बरकरार	-6481
▁समर्थकों	-6482
▁छेड़	-6483
▁नयी	-6484
▁सिद्धांत	-6485
ब्बत	-6486
फाइनल	-6487
जपे	-6488
्रीट	-6489
सीन	-6490
▁पसंदीदा	-6491
ूहिक	-6492
▁रिव	-6493
▁ओड	-6494
िज्म	-6495
▁पोस्टर	-6496
ise	-6497
▁पाय	-6498
▁तालि	-6499
▁छुटकारा	-6500
▁2009	-6501
▁अनुरूप	-6502
▁लक	-6503
▁यूनियन	-6504
▁बीसीसीआई	-6505
▁डिज़	-6506
▁चिट	-6507
▁अज्ञ	-6508
▁असफल	-6509
ौली	-6510
▁पाती	-6511
ग्रा	-6512
▁सर्वेक्षण	-6513
्यर	-6514
▁पत्रकारिता	-6515
▁नरे	-6516
ह्न	-6517
▁प्रीमियर	-6518
आरसी	-6519
ेक्टर	-6520
▁बेस	-6521
▁एजेंसियों	-6522
धित	-6523
▁कच	-6524
▁पैकेज	-6525
बरी	-6526
तांत्रिक	-6527
▁नारियल	-6528
चुअल	-6529
▁इत्या	-6530
सवाल	-6531
लोत	-6532
▁घुट	-6533
▁दीपिका	-6534
▁टेक्नोलॉजी	-6535
बंद	-6536
ans	-6537
▁श्रद्धाल	-6538
▁साई	-6539
▁कोर	-6540
ैश	-6541
▁अर्धशतक	-6542
▁अत	-6543
▁चुदाई	-6544
िशियल	-6545
▁दुर्गा	-6546
▁बैग	-6547
▁चार्ट	-6548
यु	-6549
▁फेल	-6550
▁मिड	-6551
▁देनी	-6552
▁माध	-6553
▁मानें	-6554
▁जिसको	-6555
▁कोलेस्ट्रॉल	-6556
कन	-6557
ुलकर	-6558
▁यूरोप	-6559
▁htt	-6560
रसा	-6561
▁आयात	-6562
ंधा	-6563
▁बल्लेबाजों	-6564
ंगिक	-6565
डेजा	-6566
▁दायरे	-6567
▁वस्तुओं	-6568
▁औष	-6569
▁प्लस	-6570
▁प्रतिस्पर्	-6571
▁नाथ	-6572
▁2008	-6573
▁स्थाना	-6574
ile	-6575
मुख्यमंत्री	-6576
बेट	-6577
▁पहना	-6578
▁स्वर्ण	-6579
वाज	-6580
▁उपकरणों	-6581
▁सम्बन्ध	-6582
▁जेट	-6583
▁मुठ	-6584
▁औद्योगिक	-6585
जैसे	-6586
▁400	-6587
▁चूस	-6588
▁सिंग	-6589
ायतों	-6590
▁माइक्रो	-6591
▁स्ट्राइक	-6592
न्त	-6593
▁संतु	-6594
नाश	-6595
▁फैक्ट	-6596
▁समूहों	-6597
ऊंगा	-6598
▁नर्स	-6599
▁जीवनसाथी	-6600
▁हॉस्प	-6601
▁प्रदर्शित	-6602
▁कोय	-6603
▁टीमें	-6604
▁निराशा	-6605
▁व्यावसायिक	-6606
▁रत्न	-6607
▁नाकाम	-6608
रू	-6609
▁नाबाद	-6610
▁देखता	-6611
▁चट	-6612
▁आयी	-6613
▁सामूहिक	-6614
पीय	-6615
ेंच	-6616
मैंने	-6617
वैधानिक	-6618
जुट	-6619
्यून	-6620
▁पिच	-6621
▁शुक्ला	-6622
साइड	-6623
▁अतिथि	-6624
▁प्लांट	-6625
▁अस्तित्व	-6626
▁राजपूत	-6627
ूद	-6628
▁मददगार	-6629
प्तान	-6630
▁प्रेमी	-6631
▁नाराजगी	-6632
क्टी	-6633
▁कॉम	-6634
▁सोनी	-6635
▁केंद्रों	-6636
▁गणना	-6637
▁मेहता	-6638
▁बर्बाद	-6639
▁संरचना	-6640
▁गहलोत	-6641
▁इत्यादि	-6642
गित	-6643
▁अत्यंत	-6644
▁चंडी	-6645
ेन्द्र	-6646
ok	-6647
▁बोझ	-6648
▁रॉयल	-6649
पै	-6650
जिया	-6651
▁परियोजनाओं	-6652
▁मोड़	-6653
▁अभिनय	-6654
▁डाले	-6655
▁नीतियों	-6656
▁उपयोगकर्ता	-6657
साम	-6658
▁संवैधानिक	-6659
▁इकट्ठा	-6660
वली	-6661
सला	-6662
▁डिली	-6663
▁गोरखपुर	-6664
▁पॉजिटिव	-6665
ass	-6666
▁आफ	-6667
▁उभर	-6668
▁अरे	-6669
▁गांड	-6670
कलन	-6671
▁बिगड़	-6672
्ठी	-6673
▁अभिव	-6674
▁एव	-6675
▁पौधे	-6676
ंसी	-6677
णियों	-6678
लेशन	-6679
▁सिलेंडर	-6680
▁जडेजा	-6681
चंद्र	-6682
▁लिहाज	-6683
gov	-6684
फ्ल	-6685
▁लिप	-6686
क्षणिक	-6687
▁तहसील	-6688
▁उच्चतम	-6689
▁52	-6690
▁BJP	-6691
▁प्रॉ	-6692
▁एकजुट	-6693
▁तोड़ने	-6694
▁संदीप	-6695
ार्टमेंट	-6696
▁विभागों	-6697
▁अवस्था	-6698
भूत	-6699
▁आज़ा	-6700
▁बनते	-6701
▁साड़ी	-6702
▁on	-6703
▁vs	-6704
▁ड्रग	-6705
▁पेशेवर	-6706
▁उत्स	-6707
चंद	-6708
▁जीने	-6709
▁उतारा	-6710
▁एसयूवी	-6711
▁साइन	-6712
▁इशारा	-6713
▁जिंदा	-6714
लिखित	-6715
▁उतनी	-6716
▁सेले	-6717
▁लिखकर	-6718
वाहा	-6719
▁पर्सनल	-6720
ोजित	-6721
▁मैनेजमेंट	-6722
▁जरा	-6723
बाई	-6724
▁लेटे	-6725
▁नाबालिग	-6726
भाविक	-6727
▁रायपुर	-6728
ूती	-6729
▁सौंपा	-6730
▁शोषण	-6731
▁Election	-6732
▁कीजिए	-6733
▁कुलदीप	-6734
▁वंचित	-6735
मेर	-6736
ुणा	-6737
▁उछ	-6738
▁गरीबी	-6739
▁अभाव	-6740
▁विनोद	-6741
लिक	-6742
▁कॉपी	-6743
▁मानने	-6744
▁तीर्थ	-6745
▁वैदिक	-6746
▁गर्भ	-6747
▁भूप	-6748
▁पहनने	-6749
▁प्राय	-6750
▁कॉर	-6751
▁निर्देशक	-6752
बली	-6753
▁जिलाधिकारी	-6754
▁ढेर	-6755
▁चलेगा	-6756
▁फास्ट	-6757
▁ग्रो	-6758
▁मूल्यांकन	-6759
्तर	-6760
▁खन्ना	-6761
▁जयंती	-6762
ल्ले	-6763
▁परम	-6764
▁शौच	-6765
▁हमलों	-6766
▁49	-6767
▁ज़रूर	-6768
▁बढ़िया	-6769
▁अंतर्राष्ट्रीय	-6770
▁चरित्र	-6771
▁सोचते	-6772
▁लल	-6773
▁हमे	-6774
▁विद्या	-6775
▁विद्यार्थी	-6776
▁हॉट	-6777
▁नोटिफिकेशन	-6778
शक्ति	-6779
▁हुसैन	-6780
पीएस	-6781
▁वैध	-6782
तिष्क	-6783
▁जोड़े	-6784
▁AI	-6785
▁पच	-6786
load	-6787
▁उद्यम	-6788
मानी	-6789
▁आधे	-6790
▁गरीबों	-6791
फ्रेंड	-6792
▁सहमत	-6793
▁सुशांत	-6794
▁पठ	-6795
▁पित	-6796
▁असिस्ट	-6797
▁अटल	-6798
▁खाल	-6799
▁सेमीफाइनल	-6800
▁दस्त	-6801
पाठी	-6802
▁सदा	-6803
▁दरवाजे	-6804
▁ब्यूरो	-6805
▁डोनाल्ड	-6806
▁Rec	-6807
▁अय्यर	-6808
▁डेविड	-6809
▁पोस्टम	-6810
भि	-6811
▁संपन्न	-6812
▁शेड	-6813
पता	-6814
ोदय	-6815
▁अंधे	-6816
▁41	-6817
्युन	-6818
▁हंगामा	-6819
ॉयड	-6820
मूर्ति	-6821
▁मुज	-6822
▁नीला	-6823
▁लायक	-6824
▁हिंदुओं	-6825
:-	-6826
घ्र	-6827
वाहिक	-6828
▁आचार्य	-6829
▁टेबल	-6830
▁श्रीवास्तव	-6831
▁हाइड	-6832
ष्णा	-6833
▁गेह	-6834
▁आरती	-6835
▁कड़ा	-6836
-0	-6837
▁इजरायल	-6838
▁यूएस	-6839
▁जीतकर	-6840
▁मार्केटिंग	-6841
▁चंद्रमा	-6842
▁विड	-6843
दून	-6844
्तार	-6845
▁स्ट्रीम	-6846
▁तस्वीरों	-6847
▁मांगा	-6848
ॉर	-6849
मेज	-6850
▁मल्टी	-6851
▁रेड्डी	-6852
कालिक	-6853
▁त्याग	-6854
मै	-6855
▁उज्ज	-6856
▁चौके	-6857
▁रच	-6858
▁किन्तु	-6859
ax	-6860
▁महत्त्व	-6861
जपेयी	-6862
▁ख़ास	-6863
इंड	-6864
▁भौतिक	-6865
▁मजबूती	-6866
▁बौद्ध	-6867
▁ब्लू	-6868
▁डेस्क	-6869
▁सलाहकार	-6870
▁पहुंचाया	-6871
▁भागीदारी	-6872
▁बेरोजगारी	-6873
▁En	-6874
▁मिश्रण	-6875
▁गेंदबाजों	-6876
▁बीत	-6877
▁धवन	-6878
▁खेलना	-6879
▁दरवाजा	-6880
▁प्रतिष्ठा	-6881
ोगी	-6882
▁वेट	-6883
टेक	-6884
जाने	-6885
▁मज़ा	-6886
▁मारुति	-6887
पटॉप	-6888
शिंग	-6889
▁हॉल	-6890
anc	-6891
▁वोटिंग	-6892
▁बेड	-6893
▁भेदभाव	-6894
भुत	-6895
▁इंफ	-6896
▁फंस	-6897
क्ले	-6898
▁क्रिया	-6899
▁चिकित्सक	-6900
▁दुर्भाग्य	-6901
ंची	-6902
मार्ग	-6903
▁वास	-6904
रस	-6905
ash	-6906
▁आँख	-6907
▁शैक्षणिक	-6908
▁नफर	-6909
▁गठित	-6910
कप्तान	-6911
रीय	-6912
▁आध्या	-6913
झकर	-6914
▁पश्चा	-6915
▁मम्मी	-6916
्रु	-6917
स्तु	-6918
▁पीछा	-6919
▁संसार	-6920
▁थोड़े	-6921
▁डिज़ाइन	-6922
▁सूचित	-6923
▁राजकुमार	-6924
हरादून	-6925
त्तियों	-6926
▁तुम्हारा	-6927
▁मिठ	-6928
▁राजन	-6929
▁करेंगी	-6930
िरो	-6931
▁पैसों	-6932
▁ईवी	-6933
▁ठहराया	-6934
▁परीक्षाओं	-6935
▁चैंपियनशिप	-6936
▁जाग	-6937
▁प्राचीन	-6938
▁प्लास्टिक	-6939
▁कौर	-6940
▁रूट	-6941
▁इवेंट	-6942
▁गिन	-6943
▁सीता	-6944
यें	-6945
▁साथियों	-6946
▁सेंट्रल	-6947
हाद	-6948
▁लिवर	-6949
▁ओडिशा	-6950
▁विवादित	-6951
▁सिद्धार्थ	-6952
▁r	-6953
▁गहराई	-6954
▁केएल	-6955
▁तेरे	-6956
▁शिशु	-6957
्वेस्ट	-6958
▁प्रारंभिक	-6959
▁प्रोत्साहित	-6960
गमेंट	-6961
▁कठोर	-6962
▁रेप	-6963
▁साइबर	-6964
orm	-6965
▁पक्षों	-6966
▁स्थगित	-6967
▁चार्जिंग	-6968
लोनी	-6969
लील	-6970
ure	-6971
▁गोप	-6972
▁देखिए	-6973
▁निष्कर्ष	-6974
चाप	-6975
▁टैब	-6976
▁एक्टिंग	-6977
ुसार	-6978
▁बिटक	-6979
ey	-6980
▁कहें	-6981
▁सर्ट	-6982
▁सेकंड	-6983
पंथी	-6984
प्पा	-6985
माही	-6986
▁उठाते	-6987
▁विकल्पों	-6988
म्स	-6989
▁आध्यात्म	-6990
▁जागरूकता	-6991
ry	-6992
▁एथ	-6993
▁गर्भव	-6994
▁स्वाभाविक	-6995
▁हिल	-6996
▁अलर्ट	-6997
▁मार्क	-6998
▁चंडीगढ़	-6999
▁स्थानांतर	-7000
समय	-7001
▁काबू	-7002
▁शत्र	-7003
▁घात	-7004
कर्षण	-7005
▁सीबी	-7006
▁कामों	-7007
▁एनर्जी	-7008
सुन	-7009
▁अपराधी	-7010
नाल	-7011
▁बोनस	-7012
▁सर्जरी	-7013
▁रवी	-7014
ug	-7015
▁कुशल	-7016
▁नाटक	-7017
सीम	-7018
▁कॉमे	-7019
▁कमीशन	-7020
▁कारों	-7021
▁भावनात्मक	-7022
वंत	-7023
▁कैसीनो	-7024
▁आलू	-7025
▁डेवल	-7026
्वान	-7027
▁साक्षा	-7028
▁उजागर	-7029
▁प्रोसेस	-7030
ड़ताल	-7031
▁वरुण	-7032
▁क्रिस	-7033
ैर्य	-7034
▁टर्म	-7035
बस	-7036
ोम	-7037
▁अनाज	-7038
▁मैनेजर	-7039
16	-7040
ूली	-7041
▁डूब	-7042
स्टेबल	-7043
ष्कार	-7044
▁दशकों	-7045
र्मेंद्र	-7046
▁जोन	-7047
▁हमसे	-7048
▁ओबीसी	-7049
▁प्याज	-7050
प्लाई	-7051
▁जब्त	-7052
▁जहा	-7053
▁बनाती	-7054
▁सना	-7055
▁मानक	-7056
▁सीपी	-7057
▁संस्थाओं	-7058
भूषण	-7059
▁pro	-7060
▁दिखता	-7061
माणु	-7062
▁प्रोसे	-7063
▁प्रस्तावित	-7064
▁अरो	-7065
24	-7066
▁छत	-7067
▁बरसा	-7068
▁होंठ	-7069
▁महीना	-7070
▁बिटकॉइन	-7071
▁शुभकामनाएं	-7072
▁निधि	-7073
क्रामक	-7074
▁नतीजा	-7075
▁शासित	-7076
▁ऋषभ	-7077
▁वाम	-7078
.)	-7079
AI	-7080
▁रिए	-7081
▁कब्जे	-7082
▁फु	-7083
▁छोड़ा	-7084
▁निराश	-7085
▁विशेषता	-7086
▁हैंडसेट	-7087
▁अपराधियों	-7088
स्को	-7089
▁नाक	-7090
▁सिद्धू	-7091
▁इजाजत	-7092
▁आपसी	-7093
▁अभिव्य	-7094
▁साइकिल	-7095
राष्ट्र	-7096
▁रेटिंग	-7097
▁लैपटॉप	-7098
▁छापेमारी	-7099
विधि	-7100
▁ससुर	-7101
▁1.5	-7102
िमांड	-7103
▁उद्धव	-7104
▁बताता	-7105
▁बढ़ाकर	-7106
▁कर्त	-7107
▁ज़ोर	-7108
ata	-7109
व्या	-7110
▁चैट	-7111
▁पहने	-7112
▁5.	-7113
प्ताहिक	-7114
▁गर्भवती	-7115
▁आधी	-7116
ड़ियां	-7117
ारक	-7118
▁मॉड	-7119
इए	-7120
▁मेघ	-7121
ary	-7122
फना	-7123
▁बादल	-7124
▁धैर्य	-7125
▁अज्ञात	-7126
▁धर्मेंद्र	-7127
▁मंग	-7128
▁ग्लोबल	-7129
▁बुकिंग	-7130
▁जीवित	-7131
▁निभाई	-7132
▁उन्होने	-7133
▁त्रिपाठी	-7134
▁काफ़ी	-7135
▁परिचय	-7136
▁देहरादून	-7137
▁अन्त	-7138
▁शेयरों	-7139
▁सुर्खियों	-7140
बों	-7141
▁निर्मित	-7142
uk	-7143
hats	-7144
▁डिस	-7145
▁कॉन्ट	-7146
▁बाजारों	-7147
▁:-	-7148
▁रैं	-7149
काउंट	-7150
फ्टी	-7151
▁ठंडा	-7152
▁भक्ति	-7153
▁संतान	-7154
▁ट्रेंड	-7155
धिकारियों	-7156
ef	-7157
▁टोक	-7158
▁120	-7159
▁छीन	-7160
▁मस्तिष्क	-7161
श्चिक	-7162
▁अश्विन	-7163
▁बैठने	-7164
▁श्रद्धा	-7165
▁खर	-7166
▁हॉस्पिटल	-7167
▁मंड	-7168
▁अंतरिक्ष	-7169
▁सीसीटीवी	-7170
▁हिम	-7171
▁ट्रेलर	-7172
स्पेक्टर	-7173
रिस	-7174
▁परिप	-7175
▁युक्त	-7176
▁जाएँ	-7177
▁एंकर	-7178
▁परमाणु	-7179
▁डिलीवरी	-7180
सीए	-7181
▁भैया	-7182
▁गवाह	-7183
वाधिकार	-7184
▁Al	-7185
▁तन	-7186
▁तेरी	-7187
बिन	-7188
▁लोकतांत्रिक	-7189
▁अद्	-7190
▁चैल	-7191
▁भ्रम	-7192
प्लीकेशन	-7193
▁चेयरमैन	-7194
▁रचनात्मक	-7195
ानिक	-7196
▁लिंग	-7197
▁गुस्से	-7198
▁जायेंगे	-7199
▁राउंड	-7200
▁औपचारिक	-7201
▁पारदर्	-7202
▁Ka	-7203
▁सदस्यता	-7204
▁अधिसूचना	-7205
▁हरे	-7206
संख्या	-7207
▁जरुरी	-7208
िवे	-7209
▁Te	-7210
शुल्क	-7211
▁रूसी	-7212
▁बेश	-7213
▁इच्छुक	-7214
▁प्रारूप	-7215
▁उपभोक्ता	-7216
आईएम	-7217
एप	-7218
▁फेस	-7219
▁उत्सव	-7220
▁तालिबान	-7221
जिस	-7222
▁कोत	-7223
ebs	-7224
▁अधीन	-7225
▁चाहें	-7226
▁बुखार	-7227
ब्स	-7228
▁आलिया	-7229
▁दिव्या	-7230
द्रोह	-7231
▁जाप	-7232
▁नफरत	-7233
▁तेंदुलकर	-7234
▁कार्यकारी	-7235
'।	-7236
ंगन	-7237
फ्यू	-7238
▁ऋषि	-7239
▁वसू	-7240
▁वृश्चिक	-7241
ove	-7242
▁नशे	-7243
▁सीईओ	-7244
▁उत्तरी	-7245
In	-7246
▁उपायों	-7247
कंप	-7248
▁अफवाह	-7249
▁पैटर्न	-7250
▁प्रशंसा	-7251
▁ट्रैफिक	-7252
न्नी	-7253
▁बैठी	-7254
▁होस्ट	-7255
झी	-7256
▁56	-7257
▁ढांचे	-7258
▁भोजपुरी	-7259
किट	-7260
वैसी	-7261
▁पीस	-7262
फिट	-7263
नम	-7264
हरण	-7265
-5	-7266
▁54	-7267
▁जोश	-7268
▁सूरत	-7269
▁जूनियर	-7270
IC	-7271
सीना	-7272
23	-7273
जीवन	-7274
▁हसन	-7275
▁भारतीयों	-7276
act	-7277
▁रहकर	-7278
▁आयकर	-7279
▁गुड़	-7280
्रेम	-7281
▁बीएस	-7282
सपेश	-7283
्यूशन	-7284
तरह	-7285
रिय	-7286
▁आस्था	-7287
▁घूमने	-7288
▁चो	-7289
▁इंडियंस	-7290
ँस	-7291
▁चूक	-7292
▁समुदायों	-7293
▁app	-7294
्ढ	-7295
मला	-7296
▁वस	-7297
ड्डी	-7298
▁नाश्	-7299
▁ग्रहों	-7300
खु	-7301
धड़ी	-7302
▁चांद	-7303
▁अर्थात	-7304
▁कुर्सी	-7305
▁सटीक	-7306
▁काटने	-7307
▁फिटनेस	-7308
▁लाए	-7309
▁अब्दु	-7310
▁वारदा	-7311
▁लौटने	-7312
▁मौजूदगी	-7313
▁साप्ताहिक	-7314
▁संस्थापक	-7315
▁स्टूडेंट्स	-7316
▁अंश	-7317
िविटी	-7318
▁संज्ञान	-7319
▁आमंत्रित	-7320
ोरम	-7321
▁खुली	-7322
▁बचना	-7323
शिक	-7324
▁एपिस	-7325
▁तुमने	-7326
▁नोटबंदी	-7327
▁अल्पसंख्यक	-7328
▁सऊ	-7329
▁बाई	-7330
▁सिलसिले	-7331
व्र	-7332
लाना	-7333
▁पहलू	-7334
▁गिरने	-7335
िथ	-7336
▁मुर	-7337
▁प्राण	-7338
▁बिस्तर	-7339
▁हल्की	-7340
▁दलितों	-7341
▁शक्तिशाली	-7342
▁चौंका	-7343
▁कुश	-7344
्योरिटी	-7345
▁बॉर्डर	-7346
▁मानवाधिकार	-7347
अंदा	-7348
ID	-7349
▁शॉर्ट	-7350
थल	-7351
▁थकान	-7352
न्यू	-7353
▁एप्लीकेशन	-7354
ैत	-7355
▁मांसपेश	-7356
▁डिस्काउंट	-7357
दिल	-7358
▁जौ	-7359
▁जश्न	-7360
▁दत्त	-7361
▁पासवर्ड	-7362
▁आतंकवादियों	-7363
▁समस्त	-7364
▁अद्भुत	-7365
▁जनपद	-7366
ोश	-7367
▁कच्चे	-7368
▁दुनियाभर	-7369
गें	-7370
फ्तर	-7371
▁काग	-7372
▁चपेट	-7373
▁फैलाने	-7374
▁चौकी	-7375
▁शुक्ल	-7376
मिली	-7377
वानिव	-7378
▁मेले	-7379
▁उठाना	-7380
▁संजीव	-7381
▁सालाना	-7382
▁(3	-7383
वायु	-7384
la	-7385
ue	-7386
ण्य	-7387
त्तर	-7388
▁लेनदेन	-7389
ोज़	-7390
▁बेव	-7391
▁यूं	-7392
▁अंसारी	-7393
▁आह्वान	-7394
बड़े	-7395
▁पाइ	-7396
▁वैसा	-7397
▁दिलीप	-7398
▁एपिसोड	-7399
17	-7400
▁बिन	-7401
▁दीजिए	-7402
▁जाँच	-7403
▁Card	-7404
▁दुकानों	-7405
▁काशी	-7406
▁मायने	-7407
मेन	-7408
▁(20	-7409
▁ख़ुद	-7410
▁ट्रेनों	-7411
ach	-7412
कांग	-7413
▁गीता	-7414
▁करूंगा	-7415
▁कलाकारों	-7416
▁ch	-7417
ड्डे	-7418
▁भव्य	-7419
▁नरेन्द्र	-7420
▁अटैक	-7421
▁क़ान	-7422
▁गंवा	-7423
▁दर्जा	-7424
▁चिल्ला	-7425
धनों	-7426
▁मेहमान	-7427
्की	-7428
▁प्रतिरोध	-7429
विश	-7430
▁लड़का	-7431
▁गेहूं	-7432
▁जेडी	-7433
▁ओवैसी	-7434
▁खाद	-7435
count	-7436
िडेट	-7437
ियमित	-7438
▁पत्रिका	-7439
▁फिज	-7440
राउंड	-7441
▁शक्त	-7442
▁लंबित	-7443
शेखर	-7444
▁फांसी	-7445
▁पड़ेगी	-7446
▁शमी	-7447
म्मा	-7448
▁प्रत्यक्ष	-7449
▁पत्ते	-7450
डू	-7451
प्ट	-7452
▁फट	-7453
कृष्ट	-7454
▁मेडल	-7455
▁दफ्तर	-7456
▁कामकाज	-7457
▁जायेगी	-7458
▁पंक	-7459
▁बहादुर	-7460
टू	-7461
▁स्त	-7462
▁शीघ्र	-7463
▁निवास	-7464
▁शास्त्री	-7465
भूति	-7466
▁कसा	-7467
▁अमरी	-7468
क्ष्य	-7469
▁खोला	-7470
▁ष	-7471
जि	-7472
▁राखी	-7473
▁चांदी	-7474
क्सीडेंट	-7475
भाजपा	-7476
▁उमर	-7477
▁अमा	-7478
▁गुलाब	-7479
▁मुखिया	-7480
लत	-7481
ईडी	-7482
▁कृष्णा	-7483
िस्ट्रेट	-7484
▁लेट	-7485
▁शुभमन	-7486
▁केश	-7487
▁टैग	-7488
दिष्ट	-7489
▁आंत	-7490
▁खनन	-7491
▁हेम	-7492
▁घटा	-7493
▁प्रमोशन	-7494
▁प्रवृत्ति	-7495
14	-7496
ath	-7497
छाड़	-7498
▁महेंद्र	-7499
▁मुठभ	-7500
वालों	-7501
▁दुबई	-7502
▁मेजब	-7503
▁उपलब्धि	-7504
▁कलेक्शन	-7505
क्व	-7506
खाने	-7507
▁स्टे	-7508
ड़की	-7509
ST	-7510
रेली	-7511
▁खातों	-7512
▁यूरोपीय	-7513
▁आशीष	-7514
▁चाचा	-7515
ownload	-7516
▁कोचिंग	-7517
▁रिटायर	-7518
▁गतिविधि	-7519
▁सशक्त	-7520
▁आसमान	-7521
▁चैलेंज	-7522
▁जनसंख्या	-7523
▁अधि	-7524
▁साहस	-7525
▁सेगमेंट	-7526
ust	-7527
▁महेश	-7528
▁फील्ड	-7529
▁रिक्त	-7530
ोर्	-7531
▁डिफ	-7532
▁जद	-7533
▁फैट	-7534
▁लैंड	-7535
▁मांगने	-7536
SS	-7537
परी	-7538
राने	-7539
ौज	-7540
▁बनेगा	-7541
▁सैलरी	-7542
▁दादा	-7543
▁अंकों	-7544
डीएफ	-7545
▁बहर	-7546
▁मान्यताओं	-7547
ोकस	-7548
▁चुनौतियों	-7549
▁प्रयाग	-7550
▁पैं	-7551
▁सत्तार	-7552
▁कार्यक्षेत्र	-7553
▁हेयर	-7554
डो	-7555
विदा	-7556
▁स्पीकर	-7557
फेक्ट	-7558
▁तकली	-7559
र्चे	-7560
▁कैद	-7561
▁बाह	-7562
▁53	-7563
▁जुट	-7564
▁बाला	-7565
▁जर्मनी	-7566
▁इलेवन	-7567
ऑफ	-7568
यो	-7569
्यौ	-7570
ee	-7571
▁घबरा	-7572
▁हितों	-7573
श्मी	-7574
▁पुज	-7575
▁ओटीटी	-7576
▁बृ	-7577
▁नक्सल	-7578
▁संबोधन	-7579
फ़ा	-7580
▁स्वर	-7581
:30	-7582
▁सेन	-7583
▁हार्म	-7584
▁धोखाधड़ी	-7585
▁नहा	-7586
▁गर्ल	-7587
ree	-7588
लोक	-7589
ूढ़	-7590
टेन	-7591
aily	-7592
ंचाई	-7593
▁हिस्सेदारी	-7594
▁लेखन	-7595
ैली	-7596
▁सऊदी	-7597
▁उतरे	-7598
▁काउंसिल	-7599
लेकिन	-7600
wit	-7601
▁मोट	-7602
▁ज्ञा	-7603
▁वरना	-7604
▁खुराक	-7605
▁कारोबारी	-7606
▁	-7607
ा	-7608
क	-7609
े	-7610
र	-7611
न	-7612
्	-7613
स	-7614
ी	-7615
ि	-7616
ं	-7617
ह	-7618
म	-7619
त	-7620
ल	-7621
ो	-7622
प	-7623
य	-7624
व	-7625
द	-7626
ज	-7627
ब	-7628
ै	-7629
ग	-7630
ु	-7631
ट	-7632
ए	-7633
।	-7634
श	-7635
च	-7636
अ	-7637
ड	-7638
भ	-7639
आ	-7640
ू	-7641
इ	-7642
,	-7643
थ	-7644
ख	-7645
उ	-7646
ध	-7647
फ	-7648
औ	-7649
़	-7650
ई	-7651
.	-7652
ष	-7653
ण	-7654
0	-7655
-	-7656
2	-7657
छ	-7658
1	-7659
ौ	-7660
a	-7661
ॉ	-7662
e	-7663
'	-7664
i	-7665
ठ	-7666
घ	-7667
ओ	-7668
o	-7669
n	-7670
r	-7671
t	-7672
ढ	-7673
5	-7674
)	-7675
(	-7676
s	-7677
3	-7678
झ	-7679
ृ	-7680
4	-7681
9	-7682
ऐ	-7683
l	-7684
"	-7685
6	-7686
:	-7687
8	-7688
7	-7689
ँ	-7690
d	-7691
c	-7692
h	-7693
u	-7694
ऑ	-7695
m	-7696
p	-7697
?	-7698
S	-7699
A	-7700
g	-7701
C	-7702
P	-7703
y	-7704
I	-7705
ऊ	-7706
M	-7707
T	-7708
B	-7709
k	-7710
R	-7711
ञ	-7712
b	-7713
D	-7714
!	-7715
E	-7716
w	-7717
f	-7718
v	-7719
N	-7720
/	-7721
G	-7722
H	-7723
L	-7724
|	-7725
O	-7726
F	-7727
V	-7728
K	-7729
W	-7730
U	-7731
ः	-7732
J	-7733
x	-7734
%	-7735
j	-7736
;	-7737
ऋ	-7738
Y	-7739
